
// ADDED LINES START
constexpr char* processing_method = "stft";
constexpr double expected_duration = 1.0;
constexpr int sample_rate = 16000;
constexpr int window_size_samples = 512;
constexpr int window_stride_samples = 480;

const char* RESPONSES[] = {"eight", "four", "zero"};
unsigned short NUM_RESPONSES = 3;

// ADDED LINES END

alignas(8) const unsigned char model_tflite[] = {
0x20, 0x00, 0x00, 0x00, 0x54, 0x46, 0x4C, 0x33, 0x00, 0x00, 0x00, 0x00, 0x14, 0x00, 0x20, 0x00, 0x04, 0x00, 0x08, 0x00, 0x0C, 0x00, 0x10, 0x00, 0x14, 0x00, 0x00, 0x00, 0x18, 0x00, 0x1C, 0x00, 0x14, 0x00, 0x00, 0x00, 0x03, 0x00, 0x00, 0x00, 0x18, 0x00, 0x00, 0x00, 0x34, 0x00, 0x00, 0x00, 0x08, 0x01, 0x00, 0x00, 0x34, 0x00, 0x00, 0x00, 0xB0, 0x00, 0x00, 0x00, 0xA8, 0x00, 0x00, 0x00, 0x07, 0x00, 0x00, 0x00, 0x30, 0x38, 0x00, 0x00, 0xBC, 0x34, 0x00, 0x00, 0xB8, 0x33, 0x00, 0x00, 0x88, 0x14, 0x00, 0x00, 0x8C, 0x05, 0x00, 0x00, 0x8C, 0x02, 0x00, 0x00, 0x04, 0x02, 0x00, 0x00, 0x01, 0x00, 0x00, 0x00, 0xF8, 0x00, 0x00, 0x00, 0x1E, 0x00, 0x00, 0x00, 0x88, 0x3A, 0x00, 0x00, 0x84, 0x3A, 0x00, 0x00, 0xA8, 0x39, 0x00, 0x00, 0x7C, 0x3A, 0x00, 0x00, 0xB0, 0x36, 0x00, 0x00, 0xA0, 0x35, 0x00, 0x00, 0x70, 0x3A, 0x00, 0x00, 0x6C, 0x3A, 0x00, 0x00, 0xDC, 0x30, 0x00, 0x00, 0x90, 0x2F, 0x00, 0x00, 0x60, 0x3A, 0x00, 0x00, 0x5C, 0x3A, 0x00, 0x00, 0x64, 0x27, 0x00, 0x00, 0x98, 0x25, 0x00, 0x00, 0x50, 0x3A, 0x00, 0x00, 0x4C, 0x3A, 0x00, 0x00, 0xEC, 0x18, 0x00, 0x00, 0xFC, 0x16, 0x00, 0x00, 0x40, 0x3A, 0x00, 0x00, 0x3C, 0x3A, 0x00, 0x00, 0x38, 0x3A, 0x00, 0x00, 0x70, 0x06, 0x00, 0x00, 0xD0, 0x05, 0x00, 0x00, 0x2C, 0x3A, 0x00, 0x00, 0x18, 0x04, 0x00, 0x00, 0x78, 0x03, 0x00, 0x00, 0x20, 0x3A, 0x00, 0x00, 0x1C, 0x3A, 0x00, 0x00, 0x18, 0x3A, 0x00, 0x00, 0x3C, 0x00, 0x00, 0x00, 0x00, 0x00, 0x00, 0x00, 0x01, 0x00, 0x00, 0x00, 0x0C, 0x00, 0x00, 0x00, 0x08, 0x00, 0x0C, 0x00, 0x04, 0x00, 0x08, 0x00, 0x08, 0x00, 0x00, 0x00, 0x08, 0x00, 0x00, 0x00, 0x1D, 0x00, 0x00, 0x00, 0x13, 0x00, 0x00, 0x00, 0x6D, 0x69, 0x6E, 0x5F, 0x72, 0x75, 0x6E, 0x74, 0x69, 0x6D, 0x65, 0x5F, 0x76, 0x65, 0x72, 0x73, 0x69, 0x6F, 0x6E, 0x00, 0x06, 0xC7, 0xFF, 0xFF, 0x04, 0x00, 0x00, 0x00, 0x10, 0x00, 0x00, 0x00, 0x31, 0x2E, 0x31, 0x34, 0x2E, 0x30, 0x00, 0x00, 0x00, 0x00, 0x00, 0x00, 0x00, 0x00, 0x00, 0x00, 0x0F, 0x00, 0x00, 0x00, 0x4D, 0x4C, 0x49, 0x52, 0x20, 0x43, 0x6F, 0x6E, 0x76, 0x65, 0x72, 0x74, 0x65, 0x64, 0x2E, 0x00, 0x00, 0x00, 0x0E, 0x00, 0x18, 0x00, 0x04, 0x00, 0x08, 0x00, 0x0C, 0x00, 0x10, 0x00, 0x14, 0x00, 0x0E, 0x00, 0x00, 0x00, 0x14, 0x00, 0x00, 0x00, 0x84, 0x00, 0x00, 0x00, 0x88, 0x00, 0x00, 0x00, 0x8C, 0x00, 0x00, 0x00, 0xC4, 0x00, 0x00, 0x00, 0x1C, 0x00, 0x00, 0x00, 0x28, 0x39, 0x00, 0x00, 0xC4, 0x38, 0x00, 0x00, 0x18, 0x37, 0x00, 0x00, 0xD8, 0x35, 0x00, 0x00, 0xB4, 0x34, 0x00, 0x00, 0x88, 0x33, 0x00, 0x00, 0x84, 0x32, 0x00, 0x00, 0x00, 0x31, 0x00, 0x00, 0xB4, 0x2E, 0x00, 0x00, 0x78, 0x2D, 0x00, 0x00, 0x9C, 0x2C, 0x00, 0x00, 0xE8, 0x2A, 0x00, 0x00, 0xDC, 0x24, 0x00, 0x00, 0x80, 0x23, 0x00, 0x00, 0xA4, 0x22, 0x00, 0x00, 0xF0, 0x20, 0x00, 0x00, 0x40, 0x16, 0x00, 0x00, 0xBC, 0x14, 0x00, 0x00, 0xE4, 0x13, 0x00, 0x00, 0x24, 0x13, 0x00, 0x00, 0x34, 0x12, 0x00, 0x00, 0xE4, 0x04, 0x00, 0x00, 0x20, 0x04, 0x00, 0x00, 0x28, 0x03, 0x00, 0x00, 0x88, 0x02, 0x00, 0x00, 0xCC, 0x01, 0x00, 0x00, 0x14, 0x01, 0x00, 0x00, 0x8C, 0x00, 0x00, 0x00, 0x01, 0x00, 0x00, 0x00, 0x00, 0x00, 0x00, 0x00, 0x01, 0x00, 0x00, 0x00, 0x1B, 0x00, 0x00, 0x00, 0x0E, 0x00, 0x00, 0x00, 0x50, 0x36, 0x00, 0x00, 0xB8, 0x32, 0x00, 0x00, 0xB4, 0x31, 0x00, 0x00, 0xCC, 0x2C, 0x00, 0x00, 0xF4, 0x2B, 0x00, 0x00, 0xDC, 0x22, 0x00, 0x00, 0x04, 0x22, 0x00, 0x00, 0x20, 0x14, 0x00, 0x00, 0x4C, 0x13, 0x00, 0x00, 0x94, 0x12, 0x00, 0x00, 0x88, 0x03, 0x00, 0x00, 0x4C, 0x01, 0x00, 0x00, 0x88, 0x00, 0x00, 0x00, 0x10, 0x00, 0x00, 0x00, 0x04, 0x00, 0x00, 0x00, 0x6D, 0x61, 0x69, 0x6E, 0x00, 0x00, 0x00, 0x00, 0x96, 0xED, 0xFF, 0xFF, 0x06, 0x00, 0x00, 0x00, 0x10, 0x00, 0x00, 0x00, 0x04, 0x00, 0x00, 0x00, 0x01, 0x00, 0x00, 0x00, 0x1B, 0x00, 0x00, 0x00, 0x01, 0x00, 0x00, 0x00, 0x1A, 0x00, 0x00, 0x00, 0xF8, 0xC9, 0xFF, 0xFF, 0x06, 0x00, 0x00, 0x00, 0x00, 0x00, 0x00, 0x06, 0x02, 0x00, 0x00, 0x00, 0xE4, 0xC7, 0xFF, 0xFF, 0x14, 0x00, 0x00, 0x00, 0x1C, 0x00, 0x00, 0x00, 0x24, 0x00, 0x00, 0x00, 0x30, 0x00, 0x00, 0x00, 0x10, 0x00, 0x00, 0x00, 0x02, 0x00, 0x00, 0x00, 0x01, 0x00, 0x00, 0x00, 0x03, 0x00, 0x00, 0x00, 0x02, 0x00, 0x00, 0x00, 0xFF, 0xFF, 0xFF, 0xFF, 0x03, 0x00, 0x00, 0x00, 0x08, 0x00, 0x00, 0x00, 0x49, 0x64, 0x65, 0x6E, 0x74, 0x69, 0x74, 0x79, 0x00, 0x00, 0x00, 0x00, 0xC0, 0xC7, 0xFF, 0xFF, 0x0A, 0xCE, 0xFF, 0xFF, 0x00, 0x00, 0x00, 0x09, 0x05, 0x00, 0x00, 0x00, 0x1C, 0x00, 0x00, 0x00, 0x10, 0x00, 0x00, 0x00, 0x04, 0x00, 0x00, 0x00, 0xB6, 0xC8, 0xFF, 0xFF, 0x00, 0x00, 0x80, 0x3F, 0x01, 0x00, 0x00, 0x00, 0x1A, 0x00, 0x00, 0x00, 0x01, 0x00, 0x00, 0x00, 0x19, 0x00, 0x00, 0x00, 0x7C, 0xCA, 0xFF, 0xFF, 0x19, 0x00, 0x00, 0x00, 0x00, 0x00, 0x00, 0x19, 0x02, 0x00, 0x00, 0x00, 0x70, 0xCA, 0xFF, 0xFF, 0x00, 0x00, 0x00, 0x09, 0x14, 0x00, 0x00, 0x00, 0x1B, 0x00, 0x00, 0x00, 0x24, 0x00, 0x00, 0x00, 0x48, 0x00, 0x00, 0x00, 0x10, 0x00, 0x00, 0x00, 0x02, 0x00, 0x00, 0x00, 0x01, 0x00, 0x00, 0x00, 0x03, 0x00, 0x00, 0x00, 0x02, 0x00, 0x00, 0x00, 0xFF, 0xFF, 0xFF, 0xFF, 0x03, 0x00, 0x00, 0x00, 0x22, 0x00, 0x00, 0x00, 0x73, 0x65, 0x71, 0x75, 0x65, 0x6E, 0x74, 0x69, 0x61, 0x6C, 0x5F, 0x31, 0x2F, 0x71, 0x75, 0x61, 0x6E, 0x74, 0x5F, 0x64, 0x65, 0x6E, 0x73, 0x65, 0x5F, 0x33, 0x2F, 0x53, 0x6F, 0x66, 0x74, 0x6D, 0x61, 0x78, 0x00, 0x00, 0x6C, 0xC9, 0xFF, 0xFF, 0x08, 0x00, 0x00, 0x00, 0x0C, 0x00, 0x00, 0x00, 0x01, 0x00, 0x00, 0x00, 0x00, 0x00, 0x80, 0x3B, 0x01, 0x00, 0x00, 0x00, 0x80, 0xFF, 0xFF, 0xFF, 0xFF, 0xFF, 0xFF, 0xFF, 0x00, 0x00, 0x00, 0x00, 0xCA, 0xCE, 0xFF, 0xFF, 0x00, 0x00, 0x00, 0x08, 0x04, 0x00, 0x00, 0x00, 0x18, 0x00, 0x00, 0x00, 0x0C, 0x00, 0x00, 0x00, 0x04, 0x00, 0x00, 0x00, 0x9C, 0xC8, 0xFF, 0xFF, 0x01, 0x00, 0x00, 0x00, 0x19, 0x00, 0x00, 0x00, 0x03, 0x00, 0x00, 0x00, 0x16, 0x00, 0x00, 0x00, 0x17, 0x00, 0x00, 0x00, 0x18, 0x00, 0x00, 0x00, 0x24, 0xCB, 0xFF, 0xFF, 0x00, 0x00, 0x00, 0x09, 0x14, 0x00, 0x00, 0x00, 0x1A, 0x00, 0x00, 0x00, 0x24, 0x00, 0x00, 0x00, 0x6C, 0x00, 0x00, 0x00, 0x10, 0x00, 0x00, 0x00, 0x02, 0x00, 0x00, 0x00, 0x01, 0x00, 0x00, 0x00, 0x03, 0x00, 0x00, 0x00, 0x02, 0x00, 0x00, 0x00, 0xFF, 0xFF, 0xFF, 0xFF, 0x03, 0x00, 0x00, 0x00, 0x44, 0x00, 0x00, 0x00, 0x73, 0x65, 0x71, 0x75, 0x65, 0x6E, 0x74, 0x69, 0x61, 0x6C, 0x5F, 0x31, 0x2F, 0x71, 0x75, 0x61, 0x6E, 0x74, 0x5F, 0x64, 0x65, 0x6E, 0x73, 0x65, 0x5F, 0x33, 0x2F, 0x4D, 0x61, 0x74, 0x4D, 0x75, 0x6C, 0x3B, 0x73, 0x65, 0x71, 0x75, 0x65, 0x6E, 0x74, 0x69, 0x61, 0x6C, 0x5F, 0x31, 0x2F, 0x71, 0x75, 0x61, 0x6E, 0x74, 0x5F, 0x64, 0x65, 0x6E, 0x73, 0x65, 0x5F, 0x33, 0x2F, 0x42, 0x69, 0x61, 0x73, 0x41, 0x64, 0x64, 0x00, 0x00, 0x00, 0x00, 0x44, 0xCA, 0xFF, 0xFF, 0x08, 0x00, 0x00, 0x00, 0x0C, 0x00, 0x00, 0x00, 0x01, 0x00, 0x00, 0x00, 0xF0, 0x7A, 0x3D, 0x3E, 0x01, 0x00, 0x00, 0x00, 0xFF, 0xFF, 0xFF, 0xFF, 0xFF, 0xFF, 0xFF, 0xFF, 0x32, 0xCA, 0xFF, 0xFF, 0x04, 0x00, 0x00, 0x00, 0x0C, 0x00, 0x00, 0x00, 0xB3, 0x00, 0x00, 0x00, 0xA3, 0x00, 0x00, 0x00, 0x66, 0xFE, 0xFF, 0xFF, 0x2E, 0xCA, 0xFF, 0xFF, 0x00, 0x00, 0x00, 0x02, 0x10, 0x00, 0x00, 0x00, 0x19, 0x00, 0x00, 0x00, 0x10, 0x00, 0x00, 0x00, 0x4C, 0x00, 0x00, 0x00, 0x01, 0x00, 0x00, 0x00, 0x03, 0x00, 0x00, 0x00, 0x3A, 0x00, 0x00, 0x00, 0x73, 0x65, 0x71, 0x75, 0x65, 0x6E, 0x74, 0x69, 0x61, 0x6C, 0x5F, 0x31, 0x2F, 0x71, 0x75, 0x61, 0x6E, 0x74, 0x5F, 0x64, 0x65, 0x6E, 0x73, 0x65, 0x5F, 0x33, 0x2F, 0x42, 0x69, 0x61, 0x73, 0x41, 0x64, 0x64, 0x2F, 0x52, 0x65, 0x61, 0x64, 0x56, 0x61, 0x72, 0x69, 0x61, 0x62, 0x6C, 0x65, 0x4F, 0x70, 0x2F, 0x72, 0x65, 0x73, 0x6F, 0x75, 0x72, 0x63, 0x65, 0x00, 0x00, 0xDC, 0xCA, 0xFF, 0xFF, 0x08, 0x00, 0x00, 0x00, 0x0C, 0x00, 0x00, 0x00, 0x01, 0x00, 0x00, 0x00, 0xC5, 0x97, 0x89, 0x3A, 0x01, 0x00, 0x00, 0x00, 0x00, 0x00, 0x00, 0x00, 0x00, 0x00, 0x00, 0x00, 0x00, 0x00, 0x00, 0x00, 0xCE, 0xCA, 0xFF, 0xFF, 0x04, 0x00, 0x00, 0x00, 0x0C, 0x00, 0x00, 0x00, 0x8C, 0x7C, 0x7D, 0x3F, 0xED, 0x78, 0x7F, 0x47, 0x54, 0xBC, 0x99, 0x0E, 0xCA, 0xCA, 0xFF, 0xFF, 0x00, 0x00, 0x00, 0x09, 0x10, 0x00, 0x00, 0x00, 0x18, 0x00, 0x00, 0x00, 0x14, 0x00, 0x00, 0x00, 0x78, 0x00, 0x00, 0x00, 0x02, 0x00, 0x00, 0x00, 0x03, 0x00, 0x00, 0x00, 0x04, 0x00, 0x00, 0x00, 0x63, 0x00, 0x00, 0x00, 0x73, 0x65, 0x71, 0x75, 0x65, 0x6E, 0x74, 0x69, 0x61, 0x6C, 0x5F, 0x31, 0x2F, 0x71, 0x75, 0x61, 0x6E, 0x74, 0x5F, 0x64, 0x65, 0x6E, 0x73, 0x65, 0x5F, 0x33, 0x2F, 0x4D, 0x61, 0x74, 0x4D, 0x75, 0x6C, 0x3B, 0x73, 0x65, 0x71, 0x75, 0x65, 0x6E, 0x74, 0x69, 0x61, 0x6C, 0x5F, 0x31, 0x2F, 0x71, 0x75, 0x61, 0x6E, 0x74, 0x5F, 0x64, 0x65, 0x6E, 0x73, 0x65, 0x5F, 0x33, 0x2F, 0x4C, 0x61, 0x73, 0x74, 0x56, 0x61, 0x6C, 0x75, 0x65, 0x51, 0x75, 0x61, 0x6E, 0x74, 0x2F, 0x46, 0x61, 0x6B, 0x65, 0x51, 0x75, 0x61, 0x6E, 0x74, 0x57, 0x69, 0x74, 0x68, 0x4D, 0x69, 0x6E, 0x4D, 0x61, 0x78, 0x56, 0x61, 0x72, 0x73, 0x00, 0xA4, 0xCB, 0xFF, 0xFF, 0x08, 0x00, 0x00, 0x00, 0x0C, 0x00, 0x00, 0x00, 0x01, 0x00, 0x00, 0x00, 0x5E, 0xCA, 0xCA, 0x3B, 0x01, 0x00, 0x00, 0x00, 0x00, 0x00, 0x00, 0x00, 0x00, 0x00, 0x00, 0x00, 0x00, 0x00, 0x00, 0x00, 0x02, 0xD1, 0xFF, 0xFF, 0x00, 0x00, 0x00, 0x08, 0x04, 0x00, 0x00, 0x00, 0x18, 0x00, 0x00, 0x00, 0x0C, 0x00, 0x00, 0x00, 0x04, 0x00, 0x00, 0x00, 0xD4, 0xCA, 0xFF, 0xFF, 0x01, 0x00, 0x00, 0x00, 0x16, 0x00, 0x00, 0x00, 0x03, 0x00, 0x00, 0x00, 0x13, 0x00, 0x00, 0x00, 0x14, 0x00, 0x00, 0x00, 0x15, 0x00, 0x00, 0x00, 0x78, 0xCD, 0xFF, 0xFF, 0x09, 0x00, 0x00, 0x00, 0x00, 0x00, 0x00, 0x09, 0x04, 0x00, 0x00, 0x00, 0x6C, 0xCD, 0xFF, 0xFF, 0x00, 0x00, 0x00, 0x09, 0x14, 0x00, 0x00, 0x00, 0x17, 0x00, 0x00, 0x00, 0x24, 0x00, 0x00, 0x00, 0x6C, 0x00, 0x00, 0x00, 0x10, 0x00, 0x00, 0x00, 0x02, 0x00, 0x00, 0x00, 0x01, 0x00, 0x00, 0x00, 0x04, 0x00, 0x00, 0x00, 0x02, 0x00, 0x00, 0x00, 0xFF, 0xFF, 0xFF, 0xFF, 0x04, 0x00, 0x00, 0x00, 0x44, 0x00, 0x00, 0x00, 0x73, 0x65, 0x71, 0x75, 0x65, 0x6E, 0x74, 0x69, 0x61, 0x6C, 0x5F, 0x31, 0x2F, 0x71, 0x75, 0x61, 0x6E, 0x74, 0x5F, 0x64, 0x65, 0x6E, 0x73, 0x65, 0x5F, 0x32, 0x2F, 0x4D, 0x61, 0x74, 0x4D, 0x75, 0x6C, 0x3B, 0x73, 0x65, 0x71, 0x75, 0x65, 0x6E, 0x74, 0x69, 0x61, 0x6C, 0x5F, 0x31, 0x2F, 0x71, 0x75, 0x61, 0x6E, 0x74, 0x5F, 0x64, 0x65, 0x6E, 0x73, 0x65, 0x5F, 0x32, 0x2F, 0x42, 0x69, 0x61, 0x73, 0x41, 0x64, 0x64, 0x00, 0x00, 0x00, 0x00, 0x8C, 0xCC, 0xFF, 0xFF, 0x08, 0x00, 0x00, 0x00, 0x0C, 0x00, 0x00, 0x00, 0x01, 0x00, 0x00, 0x00, 0x04, 0xB2, 0x2D, 0x3E, 0x01, 0x00, 0x00, 0x00, 0xF9, 0xFF, 0xFF, 0xFF, 0xFF, 0xFF, 0xFF, 0xFF, 0x00, 0x00, 0x00, 0x00, 0x7E, 0xCC, 0xFF, 0xFF, 0x04, 0x00, 0x00, 0x00, 0x10, 0x00, 0x00, 0x00, 0xED, 0xFF, 0xFF, 0xFF, 0x0A, 0x00, 0x00, 0x00, 0x02, 0x00, 0x00, 0x00, 0x03, 0x00, 0x00, 0x00, 0x7E, 0xCC, 0xFF, 0xFF, 0x00, 0x00, 0x00, 0x02, 0x10, 0x00, 0x00, 0x00, 0x16, 0x00, 0x00, 0x00, 0x10, 0x00, 0x00, 0x00, 0x4C, 0x00, 0x00, 0x00, 0x01, 0x00, 0x00, 0x00, 0x04, 0x00, 0x00, 0x00, 0x3A, 0x00, 0x00, 0x00, 0x73, 0x65, 0x71, 0x75, 0x65, 0x6E, 0x74, 0x69, 0x61, 0x6C, 0x5F, 0x31, 0x2F, 0x71, 0x75, 0x61, 0x6E, 0x74, 0x5F, 0x64, 0x65, 0x6E, 0x73, 0x65, 0x5F, 0x32, 0x2F, 0x42, 0x69, 0x61, 0x73, 0x41, 0x64, 0x64, 0x2F, 0x52, 0x65, 0x61, 0x64, 0x56, 0x61, 0x72, 0x69, 0x61, 0x62, 0x6C, 0x65, 0x4F, 0x70, 0x2F, 0x72, 0x65, 0x73, 0x6F, 0x75, 0x72, 0x63, 0x65, 0x00, 0x00, 0x2C, 0xCD, 0xFF, 0xFF, 0x08, 0x00, 0x00, 0x00, 0x0C, 0x00, 0x00, 0x00, 0x01, 0x00, 0x00, 0x00, 0x09, 0x45, 0xC0, 0x3B, 0x01, 0x00, 0x00, 0x00, 0x00, 0x00, 0x00, 0x00, 0x00, 0x00, 0x00, 0x00, 0x1A, 0xCD, 0xFF, 0xFF, 0x04, 0x00, 0x00, 0x00, 0xC0, 0x0C, 0x00, 0x00, 0x00, 0x01, 0x00, 0x03, 0xEC, 0x00, 0xF8, 0x05, 0xF5, 0xED, 0x00, 0x0E, 0xFA, 0x03, 0x0F, 0x04, 0x03, 0x09, 0xF4, 0x08, 0x0E, 0xFB, 0xF6, 0x01, 0xEE, 0x14, 0x0F, 0xFC, 0xF1, 0x15, 0x0B, 0xF6, 0x0A, 0x01, 0x04, 0xF1, 0x05, 0xFD, 0x1A, 0x03, 0x13, 0xFA, 0xF5, 0x01, 0x0A, 0xFC, 0x00, 0x1A, 0xFD, 0xFE, 0xE2, 0xFD, 0x16, 0xFB, 0x00, 0x05, 0x07, 0xF9, 0xFF, 0x0D, 0x18, 0x09, 0x01, 0x0A, 0x01, 0xFA, 0xFC, 0x11, 0xEC, 0x15, 0xEB, 0x04, 0xF8, 0x06, 0xFA, 0xE4, 0x00, 0x07, 0xEA, 0xF8, 0x02, 0xF8, 0xEE, 0x10, 0xF0, 0xF9, 0xF0, 0xFD, 0xF1, 0x0C, 0x05, 0x01, 0xFF, 0xF9, 0x0B, 0x02, 0x07, 0x08, 0xED, 0x08, 0x11, 0xF4, 0xEB, 0xF9, 0xE8, 0xFE, 0x16, 0xF8, 0xF9, 0xE9, 0xE8, 0xF4, 0x08, 0x0D, 0x01, 0xE5, 0x0A, 0xFD, 0x06, 0xF7, 0xF5, 0xE9, 0xE8, 0x11, 0xEC, 0xF0, 0x00, 0xF6, 0xF4, 0x0D, 0xF6, 0xF3, 0xE9, 0x12, 0xF8, 0xEC, 0xEB, 0x05, 0x0B, 0x07, 0xF1, 0xEB, 0x0A, 0xFC, 0x12, 0xF1, 0xFD, 0x00, 0xF8, 0x19, 0x09, 0xED, 0x17, 0x05, 0x0D, 0x0B, 0x19, 0x06, 0xE3, 0xFD, 0xED, 0x14, 0x0A, 0x0E, 0x00, 0x07, 0xF0, 0xF6, 0xF9, 0xFB, 0x06, 0xF7, 0x1C, 0xFB, 0xFD, 0xF9, 0xFA, 0xFF, 0x0D, 0xFA, 0xEE, 0xF5, 0x16, 0x05, 0x0E, 0xEC, 0x0D, 0xF9, 0x07, 0xEE, 0xFA, 0xDE, 0xF3, 0x01, 0x12, 0x0C, 0x15, 0x05, 0x0A, 0x08, 0xED, 0x09, 0x05, 0x0F, 0x03, 0xF2, 0xF4, 0xFE, 0x14, 0x04, 0xFB, 0xFD, 0x10, 0x13, 0x1B, 0xEC, 0x1C, 0xF9, 0x02, 0x01, 0x12, 0x04, 0xF6, 0xE5, 0x01, 0x00, 0x10, 0xFA, 0x1A, 0x09, 0xF9, 0xF7, 0xF4, 0xE2, 0xE9, 0x12, 0xFA, 0xF5, 0x0B, 0xF7, 0xE7, 0x19, 0x12, 0xF3, 0xF2, 0x0C, 0x04, 0x0C, 0xF0, 0xF6, 0xEE, 0x15, 0x08, 0xFA, 0xF6, 0xF5, 0xF4, 0x1D, 0x0B, 0x17, 0x12, 0x01, 0x17, 0x03, 0x0D, 0x19, 0x1B, 0xEA, 0xF7, 0xFD, 0x1A, 0x13, 0xF4, 0x01, 0xFC, 0xF9, 0xF5, 0xF1, 0x00, 0x0A, 0x03, 0xFE, 0xFF, 0x0C, 0xF6, 0xF3, 0xFD, 0xEF, 0x05, 0xFB, 0x15, 0xF4, 0xF2, 0xF9, 0xF5, 0x01, 0x0A, 0xFB, 0xF9, 0x05, 0xFA, 0xF6, 0xF6, 0xF0, 0xF6, 0xF8, 0x09, 0xEB, 0x0E, 0xED, 0xE1, 0x07, 0x13, 0xEE, 0x08, 0xF6, 0x05, 0xFF, 0xFF, 0x1A, 0xF6, 0xF4, 0xFA, 0x01, 0x08, 0xF7, 0xCE, 0x0C, 0xF6, 0xF4, 0xEE, 0x0E, 0x10, 0xEE, 0xFE, 0x06, 0x04, 0x01, 0xEF, 0x1B, 0x08, 0x09, 0xE7, 0x02, 0x0B, 0xF9, 0xE9, 0x0B, 0x07, 0x06, 0xE8, 0xFD, 0xFD, 0x19, 0x09, 0x08, 0xEA, 0x07, 0x0A, 0x1A, 0xF4, 0x00, 0xF0, 0xFD, 0xED, 0x02, 0x05, 0xF2, 0x13, 0x0E, 0x15, 0xF5, 0x02, 0xEE, 0xFE, 0xFB, 0xE6, 0xF5, 0x08, 0x04, 0xFE, 0x13, 0xFE, 0x18, 0xF5, 0x16, 0x0A, 0xE8, 0x0E, 0xE9, 0xFB, 0x00, 0xE6, 0x06, 0x0D, 0x10, 0xFA, 0x07, 0xE6, 0xFC, 0x05, 0xE6, 0xE6, 0xF7, 0x08, 0x0E, 0x12, 0xE0, 0x0F, 0x05, 0xF4, 0x09, 0x02, 0x12, 0x09, 0xED, 0xF4, 0xFE, 0x0E, 0xEC, 0xE8, 0x14, 0x01, 0xF7, 0x0C, 0x10, 0x0B, 0xE6, 0x0A, 0x06, 0xE9, 0x0D, 0xE7, 0x0C, 0x0A, 0x0B, 0x06, 0xFA, 0x0E, 0xEF, 0x05, 0xF0, 0xEE, 0xED, 0x06, 0xE6, 0x07, 0x0C, 0x02, 0xE6, 0x12, 0xF1, 0xF6, 0x15, 0x20, 0x05, 0xED, 0xF1, 0x14, 0x04, 0x0A, 0xF9, 0xE6, 0xF6, 0x09, 0xBB, 0xF3, 0xF9, 0xF4, 0x13, 0x04, 0x03, 0xEC, 0x1A, 0x08, 0xF1, 0x00, 0xEF, 0x09, 0xFD, 0x01, 0xF7, 0x09, 0x13, 0x09, 0x18, 0x21, 0x0B, 0xF5, 0x0D, 0xFD, 0xF6, 0x11, 0x07, 0xEB, 0x0F, 0xF5, 0xEB, 0xF0, 0x17, 0xE8, 0x18, 0x39, 0x11, 0x08, 0x0F, 0xFA, 0xF0, 0x0C, 0x16, 0xEB, 0x07, 0xFB, 0xE7, 0xF8, 0x0A, 0x0C, 0x0D, 0x40, 0xE9, 0xFC, 0x0D, 0xEF, 0x04, 0xFC, 0x19, 0x13, 0x0C, 0xEC, 0x03, 0xF9, 0x07, 0xF2, 0x0D, 0xD6, 0xF8, 0x02, 0xFB, 0x00, 0xFC, 0x0B, 0xF2, 0x05, 0x16, 0x06, 0xFE, 0xF2, 0x00, 0xFF, 0xF8, 0x03, 0xFC, 0xFB, 0x0B, 0x11, 0xF8, 0x02, 0x05, 0x02, 0xFD, 0x08, 0xEE, 0xFB, 0xEF, 0xFE, 0xF2, 0xF4, 0xF7, 0x0B, 0xFA, 0xFB, 0x00, 0xFC, 0xF1, 0xEF, 0xE1, 0xF8, 0xE4, 0xE1, 0xFE, 0xF9, 0x0E, 0xD5, 0xFC, 0x1B, 0x13, 0x07, 0x0C, 0xFD, 0x0C, 0x08, 0xFB, 0xFF, 0xFC, 0xF1, 0x16, 0x1A, 0x1A, 0xDF, 0xFE, 0x01, 0xE5, 0x03, 0x0B, 0x19, 0xF5, 0xF1, 0xCC, 0xE9, 0x05, 0xF1, 0x08, 0x0E, 0xF5, 0xE2, 0x0B, 0xFA, 0xE8, 0xEE, 0xF6, 0xFF, 0xF6, 0xDE, 0xED, 0x09, 0xF3, 0xF0, 0x0A, 0x19, 0xE4, 0x12, 0x21, 0x04, 0x07, 0x10, 0xEE, 0x0E, 0xF8, 0xF7, 0x25, 0x01, 0x13, 0x07, 0xEE, 0x01, 0x0F, 0xFA, 0x15, 0x0A, 0x04, 0x05, 0xF7, 0xE1, 0x10, 0x02, 0x0A, 0x06, 0x11, 0x0C, 0xE8, 0xEB, 0x04, 0xFA, 0x0B, 0xFD, 0xE2, 0xF7, 0xEC, 0xFF, 0xFB, 0xFE, 0x3D, 0x1C, 0xFD, 0x06, 0x06, 0x05, 0xF1, 0xE3, 0x11, 0x01, 0x0E, 0xEE, 0xFE, 0xF8, 0x06, 0xF8, 0x1A, 0x0D, 0x23, 0xFE, 0x07, 0xFE, 0x00, 0xFC, 0xFB, 0xF6, 0xEF, 0x10, 0x0C, 0x0C, 0x02, 0xED, 0x6B, 0xFC, 0x0A, 0xFC, 0xFC, 0xFB, 0xEC, 0xF1, 0x11, 0xFB, 0x0D, 0x0A, 0x09, 0x01, 0x13, 0xDB, 0x7F, 0x04, 0x22, 0xFF, 0x0C, 0x13, 0xFB, 0x05, 0x19, 0x05, 0xFC, 0x07, 0x03, 0x0C, 0xFA, 0xFB, 0x0F, 0xF3, 0xF4, 0xF1, 0x0B, 0x13, 0x0B, 0x15, 0x1A, 0xF0, 0x0D, 0x11, 0xED, 0xFB, 0xF8, 0xFD, 0x65, 0x10, 0x15, 0xFC, 0x05, 0xEC, 0x03, 0x33, 0xE2, 0xFA, 0x11, 0x01, 0xED, 0xDB, 0xF3, 0x15, 0x3A, 0x15, 0xDC, 0x05, 0x13, 0x15, 0x09, 0x2D, 0x30, 0xFD, 0x02, 0xED, 0xFB, 0xEF, 0xEB, 0x06, 0x21, 0xEB, 0xDE, 0x1D, 0x0B, 0x14, 0xE8, 0x64, 0xF5, 0xE2, 0xFB, 0xF5, 0x14, 0xF2, 0xFC, 0x06, 0x33, 0x12, 0xEC, 0x00, 0xFA, 0x12, 0xF7, 0xBC, 0xF7, 0x0C, 0x0A, 0x01, 0xFB, 0xF9, 0x07, 0x15, 0xD2, 0x09, 0x00, 0xFF, 0x12, 0xED, 0x13, 0xF5, 0xFF, 0xF2, 0x16, 0xFA, 0xF0, 0xFA, 0x10, 0x02, 0xF3, 0xEB, 0xF7, 0x1B, 0xF5, 0xEC, 0x06, 0x0A, 0xFE, 0x0B, 0xFD, 0x03, 0x0C, 0xF5, 0xF7, 0xEF, 0x03, 0x0A, 0xF7, 0xF2, 0x11, 0x04, 0xFC, 0xF8, 0x0A, 0xF3, 0xF7, 0x00, 0x1A, 0x0D, 0x1C, 0x05, 0x17, 0x0A, 0xFD, 0x15, 0xF6, 0x09, 0x0A, 0xED, 0x0A, 0x06, 0xFC, 0xF2, 0x01, 0x1E, 0x0B, 0x03, 0x17, 0x16, 0xFB, 0x17, 0x00, 0xFD, 0x0F, 0x05, 0x03, 0x16, 0xEB, 0x00, 0xFB, 0xF9, 0xF8, 0xFB, 0x0C, 0xF2, 0x07, 0x14, 0x0F, 0xF9, 0x18, 0x0B, 0xFC, 0x00, 0x07, 0x00, 0xF9, 0xFF, 0x06, 0xF5, 0x0A, 0xEF, 0x01, 0x0F, 0xEF, 0xF2, 0x01, 0x09, 0x03, 0x11, 0x08, 0xF8, 0x05, 0x01, 0xEF, 0xFF, 0xE3, 0xF8, 0x09, 0x05, 0xEA, 0x15, 0x12, 0x07, 0x09, 0x02, 0xEE, 0xE3, 0xF7, 0xF8, 0x04, 0x0E, 0xF4, 0xF6, 0xEE, 0xF8, 0xE5, 0x0C, 0xEC, 0x06, 0x17, 0xF4, 0x01, 0xF5, 0x08, 0x1F, 0x0C, 0xF7, 0xFC, 0x00, 0xF0, 0xF1, 0x0A, 0x10, 0xF0, 0x07, 0x05, 0xEA, 0xED, 0xED, 0x02, 0xEC, 0x10, 0x02, 0x0D, 0x04, 0xFE, 0xF5, 0xF9, 0x18, 0xFF, 0xF4, 0x06, 0xE7, 0x04, 0x10, 0x0B, 0x02, 0xEA, 0x14, 0xF3, 0x1A, 0xEF, 0x14, 0xF0, 0xED, 0x04, 0xFA, 0xF9, 0x07, 0x09, 0xE3, 0x11, 0xE7, 0xE9, 0xEB, 0x04, 0x15, 0xFB, 0x05, 0xF1, 0x10, 0xF1, 0x03, 0x09, 0xF6, 0xF7, 0xFA, 0xFC, 0xF0, 0xF7, 0xEF, 0xF5, 0xFB, 0x12, 0xE9, 0x13, 0xF5, 0x10, 0xF1, 0xFB, 0x0B, 0x0F, 0x03, 0x06, 0x01, 0xF0, 0x03, 0xFB, 0x02, 0xF6, 0x11, 0x08, 0xF5, 0xF8, 0xFA, 0xF5, 0x02, 0x1C, 0xEE, 0x0A, 0x06, 0xF5, 0x05, 0xF8, 0x1B, 0x03, 0xFC, 0x0E, 0x17, 0x01, 0x0C, 0xF9, 0x13, 0xF7, 0xF1, 0x15, 0x00, 0xFE, 0x06, 0x0B, 0xF0, 0xFA, 0x1B, 0xEE, 0xFE, 0xF1, 0x07, 0x06, 0x15, 0xFE, 0x09, 0x1F, 0x10, 0x04, 0x0C, 0xFA, 0xF5, 0x00, 0x0E, 0xFC, 0x15, 0xF4, 0x01, 0x12, 0x0B, 0xFF, 0xF3, 0x06, 0x12, 0xFC, 0x05, 0x13, 0xF6, 0xEE, 0xF0, 0xEF, 0xEC, 0x08, 0x10, 0x01, 0xF2, 0x09, 0x12, 0x18, 0x02, 0x0D, 0xFC, 0x11, 0xF4, 0xED, 0xFC, 0xFB, 0x06, 0x02, 0x11, 0x18, 0xFA, 0x0E, 0x00, 0x10, 0x00, 0xF5, 0xF7, 0x1C, 0xEB, 0x09, 0xF2, 0x02, 0xFC, 0xF0, 0x1A, 0xFE, 0xFB, 0xF5, 0xF2, 0x05, 0xF8, 0xF9, 0x1D, 0x12, 0xE9, 0xF4, 0x0B, 0xFF, 0x05, 0x12, 0x24, 0x06, 0x06, 0xF9, 0xF8, 0x00, 0xF6, 0xFE, 0xED, 0xF4, 0xFE, 0xFD, 0xEE, 0x0E, 0x0B, 0xF4, 0x0E, 0xF0, 0xEC, 0xFF, 0x15, 0xFF, 0xF8, 0xEE, 0xFB, 0x12, 0x11, 0xF4, 0x0B, 0xF7, 0x10, 0x14, 0x0A, 0x0D, 0x02, 0xF8, 0xEC, 0xF9, 0xF3, 0x0C, 0xFF, 0x0E, 0xF2, 0xF3, 0xEF, 0xFA, 0xEA, 0x05, 0xF8, 0xF1, 0xFC, 0x0C, 0xFC, 0x0A, 0xED, 0xED, 0x14, 0x01, 0xF5, 0x07, 0xF2, 0x0C, 0x01, 0xF2, 0xEB, 0x14, 0xEC, 0x02, 0x00, 0x11, 0xED, 0x04, 0xF3, 0xFB, 0x05, 0x02, 0xF7, 0x09, 0xFB, 0x0C, 0x11, 0x2B, 0xEC, 0xE6, 0xF4, 0xEC, 0xED, 0xFE, 0xFD, 0xFC, 0x06, 0x01, 0xFF, 0x09, 0x03, 0xE5, 0x06, 0x17, 0x01, 0xE2, 0x10, 0xFB, 0x0B, 0x1C, 0xF0, 0x0C, 0x19, 0xEC, 0x03, 0xFE, 0xF3, 0xE9, 0xEE, 0x15, 0xF0, 0x06, 0x13, 0x15, 0xFD, 0x02, 0xEC, 0x02, 0x03, 0x1B, 0xF1, 0xF6, 0xF1, 0x0B, 0x04, 0x09, 0xFE, 0x0A, 0x01, 0xFC, 0x10, 0x0E, 0x12, 0x1B, 0x00, 0xD5, 0x08, 0x12, 0xEB, 0xE8, 0x31, 0x02, 0x0C, 0xFD, 0x0C, 0xFB, 0x08, 0xEC, 0xF1, 0x00, 0xFE, 0x06, 0x09, 0x10, 0xF4, 0xFA, 0xC9, 0x03, 0xFE, 0xF7, 0x0F, 0xF7, 0xF4, 0x09, 0x02, 0x0B, 0x11, 0xF2, 0xE6, 0x0A, 0xE9, 0x01, 0x24, 0x25, 0xF4, 0x19, 0xF5, 0xEF, 0xF4, 0x14, 0xED, 0xF2, 0x14, 0xF7, 0x03, 0xED, 0x02, 0x13, 0xC7, 0x02, 0xEA, 0xF1, 0x01, 0xEC, 0xF8, 0x02, 0x18, 0x02, 0xFD, 0x06, 0xFE, 0x0B, 0xFF, 0x10, 0x01, 0xFC, 0xFC, 0x0C, 0x13, 0x15, 0x06, 0x0C, 0x00, 0x03, 0xEE, 0x1A, 0x11, 0x13, 0x10, 0xF4, 0x0D, 0x08, 0xF1, 0x03, 0xF2, 0x00, 0x05, 0xF9, 0xF2, 0x42, 0x11, 0xFC, 0x01, 0xEB, 0xF9, 0x16, 0x29, 0xFE, 0x06, 0x07, 0xFB, 0xFB, 0x04, 0xF1, 0xEA, 0xF4, 0x1E, 0xF6, 0xF3, 0x00, 0x17, 0xEC, 0x18, 0x25, 0xF4, 0x00, 0xFA, 0xFF, 0xF0, 0x0C, 0xF2, 0x19, 0x01, 0xF3, 0x17, 0x03, 0x1E, 0xE7, 0x11, 0x08, 0x04, 0x16, 0x1A, 0x00, 0xF4, 0x17, 0x21, 0xF7, 0xFF, 0x07, 0x25, 0x15, 0x0F, 0xEF, 0xF1, 0x0D, 0x13, 0xFE, 0x13, 0xFC, 0xFC, 0x15, 0xFE, 0x38, 0x08, 0xFA, 0x10, 0xF7, 0x16, 0xF4, 0xFA, 0x11, 0x13, 0xF5, 0xF4, 0x0D, 0x14, 0x05, 0xF5, 0x08, 0xFE, 0x01, 0x05, 0x18, 0xFB, 0x12, 0x0C, 0x11, 0x0B, 0x16, 0x13, 0xFC, 0x08, 0x01, 0xF6, 0xD7, 0xE4, 0x0E, 0x07, 0xF6, 0x14, 0xE7, 0x0C, 0x15, 0x08, 0x03, 0xF5, 0x0E, 0xF3, 0xF6, 0xD8, 0xEB, 0xE6, 0x1B, 0xF1, 0x06, 0x0F, 0xF0, 0x0D, 0x0B, 0x0D, 0xF6, 0x0E, 0x0F, 0x02, 0xEF, 0xE8, 0x0D, 0xE9, 0xFA, 0x12, 0xEF, 0x0B, 0x13, 0x0A, 0xF0, 0x14, 0x13, 0x11, 0x0F, 0x0A, 0x03, 0x17, 0x0E, 0x15, 0xE7, 0x15, 0x1C, 0x08, 0x18, 0xEA, 0x16, 0x0D, 0xFC, 0x06, 0x04, 0x09, 0x18, 0x02, 0x18, 0x05, 0xF5, 0x0B, 0x02, 0xF3, 0xFF, 0x00, 0xF5, 0xED, 0x1E, 0x15, 0x08, 0x0B, 0x11, 0x1D, 0xD3, 0x02, 0xD9, 0x10, 0xF6, 0x17, 0x12, 0xDF, 0x39, 0xF0, 0xF9, 0xF4, 0xEF, 0x0A, 0x0A, 0xE3, 0x0E, 0x06, 0x11, 0xFE, 0x06, 0x19, 0xFB, 0xD3, 0x0D, 0x16, 0xF6, 0xED, 0xEC, 0xF5, 0x00, 0xE2, 0xFC, 0x0A, 0x2F, 0x06, 0x18, 0xF2, 0x08, 0xFF, 0xFB, 0x07, 0x08, 0x06, 0x04, 0xFF, 0x10, 0x16, 0x0F, 0xEE, 0x06, 0x2D, 0x19, 0x06, 0xFD, 0x13, 0x2E, 0x0C, 0x01, 0x12, 0x03, 0x23, 0x13, 0xFF, 0x3C, 0x05, 0xFF, 0x00, 0xFF, 0xF6, 0x0A, 0x07, 0xFF, 0x03, 0xFA, 0x04, 0xFD, 0xEE, 0x05, 0xF7, 0xF6, 0x04, 0xFA, 0xF3, 0x12, 0x0F, 0x11, 0x0B, 0xFD, 0xFD, 0xFA, 0xFF, 0xFF, 0x10, 0x07, 0x08, 0xFA, 0xF8, 0xF2, 0x04, 0x03, 0x05, 0x05, 0xF1, 0x0C, 0xF4, 0xFC, 0x04, 0x10, 0x12, 0xF1, 0x0A, 0x11, 0x16, 0xFB, 0xFE, 0x04, 0xF4, 0x16, 0x07, 0x0C, 0x02, 0x14, 0x1E, 0x00, 0x09, 0x11, 0xF0, 0x02, 0xF3, 0xFC, 0x0E, 0xE5, 0x0E, 0x18, 0xF6, 0xFF, 0x0F, 0x12, 0xF4, 0xFB, 0x0A, 0x08, 0x01, 0xFD, 0x13, 0xF4, 0xFA, 0xF8, 0x1A, 0x18, 0xF5, 0x03, 0xFC, 0x14, 0xF0, 0x12, 0xFD, 0x04, 0xFA, 0x09, 0x0E, 0xFE, 0xF3, 0x04, 0x01, 0xF6, 0x06, 0x02, 0x1A, 0x00, 0x01, 0xFD, 0xED, 0xF9, 0xF9, 0x0C, 0x0F, 0xF7, 0xF4, 0x13, 0xFD, 0x16, 0xEE, 0x07, 0xFC, 0x03, 0x02, 0x0E, 0x09, 0x15, 0x1A, 0x0D, 0xF3, 0xEB, 0xFC, 0xFB, 0xF8, 0xEF, 0x11, 0x0A, 0x02, 0xE9, 0xF7, 0x11, 0x15, 0x0E, 0xF5, 0x05, 0x0E, 0xEF, 0x11, 0xE9, 0xF6, 0xFE, 0xF9, 0x0D, 0xF1, 0xF5, 0x0D, 0xF5, 0xFB, 0x05, 0x00, 0x12, 0xEF, 0x07, 0xF2, 0xEF, 0x10, 0x06, 0x05, 0x05, 0x04, 0x03, 0xF3, 0xFC, 0xEC, 0xEB, 0x08, 0xFE, 0x1A, 0xFF, 0xEF, 0xE7, 0x06, 0xE8, 0xF5, 0xFE, 0xF4, 0x0B, 0xF4, 0x17, 0xF3, 0x03, 0xF4, 0x11, 0x17, 0xF5, 0xFD, 0x04, 0xF5, 0xFB, 0xF6, 0xFC, 0x05, 0xFE, 0xFB, 0x0E, 0x0E, 0x06, 0xF9, 0x0C, 0x0C, 0x10, 0xFE, 0x03, 0xEB, 0x0E, 0xF4, 0x15, 0xFD, 0x00, 0xF4, 0x09, 0xF3, 0xF1, 0x03, 0x23, 0xF7, 0x12, 0xF4, 0xFF, 0xEE, 0x10, 0xE2, 0xF9, 0xF3, 0x15, 0xF6, 0x13, 0xEE, 0xF7, 0x05, 0x07, 0xFB, 0x09, 0xEC, 0xEF, 0x05, 0xF4, 0x05, 0xF1, 0xEC, 0x08, 0xFD, 0xFD, 0x1B, 0x07, 0xE8, 0x0B, 0xEC, 0xFA, 0x0C, 0x0E, 0xFA, 0xFA, 0xEF, 0x05, 0x0C, 0xF8, 0x08, 0x1E, 0xEC, 0x10, 0xEC, 0x15, 0x02, 0xFE, 0xF6, 0xF6, 0xF9, 0xF6, 0xFF, 0xFA, 0x07, 0x04, 0xF9, 0xFA, 0xF7, 0x19, 0x03, 0x00, 0xFE, 0xFD, 0x02, 0x0A, 0x04, 0xF6, 0x07, 0xFC, 0x06, 0xF1, 0xF7, 0xFE, 0x09, 0xF5, 0xF1, 0x0A, 0xE9, 0x09, 0x13, 0xF1, 0x1A, 0xF8, 0x15, 0x07, 0xFE, 0x10, 0x0D, 0x16, 0x08, 0xF4, 0x18, 0xFC, 0x0B, 0x06, 0x13, 0xF4, 0x17, 0xFF, 0x07, 0xF8, 0x03, 0xF9, 0xF1, 0xF1, 0xF7, 0xEE, 0x1B, 0xFD, 0xF4, 0x09, 0x17, 0xFC, 0x09, 0x00, 0x05, 0xFF, 0xE7, 0x12, 0xEE, 0x0E, 0xFD, 0xF1, 0x14, 0x07, 0xFF, 0xFD, 0xFD, 0xF0, 0xFF, 0xF9, 0x10, 0xE2, 0xF9, 0xF5, 0xF5, 0xF3, 0xF8, 0x17, 0xFF, 0xFF, 0x0F, 0xF2, 0x0D, 0xE5, 0xF8, 0x02, 0x04, 0x13, 0xFC, 0x11, 0xEE, 0x07, 0xED, 0xEC, 0xFF, 0xF6, 0xEE, 0xEF, 0x16, 0x15, 0x09, 0xED, 0xFC, 0x0F, 0x09, 0x01, 0xF9, 0xFB, 0x0A, 0xED, 0xF2, 0xFD, 0xF9, 0xF8, 0x0E, 0x10, 0x0B, 0xE7, 0xE8, 0x12, 0xF9, 0xFE, 0xEC, 0x13, 0x06, 0x12, 0xF2, 0x23, 0xF2, 0x07, 0xEF, 0x14, 0x1A, 0x09, 0xF4, 0x0E, 0x07, 0x08, 0x15, 0x04, 0xF4, 0x15, 0xFA, 0xEC, 0x04, 0x12, 0xF8, 0xEC, 0xF1, 0xFA, 0xF7, 0x00, 0xFC, 0x0A, 0x12, 0x0E, 0xF6, 0xFD, 0xF1, 0xFD, 0x01, 0xF8, 0x0B, 0x14, 0x01, 0xF9, 0x07, 0x12, 0x08, 0xF1, 0x0C, 0xFE, 0x07, 0xFD, 0x12, 0xED, 0x15, 0x03, 0xFD, 0x05, 0x05, 0xE8, 0x13, 0x12, 0xEE, 0xFF, 0xF1, 0xFD, 0xFB, 0xF1, 0x19, 0x12, 0xEC, 0x0B, 0xF9, 0xF4, 0xF7, 0xE5, 0x09, 0x0A, 0x07, 0x05, 0x12, 0xFF, 0xE4, 0x02, 0xF5, 0xFF, 0xEF, 0xE6, 0xF3, 0x12, 0x16, 0x0E, 0xDF, 0xFE, 0xF2, 0x0D, 0xF7, 0xFF, 0xF0, 0xFB, 0xF4, 0x00, 0xF8, 0x03, 0xDC, 0x11, 0xF7, 0xFC, 0x09, 0x1A, 0x04, 0x19, 0xFC, 0x16, 0xF8, 0xF2, 0x11, 0x1C, 0x08, 0x13, 0x02, 0xFA, 0xF1, 0x16, 0xDB, 0x0C, 0x02, 0x0C, 0xF8, 0x0F, 0xF5, 0x07, 0x15, 0x0D, 0x11, 0xFC, 0x02, 0x10, 0x03, 0xEF, 0x00, 0x12, 0xFE, 0x04, 0x1C, 0xF3, 0xF8, 0xFC, 0x03, 0xF5, 0x0C, 0x08, 0x00, 0x04, 0x12, 0x03, 0xFF, 0x06, 0xFC, 0xEC, 0xF4, 0x02, 0x0A, 0x07, 0xFD, 0x7B, 0x17, 0xF2, 0x12, 0xFF, 0x13, 0xF0, 0x16, 0xFB, 0x08, 0x0F, 0xDF, 0x13, 0xF9, 0xF4, 0x02, 0x2B, 0x04, 0x12, 0xE8, 0x0E, 0x15, 0x09, 0x0D, 0x03, 0xF7, 0x16, 0x10, 0x03, 0xFB, 0xF4, 0xFA, 0x11, 0xED, 0x0F, 0x14, 0xF8, 0xF9, 0x05, 0x12, 0x08, 0xFD, 0x19, 0xF5, 0xEE, 0xF6, 0xFD, 0x18, 0x02, 0x0E, 0x0B, 0x27, 0x00, 0x09, 0x0D, 0x13, 0x14, 0xEC, 0x1A, 0x0C, 0xE9, 0xF8, 0x0C, 0x17, 0x11, 0xFB, 0xF2, 0x0E, 0xED, 0x07, 0xF0, 0x03, 0x14, 0x14, 0xF8, 0x18, 0x1F, 0xF3, 0xEC, 0x0E, 0xEF, 0xE3, 0xEB, 0xFC, 0x19, 0xF6, 0x05, 0x05, 0x21, 0x15, 0x18, 0x0F, 0xF5, 0xF1, 0xFD, 0xF5, 0xD6, 0x04, 0x05, 0x07, 0xF5, 0x14, 0x18, 0xF1, 0x04, 0xEF, 0xF8, 0xFD, 0x12, 0xFE, 0xF4, 0xF7, 0xFC, 0xF8, 0x07, 0x07, 0x1E, 0xF2, 0xEC, 0xE8, 0x02, 0x06, 0x02, 0x01, 0x12, 0x07, 0xF3, 0x0D, 0x16, 0xF4, 0xDE, 0x0D, 0xD6, 0xEB, 0x0B, 0x32, 0x11, 0x16, 0xEC, 0xFE, 0xF5, 0xFD, 0x05, 0x0C, 0x06, 0x04, 0xE8, 0x03, 0x13, 0xED, 0xFA, 0xFE, 0x29, 0xED, 0x19, 0x03, 0x0F, 0x14, 0x02, 0x11, 0x02, 0x18, 0x05, 0x05, 0xFE, 0x0C, 0xEE, 0xF6, 0x1C, 0xF0, 0x13, 0x11, 0x02, 0x09, 0x12, 0x06, 0x02, 0x0E, 0xDC, 0x29, 0xEE, 0x16, 0x12, 0xC8, 0x0E, 0xF4, 0x12, 0xFE, 0xFF, 0xFA, 0xEE, 0xF6, 0x1B, 0xF4, 0xF3, 0x10, 0x0D, 0x07, 0x0A, 0xF0, 0x0B, 0xFF, 0x09, 0x17, 0xFD, 0x0F, 0xFF, 0xE3, 0xFB, 0x0C, 0x1C, 0xFC, 0x11, 0xFC, 0x13, 0x00, 0xD8, 0x11, 0x0E, 0xFB, 0xED, 0x11, 0xED, 0xFD, 0x00, 0xF6, 0x25, 0x3F, 0x18, 0x0A, 0x13, 0xE3, 0x1E, 0xF3, 0x1B, 0x0D, 0x1C, 0x19, 0xED, 0x23, 0x4F, 0xF9, 0x00, 0x06, 0xEC, 0x13, 0xF8, 0x09, 0x08, 0x01, 0xF8, 0x18, 0xF1, 0x0B, 0x06, 0xF2, 0xF4, 0x06, 0xEB, 0x13, 0x11, 0x0A, 0x0A, 0x05, 0xFA, 0xEF, 0x10, 0xE7, 0x01, 0x0F, 0x09, 0x02, 0xFE, 0x14, 0xF1, 0x01, 0x0C, 0xFC, 0x0F, 0xF5, 0x21, 0x06, 0x03, 0xF0, 0xFA, 0x01, 0xED, 0x12, 0x01, 0xFC, 0x09, 0xF4, 0xF2, 0xEB, 0xF8, 0xEF, 0x16, 0xFF, 0x23, 0x0B, 0x08, 0xEE, 0x19, 0x18, 0x12, 0x1C, 0x05, 0xF2, 0xED, 0xE9, 0x12, 0xF3, 0x02, 0x0A, 0x05, 0x10, 0xFB, 0xF1, 0xF3, 0xE7, 0xEF, 0x16, 0x10, 0xF1, 0xFF, 0x15, 0xEC, 0xED, 0xE9, 0x02, 0x15, 0xE8, 0xFD, 0x0D, 0xEF, 0xF6, 0xFC, 0xF0, 0xF1, 0xF7, 0x09, 0xF9, 0xFE, 0x0A, 0xF7, 0xF7, 0x0A, 0xED, 0xEB, 0x0E, 0x01, 0x03, 0x12, 0xF5, 0xEA, 0x09, 0x0A, 0x02, 0xF9, 0xFA, 0xEA, 0xEC, 0xFD, 0xE7, 0xE9, 0xF1, 0xFC, 0x0F, 0x1D, 0x0C, 0x02, 0x0F, 0x03, 0xF6, 0xEB, 0xF0, 0xFF, 0xE9, 0xF9, 0xF0, 0x02, 0x0C, 0xFF, 0x0C, 0x19, 0x11, 0x08, 0x09, 0x0D, 0xF9, 0x05, 0xFD, 0xFC, 0xFE, 0x11, 0xFA, 0xF9, 0x06, 0x0E, 0x05, 0x01, 0x0A, 0x04, 0x06, 0x10, 0x07, 0x0B, 0xEF, 0xEA, 0xF3, 0x05, 0xEB, 0xFF, 0xF5, 0x0C, 0xEF, 0x0B, 0x04, 0xF1, 0x09, 0x00, 0x03, 0xE4, 0xFF, 0xEA, 0xFE, 0xF0, 0xDD, 0x0E, 0xF1, 0xEE, 0x13, 0x0F, 0xEB, 0xF9, 0xF8, 0xED, 0xEE, 0xFB, 0x02, 0xFD, 0xF2, 0x15, 0xF6, 0x07, 0x0D, 0x02, 0x18, 0x26, 0x0C, 0xF3, 0xF0, 0x01, 0x02, 0xE3, 0xEE, 0xF4, 0xF4, 0x00, 0xFE, 0x09, 0x04, 0xF4, 0x08, 0x16, 0x1B, 0x0A, 0x0A, 0x02, 0x12, 0xEB, 0xF1, 0xE9, 0xEB, 0xF9, 0xF9, 0xF3, 0x00, 0x04, 0xED, 0x15, 0x12, 0x01, 0xF1, 0xE7, 0x0B, 0xF8, 0x0E, 0xE1, 0xEE, 0x09, 0x13, 0xFD, 0x14, 0xE9, 0xF5, 0x14, 0x0D, 0xF6, 0x26, 0x0C, 0x10, 0x1C, 0xF1, 0xEC, 0x0D, 0x05, 0x06, 0x14, 0xF3, 0x01, 0x02, 0x11, 0x17, 0x0A, 0x0B, 0xF2, 0xEA, 0xFB, 0x06, 0x0E, 0xFA, 0xFB, 0xF2, 0x0D, 0xF4, 0x0D, 0xFD, 0x0A, 0x11, 0xF1, 0x10, 0xF2, 0xF7, 0x1A, 0x0A, 0xFA, 0x11, 0x04, 0x0F, 0xF6, 0x0D, 0xF3, 0xE9, 0xEE, 0xFF, 0xEB, 0x0F, 0xEE, 0x1B, 0xFB, 0x05, 0x20, 0xF1, 0xEE, 0x0A, 0x12, 0x08, 0x05, 0x16, 0x12, 0xEA, 0x05, 0x11, 0xF9, 0x01, 0xF7, 0xED, 0x05, 0xE9, 0x07, 0xFB, 0x14, 0xDD, 0xF3, 0x05, 0xF4, 0x0A, 0xEC, 0xF6, 0xFA, 0xF1, 0xFB, 0x13, 0x0E, 0x0F, 0x07, 0x19, 0xEE, 0xF0, 0x0D, 0x16, 0x00, 0xF5, 0xF0, 0x05, 0x12, 0x14, 0x02, 0xEA, 0x11, 0xEB, 0x10, 0xE6, 0xFB, 0x02, 0x07, 0x06, 0x11, 0x00, 0x03, 0x1A, 0x0B, 0x04, 0x0F, 0xEC, 0x0A, 0xEB, 0x08, 0x00, 0xED, 0x03, 0x14, 0xFE, 0x10, 0x1B, 0xEE, 0x0A, 0x04, 0x0B, 0x10, 0xF8, 0x16, 0xF1, 0x08, 0xE1, 0x05, 0xE1, 0x0B, 0x0A, 0x01, 0x0A, 0x0C, 0xED, 0xEE, 0x19, 0xF8, 0x0C, 0x00, 0xEA, 0xE3, 0xFF, 0x07, 0xFB, 0x16, 0x0A, 0xF0, 0xF3, 0x0F, 0x0C, 0xF3, 0xF0, 0xFB, 0xEE, 0x0C, 0xEC, 0xF0, 0xF9, 0x10, 0xEA, 0x0D, 0xFF, 0x0B, 0x04, 0x17, 0x02, 0x0A, 0xF6, 0x0B, 0x0E, 0x27, 0xFE, 0x13, 0x03, 0x13, 0xFE, 0x17, 0x06, 0x1E, 0x12, 0x0C, 0x1B, 0x18, 0xF9, 0xF4, 0x04, 0x15, 0x0B, 0x02, 0xEE, 0x06, 0xE5, 0xFF, 0x12, 0xF3, 0x1C, 0x06, 0xF7, 0xF0, 0x13, 0xFC, 0x0C, 0x14, 0xF8, 0xF4, 0x06, 0xFF, 0xEA, 0xFA, 0x20, 0x26, 0xEC, 0xE8, 0x0D, 0x0C, 0xF7, 0xF1, 0x3D, 0x0A, 0x12, 0xFA, 0x0F, 0xF8, 0xE8, 0xEF, 0x04, 0x14, 0x10, 0x00, 0xFC, 0xF9, 0x0C, 0xF1, 0xE1, 0x20, 0xF7, 0xFB, 0x18, 0xF1, 0x0C, 0x08, 0x19, 0x11, 0x14, 0xF1, 0x0D, 0xF8, 0xFE, 0xEF, 0x38, 0x03, 0xF3, 0x07, 0xF3, 0x02, 0xF1, 0x11, 0x04, 0x0D, 0xFE, 0xF2, 0x0E, 0x18, 0x04, 0x00, 0xD8, 0x0A, 0x18, 0xED, 0x20, 0xFE, 0xF3, 0x18, 0x09, 0x00, 0xF8, 0x0F, 0xF4, 0x0B, 0xFA, 0xEF, 0x0E, 0x0C, 0x07, 0xEE, 0xF5, 0xF2, 0xF8, 0x0D, 0xF2, 0x06, 0xFD, 0x01, 0x0A, 0xE6, 0x09, 0x0C, 0x09, 0x09, 0x14, 0xF3, 0x0E, 0xF8, 0x11, 0x00, 0x07, 0x2E, 0xF4, 0xF8, 0xED, 0x0C, 0x18, 0xF2, 0x24, 0x22, 0xFD, 0x1A, 0xE8, 0x01, 0xF5, 0x0B, 0xDC, 0x28, 0x2F, 0x15, 0x0A, 0x14, 0x00, 0x0A, 0x1E, 0x1C, 0x08, 0x06, 0xEB, 0x0C, 0xFB, 0xE9, 0xF3, 0x26, 0x10, 0x0F, 0x0D, 0xEA, 0x10, 0xF2, 0x15, 0x23, 0xF4, 0x08, 0x12, 0xFC, 0xF5, 0x05, 0x0F, 0x18, 0x11, 0xF7, 0x03, 0x00, 0x03, 0x17, 0x03, 0xF1, 0xF5, 0xF4, 0x00, 0xFB, 0xE9, 0xF2, 0xE0, 0x61, 0x00, 0xFD, 0x10, 0xEB, 0x02, 0x17, 0x00, 0xF7, 0x02, 0x0C, 0x09, 0xF6, 0xFB, 0xF8, 0xF6, 0x05, 0x0E, 0xE9, 0x10, 0xFB, 0xF0, 0xFC, 0x1E, 0x0D, 0xFF, 0x06, 0x0D, 0x11, 0x18, 0x15, 0xF4, 0xEA, 0xEE, 0x08, 0x0A, 0x05, 0xF1, 0x03, 0xE6, 0xF7, 0xF5, 0x15, 0x11, 0xF5, 0x09, 0xFC, 0xFF, 0xFA, 0xEE, 0x23, 0x0F, 0xF0, 0x1B, 0x05, 0xF8, 0xDF, 0xF8, 0xEB, 0x0C, 0x0D, 0xE5, 0xF0, 0xE9, 0x50, 0xE9, 0xF5, 0xF1, 0xEF, 0xEE, 0x04, 0x0E, 0xF4, 0x03, 0x0B, 0xFC, 0xEC, 0x0B, 0x1F, 0x0F, 0x44, 0x0B, 0xFD, 0xFD, 0x15, 0x17, 0xF4, 0x05, 0x2F, 0x1B, 0xF1, 0xF4, 0xF7, 0x06, 0xF7, 0xF7, 0x2F, 0xEF, 0xF6, 0xF6, 0x1C, 0x03, 0x1E, 0xF7, 0xF7, 0x0D, 0xFD, 0x11, 0xFD, 0xF7, 0x15, 0xFE, 0x3E, 0x18, 0x00, 0x05, 0x00, 0x15, 0xED, 0xDA, 0x06, 0xF4, 0x16, 0x10, 0x11, 0xF6, 0x01, 0xED, 0x17, 0xE9, 0xEF, 0x10, 0x03, 0xF7, 0x09, 0xF4, 0xED, 0x15, 0x13, 0xF5, 0x0F, 0xEC, 0xF3, 0x00, 0x1F, 0x10, 0x36, 0xFC, 0x00, 0x05, 0x03, 0xE5, 0xFA, 0x0B, 0x0D, 0xFF, 0x09, 0xFB, 0x18, 0x11, 0x33, 0xF6, 0xFD, 0x26, 0xEF, 0xFC, 0x06, 0x08, 0x16, 0x15, 0x12, 0xF2, 0xED, 0x05, 0x1A, 0xF9, 0x39, 0xCA, 0xD9, 0xFF, 0xFF, 0x00, 0x00, 0x00, 0x09, 0x10, 0x00, 0x00, 0x00, 0x15, 0x00, 0x00, 0x00, 0x14, 0x00, 0x00, 0x00, 0x78, 0x00, 0x00, 0x00, 0x02, 0x00, 0x00, 0x00, 0x04, 0x00, 0x00, 0x00, 0x30, 0x03, 0x00, 0x00, 0x63, 0x00, 0x00, 0x00, 0x73, 0x65, 0x71, 0x75, 0x65, 0x6E, 0x74, 0x69, 0x61, 0x6C, 0x5F, 0x31, 0x2F, 0x71, 0x75, 0x61, 0x6E, 0x74, 0x5F, 0x64, 0x65, 0x6E, 0x73, 0x65, 0x5F, 0x32, 0x2F, 0x4D, 0x61, 0x74, 0x4D, 0x75, 0x6C, 0x3B, 0x73, 0x65, 0x71, 0x75, 0x65, 0x6E, 0x74, 0x69, 0x61, 0x6C, 0x5F, 0x31, 0x2F, 0x71, 0x75, 0x61, 0x6E, 0x74, 0x5F, 0x64, 0x65, 0x6E, 0x73, 0x65, 0x5F, 0x32, 0x2F, 0x4C, 0x61, 0x73, 0x74, 0x56, 0x61, 0x6C, 0x75, 0x65, 0x51, 0x75, 0x61, 0x6E, 0x74, 0x2F, 0x46, 0x61, 0x6B, 0x65, 0x51, 0x75, 0x61, 0x6E, 0x74, 0x57, 0x69, 0x74, 0x68, 0x4D, 0x69, 0x6E, 0x4D, 0x61, 0x78, 0x56, 0x61, 0x72, 0x73, 0x00, 0xA4, 0xDA, 0xFF, 0xFF, 0x08, 0x00, 0x00, 0x00, 0x0C, 0x00, 0x00, 0x00, 0x01, 0x00, 0x00, 0x00, 0xB8, 0x58, 0x61, 0x3B, 0x01, 0x00, 0x00, 0x00, 0x00, 0x00, 0x00, 0x00, 0x00, 0x00, 0x00, 0x00, 0x00, 0x00, 0x0A, 0x00, 0x10, 0x00, 0x04, 0x00, 0x08, 0x00, 0x0C, 0x00, 0x0A, 0x00, 0x00, 0x00, 0x03, 0x00, 0x00, 0x00, 0x10, 0x00, 0x00, 0x00, 0x04, 0x00, 0x00, 0x00, 0x01, 0x00, 0x00, 0x00, 0x13, 0x00, 0x00, 0x00, 0x02, 0x00, 0x00, 0x00, 0x12, 0x00, 0x00, 0x00, 0x01, 0x00, 0x00, 0x00, 0x70, 0xDC, 0xFF, 0xFF, 0x16, 0x00, 0x00, 0x00, 0x00, 0x00, 0x00, 0x16, 0x01, 0x00, 0x00, 0x00, 0x64, 0xDC, 0xFF, 0xFF, 0x00, 0x00, 0x00, 0x09, 0x14, 0x00, 0x00, 0x00, 0x14, 0x00, 0x00, 0x00, 0x24, 0x00, 0x00, 0x00, 0x4C, 0x00, 0x00, 0x00, 0x10, 0x00, 0x00, 0x00, 0x02, 0x00, 0x00, 0x00, 0x01, 0x00, 0x00, 0x00, 0x30, 0x03, 0x00, 0x00, 0x02, 0x00, 0x00, 0x00, 0xFF, 0xFF, 0xFF, 0xFF, 0x30, 0x03, 0x00, 0x00, 0x24, 0x00, 0x00, 0x00, 0x73, 0x65, 0x71, 0x75, 0x65, 0x6E, 0x74, 0x69, 0x61, 0x6C, 0x5F, 0x31, 0x2F, 0x71, 0x75, 0x61, 0x6E, 0x74, 0x5F, 0x66, 0x6C, 0x61, 0x74, 0x74, 0x65, 0x6E, 0x5F, 0x31, 0x2F, 0x52, 0x65, 0x73, 0x68, 0x61, 0x70, 0x65, 0x00, 0x00, 0x00, 0x00, 0x64, 0xDB, 0xFF, 0xFF, 0x08, 0x00, 0x00, 0x00, 0x0C, 0x00, 0x00, 0x00, 0x01, 0x00, 0x00, 0x00, 0x79, 0x6C, 0xDA, 0x3F, 0x01, 0x00, 0x00, 0x00, 0x81, 0xFF, 0xFF, 0xFF, 0xFF, 0xFF, 0xFF, 0xFF, 0xBE, 0xE0, 0xFF, 0xFF, 0x00, 0x00, 0x00, 0x05, 0x02, 0x00, 0x00, 0x00, 0x28, 0x00, 0x00, 0x00, 0x1C, 0x00, 0x00, 0x00, 0x04, 0x00, 0x00, 0x00, 0xAE, 0xE1, 0xFF, 0xFF, 0x02, 0x00, 0x00, 0x00, 0x02, 0x00, 0x00, 0x00, 0x02, 0x00, 0x00, 0x00, 0x02, 0x00, 0x00, 0x00, 0x01, 0x00, 0x00, 0x00, 0x12, 0x00, 0x00, 0x00, 0x01, 0x00, 0x00, 0x00, 0x11, 0x00, 0x00, 0x00, 0x20, 0xDD, 0xFF, 0xFF, 0x00, 0x00, 0x00, 0x09, 0x14, 0x00, 0x00, 0x00, 0x13, 0x00, 0x00, 0x00, 0x34, 0x00, 0x00, 0x00, 0x60, 0x00, 0x00, 0x00, 0x18, 0x00, 0x00, 0x00, 0x04, 0x00, 0x00, 0x00, 0x01, 0x00, 0x00, 0x00, 0x03, 0x00, 0x00, 0x00, 0x11, 0x00, 0x00, 0x00, 0x10, 0x00, 0x00, 0x00, 0x04, 0x00, 0x00, 0x00, 0xFF, 0xFF, 0xFF, 0xFF, 0x03, 0x00, 0x00, 0x00, 0x11, 0x00, 0x00, 0x00, 0x10, 0x00, 0x00, 0x00, 0x2A, 0x00, 0x00, 0x00, 0x73, 0x65, 0x71, 0x75, 0x65, 0x6E, 0x74, 0x69, 0x61, 0x6C, 0x5F, 0x31, 0x2F, 0x71, 0x75, 0x61, 0x6E, 0x74, 0x5F, 0x6D, 0x61, 0x78, 0x5F, 0x70, 0x6F, 0x6F, 0x6C, 0x69, 0x6E, 0x67, 0x32, 0x64, 0x5F, 0x37, 0x2F, 0x4D, 0x61, 0x78, 0x50, 0x6F, 0x6F, 0x6C, 0x00, 0x00, 0x34, 0xDC, 0xFF, 0xFF, 0x08, 0x00, 0x00, 0x00, 0x0C, 0x00, 0x00, 0x00, 0x01, 0x00, 0x00, 0x00, 0x79, 0x6C, 0xDA, 0x3F, 0x01, 0x00, 0x00, 0x00, 0x81, 0xFF, 0xFF, 0xFF, 0xFF, 0xFF, 0xFF, 0xFF, 0x8E, 0xE1, 0xFF, 0xFF, 0x00, 0x00, 0x00, 0x01, 0x01, 0x00, 0x00, 0x00, 0x24, 0x00, 0x00, 0x00, 0x18, 0x00, 0x00, 0x00, 0x04, 0x00, 0x00, 0x00, 0x80, 0xE1, 0xFF, 0xFF, 0x01, 0x00, 0x00, 0x00, 0x01, 0x00, 0x00, 0x00, 0x00, 0x00, 0x00, 0x01, 0x01, 0x00, 0x00, 0x00, 0x11, 0x00, 0x00, 0x00, 0x03, 0x00, 0x00, 0x00, 0x0E, 0x00, 0x00, 0x00, 0x0F, 0x00, 0x00, 0x00, 0x10, 0x00, 0x00, 0x00, 0xF4, 0xDD, 0xFF, 0xFF, 0x00, 0x00, 0x00, 0x09, 0x14, 0x00, 0x00, 0x00, 0x12, 0x00, 0x00, 0x00, 0x34, 0x00, 0x00, 0x00, 0xFC, 0x00, 0x00, 0x00, 0x18, 0x00, 0x00, 0x00, 0x04, 0x00, 0x00, 0x00, 0x01, 0x00, 0x00, 0x00, 0x05, 0x00, 0x00, 0x00, 0x21, 0x00, 0x00, 0x00, 0x10, 0x00, 0x00, 0x00, 0x04, 0x00, 0x00, 0x00, 0xFF, 0xFF, 0xFF, 0xFF, 0x05, 0x00, 0x00, 0x00, 0x21, 0x00, 0x00, 0x00, 0x10, 0x00, 0x00, 0x00, 0xC6, 0x00, 0x00, 0x00, 0x73, 0x65, 0x71, 0x75, 0x65, 0x6E, 0x74, 0x69, 0x61, 0x6C, 0x5F, 0x31, 0x2F, 0x71, 0x75, 0x61, 0x6E, 0x74, 0x5F, 0x63, 0x6F, 0x6E, 0x76, 0x32, 0x64, 0x5F, 0x37, 0x2F, 0x52, 0x65, 0x6C, 0x75, 0x3B, 0x73, 0x65, 0x71, 0x75, 0x65, 0x6E, 0x74, 0x69, 0x61, 0x6C, 0x5F, 0x31, 0x2F, 0x71, 0x75, 0x61, 0x6E, 0x74, 0x5F, 0x63, 0x6F, 0x6E, 0x76, 0x32, 0x64, 0x5F, 0x37, 0x2F, 0x42, 0x69, 0x61, 0x73, 0x41, 0x64, 0x64, 0x3B, 0x73, 0x65, 0x71, 0x75, 0x65, 0x6E, 0x74, 0x69, 0x61, 0x6C, 0x5F, 0x31, 0x2F, 0x71, 0x75, 0x61, 0x6E, 0x74, 0x5F, 0x63, 0x6F, 0x6E, 0x76, 0x32, 0x64, 0x5F, 0x36, 0x2F, 0x43, 0x6F, 0x6E, 0x76, 0x32, 0x44, 0x3B, 0x73, 0x65, 0x71, 0x75, 0x65, 0x6E, 0x74, 0x69, 0x61, 0x6C, 0x5F, 0x31, 0x2F, 0x71, 0x75, 0x61, 0x6E, 0x74, 0x5F, 0x63, 0x6F, 0x6E, 0x76, 0x32, 0x64, 0x5F, 0x37, 0x2F, 0x43, 0x6F, 0x6E, 0x76, 0x32, 0x44, 0x3B, 0x73, 0x65, 0x71, 0x75, 0x65, 0x6E, 0x74, 0x69, 0x61, 0x6C, 0x5F, 0x31, 0x2F, 0x71, 0x75, 0x61, 0x6E, 0x74, 0x5F, 0x63, 0x6F, 0x6E, 0x76, 0x32, 0x64, 0x5F, 0x37, 0x2F, 0x42, 0x69, 0x61, 0x73, 0x41, 0x64, 0x64, 0x2F, 0x52, 0x65, 0x61, 0x64, 0x56, 0x61, 0x72, 0x69, 0x61, 0x62, 0x6C, 0x65, 0x4F, 0x70, 0x2F, 0x72, 0x65, 0x73, 0x6F, 0x75, 0x72, 0x63, 0x65, 0x00, 0x00, 0xA4, 0xDD, 0xFF, 0xFF, 0x08, 0x00, 0x00, 0x00, 0x0C, 0x00, 0x00, 0x00, 0x01, 0x00, 0x00, 0x00, 0x79, 0x6C, 0xDA, 0x3F, 0x01, 0x00, 0x00, 0x00, 0x81, 0xFF, 0xFF, 0xFF, 0xFF, 0xFF, 0xFF, 0xFF, 0x00, 0x00, 0x00, 0x00, 0x96, 0xDD, 0xFF, 0xFF, 0x04, 0x00, 0x00, 0x00, 0x40, 0x00, 0x00, 0x00, 0xFC, 0xFF, 0xFF, 0xFF, 0x04, 0x00, 0x00, 0x00, 0xFF, 0xFF, 0xFF, 0xFF, 0xFC, 0xFF, 0xFF, 0xFF, 0xFA, 0xFF, 0xFF, 0xFF, 0x05, 0x00, 0x00, 0x00, 0x0F, 0x00, 0x00, 0x00, 0x03, 0x00, 0x00, 0x00, 0xFD, 0xFF, 0xFF, 0xFF, 0xFE, 0xFF, 0xFF, 0xFF, 0xFF, 0xFF, 0xFF, 0xFF, 0xFA, 0xFF, 0xFF, 0xFF, 0x03, 0x00, 0x00, 0x00, 0xFB, 0xFF, 0xFF, 0xFF, 0x01, 0x00, 0x00, 0x00, 0x0C, 0x00, 0x00, 0x00, 0xC6, 0xDD, 0xFF, 0xFF, 0x00, 0x00, 0x00, 0x02, 0x10, 0x00, 0x00, 0x00, 0x11, 0x00, 0x00, 0x00, 0x10, 0x00, 0x00, 0x00, 0xB8, 0x00, 0x00, 0x00, 0x01, 0x00, 0x00, 0x00, 0x10, 0x00, 0x00, 0x00, 0xA5, 0x00, 0x00, 0x00, 0x73, 0x65, 0x71, 0x75, 0x65, 0x6E, 0x74, 0x69, 0x61, 0x6C, 0x5F, 0x31, 0x2F, 0x71, 0x75, 0x61, 0x6E, 0x74, 0x5F, 0x63, 0x6F, 0x6E, 0x76, 0x32, 0x64, 0x5F, 0x37, 0x2F, 0x42, 0x69, 0x61, 0x73, 0x41, 0x64, 0x64, 0x3B, 0x73, 0x65, 0x71, 0x75, 0x65, 0x6E, 0x74, 0x69, 0x61, 0x6C, 0x5F, 0x31, 0x2F, 0x71, 0x75, 0x61, 0x6E, 0x74, 0x5F, 0x63, 0x6F, 0x6E, 0x76, 0x32, 0x64, 0x5F, 0x36, 0x2F, 0x43, 0x6F, 0x6E, 0x76, 0x32, 0x44, 0x3B, 0x73, 0x65, 0x71, 0x75, 0x65, 0x6E, 0x74, 0x69, 0x61, 0x6C, 0x5F, 0x31, 0x2F, 0x71, 0x75, 0x61, 0x6E, 0x74, 0x5F, 0x63, 0x6F, 0x6E, 0x76, 0x32, 0x64, 0x5F, 0x37, 0x2F, 0x43, 0x6F, 0x6E, 0x76, 0x32, 0x44, 0x3B, 0x73, 0x65, 0x71, 0x75, 0x65, 0x6E, 0x74, 0x69, 0x61, 0x6C, 0x5F, 0x31, 0x2F, 0x71, 0x75, 0x61, 0x6E, 0x74, 0x5F, 0x63, 0x6F, 0x6E, 0x76, 0x32, 0x64, 0x5F, 0x37, 0x2F, 0x42, 0x69, 0x61, 0x73, 0x41, 0x64, 0x64, 0x2F, 0x52, 0x65, 0x61, 0x64, 0x56, 0x61, 0x72, 0x69, 0x61, 0x62, 0x6C, 0x65, 0x4F, 0x70, 0x2F, 0x72, 0x65, 0x73, 0x6F, 0x75, 0x72, 0x63, 0x65, 0x00, 0x00, 0x00, 0xE0, 0xDE, 0xFF, 0xFF, 0x08, 0x00, 0x00, 0x00, 0x48, 0x00, 0x00, 0x00, 0x10, 0x00, 0x00, 0x00, 0xD1, 0xA5, 0xF0, 0x3C, 0x00, 0x00, 0x09, 0x3D, 0x47, 0x5F, 0x09, 0x3D, 0x0E, 0xA7, 0x01, 0x3D, 0xFB, 0x9A, 0xF5, 0x3C, 0xB9, 0xD3, 0xFD, 0x3C, 0xB9, 0x3D, 0x09, 0x3D, 0x1E, 0x7E, 0x70, 0x3D, 0x8F, 0xA5, 0xF6, 0x3C, 0xE0, 0xE4, 0xF5, 0x3C, 0xC1, 0x52, 0x04, 0x3D, 0xB6, 0x44, 0xF2, 0x3C, 0x27, 0x8E, 0x18, 0x3D, 0x69, 0x18, 0x09, 0x3D, 0xE8, 0x84, 0x02, 0x3D, 0xEF, 0x9F, 0xEC, 0x3C, 0x10, 0x00, 0x00, 0x00, 0x00, 0x00, 0x00, 0x00, 0x00, 0x00, 0x00, 0x00, 0x00, 0x00, 0x00, 0x00, 0x00, 0x00, 0x00, 0x00, 0x00, 0x00, 0x00, 0x00, 0x00, 0x00, 0x00, 0x00, 0x00, 0x00, 0x00, 0x00, 0x00, 0x00, 0x00, 0x00, 0x00, 0x00, 0x00, 0x00, 0x00, 0x00, 0x00, 0x00, 0x00, 0x00, 0x00, 0x00, 0x00, 0x00, 0x00, 0x00, 0x00, 0x00, 0x00, 0x00, 0x00, 0x00, 0x00, 0x00, 0x00, 0x00, 0x00, 0x00, 0x00, 0x00, 0x00, 0x00, 0x00, 0x00, 0x00, 0x00, 0x00, 0x00, 0x00, 0x00, 0x00, 0x00, 0x00, 0x00, 0x00, 0x00, 0x00, 0x00, 0x00, 0x00, 0x00, 0x00, 0x00, 0x00, 0x00, 0x00, 0x00, 0x00, 0x00, 0x00, 0x00, 0x00, 0x00, 0x00, 0x00, 0x00, 0x00, 0x00, 0x00, 0x00, 0x00, 0x00, 0x00, 0x00, 0x00, 0x00, 0x00, 0x00, 0x00, 0x00, 0x00, 0x00, 0x00, 0x00, 0x00, 0x00, 0x00, 0x00, 0x00, 0x00, 0x00, 0x00, 0x00, 0x00, 0x00, 0x00, 0x82, 0xDF, 0xFF, 0xFF, 0x04, 0x00, 0x00, 0x00, 0x00, 0x09, 0x00, 0x00, 0x18, 0x44, 0x99, 0xBB, 0xD5, 0xBA, 0x23, 0x6A, 0x07, 0xFE, 0xAC, 0x9D, 0x45, 0x05, 0xB0, 0xBB, 0xBC, 0x13, 0xD4, 0x94, 0x69, 0xA9, 0x40, 0x3D, 0x01, 0xBE, 0x27, 0x35, 0xF6, 0x9D, 0x02, 0x29, 0xBC, 0x22, 0xD2, 0xAC, 0xB1, 0x37, 0x0A, 0xFF, 0xF1, 0xBF, 0xB4, 0x02, 0x21, 0xB9, 0xB6, 0x9E, 0xDF, 0x97, 0xCD, 0xB9, 0xFC, 0xF9, 0x00, 0xEF, 0xEF, 0x9D, 0xEC, 0xFA, 0xEF, 0x2E, 0x36, 0xBD, 0x89, 0xA9, 0xD9, 0x07, 0x1C, 0x54, 0x37, 0xFD, 0x2A, 0xDD, 0x22, 0xDC, 0x50, 0xBA, 0x9B, 0x1A, 0x9A, 0x09, 0x3C, 0x8C, 0x87, 0x27, 0xEB, 0xD8, 0x48, 0x19, 0x1B, 0xEA, 0xB2, 0xA5, 0x81, 0xBC, 0xE9, 0x68, 0x82, 0xCC, 0xB4, 0xC5, 0x1D, 0xFD, 0x90, 0x9E, 0x02, 0x9F, 0x38, 0xAB, 0x95, 0x57, 0x1D, 0x1F, 0x08, 0x0B, 0x17, 0xF8, 0xA5, 0xBC, 0x52, 0x0B, 0xA0, 0xFC, 0x89, 0x08, 0xA1, 0x53, 0x1C, 0xAB, 0x38, 0x19, 0x67, 0xD4, 0x94, 0xD5, 0xA3, 0x47, 0xF0, 0xA8, 0xD7, 0x82, 0x4D, 0x2F, 0x49, 0x44, 0xEB, 0x02, 0x19, 0x05, 0x44, 0xE9, 0xA0, 0x11, 0xAB, 0x0D, 0x11, 0xE2, 0xDB, 0xF8, 0xCE, 0x48, 0xB8, 0xC8, 0xF2, 0x12, 0xC8, 0x1E, 0xA4, 0xBF, 0xF9, 0x08, 0x41, 0xAB, 0xCF, 0xC3, 0x99, 0x54, 0x3B, 0xB2, 0x60, 0x3E, 0x3F, 0x19, 0x81, 0xF9, 0xEF, 0xC6, 0xB0, 0xCC, 0xBA, 0xC1, 0x48, 0x36, 0x90, 0xA6, 0x69, 0x0C, 0xE1, 0xB7, 0xDB, 0x24, 0xFD, 0x03, 0xE3, 0x4E, 0xC0, 0xCA, 0x1B, 0x13, 0xCD, 0xA5, 0x6C, 0xF1, 0x48, 0x02, 0xF6, 0x94, 0xB4, 0xA6, 0xE1, 0xBE, 0x53, 0x41, 0xBA, 0x9A, 0xB9, 0x26, 0xC7, 0xC3, 0xF3, 0xB4, 0xDA, 0x42, 0x09, 0xBE, 0x1B, 0x17, 0xE6, 0x31, 0x0C, 0x8E, 0x95, 0x2E, 0x00, 0xE4, 0xA5, 0x26, 0xDB, 0x1C, 0xE7, 0xFC, 0x12, 0xCB, 0x24, 0x22, 0xFE, 0xC6, 0xD6, 0xDA, 0x31, 0xCC, 0x9D, 0xB3, 0xBD, 0xED, 0xA7, 0xD7, 0xC5, 0x20, 0x1E, 0xAD, 0x21, 0x0A, 0xDF, 0x1D, 0xE2, 0x25, 0x05, 0x0A, 0x36, 0x44, 0xED, 0x0B, 0x4E, 0xD7, 0xB4, 0xF3, 0x06, 0xBA, 0x3A, 0x5A, 0x54, 0x33, 0xD4, 0x55, 0xEC, 0xBF, 0xE2, 0xCB, 0x8E, 0x0D, 0x99, 0xDB, 0x2A, 0x1C, 0x1E, 0xC7, 0x1D, 0x99, 0x59, 0x98, 0xE7, 0xE9, 0xB4, 0x52, 0xB5, 0x2E, 0x14, 0xB2, 0xF6, 0xE0, 0x19, 0x07, 0x4C, 0xB5, 0xD9, 0xA5, 0xAD, 0xEC, 0xEA, 0xB9, 0x9F, 0xF2, 0x9A, 0x42, 0x9D, 0x27, 0xF1, 0xB2, 0x35, 0x28, 0x4B, 0x07, 0x3C, 0x0C, 0xAA, 0x32, 0xF0, 0x0C, 0xC3, 0xFE, 0xE8, 0x31, 0xD8, 0x81, 0xF4, 0x98, 0x91, 0xAB, 0x09, 0xC1, 0x13, 0xEC, 0x36, 0x49, 0x19, 0x36, 0xB7, 0xE0, 0xFA, 0x1D, 0xF8, 0x53, 0x08, 0xE1, 0x42, 0x10, 0x2D, 0xE2, 0xF1, 0x4C, 0x37, 0xED, 0x2B, 0x54, 0xF3, 0x08, 0xAB, 0xFF, 0xCA, 0x3C, 0x2D, 0xBD, 0xA2, 0xCA, 0xC0, 0xF0, 0x2D, 0x24, 0xBC, 0x21, 0x24, 0x94, 0xEA, 0x49, 0xCB, 0xDE, 0xA9, 0xB6, 0xB3, 0xEB, 0xD8, 0xE3, 0x2F, 0xF1, 0x55, 0xC4, 0x18, 0xA6, 0x13, 0xE9, 0xFC, 0xFC, 0x05, 0xFA, 0x02, 0x1F, 0xF1, 0x4D, 0xFC, 0x45, 0xC6, 0x15, 0xBE, 0x91, 0x0A, 0xE5, 0xC7, 0x95, 0x55, 0xDB, 0x32, 0xD2, 0xE7, 0x07, 0xED, 0x49, 0x3D, 0x2E, 0x58, 0xD7, 0x39, 0xD7, 0x09, 0x3D, 0x2A, 0xED, 0x31, 0x96, 0x34, 0xF6, 0xCA, 0x8D, 0xAF, 0xB8, 0xCB, 0xA5, 0xB1, 0x57, 0x53, 0xE4, 0x12, 0xB8, 0x05, 0x32, 0x98, 0xC4, 0xCE, 0xD0, 0xC8, 0xA7, 0xE8, 0x02, 0xF3, 0x9A, 0x29, 0x8C, 0xD1, 0xBE, 0xFC, 0xB0, 0x8E, 0x11, 0xFB, 0x1C, 0x2B, 0xE0, 0xD3, 0x36, 0x12, 0x20, 0x21, 0x9E, 0xFC, 0x87, 0xAF, 0x24, 0x94, 0x3C, 0xCE, 0xB6, 0xC0, 0x00, 0xEC, 0xF3, 0x22, 0xC5, 0x60, 0x39, 0x10, 0xA8, 0xAF, 0x05, 0x81, 0xD4, 0xE4, 0xD5, 0xE8, 0x31, 0x09, 0xE1, 0xA6, 0xDE, 0xF0, 0xB1, 0x0D, 0x3A, 0x1D, 0x2D, 0xF2, 0xBD, 0x02, 0xE2, 0x12, 0x1D, 0xCB, 0xDA, 0x04, 0x98, 0xE5, 0xEF, 0x0C, 0xF6, 0x09, 0xAC, 0x2B, 0xBC, 0xE8, 0x9A, 0x42, 0x2A, 0xFE, 0xB9, 0x2E, 0x1A, 0x44, 0xB7, 0x47, 0xDF, 0xE7, 0xDD, 0xB2, 0x44, 0x44, 0xAE, 0x8E, 0xF8, 0x8E, 0xC7, 0xF3, 0x97, 0x04, 0x40, 0x45, 0xF9, 0x49, 0xBA, 0x86, 0x0B, 0xA5, 0x43, 0x3B, 0x04, 0xE7, 0x33, 0xD4, 0x32, 0xB5, 0x34, 0x21, 0xE8, 0xF4, 0x04, 0x1B, 0xF1, 0xC9, 0xDA, 0x35, 0xDB, 0xFE, 0x86, 0xE5, 0x96, 0x04, 0x32, 0xEE, 0xA8, 0xDF, 0xD6, 0xAB, 0x9A, 0xA8, 0xF7, 0x32, 0x85, 0x2E, 0x35, 0xAF, 0xAD, 0x04, 0xE4, 0xE7, 0x81, 0x52, 0xC7, 0x33, 0xC3, 0xAC, 0x20, 0xFA, 0xB1, 0xD2, 0x16, 0xAC, 0x92, 0x8B, 0x18, 0x4F, 0x1F, 0x5D, 0xB0, 0x40, 0xF7, 0xDC, 0x47, 0xC4, 0x4D, 0x45, 0xC9, 0xFD, 0xF2, 0x01, 0xF6, 0xDF, 0xBF, 0x98, 0xDF, 0x9F, 0x09, 0xAE, 0xFE, 0x8E, 0xED, 0xF9, 0xA6, 0xBB, 0x63, 0xE1, 0xD9, 0xAD, 0xAF, 0xB1, 0x3E, 0xC0, 0xE4, 0xEA, 0xDD, 0xAA, 0x16, 0x16, 0x0A, 0x8B, 0x2E, 0xA6, 0x93, 0xB1, 0xB7, 0x4C, 0x81, 0x0F, 0xAA, 0x46, 0x1E, 0x50, 0x04, 0xEC, 0x9C, 0x56, 0x5C, 0xC0, 0xF8, 0x3A, 0xA7, 0xEE, 0xFF, 0xDD, 0xFC, 0xB5, 0x14, 0xC8, 0x1F, 0x0D, 0x35, 0xC6, 0x28, 0xEB, 0x34, 0x33, 0xE8, 0x47, 0xCE, 0xBC, 0xE1, 0xE6, 0x21, 0x34, 0x03, 0xBC, 0xC7, 0xDA, 0xD4, 0xF6, 0x09, 0xBC, 0xC1, 0x5A, 0x81, 0xDF, 0x4A, 0x3B, 0x43, 0x2D, 0x3F, 0x12, 0x0A, 0xDF, 0x2F, 0x3A, 0x9A, 0xEB, 0xED, 0x37, 0x04, 0x17, 0xDF, 0x8A, 0x37, 0x04, 0xCE, 0x9E, 0x1A, 0x36, 0xB6, 0x23, 0xA8, 0x31, 0x15, 0x9E, 0xBB, 0x06, 0x3B, 0x9B, 0xF0, 0xCD, 0x33, 0xCC, 0x90, 0x25, 0x36, 0xB4, 0x4F, 0xBE, 0xBE, 0xE5, 0x27, 0x94, 0x0C, 0x9D, 0xD0, 0x16, 0x19, 0x49, 0xB5, 0xE0, 0xFD, 0x9F, 0x00, 0xBA, 0xFE, 0xCC, 0xED, 0xAA, 0x9A, 0x2D, 0x51, 0x4F, 0xBE, 0xEF, 0xF1, 0x10, 0xD1, 0x98, 0x42, 0x36, 0xBD, 0x3A, 0x03, 0xA8, 0x4C, 0xCE, 0x32, 0x38, 0xBE, 0x0B, 0x11, 0xE8, 0x92, 0x01, 0xDB, 0xE4, 0x67, 0x04, 0x25, 0xC6, 0x4C, 0xAD, 0x9E, 0x13, 0x9A, 0x08, 0xD6, 0xCC, 0x9F, 0xDF, 0xFE, 0x40, 0x0E, 0xFC, 0xD3, 0x2D, 0x66, 0xB6, 0xF3, 0xEE, 0xC7, 0xE1, 0x0D, 0xDB, 0x98, 0xB9, 0xF7, 0xA9, 0xCD, 0x5D, 0xA9, 0xEB, 0xB9, 0xBF, 0xC5, 0xDC, 0x70, 0x9A, 0x4C, 0xD4, 0x99, 0xE5, 0xDD, 0xE9, 0x0D, 0x42, 0xFB, 0xEB, 0x2B, 0xD0, 0xC5, 0x2D, 0x1F, 0xD1, 0x42, 0x6A, 0x20, 0xE2, 0xAD, 0xFB, 0xAC, 0xB2, 0xF7, 0xCC, 0xB8, 0x44, 0xC2, 0x5B, 0xEF, 0x81, 0x45, 0xA9, 0x10, 0x03, 0x34, 0xB5, 0xD1, 0x23, 0x24, 0xF3, 0x2E, 0xA2, 0xB5, 0xDC, 0x95, 0x95, 0x14, 0x0D, 0x25, 0x62, 0xEC, 0xE5, 0xD9, 0xDB, 0xAA, 0xE0, 0x2F, 0x1E, 0xB0, 0xD8, 0x1D, 0xE5, 0xE1, 0xE7, 0xB6, 0xE7, 0x2B, 0x13, 0x99, 0x26, 0x59, 0xF9, 0xC7, 0x03, 0xCC, 0xF7, 0x8A, 0xFA, 0xD7, 0x2A, 0x88, 0xAF, 0xAA, 0x27, 0x31, 0xE9, 0xD8, 0xF3, 0xDC, 0x08, 0x3A, 0xAE, 0x39, 0xF9, 0xC5, 0xCD, 0xAA, 0x02, 0xFD, 0xAF, 0x09, 0x3E, 0xDB, 0xA9, 0x9D, 0x08, 0xAB, 0xEC, 0xE3, 0x41, 0x55, 0x04, 0xD6, 0x32, 0x3E, 0xE4, 0x49, 0x39, 0xD6, 0xC5, 0x42, 0x3A, 0xB8, 0xE4, 0xDB, 0x03, 0xC9, 0xEB, 0x21, 0xFB, 0xE9, 0x08, 0xCB, 0xE6, 0x2A, 0xCF, 0x0C, 0x03, 0x20, 0x23, 0x0C, 0x27, 0x1B, 0xC9, 0xEE, 0xEE, 0xF5, 0xCD, 0xFD, 0xD6, 0x01, 0xF4, 0xEF, 0x1C, 0x02, 0xDA, 0x25, 0x22, 0x02, 0xE2, 0xFF, 0x06, 0xDA, 0xA6, 0xE7, 0x2A, 0x03, 0xDC, 0xFE, 0xDB, 0xCD, 0xF8, 0x0C, 0xF6, 0x03, 0x1A, 0x13, 0xDC, 0xE8, 0xF2, 0x09, 0x24, 0xF3, 0xE5, 0x15, 0xE9, 0xFC, 0xDF, 0xF5, 0xED, 0x1F, 0x7F, 0x17, 0xB4, 0xD7, 0xF9, 0x11, 0xC6, 0xF7, 0xE1, 0x1B, 0x3C, 0xEE, 0x37, 0xE2, 0xC5, 0x20, 0xA0, 0xDC, 0xCC, 0x9E, 0x2C, 0xD5, 0xEE, 0xC4, 0xCB, 0xED, 0xD5, 0xD5, 0xE5, 0xE0, 0xD0, 0x23, 0xF0, 0xF0, 0xBD, 0x43, 0xEB, 0x16, 0xE0, 0xEF, 0x18, 0x05, 0xFF, 0x26, 0x24, 0x03, 0xF4, 0xF4, 0x25, 0xEF, 0xE9, 0x1A, 0xFC, 0xE8, 0xDE, 0xE5, 0x05, 0x16, 0x3A, 0xF0, 0x1C, 0xE8, 0xEB, 0xE4, 0x17, 0x24, 0x06, 0xC9, 0xFC, 0xE7, 0xE2, 0xFB, 0xD1, 0xF3, 0x2C, 0xE7, 0xA8, 0x3D, 0xC9, 0xFD, 0x2E, 0x05, 0xE5, 0x71, 0xBF, 0xFF, 0x58, 0x15, 0xFC, 0xC1, 0xED, 0x14, 0x01, 0x01, 0xDB, 0xDB, 0x11, 0x33, 0xEA, 0x4D, 0xDC, 0xBB, 0x36, 0xF6, 0x3B, 0xA4, 0x50, 0x90, 0xF1, 0x0D, 0x11, 0x3A, 0xFA, 0x91, 0xD9, 0x4C, 0xE4, 0xA5, 0x3A, 0x18, 0xCD, 0xB9, 0xE9, 0xD0, 0x18, 0x42, 0x07, 0xD0, 0xCC, 0x43, 0xF0, 0x39, 0x4E, 0xE2, 0xE4, 0xB5, 0xC8, 0x29, 0xFB, 0x49, 0xD3, 0xDF, 0xA2, 0x19, 0xD4, 0x35, 0xFD, 0xFF, 0x1A, 0xC3, 0x57, 0xCF, 0x17, 0x0B, 0xE4, 0xE0, 0xBC, 0x2F, 0x41, 0x81, 0xF3, 0x03, 0x88, 0xFA, 0x00, 0x8B, 0x52, 0xA4, 0x2E, 0xF7, 0x99, 0xBB, 0xEB, 0x95, 0x30, 0xB0, 0x1F, 0xA6, 0x2B, 0x36, 0xB1, 0xCC, 0x05, 0xFA, 0x96, 0xBB, 0x39, 0x19, 0xC3, 0xD9, 0x95, 0x42, 0x2C, 0xBE, 0x5E, 0x13, 0x4A, 0xCC, 0xF6, 0x2D, 0x8E, 0xC7, 0x49, 0x1C, 0xBB, 0x67, 0xB0, 0xCB, 0x07, 0xB0, 0xCB, 0xF9, 0x39, 0x49, 0x9D, 0xAA, 0x21, 0x5D, 0x96, 0xD9, 0x3B, 0x15, 0x4D, 0x04, 0x53, 0xE5, 0xFC, 0x0C, 0xD3, 0xFD, 0x2E, 0x2B, 0xA1, 0xA7, 0xAF, 0xC4, 0xEF, 0xB3, 0x31, 0xC4, 0x9F, 0xF0, 0xAF, 0xE1, 0x99, 0x3D, 0x40, 0xC7, 0x10, 0xC1, 0x53, 0xB7, 0x3E, 0x00, 0xC6, 0x46, 0xFA, 0x97, 0xA3, 0x70, 0x8F, 0x2B, 0x13, 0x36, 0x3D, 0x14, 0x98, 0x24, 0x07, 0xD4, 0x9B, 0x10, 0xFA, 0x4B, 0x4C, 0x6B, 0x0C, 0x08, 0xC4, 0xD7, 0xDF, 0x00, 0x4F, 0xAD, 0xC4, 0x6D, 0x68, 0x04, 0x0E, 0xE9, 0x33, 0xB0, 0xCE, 0x1A, 0x36, 0x2A, 0x0D, 0xF5, 0xE4, 0xAC, 0xF0, 0xCC, 0xD2, 0x09, 0x40, 0x72, 0x1B, 0xA9, 0xB5, 0xB7, 0x3F, 0xB0, 0xB9, 0x42, 0xF1, 0x9D, 0x05, 0x63, 0x13, 0x00, 0x7F, 0x9C, 0xA3, 0xC7, 0xEB, 0xBC, 0x42, 0xCA, 0x4C, 0x9B, 0xCF, 0x96, 0x19, 0x56, 0xD1, 0xD5, 0xB4, 0x4F, 0x31, 0x0E, 0xF8, 0xA9, 0xB5, 0xB4, 0xBB, 0x0B, 0x45, 0xDB, 0xC4, 0x1E, 0xD5, 0x47, 0x9E, 0x64, 0xD9, 0x88, 0x07, 0x41, 0x86, 0x8F, 0xD8, 0xFD, 0x48, 0xCB, 0xB3, 0x08, 0xA0, 0xC8, 0xA4, 0xFE, 0x44, 0x9A, 0xF3, 0x4D, 0xF2, 0xEE, 0x0A, 0x9A, 0xDE, 0xE0, 0xC3, 0xB9, 0xDE, 0x51, 0xD2, 0x25, 0xF9, 0x56, 0xAE, 0x2B, 0x46, 0xF8, 0xAD, 0x13, 0x27, 0x48, 0xA3, 0xC0, 0xB0, 0x0E, 0xEF, 0xA3, 0x93, 0x60, 0xA6, 0xFF, 0xF4, 0xCC, 0xC8, 0x40, 0x14, 0xCE, 0xFE, 0xF4, 0x06, 0x84, 0x3D, 0x3A, 0xC1, 0xF0, 0xFB, 0xB2, 0xC8, 0x09, 0x2B, 0xDA, 0x25, 0xCD, 0x95, 0x24, 0xB7, 0x04, 0xF4, 0xD0, 0x36, 0xBA, 0xEC, 0xFB, 0xB9, 0xCD, 0xD7, 0x04, 0xA4, 0xDB, 0xBC, 0xD4, 0xE7, 0x9A, 0xF9, 0xC9, 0x9B, 0xD1, 0xD1, 0xD3, 0x48, 0x5A, 0x38, 0xAB, 0xA8, 0x81, 0xEC, 0xA8, 0x1D, 0xC8, 0x08, 0x35, 0xD9, 0xE4, 0xBE, 0xAA, 0xB8, 0x3F, 0x14, 0xE3, 0x01, 0xF3, 0x9D, 0x15, 0x3C, 0xF1, 0xA2, 0x88, 0x34, 0x2F, 0x02, 0x5A, 0x36, 0x97, 0xC5, 0xA1, 0xBD, 0x8F, 0x01, 0xDC, 0x15, 0x40, 0xFB, 0xEA, 0xF7, 0xE3, 0x2B, 0x9D, 0x19, 0xCA, 0x27, 0xF5, 0x2E, 0x9D, 0x26, 0xAC, 0x67, 0x12, 0xDD, 0x30, 0x17, 0xDE, 0x0E, 0x03, 0xDC, 0xD0, 0x21, 0x62, 0xA2, 0xE3, 0x8E, 0x8A, 0x3F, 0x0B, 0x3C, 0xDE, 0x0C, 0x2B, 0xC1, 0x97, 0x99, 0x3C, 0x9D, 0xE7, 0x4B, 0x25, 0x1A, 0x95, 0x82, 0xD6, 0x40, 0x9B, 0x19, 0x14, 0xD6, 0x13, 0xDD, 0x1B, 0xD2, 0xF4, 0xBF, 0x4B, 0x0D, 0x06, 0x58, 0xB0, 0x06, 0xE8, 0x18, 0xEC, 0x88, 0x4D, 0x44, 0x8D, 0xE6, 0x9D, 0x18, 0xDA, 0xE1, 0xAA, 0x02, 0x3E, 0x02, 0xCE, 0xEA, 0x16, 0x3D, 0x10, 0x4D, 0xF0, 0x15, 0xC5, 0x96, 0xDA, 0xF8, 0x67, 0xEA, 0xF2, 0x0D, 0xD9, 0x14, 0x81, 0xED, 0xC4, 0xE4, 0x47, 0xB1, 0xC7, 0x3D, 0x0D, 0x0D, 0xB9, 0xD1, 0x16, 0x43, 0xD4, 0x47, 0x89, 0xA9, 0xBB, 0xD3, 0x21, 0xFC, 0xC5, 0x2D, 0xE2, 0xA4, 0xD8, 0x10, 0x2C, 0xBE, 0xF0, 0xD9, 0x63, 0x05, 0x3B, 0xF6, 0x99, 0xAB, 0xA7, 0xEB, 0x16, 0x47, 0xA0, 0xD6, 0xBA, 0x1C, 0x1A, 0x57, 0x3D, 0xC8, 0xA3, 0xC3, 0x45, 0xA5, 0xC2, 0xCF, 0x63, 0xBA, 0x32, 0xC1, 0x15, 0x02, 0x0E, 0xC5, 0x4A, 0x27, 0x1D, 0x3C, 0xE7, 0xFE, 0xBA, 0x1A, 0x0C, 0xD0, 0xCC, 0x2C, 0x2E, 0xC2, 0xE3, 0x0E, 0xC7, 0xDE, 0x12, 0x9D, 0x09, 0xB4, 0xBF, 0xBF, 0x37, 0x34, 0x43, 0xA7, 0x1C, 0xBC, 0x13, 0xF4, 0xAA, 0xD5, 0xED, 0xA8, 0x25, 0x0A, 0x23, 0xD6, 0x1C, 0xCF, 0xC2, 0x1B, 0xDC, 0xA4, 0x25, 0xE1, 0x25, 0xDB, 0xBF, 0xFC, 0x17, 0x08, 0xDE, 0xF2, 0x35, 0xED, 0xC4, 0xDE, 0xA8, 0xA8, 0xE6, 0x23, 0xFC, 0x39, 0xC2, 0xC8, 0xF0, 0xA2, 0x2B, 0x06, 0xCE, 0x0E, 0xFE, 0xBF, 0xE5, 0x0C, 0x26, 0x50, 0xFD, 0xD3, 0x9F, 0x4C, 0xAF, 0x04, 0x27, 0xC1, 0xA9, 0x2C, 0xF0, 0x1D, 0x59, 0x09, 0xEB, 0xDF, 0xFA, 0xF7, 0x39, 0xE7, 0xD8, 0xBF, 0x04, 0x90, 0x00, 0x0C, 0x26, 0x03, 0x4F, 0xF9, 0xF1, 0xE9, 0x00, 0x11, 0xFA, 0xD2, 0x02, 0xC4, 0xFF, 0xE7, 0xAB, 0xFE, 0xE8, 0x00, 0xC2, 0xE1, 0xA2, 0x06, 0xD0, 0xBB, 0xBD, 0xB1, 0x2A, 0xFD, 0x81, 0xF5, 0xBF, 0xF6, 0xF6, 0x04, 0xA5, 0x62, 0xA7, 0x47, 0xDA, 0xAE, 0xA3, 0x0E, 0x1A, 0x12, 0x14, 0x14, 0xB1, 0x1B, 0xE8, 0xB1, 0xF8, 0xA7, 0x04, 0x0E, 0xB9, 0x45, 0x9F, 0x40, 0x03, 0xB2, 0xF2, 0x4B, 0x39, 0x31, 0x57, 0x16, 0xFC, 0x98, 0xAF, 0xD7, 0x47, 0xDC, 0x42, 0x36, 0x9F, 0xA5, 0xB0, 0xC1, 0x16, 0x13, 0x32, 0xA7, 0x22, 0x1D, 0x34, 0xA9, 0x12, 0xDC, 0x0F, 0xE4, 0xE6, 0x11, 0x0D, 0x1E, 0x3E, 0x96, 0xB8, 0xAF, 0xD1, 0xFA, 0x03, 0xC2, 0x43, 0x36, 0x04, 0x9F, 0x11, 0x06, 0x11, 0xDB, 0x93, 0x49, 0x0D, 0x15, 0xD9, 0xD9, 0x2E, 0x4E, 0xE3, 0xDA, 0x2A, 0xD2, 0xFC, 0x0B, 0x23, 0x30, 0xD5, 0xD7, 0x43, 0x22, 0xEF, 0x45, 0x9B, 0xA9, 0x62, 0xA6, 0x86, 0x51, 0xAF, 0xA3, 0x81, 0xAA, 0xDE, 0xB0, 0x07, 0x0E, 0x04, 0x70, 0xAE, 0xDA, 0x20, 0x1A, 0x15, 0xC2, 0xD8, 0x30, 0xD7, 0x0A, 0x27, 0x3E, 0x46, 0xFC, 0xA0, 0xA2, 0xFD, 0x0A, 0xA8, 0xDE, 0x9D, 0xEA, 0x12, 0xD1, 0xBA, 0x20, 0x29, 0xC5, 0xB6, 0x23, 0x06, 0x3E, 0xC6, 0x91, 0x7C, 0x4B, 0x09, 0xC8, 0xAF, 0x07, 0xE2, 0xD1, 0x98, 0xCF, 0xE9, 0x1D, 0xB1, 0xD3, 0x66, 0x09, 0x48, 0xFE, 0xE1, 0xCC, 0x16, 0x9B, 0x77, 0xAF, 0xA7, 0xE8, 0xCD, 0xEC, 0x1F, 0x24, 0x43, 0x24, 0x33, 0x27, 0x23, 0x32, 0x17, 0xA0, 0xC3, 0x5C, 0xD6, 0xF4, 0xF2, 0xAC, 0xE5, 0x22, 0xFB, 0xCF, 0x35, 0xC5, 0xE5, 0x00, 0x05, 0x38, 0xF8, 0xEA, 0x42, 0x0A, 0xF9, 0xD3, 0xB1, 0x38, 0x31, 0x9D, 0xBF, 0xB5, 0xE6, 0x20, 0xA4, 0xCC, 0xEE, 0x52, 0xF9, 0xA0, 0x0B, 0xA8, 0x81, 0x13, 0x3A, 0xDB, 0x40, 0xFA, 0x1B, 0xCB, 0xA6, 0x54, 0x07, 0xE9, 0xBE, 0xE5, 0xE4, 0xA6, 0x1C, 0x2E, 0x12, 0x8D, 0xEA, 0xDA, 0xEE, 0x31, 0xEE, 0xDD, 0x28, 0x15, 0x08, 0xA9, 0xA4, 0x11, 0x11, 0xB8, 0x52, 0x44, 0x1E, 0xB0, 0x37, 0x07, 0x11, 0xFD, 0xA4, 0x2A, 0x40, 0xDF, 0x2E, 0x84, 0xA3, 0xDA, 0x1F, 0xA7, 0xAC, 0x9A, 0x32, 0xFD, 0x9D, 0xF2, 0xB9, 0x1C, 0xD9, 0x2C, 0xAD, 0x67, 0x2E, 0x45, 0xED, 0x5A, 0xD8, 0x9E, 0xAE, 0x06, 0xC2, 0xE3, 0x4C, 0x41, 0x90, 0x22, 0x43, 0xA3, 0xE9, 0x4D, 0x2F, 0xB9, 0xB8, 0xD1, 0xF9, 0x30, 0x3F, 0x17, 0xC5, 0x0C, 0x9A, 0xEA, 0xE4, 0x93, 0x92, 0x5A, 0xFB, 0x5C, 0x2F, 0xA2, 0xA7, 0x39, 0x9E, 0x8B, 0x9F, 0xA0, 0xF9, 0xB2, 0x32, 0xD0, 0x9B, 0x0D, 0x84, 0x97, 0xF6, 0xB7, 0x2F, 0x94, 0x41, 0x15, 0xBC, 0x4A, 0x97, 0x34, 0x0A, 0x4B, 0xAA, 0xC1, 0x60, 0xC2, 0x66, 0xE9, 0xA1, 0xAB, 0x21, 0x00, 0xC2, 0x4E, 0x4F, 0xF7, 0xC2, 0xE1, 0x06, 0xB0, 0x0D, 0x2A, 0xB2, 0xA4, 0x27, 0x56, 0x1C, 0x56, 0x5F, 0xCE, 0xB0, 0x8A, 0xF6, 0x41, 0xD6, 0xFD, 0xE9, 0x12, 0xD2, 0xD9, 0xDF, 0x38, 0xDB, 0x15, 0x85, 0x32, 0xD8, 0x88, 0x3E, 0x2B, 0xE2, 0xDF, 0x43, 0x69, 0x52, 0x94, 0x90, 0xF7, 0x9E, 0xC4, 0xF4, 0xEA, 0x2D, 0x81, 0x34, 0x24, 0xC6, 0xF3, 0x52, 0x8C, 0xB5, 0x8B, 0xAE, 0x0C, 0xAB, 0xD6, 0xF9, 0xB0, 0x23, 0x72, 0xE8, 0xFF, 0xFF, 0x00, 0x00, 0x00, 0x09, 0x10, 0x00, 0x00, 0x00, 0x10, 0x00, 0x00, 0x00, 0x1C, 0x00, 0x00, 0x00, 0x8C, 0x00, 0x00, 0x00, 0x04, 0x00, 0x00, 0x00, 0x10, 0x00, 0x00, 0x00, 0x03, 0x00, 0x00, 0x00, 0x03, 0x00, 0x00, 0x00, 0x10, 0x00, 0x00, 0x00, 0x6F, 0x00, 0x00, 0x00, 0x73, 0x65, 0x71, 0x75, 0x65, 0x6E, 0x74, 0x69, 0x61, 0x6C, 0x5F, 0x31, 0x2F, 0x71, 0x75, 0x61, 0x6E, 0x74, 0x5F, 0x63, 0x6F, 0x6E, 0x76, 0x32, 0x64, 0x5F, 0x37, 0x2F, 0x43, 0x6F, 0x6E, 0x76, 0x32, 0x44, 0x3B, 0x73, 0x65, 0x71, 0x75, 0x65, 0x6E, 0x74, 0x69, 0x61, 0x6C, 0x5F, 0x31, 0x2F, 0x71, 0x75, 0x61, 0x6E, 0x74, 0x5F, 0x63, 0x6F, 0x6E, 0x76, 0x32, 0x64, 0x5F, 0x37, 0x2F, 0x4C, 0x61, 0x73, 0x74, 0x56, 0x61, 0x6C, 0x75, 0x65, 0x51, 0x75, 0x61, 0x6E, 0x74, 0x2F, 0x46, 0x61, 0x6B, 0x65, 0x51, 0x75, 0x61, 0x6E, 0x74, 0x57, 0x69, 0x74, 0x68, 0x4D, 0x69, 0x6E, 0x4D, 0x61, 0x78, 0x56, 0x61, 0x72, 0x73, 0x50, 0x65, 0x72, 0x43, 0x68, 0x61, 0x6E, 0x6E, 0x65, 0x6C, 0x00, 0x60, 0xE9, 0xFF, 0xFF, 0x08, 0x00, 0x00, 0x00, 0x48, 0x00, 0x00, 0x00, 0x10, 0x00, 0x00, 0x00, 0xB9, 0xBE, 0xA6, 0x3A, 0xD7, 0xDA, 0xBD, 0x3A, 0xE0, 0x5E, 0xBE, 0x3A, 0x38, 0xAC, 0xB3, 0x3A, 0x21, 0x2E, 0xAA, 0x3A, 0x82, 0xE0, 0xAF, 0x3A, 0x61, 0x30, 0xBE, 0x3A, 0x37, 0xA3, 0x26, 0x3B, 0xD8, 0xE6, 0xAA, 0x3A, 0x55, 0x61, 0xAA, 0x3A, 0xB2, 0x5F, 0xB7, 0x3A, 0x34, 0xDE, 0xA7, 0x3A, 0x51, 0x69, 0xD3, 0x3A, 0xAB, 0xFC, 0xBD, 0x3A, 0xAA, 0xDF, 0xB4, 0x3A, 0x1E, 0xF5, 0xA3, 0x3A, 0x10, 0x00, 0x00, 0x00, 0x00, 0x00, 0x00, 0x00, 0x00, 0x00, 0x00, 0x00, 0x00, 0x00, 0x00, 0x00, 0x00, 0x00, 0x00, 0x00, 0x00, 0x00, 0x00, 0x00, 0x00, 0x00, 0x00, 0x00, 0x00, 0x00, 0x00, 0x00, 0x00, 0x00, 0x00, 0x00, 0x00, 0x00, 0x00, 0x00, 0x00, 0x00, 0x00, 0x00, 0x00, 0x00, 0x00, 0x00, 0x00, 0x00, 0x00, 0x00, 0x00, 0x00, 0x00, 0x00, 0x00, 0x00, 0x00, 0x00, 0x00, 0x00, 0x00, 0x00, 0x00, 0x00, 0x00, 0x00, 0x00, 0x00, 0x00, 0x00, 0x00, 0x00, 0x00, 0x00, 0x00, 0x00, 0x00, 0x00, 0x00, 0x00, 0x00, 0x00, 0x00, 0x00, 0x00, 0x00, 0x00, 0x00, 0x00, 0x00, 0x00, 0x00, 0x00, 0x00, 0x00, 0x00, 0x00, 0x00, 0x00, 0x00, 0x00, 0x00, 0x00, 0x00, 0x00, 0x00, 0x00, 0x00, 0x00, 0x00, 0x00, 0x00, 0x00, 0x00, 0x00, 0x00, 0x00, 0x00, 0x00, 0x00, 0x00, 0x00, 0x00, 0x00, 0x00, 0x00, 0x00, 0x00, 0x00, 0x00, 0x6E, 0xEF, 0xFF, 0xFF, 0x00, 0x00, 0x00, 0x05, 0x02, 0x00, 0x00, 0x00, 0x28, 0x00, 0x00, 0x00, 0x1C, 0x00, 0x00, 0x00, 0x04, 0x00, 0x00, 0x00, 0x5E, 0xF0, 0xFF, 0xFF, 0x02, 0x00, 0x00, 0x00, 0x02, 0x00, 0x00, 0x00, 0x02, 0x00, 0x00, 0x00, 0x02, 0x00, 0x00, 0x00, 0x01, 0x00, 0x00, 0x00, 0x0E, 0x00, 0x00, 0x00, 0x01, 0x00, 0x00, 0x00, 0x0D, 0x00, 0x00, 0x00, 0xD0, 0xEB, 0xFF, 0xFF, 0x00, 0x00, 0x00, 0x09, 0x14, 0x00, 0x00, 0x00, 0x0F, 0x00, 0x00, 0x00, 0x34, 0x00, 0x00, 0x00, 0x60, 0x00, 0x00, 0x00, 0x18, 0x00, 0x00, 0x00, 0x04, 0x00, 0x00, 0x00, 0x01, 0x00, 0x00, 0x00, 0x05, 0x00, 0x00, 0x00, 0x21, 0x00, 0x00, 0x00, 0x10, 0x00, 0x00, 0x00, 0x04, 0x00, 0x00, 0x00, 0xFF, 0xFF, 0xFF, 0xFF, 0x05, 0x00, 0x00, 0x00, 0x21, 0x00, 0x00, 0x00, 0x10, 0x00, 0x00, 0x00, 0x2A, 0x00, 0x00, 0x00, 0x73, 0x65, 0x71, 0x75, 0x65, 0x6E, 0x74, 0x69, 0x61, 0x6C, 0x5F, 0x31, 0x2F, 0x71, 0x75, 0x61, 0x6E, 0x74, 0x5F, 0x6D, 0x61, 0x78, 0x5F, 0x70, 0x6F, 0x6F, 0x6C, 0x69, 0x6E, 0x67, 0x32, 0x64, 0x5F, 0x36, 0x2F, 0x4D, 0x61, 0x78, 0x50, 0x6F, 0x6F, 0x6C, 0x00, 0x00, 0xE4, 0xEA, 0xFF, 0xFF, 0x08, 0x00, 0x00, 0x00, 0x0C, 0x00, 0x00, 0x00, 0x01, 0x00, 0x00, 0x00, 0x09, 0xBB, 0xB8, 0x41, 0x01, 0x00, 0x00, 0x00, 0x80, 0xFF, 0xFF, 0xFF, 0xFF, 0xFF, 0xFF, 0xFF, 0x00, 0x00, 0x00, 0x00, 0x42, 0xF0, 0xFF, 0xFF, 0x00, 0x00, 0x00, 0x01, 0x01, 0x00, 0x00, 0x00, 0x24, 0x00, 0x00, 0x00, 0x18, 0x00, 0x00, 0x00, 0x04, 0x00, 0x00, 0x00, 0x34, 0xF0, 0xFF, 0xFF, 0x01, 0x00, 0x00, 0x00, 0x01, 0x00, 0x00, 0x00, 0x00, 0x00, 0x00, 0x01, 0x01, 0x00, 0x00, 0x00, 0x0D, 0x00, 0x00, 0x00, 0x03, 0x00, 0x00, 0x00, 0x0A, 0x00, 0x00, 0x00, 0x0B, 0x00, 0x00, 0x00, 0x0C, 0x00, 0x00, 0x00, 0xA8, 0xEC, 0xFF, 0xFF, 0x00, 0x00, 0x00, 0x09, 0x14, 0x00, 0x00, 0x00, 0x0E, 0x00, 0x00, 0x00, 0x34, 0x00, 0x00, 0x00, 0xD8, 0x00, 0x00, 0x00, 0x18, 0x00, 0x00, 0x00, 0x04, 0x00, 0x00, 0x00, 0x01, 0x00, 0x00, 0x00, 0x09, 0x00, 0x00, 0x00, 0x41, 0x00, 0x00, 0x00, 0x10, 0x00, 0x00, 0x00, 0x04, 0x00, 0x00, 0x00, 0xFF, 0xFF, 0xFF, 0xFF, 0x09, 0x00, 0x00, 0x00, 0x41, 0x00, 0x00, 0x00, 0x10, 0x00, 0x00, 0x00, 0xA3, 0x00, 0x00, 0x00, 0x73, 0x65, 0x71, 0x75, 0x65, 0x6E, 0x74, 0x69, 0x61, 0x6C, 0x5F, 0x31, 0x2F, 0x71, 0x75, 0x61, 0x6E, 0x74, 0x5F, 0x63, 0x6F, 0x6E, 0x76, 0x32, 0x64, 0x5F, 0x36, 0x2F, 0x52, 0x65, 0x6C, 0x75, 0x3B, 0x73, 0x65, 0x71, 0x75, 0x65, 0x6E, 0x74, 0x69, 0x61, 0x6C, 0x5F, 0x31, 0x2F, 0x71, 0x75, 0x61, 0x6E, 0x74, 0x5F, 0x63, 0x6F, 0x6E, 0x76, 0x32, 0x64, 0x5F, 0x36, 0x2F, 0x42, 0x69, 0x61, 0x73, 0x41, 0x64, 0x64, 0x3B, 0x73, 0x65, 0x71, 0x75, 0x65, 0x6E, 0x74, 0x69, 0x61, 0x6C, 0x5F, 0x31, 0x2F, 0x71, 0x75, 0x61, 0x6E, 0x74, 0x5F, 0x63, 0x6F, 0x6E, 0x76, 0x32, 0x64, 0x5F, 0x36, 0x2F, 0x43, 0x6F, 0x6E, 0x76, 0x32, 0x44, 0x3B, 0x73, 0x65, 0x71, 0x75, 0x65, 0x6E, 0x74, 0x69, 0x61, 0x6C, 0x5F, 0x31, 0x2F, 0x71, 0x75, 0x61, 0x6E, 0x74, 0x5F, 0x63, 0x6F, 0x6E, 0x76, 0x32, 0x64, 0x5F, 0x36, 0x2F, 0x42, 0x69, 0x61, 0x73, 0x41, 0x64, 0x64, 0x2F, 0x52, 0x65, 0x61, 0x64, 0x56, 0x61, 0x72, 0x69, 0x61, 0x62, 0x6C, 0x65, 0x4F, 0x70, 0x2F, 0x72, 0x65, 0x73, 0x6F, 0x75, 0x72, 0x63, 0x65, 0x00, 0x34, 0xEC, 0xFF, 0xFF, 0x08, 0x00, 0x00, 0x00, 0x0C, 0x00, 0x00, 0x00, 0x01, 0x00, 0x00, 0x00, 0x09, 0xBB, 0xB8, 0x41, 0x01, 0x00, 0x00, 0x00, 0x80, 0xFF, 0xFF, 0xFF, 0xFF, 0xFF, 0xFF, 0xFF, 0x22, 0xEC, 0xFF, 0xFF, 0x04, 0x00, 0x00, 0x00, 0x40, 0x00, 0x00, 0x00, 0x01, 0x00, 0x00, 0x00, 0x00, 0x00, 0x00, 0x00, 0xFF, 0xFF, 0xFF, 0xFF, 0x02, 0x00, 0x00, 0x00, 0x01, 0x00, 0x00, 0x00, 0xFF, 0xFF, 0xFF, 0xFF, 0xFF, 0xFF, 0xFF, 0xFF, 0x00, 0x00, 0x00, 0x00, 0xFE, 0xFF, 0xFF, 0xFF, 0xFE, 0xFF, 0xFF, 0xFF, 0xFF, 0xFF, 0xFF, 0xFF, 0xFA, 0xFF, 0xFF, 0xFF, 0xFB, 0xFF, 0xFF, 0xFF, 0x00, 0x00, 0x00, 0x00, 0xFE, 0xFF, 0xFF, 0xFF, 0xFC, 0xFF, 0xFF, 0xFF, 0x52, 0xEC, 0xFF, 0xFF, 0x00, 0x00, 0x00, 0x02, 0x10, 0x00, 0x00, 0x00, 0x0D, 0x00, 0x00, 0x00, 0x10, 0x00, 0x00, 0x00, 0x94, 0x00, 0x00, 0x00, 0x01, 0x00, 0x00, 0x00, 0x10, 0x00, 0x00, 0x00, 0x82, 0x00, 0x00, 0x00, 0x73, 0x65, 0x71, 0x75, 0x65, 0x6E, 0x74, 0x69, 0x61, 0x6C, 0x5F, 0x31, 0x2F, 0x71, 0x75, 0x61, 0x6E, 0x74, 0x5F, 0x63, 0x6F, 0x6E, 0x76, 0x32, 0x64, 0x5F, 0x36, 0x2F, 0x42, 0x69, 0x61, 0x73, 0x41, 0x64, 0x64, 0x3B, 0x73, 0x65, 0x71, 0x75, 0x65, 0x6E, 0x74, 0x69, 0x61, 0x6C, 0x5F, 0x31, 0x2F, 0x71, 0x75, 0x61, 0x6E, 0x74, 0x5F, 0x63, 0x6F, 0x6E, 0x76, 0x32, 0x64, 0x5F, 0x36, 0x2F, 0x43, 0x6F, 0x6E, 0x76, 0x32, 0x44, 0x3B, 0x73, 0x65, 0x71, 0x75, 0x65, 0x6E, 0x74, 0x69, 0x61, 0x6C, 0x5F, 0x31, 0x2F, 0x71, 0x75, 0x61, 0x6E, 0x74, 0x5F, 0x63, 0x6F, 0x6E, 0x76, 0x32, 0x64, 0x5F, 0x36, 0x2F, 0x42, 0x69, 0x61, 0x73, 0x41, 0x64, 0x64, 0x2F, 0x52, 0x65, 0x61, 0x64, 0x56, 0x61, 0x72, 0x69, 0x61, 0x62, 0x6C, 0x65, 0x4F, 0x70, 0x2F, 0x72, 0x65, 0x73, 0x6F, 0x75, 0x72, 0x63, 0x65, 0x00, 0x00, 0x48, 0xED, 0xFF, 0xFF, 0x08, 0x00, 0x00, 0x00, 0x48, 0x00, 0x00, 0x00, 0x10, 0x00, 0x00, 0x00, 0x0F, 0x38, 0xDB, 0x3D, 0x9D, 0x45, 0xEB, 0x3D, 0xCE, 0x5C, 0x04, 0x3E, 0x9E, 0x2D, 0xBA, 0x3D, 0xE5, 0xC5, 0xE5, 0x3D, 0x42, 0xFD, 0xDF, 0x3D, 0x2D, 0x45, 0xD2, 0x3D, 0xB5, 0xC3, 0xD0, 0x3D, 0xC1, 0xC4, 0xC1, 0x3D, 0x13, 0xE9, 0xC9, 0x3D, 0xC8, 0x8F, 0xE5, 0x3D, 0x52, 0xD7, 0xC1, 0x3D, 0x5A, 0x13, 0xC7, 0x3D, 0x31, 0x44, 0xDF, 0x3D, 0x54, 0x94, 0xD9, 0x3D, 0x6B, 0x1B, 0xB9, 0x3D, 0x10, 0x00, 0x00, 0x00, 0x00, 0x00, 0x00, 0x00, 0x00, 0x00, 0x00, 0x00, 0x00, 0x00, 0x00, 0x00, 0x00, 0x00, 0x00, 0x00, 0x00, 0x00, 0x00, 0x00, 0x00, 0x00, 0x00, 0x00, 0x00, 0x00, 0x00, 0x00, 0x00, 0x00, 0x00, 0x00, 0x00, 0x00, 0x00, 0x00, 0x00, 0x00, 0x00, 0x00, 0x00, 0x00, 0x00, 0x00, 0x00, 0x00, 0x00, 0x00, 0x00, 0x00, 0x00, 0x00, 0x00, 0x00, 0x00, 0x00, 0x00, 0x00, 0x00, 0x00, 0x00, 0x00, 0x00, 0x00, 0x00, 0x00, 0x00, 0x00, 0x00, 0x00, 0x00, 0x00, 0x00, 0x00, 0x00, 0x00, 0x00, 0x00, 0x00, 0x00, 0x00, 0x00, 0x00, 0x00, 0x00, 0x00, 0x00, 0x00, 0x00, 0x00, 0x00, 0x00, 0x00, 0x00, 0x00, 0x00, 0x00, 0x00, 0x00, 0x00, 0x00, 0x00, 0x00, 0x00, 0x00, 0x00, 0x00, 0x00, 0x00, 0x00, 0x00, 0x00, 0x00, 0x00, 0x00, 0x00, 0x00, 0x00, 0x00, 0x00, 0x00, 0x00, 0x00, 0x00, 0x00, 0x00, 0x00, 0x00, 0xEA, 0xED, 0xFF, 0xFF, 0x04, 0x00, 0x00, 0x00, 0x80, 0x04, 0x00, 0x00, 0x1A, 0x98, 0x16, 0xD2, 0xCA, 0x1B, 0xA0, 0xCE, 0x26, 0xED, 0xCB, 0x5E, 0xFE, 0xB4, 0x42, 0xA7, 0x34, 0x67, 0x1C, 0x4A, 0x16, 0xD8, 0x37, 0x61, 0x9D, 0xBD, 0x45, 0xE3, 0xE4, 0xC4, 0xC8, 0x03, 0x81, 0x29, 0xFD, 0x25, 0x49, 0xAA, 0x57, 0xCA, 0x22, 0x37, 0xB3, 0x0A, 0x58, 0x4E, 0xCA, 0xA2, 0xD5, 0x44, 0xCD, 0xAE, 0x12, 0xF1, 0xF6, 0xC9, 0xFA, 0x2F, 0xCD, 0x33, 0xCC, 0x33, 0x62, 0x4C, 0x46, 0xD8, 0xB6, 0xC9, 0x1B, 0x46, 0xBE, 0xF1, 0x06, 0x81, 0xB5, 0x06, 0xCC, 0x85, 0xA0, 0x8F, 0xD7, 0xD8, 0x31, 0x4E, 0xCA, 0x05, 0xC2, 0x0A, 0x8A, 0x3D, 0x38, 0xE1, 0x96, 0x52, 0xE7, 0xD0, 0xD1, 0xA3, 0xC1, 0x14, 0xEC, 0x0C, 0x20, 0x22, 0xC5, 0xDB, 0x43, 0xDC, 0x4B, 0x10, 0xD4, 0x45, 0x4A, 0x2E, 0xC8, 0xD8, 0x54, 0xE2, 0xD5, 0xC5, 0xF5, 0xEE, 0x1B, 0x0F, 0x94, 0xB2, 0x59, 0x44, 0x0F, 0xDC, 0xB0, 0x25, 0x3B, 0x90, 0x01, 0xCE, 0xFD, 0xE9, 0x1E, 0x48, 0xB7, 0xED, 0x4A, 0xF0, 0x0B, 0x36, 0x81, 0x24, 0x40, 0xF5, 0xAA, 0xF2, 0xF9, 0xDF, 0xCE, 0x06, 0xD9, 0xF9, 0xA2, 0x02, 0xEB, 0xA2, 0x32, 0xF0, 0xE1, 0xE5, 0x05, 0xEB, 0x85, 0xE9, 0xB5, 0x37, 0x96, 0xBB, 0xA0, 0xA2, 0x4E, 0xFE, 0xC6, 0x02, 0xE7, 0xB1, 0x4A, 0xD2, 0x30, 0x07, 0x52, 0xD2, 0xA2, 0x34, 0xD9, 0xCC, 0xEA, 0x37, 0x2F, 0xE1, 0xD7, 0xC9, 0x1E, 0x18, 0xE9, 0xF1, 0x14, 0x66, 0x41, 0x22, 0x4C, 0x0C, 0x32, 0xC5, 0x1F, 0x1E, 0xD9, 0xD9, 0x02, 0x27, 0x37, 0xD1, 0x4A, 0x0F, 0x69, 0x21, 0xA8, 0xE2, 0x49, 0x5E, 0x0D, 0x6F, 0x69, 0x81, 0xBE, 0x8E, 0x06, 0x3E, 0x91, 0x58, 0xD3, 0x5B, 0x02, 0x64, 0x23, 0x53, 0xD7, 0xB5, 0x49, 0xFA, 0xF0, 0xD1, 0xFD, 0x43, 0x7A, 0xE4, 0x90, 0xC5, 0x42, 0xFD, 0x08, 0xEF, 0xE5, 0xC8, 0x07, 0xA6, 0x62, 0xE0, 0x34, 0xF8, 0x9C, 0xEA, 0xFE, 0xD1, 0x9A, 0x3E, 0xFD, 0xF5, 0x42, 0x33, 0xAD, 0x33, 0x0A, 0x48, 0xF9, 0xD5, 0x08, 0x9C, 0xD1, 0x35, 0x5F, 0xE9, 0xC6, 0x01, 0xBD, 0x11, 0x03, 0xD2, 0xCE, 0x07, 0x0C, 0xF2, 0xB5, 0x1F, 0xAE, 0x0B, 0xCC, 0xA1, 0x48, 0x23, 0x35, 0x51, 0xCB, 0x08, 0x39, 0x5C, 0xCA, 0x17, 0x3E, 0x05, 0xCB, 0x81, 0xBA, 0xC7, 0x12, 0x49, 0x0B, 0xAD, 0x26, 0x16, 0x3F, 0xBE, 0x12, 0x11, 0xEF, 0x17, 0x3F, 0xBD, 0xC6, 0xB7, 0x4C, 0xFB, 0x47, 0xDF, 0x11, 0xF2, 0xAB, 0xB7, 0x27, 0xE9, 0xE3, 0xE4, 0xBF, 0xC8, 0x40, 0xA8, 0xE5, 0xF8, 0xF1, 0xE2, 0xBC, 0xD6, 0xEA, 0xDF, 0x3E, 0xBE, 0xD1, 0x07, 0x10, 0x8C, 0x12, 0xB3, 0x2E, 0x2D, 0xEB, 0x52, 0x95, 0xFD, 0xB1, 0xF3, 0x13, 0xCE, 0xAE, 0xF9, 0x3B, 0xE9, 0xBD, 0xB7, 0x0D, 0x4F, 0xA2, 0x85, 0x14, 0xCE, 0x3A, 0x99, 0xBA, 0xF4, 0x86, 0x33, 0x0C, 0x89, 0xD5, 0x81, 0x36, 0x74, 0x8D, 0xBD, 0xA0, 0x18, 0xA4, 0x02, 0xE1, 0x4E, 0x37, 0xF0, 0xDD, 0x27, 0x57, 0x55, 0xEF, 0xF6, 0x9C, 0x22, 0xF4, 0x40, 0xA4, 0xDB, 0xFF, 0x6B, 0xD9, 0xB8, 0xC7, 0x29, 0x1C, 0x50, 0xBF, 0x25, 0x30, 0xD9, 0xEE, 0xFC, 0x4F, 0x45, 0x8C, 0x61, 0x02, 0xA6, 0x4C, 0xAA, 0x8E, 0x03, 0x14, 0x38, 0x93, 0x48, 0xD8, 0xAF, 0x90, 0x34, 0xE3, 0x29, 0x0D, 0x2D, 0x3C, 0xFD, 0xA9, 0x50, 0xC9, 0x33, 0xF7, 0x06, 0x0E, 0xC7, 0xD1, 0xA6, 0xB9, 0xF4, 0xA6, 0xDC, 0xD4, 0xD4, 0x4F, 0xAE, 0x1A, 0xDE, 0xE6, 0x56, 0x01, 0xEB, 0xC6, 0x28, 0xA6, 0x15, 0xC2, 0xA3, 0x81, 0xBA, 0x8B, 0xDE, 0xF9, 0x16, 0x83, 0x90, 0xBA, 0x52, 0x11, 0x46, 0xBF, 0xEA, 0x26, 0xDE, 0x8F, 0x97, 0x92, 0xC9, 0x81, 0xED, 0x42, 0xA4, 0x21, 0x07, 0x24, 0x2C, 0x9E, 0x13, 0xB0, 0xD4, 0xD4, 0x26, 0x86, 0xE8, 0xD4, 0xE2, 0x9D, 0xFB, 0xB9, 0x0F, 0x9F, 0x4E, 0x09, 0x26, 0xAB, 0xA3, 0x1A, 0xA7, 0x28, 0x03, 0xA6, 0xC4, 0xF0, 0xE6, 0xC8, 0x8B, 0x13, 0xCE, 0x0D, 0xEC, 0x3A, 0xBE, 0x14, 0x13, 0x93, 0x94, 0xF2, 0x99, 0x17, 0x2A, 0xEC, 0x01, 0x29, 0xBC, 0xD5, 0xF3, 0xC3, 0xD1, 0x9A, 0xA6, 0x16, 0x78, 0xFC, 0x06, 0x0F, 0x51, 0x23, 0xBB, 0xCB, 0xB3, 0x5E, 0x09, 0xA6, 0x65, 0x42, 0x06, 0x02, 0xD9, 0xD7, 0x11, 0x73, 0xC9, 0x64, 0xCC, 0x51, 0xCA, 0x13, 0xCD, 0x1C, 0x32, 0x68, 0xEF, 0x46, 0xAC, 0xF3, 0x04, 0x13, 0x3F, 0x00, 0x22, 0xA9, 0x2B, 0x0E, 0x09, 0x1F, 0x57, 0x6E, 0xB9, 0x32, 0xD5, 0x11, 0x1C, 0xA9, 0x7A, 0xD2, 0xDD, 0xE1, 0x0A, 0x99, 0x81, 0x46, 0x15, 0xEC, 0xF6, 0xC9, 0x42, 0xAB, 0x29, 0xB5, 0x39, 0xA6, 0x11, 0x51, 0xCD, 0x61, 0xCC, 0xF7, 0x00, 0x0D, 0x5A, 0x2D, 0xBA, 0x2A, 0xE0, 0xD6, 0x02, 0xA7, 0x32, 0xAD, 0xC2, 0x08, 0x93, 0x81, 0x91, 0x07, 0x51, 0xE6, 0x9B, 0xE9, 0x10, 0x43, 0xBF, 0xBB, 0xD1, 0x4C, 0xED, 0x4F, 0x28, 0xFB, 0xC3, 0x0C, 0xA0, 0xEB, 0xE6, 0x04, 0xC5, 0xD4, 0x86, 0xF2, 0x97, 0x17, 0xD9, 0x27, 0x0E, 0x26, 0xC6, 0xF6, 0x65, 0x0C, 0x62, 0xD0, 0xB1, 0x51, 0xC7, 0x15, 0x50, 0xFD, 0xBB, 0x2F, 0xA6, 0xBD, 0xC8, 0x42, 0x66, 0x20, 0xEA, 0x92, 0x2D, 0x0E, 0x00, 0x17, 0xDB, 0xFD, 0xB6, 0xC9, 0x11, 0x38, 0xBC, 0xFE, 0xE3, 0x44, 0x3F, 0x92, 0x32, 0xCE, 0xDD, 0x40, 0x0F, 0x50, 0xA8, 0xED, 0xC2, 0x81, 0xF4, 0x23, 0x37, 0x32, 0xF4, 0x19, 0xA6, 0xBF, 0x20, 0xE1, 0x37, 0xF2, 0x99, 0xE1, 0xB5, 0xDE, 0x01, 0xD1, 0xC6, 0xED, 0xE7, 0x09, 0xD2, 0x1D, 0xCD, 0x17, 0x92, 0xA4, 0xBB, 0xA6, 0x99, 0x5B, 0xF6, 0x44, 0x0D, 0x90, 0xD8, 0xB2, 0xC8, 0xA2, 0x34, 0x28, 0x42, 0x34, 0xA1, 0xDA, 0x13, 0xE2, 0x2D, 0x44, 0xD6, 0x26, 0xC4, 0xC2, 0xC5, 0x43, 0x1C, 0xBB, 0x31, 0x17, 0x3A, 0xDF, 0x02, 0x36, 0x55, 0x37, 0xA6, 0x62, 0x36, 0x10, 0xFD, 0x3D, 0x2E, 0xD7, 0xA0, 0xEB, 0xD6, 0x1C, 0xF6, 0xED, 0xBD, 0x7F, 0x6A, 0x70, 0x57, 0xB9, 0x39, 0xA6, 0x75, 0xE8, 0x7E, 0x59, 0xE6, 0x8D, 0x6C, 0xB8, 0xE3, 0x4B, 0x67, 0x50, 0x3A, 0xEF, 0xA3, 0x9C, 0xC4, 0x29, 0xD7, 0x6D, 0xEF, 0xF0, 0xD7, 0xA0, 0xC5, 0xF5, 0xDF, 0x08, 0xF2, 0xCD, 0x42, 0x22, 0x16, 0x5E, 0x1A, 0x59, 0xB1, 0x2F, 0x25, 0xE3, 0xF4, 0x3D, 0x35, 0xE8, 0x29, 0x18, 0xBE, 0xA0, 0xCB, 0x00, 0xE7, 0x17, 0xA0, 0x28, 0x5B, 0xD0, 0xC0, 0x4E, 0xCD, 0x4F, 0xA4, 0x29, 0xD1, 0xFE, 0x61, 0xB3, 0xCD, 0x25, 0x4A, 0xDE, 0xE8, 0xA4, 0x62, 0x59, 0x6A, 0xC5, 0x37, 0x30, 0x1F, 0x11, 0x81, 0x39, 0x1C, 0x48, 0x9A, 0x4F, 0x4B, 0x42, 0xCF, 0x22, 0x03, 0xAD, 0x32, 0x1F, 0xF8, 0x47, 0x62, 0x66, 0xFD, 0xF4, 0xF2, 0x9D, 0xB7, 0x9A, 0x49, 0xCC, 0xF1, 0x87, 0xE0, 0xAE, 0x41, 0xBD, 0xFF, 0x81, 0xDA, 0xBD, 0xCD, 0x02, 0x5E, 0xE3, 0xCA, 0x9C, 0x75, 0x50, 0xCE, 0x16, 0x21, 0x1B, 0x64, 0xC9, 0x40, 0x76, 0x3A, 0xFC, 0x08, 0x92, 0xF0, 0x21, 0x0C, 0xE4, 0xA0, 0xD4, 0x85, 0x2A, 0xDB, 0xAE, 0x5F, 0xD6, 0xB3, 0xCF, 0x0F, 0x18, 0x4A, 0x4D, 0xF5, 0x09, 0x4F, 0xD3, 0x10, 0x04, 0x18, 0x08, 0x8F, 0xB7, 0xC8, 0x6F, 0xB0, 0x0B, 0xF5, 0xA8, 0x9D, 0x51, 0x1F, 0xA6, 0x42, 0x40, 0xBA, 0xC9, 0xD7, 0xA0, 0xEB, 0xDD, 0x33, 0xB5, 0x7F, 0xF3, 0xA5, 0xC3, 0x4B, 0x01, 0x33, 0xBF, 0xC9, 0x37, 0x35, 0xAA, 0x3A, 0xCE, 0xCD, 0x03, 0x40, 0x05, 0x29, 0x00, 0xA4, 0x16, 0xCC, 0x2D, 0xFB, 0x9B, 0xB5, 0x39, 0xF0, 0x3F, 0x0B, 0x22, 0xDB, 0x46, 0x33, 0xBE, 0x2D, 0xDB, 0x25, 0x37, 0xEA, 0x17, 0x46, 0xF1, 0x02, 0x45, 0xBD, 0x1D, 0x60, 0x15, 0x49, 0x28, 0xB9, 0xA6, 0x8A, 0x44, 0x1F, 0xD9, 0xD6, 0xCF, 0xA8, 0x33, 0x1A, 0x39, 0x34, 0x9C, 0x43, 0x14, 0x40, 0xDC, 0xF0, 0xC3, 0xF3, 0x4D, 0x26, 0x49, 0x32, 0xC8, 0x9A, 0xA3, 0xBA, 0x8B, 0x49, 0xBA, 0x15, 0x07, 0x2A, 0xB2, 0x4D, 0x3A, 0x27, 0x94, 0x33, 0xCC, 0xDF, 0x59, 0x08, 0x3D, 0x8E, 0x3F, 0x59, 0x31, 0x99, 0xD3, 0xF8, 0xFA, 0x81, 0xDD, 0xF8, 0xBA, 0x26, 0xEA, 0x66, 0xFD, 0x0D, 0xEE, 0x29, 0x4D, 0x25, 0xCE, 0xC7, 0x24, 0xAE, 0x85, 0x12, 0xE3, 0x19, 0x10, 0xBB, 0x4C, 0x01, 0x04, 0x2F, 0x5A, 0xF2, 0xFF, 0xFF, 0x00, 0x00, 0x00, 0x09, 0x10, 0x00, 0x00, 0x00, 0x0C, 0x00, 0x00, 0x00, 0x1C, 0x00, 0x00, 0x00, 0x8C, 0x00, 0x00, 0x00, 0x04, 0x00, 0x00, 0x00, 0x10, 0x00, 0x00, 0x00, 0x03, 0x00, 0x00, 0x00, 0x03, 0x00, 0x00, 0x00, 0x08, 0x00, 0x00, 0x00, 0x6F, 0x00, 0x00, 0x00, 0x73, 0x65, 0x71, 0x75, 0x65, 0x6E, 0x74, 0x69, 0x61, 0x6C, 0x5F, 0x31, 0x2F, 0x71, 0x75, 0x61, 0x6E, 0x74, 0x5F, 0x63, 0x6F, 0x6E, 0x76, 0x32, 0x64, 0x5F, 0x36, 0x2F, 0x43, 0x6F, 0x6E, 0x76, 0x32, 0x44, 0x3B, 0x73, 0x65, 0x71, 0x75, 0x65, 0x6E, 0x74, 0x69, 0x61, 0x6C, 0x5F, 0x31, 0x2F, 0x71, 0x75, 0x61, 0x6E, 0x74, 0x5F, 0x63, 0x6F, 0x6E, 0x76, 0x32, 0x64, 0x5F, 0x36, 0x2F, 0x4C, 0x61, 0x73, 0x74, 0x56, 0x61, 0x6C, 0x75, 0x65, 0x51, 0x75, 0x61, 0x6E, 0x74, 0x2F, 0x46, 0x61, 0x6B, 0x65, 0x51, 0x75, 0x61, 0x6E, 0x74, 0x57, 0x69, 0x74, 0x68, 0x4D, 0x69, 0x6E, 0x4D, 0x61, 0x78, 0x56, 0x61, 0x72, 0x73, 0x50, 0x65, 0x72, 0x43, 0x68, 0x61, 0x6E, 0x6E, 0x65, 0x6C, 0x00, 0x48, 0xF3, 0xFF, 0xFF, 0x08, 0x00, 0x00, 0x00, 0x48, 0x00, 0x00, 0x00, 0x10, 0x00, 0x00, 0x00, 0xD3, 0xFF, 0xC3, 0x3A, 0x18, 0x5A, 0xD2, 0x3A, 0x75, 0xAF, 0xEC, 0x3A, 0x4D, 0x75, 0xA6, 0x3A, 0x7B, 0x6F, 0xCD, 0x3A, 0xAC, 0x43, 0xC8, 0x3A, 0x97, 0xFF, 0xBB, 0x3A, 0xF3, 0xA6, 0xBA, 0x3A, 0x9E, 0x3E, 0xAD, 0x3A, 0x2B, 0x86, 0xB4, 0x3A, 0x19, 0x3F, 0xCD, 0x3A, 0x38, 0x4F, 0xAD, 0x3A, 0x51, 0xFD, 0xB1, 0x3A, 0x35, 0x9E, 0xC7, 0x3A, 0x8D, 0x88, 0xC2, 0x3A, 0x24, 0x80, 0xA5, 0x3A, 0x10, 0x00, 0x00, 0x00, 0x00, 0x00, 0x00, 0x00, 0x00, 0x00, 0x00, 0x00, 0x00, 0x00, 0x00, 0x00, 0x00, 0x00, 0x00, 0x00, 0x00, 0x00, 0x00, 0x00, 0x00, 0x00, 0x00, 0x00, 0x00, 0x00, 0x00, 0x00, 0x00, 0x00, 0x00, 0x00, 0x00, 0x00, 0x00, 0x00, 0x00, 0x00, 0x00, 0x00, 0x00, 0x00, 0x00, 0x00, 0x00, 0x00, 0x00, 0x00, 0x00, 0x00, 0x00, 0x00, 0x00, 0x00, 0x00, 0x00, 0x00, 0x00, 0x00, 0x00, 0x00, 0x00, 0x00, 0x00, 0x00, 0x00, 0x00, 0x00, 0x00, 0x00, 0x00, 0x00, 0x00, 0x00, 0x00, 0x00, 0x00, 0x00, 0x00, 0x00, 0x00, 0x00, 0x00, 0x00, 0x00, 0x00, 0x00, 0x00, 0x00, 0x00, 0x00, 0x00, 0x00, 0x00, 0x00, 0x00, 0x00, 0x00, 0x00, 0x00, 0x00, 0x00, 0x00, 0x00, 0x00, 0x00, 0x00, 0x00, 0x00, 0x00, 0x00, 0x00, 0x00, 0x00, 0x00, 0x00, 0x00, 0x00, 0x00, 0x00, 0x00, 0x00, 0x00, 0x00, 0x00, 0x00, 0x00, 0x00, 0x56, 0xF9, 0xFF, 0xFF, 0x00, 0x00, 0x00, 0x05, 0x02, 0x00, 0x00, 0x00, 0x28, 0x00, 0x00, 0x00, 0x1C, 0x00, 0x00, 0x00, 0x04, 0x00, 0x00, 0x00, 0x46, 0xFA, 0xFF, 0xFF, 0x02, 0x00, 0x00, 0x00, 0x02, 0x00, 0x00, 0x00, 0x02, 0x00, 0x00, 0x00, 0x02, 0x00, 0x00, 0x00, 0x01, 0x00, 0x00, 0x00, 0x0A, 0x00, 0x00, 0x00, 0x01, 0x00, 0x00, 0x00, 0x09, 0x00, 0x00, 0x00, 0xB8, 0xF5, 0xFF, 0xFF, 0x00, 0x00, 0x00, 0x09, 0x14, 0x00, 0x00, 0x00, 0x0B, 0x00, 0x00, 0x00, 0x34, 0x00, 0x00, 0x00, 0x60, 0x00, 0x00, 0x00, 0x18, 0x00, 0x00, 0x00, 0x04, 0x00, 0x00, 0x00, 0x01, 0x00, 0x00, 0x00, 0x09, 0x00, 0x00, 0x00, 0x41, 0x00, 0x00, 0x00, 0x08, 0x00, 0x00, 0x00, 0x04, 0x00, 0x00, 0x00, 0xFF, 0xFF, 0xFF, 0xFF, 0x09, 0x00, 0x00, 0x00, 0x41, 0x00, 0x00, 0x00, 0x08, 0x00, 0x00, 0x00, 0x2A, 0x00, 0x00, 0x00, 0x73, 0x65, 0x71, 0x75, 0x65, 0x6E, 0x74, 0x69, 0x61, 0x6C, 0x5F, 0x31, 0x2F, 0x71, 0x75, 0x61, 0x6E, 0x74, 0x5F, 0x6D, 0x61, 0x78, 0x5F, 0x70, 0x6F, 0x6F, 0x6C, 0x69, 0x6E, 0x67, 0x32, 0x64, 0x5F, 0x35, 0x2F, 0x4D, 0x61, 0x78, 0x50, 0x6F, 0x6F, 0x6C, 0x00, 0x00, 0xCC, 0xF4, 0xFF, 0xFF, 0x08, 0x00, 0x00, 0x00, 0x0C, 0x00, 0x00, 0x00, 0x01, 0x00, 0x00, 0x00, 0xF7, 0x29, 0x8F, 0x42, 0x01, 0x00, 0x00, 0x00, 0x80, 0xFF, 0xFF, 0xFF, 0xFF, 0xFF, 0xFF, 0xFF, 0x00, 0x00, 0x00, 0x00, 0x2A, 0xFA, 0xFF, 0xFF, 0x00, 0x00, 0x00, 0x01, 0x01, 0x00, 0x00, 0x00, 0x24, 0x00, 0x00, 0x00, 0x18, 0x00, 0x00, 0x00, 0x04, 0x00, 0x00, 0x00, 0x1C, 0xFA, 0xFF, 0xFF, 0x01, 0x00, 0x00, 0x00, 0x01, 0x00, 0x00, 0x00, 0x00, 0x00, 0x00, 0x01, 0x01, 0x00, 0x00, 0x00, 0x09, 0x00, 0x00, 0x00, 0x03, 0x00, 0x00, 0x00, 0x06, 0x00, 0x00, 0x00, 0x07, 0x00, 0x00, 0x00, 0x08, 0x00, 0x00, 0x00, 0x90, 0xF6, 0xFF, 0xFF, 0x00, 0x00, 0x00, 0x09, 0x14, 0x00, 0x00, 0x00, 0x0A, 0x00, 0x00, 0x00, 0x34, 0x00, 0x00, 0x00, 0xD8, 0x00, 0x00, 0x00, 0x18, 0x00, 0x00, 0x00, 0x04, 0x00, 0x00, 0x00, 0x01, 0x00, 0x00, 0x00, 0x11, 0x00, 0x00, 0x00, 0x81, 0x00, 0x00, 0x00, 0x08, 0x00, 0x00, 0x00, 0x04, 0x00, 0x00, 0x00, 0xFF, 0xFF, 0xFF, 0xFF, 0x11, 0x00, 0x00, 0x00, 0x81, 0x00, 0x00, 0x00, 0x08, 0x00, 0x00, 0x00, 0xA3, 0x00, 0x00, 0x00, 0x73, 0x65, 0x71, 0x75, 0x65, 0x6E, 0x74, 0x69, 0x61, 0x6C, 0x5F, 0x31, 0x2F, 0x71, 0x75, 0x61, 0x6E, 0x74, 0x5F, 0x63, 0x6F, 0x6E, 0x76, 0x32, 0x64, 0x5F, 0x35, 0x2F, 0x52, 0x65, 0x6C, 0x75, 0x3B, 0x73, 0x65, 0x71, 0x75, 0x65, 0x6E, 0x74, 0x69, 0x61, 0x6C, 0x5F, 0x31, 0x2F, 0x71, 0x75, 0x61, 0x6E, 0x74, 0x5F, 0x63, 0x6F, 0x6E, 0x76, 0x32, 0x64, 0x5F, 0x35, 0x2F, 0x42, 0x69, 0x61, 0x73, 0x41, 0x64, 0x64, 0x3B, 0x73, 0x65, 0x71, 0x75, 0x65, 0x6E, 0x74, 0x69, 0x61, 0x6C, 0x5F, 0x31, 0x2F, 0x71, 0x75, 0x61, 0x6E, 0x74, 0x5F, 0x63, 0x6F, 0x6E, 0x76, 0x32, 0x64, 0x5F, 0x35, 0x2F, 0x43, 0x6F, 0x6E, 0x76, 0x32, 0x44, 0x3B, 0x73, 0x65, 0x71, 0x75, 0x65, 0x6E, 0x74, 0x69, 0x61, 0x6C, 0x5F, 0x31, 0x2F, 0x71, 0x75, 0x61, 0x6E, 0x74, 0x5F, 0x63, 0x6F, 0x6E, 0x76, 0x32, 0x64, 0x5F, 0x35, 0x2F, 0x42, 0x69, 0x61, 0x73, 0x41, 0x64, 0x64, 0x2F, 0x52, 0x65, 0x61, 0x64, 0x56, 0x61, 0x72, 0x69, 0x61, 0x62, 0x6C, 0x65, 0x4F, 0x70, 0x2F, 0x72, 0x65, 0x73, 0x6F, 0x75, 0x72, 0x63, 0x65, 0x00, 0x1C, 0xF6, 0xFF, 0xFF, 0x08, 0x00, 0x00, 0x00, 0x0C, 0x00, 0x00, 0x00, 0x01, 0x00, 0x00, 0x00, 0xF7, 0x29, 0x8F, 0x42, 0x01, 0x00, 0x00, 0x00, 0x80, 0xFF, 0xFF, 0xFF, 0xFF, 0xFF, 0xFF, 0xFF, 0x0A, 0xF6, 0xFF, 0xFF, 0x04, 0x00, 0x00, 0x00, 0x20, 0x00, 0x00, 0x00, 0x00, 0x00, 0x00, 0x00, 0x00, 0x00, 0x00, 0x00, 0x01, 0x00, 0x00, 0x00, 0x00, 0x00, 0x00, 0x00, 0xFF, 0xFF, 0xFF, 0xFF, 0x00, 0x00, 0x00, 0x00, 0x00, 0x00, 0x00, 0x00, 0x00, 0x00, 0x00, 0x00, 0x1A, 0xF6, 0xFF, 0xFF, 0x00, 0x00, 0x00, 0x02, 0x10, 0x00, 0x00, 0x00, 0x09, 0x00, 0x00, 0x00, 0x10, 0x00, 0x00, 0x00, 0x94, 0x00, 0x00, 0x00, 0x01, 0x00, 0x00, 0x00, 0x08, 0x00, 0x00, 0x00, 0x82, 0x00, 0x00, 0x00, 0x73, 0x65, 0x71, 0x75, 0x65, 0x6E, 0x74, 0x69, 0x61, 0x6C, 0x5F, 0x31, 0x2F, 0x71, 0x75, 0x61, 0x6E, 0x74, 0x5F, 0x63, 0x6F, 0x6E, 0x76, 0x32, 0x64, 0x5F, 0x35, 0x2F, 0x42, 0x69, 0x61, 0x73, 0x41, 0x64, 0x64, 0x3B, 0x73, 0x65, 0x71, 0x75, 0x65, 0x6E, 0x74, 0x69, 0x61, 0x6C, 0x5F, 0x31, 0x2F, 0x71, 0x75, 0x61, 0x6E, 0x74, 0x5F, 0x63, 0x6F, 0x6E, 0x76, 0x32, 0x64, 0x5F, 0x35, 0x2F, 0x43, 0x6F, 0x6E, 0x76, 0x32, 0x44, 0x3B, 0x73, 0x65, 0x71, 0x75, 0x65, 0x6E, 0x74, 0x69, 0x61, 0x6C, 0x5F, 0x31, 0x2F, 0x71, 0x75, 0x61, 0x6E, 0x74, 0x5F, 0x63, 0x6F, 0x6E, 0x76, 0x32, 0x64, 0x5F, 0x35, 0x2F, 0x42, 0x69, 0x61, 0x73, 0x41, 0x64, 0x64, 0x2F, 0x52, 0x65, 0x61, 0x64, 0x56, 0x61, 0x72, 0x69, 0x61, 0x62, 0x6C, 0x65, 0x4F, 0x70, 0x2F, 0x72, 0x65, 0x73, 0x6F, 0x75, 0x72, 0x63, 0x65, 0x00, 0x00, 0x10, 0xF7, 0xFF, 0xFF, 0x08, 0x00, 0x00, 0x00, 0x28, 0x00, 0x00, 0x00, 0x08, 0x00, 0x00, 0x00, 0x00, 0x52, 0x13, 0x3F, 0x04, 0xAB, 0x21, 0x3F, 0x7F, 0x94, 0x03, 0x3F, 0x97, 0x1D, 0x50, 0x3F, 0x96, 0x8C, 0x0D, 0x3F, 0xF1, 0x41, 0x18, 0x3F, 0xFE, 0x33, 0x27, 0x3F, 0xFE, 0x93, 0x0F, 0x3F, 0x08, 0x00, 0x00, 0x00, 0x00, 0x00, 0x00, 0x00, 0x00, 0x00, 0x00, 0x00, 0x00, 0x00, 0x00, 0x00, 0x00, 0x00, 0x00, 0x00, 0x00, 0x00, 0x00, 0x00, 0x00, 0x00, 0x00, 0x00, 0x00, 0x00, 0x00, 0x00, 0x00, 0x00, 0x00, 0x00, 0x00, 0x00, 0x00, 0x00, 0x00, 0x00, 0x00, 0x00, 0x00, 0x00, 0x00, 0x00, 0x00, 0x00, 0x00, 0x00, 0x00, 0x00, 0x00, 0x00, 0x00, 0x00, 0x00, 0x00, 0x00, 0x00, 0x00, 0x00, 0x00, 0x00, 0x00, 0x00, 0x52, 0xF7, 0xFF, 0xFF, 0x04, 0x00, 0x00, 0x00, 0x20, 0x01, 0x00, 0x00, 0x39, 0x3D, 0xF6, 0x46, 0xB7, 0xF3, 0xC1, 0xF9, 0x4D, 0x1F, 0xED, 0x32, 0xFD, 0xE9, 0x01, 0xEA, 0x8A, 0x06, 0xEF, 0x24, 0xC6, 0x1C, 0xB2, 0xD8, 0xDD, 0x4A, 0x08, 0xD8, 0x10, 0x81, 0xEA, 0xA6, 0xDB, 0x40, 0x38, 0x54, 0x52, 0xF1, 0xCC, 0xBD, 0x10, 0xF2, 0x95, 0x81, 0xE0, 0x9B, 0x54, 0xA5, 0xE6, 0x3E, 0x3F, 0xED, 0xA4, 0xF4, 0x86, 0xAF, 0xFE, 0x2B, 0x50, 0xDE, 0xD2, 0x03, 0xB9, 0xEB, 0xF3, 0xC9, 0x95, 0xBA, 0xCB, 0x44, 0xC5, 0xFD, 0x3C, 0xA2, 0x66, 0xD5, 0x99, 0x6F, 0xB5, 0x75, 0x23, 0x0F, 0x81, 0x2C, 0xC3, 0x34, 0x60, 0x68, 0x8E, 0x31, 0x4D, 0xBB, 0x9D, 0xA9, 0x0A, 0x24, 0x57, 0x2D, 0xFE, 0x0C, 0x49, 0x33, 0xBA, 0x88, 0xC7, 0x5C, 0x88, 0x83, 0x1E, 0xC5, 0xF9, 0x34, 0x9D, 0xBB, 0xD9, 0x1A, 0xE1, 0x09, 0xA6, 0x13, 0x8B, 0xC2, 0x14, 0xF7, 0xB1, 0x81, 0x0E, 0xF5, 0xB2, 0xB7, 0xD8, 0xD6, 0x4B, 0xF1, 0xF7, 0xCC, 0xCC, 0x2B, 0xB0, 0xF7, 0xE5, 0xCE, 0x36, 0x2A, 0xEE, 0x38, 0x5E, 0x8D, 0xCD, 0xBC, 0x91, 0x25, 0x2B, 0x03, 0xFA, 0x7F, 0x41, 0x90, 0x57, 0x59, 0xF5, 0x02, 0xB0, 0x7B, 0x1C, 0x24, 0x00, 0xC4, 0x52, 0xE8, 0x40, 0x71, 0x59, 0x16, 0xAB, 0xFD, 0x1E, 0x96, 0x39, 0x50, 0x47, 0xD7, 0xA1, 0x70, 0x49, 0x09, 0x0B, 0xFC, 0x81, 0xC9, 0xC8, 0x9B, 0x1A, 0xF2, 0x29, 0xE8, 0x11, 0x28, 0x9C, 0x2E, 0xF7, 0x86, 0xE1, 0x3B, 0x6C, 0xB3, 0xA0, 0x33, 0xEF, 0x95, 0xB2, 0x12, 0xE3, 0x2A, 0x48, 0x42, 0x22, 0x04, 0x81, 0x3E, 0xCA, 0x2B, 0x04, 0x4A, 0xF9, 0xDB, 0xFB, 0xBC, 0xB4, 0xE0, 0x09, 0xC6, 0xF3, 0xE1, 0x5B, 0x33, 0x33, 0xDD, 0xBA, 0x55, 0x40, 0xEE, 0x3E, 0x3B, 0xDC, 0xC5, 0xF6, 0xE1, 0xF4, 0x3B, 0x20, 0x45, 0xEB, 0x2F, 0xD9, 0xB8, 0x93, 0x2E, 0x4C, 0x31, 0xB7, 0x20, 0xA5, 0x33, 0x03, 0x15, 0xE6, 0xD2, 0x4B, 0x10, 0x12, 0x88, 0xE6, 0x16, 0x50, 0x42, 0x81, 0xBA, 0x73, 0x42, 0x00, 0x9E, 0xB1, 0x03, 0xCF, 0x4A, 0x5B, 0xCA, 0x62, 0xF8, 0xFF, 0xFF, 0x00, 0x00, 0x00, 0x09, 0x10, 0x00, 0x00, 0x00, 0x08, 0x00, 0x00, 0x00, 0x1C, 0x00, 0x00, 0x00, 0x8C, 0x00, 0x00, 0x00, 0x04, 0x00, 0x00, 0x00, 0x08, 0x00, 0x00, 0x00, 0x03, 0x00, 0x00, 0x00, 0x03, 0x00, 0x00, 0x00, 0x04, 0x00, 0x00, 0x00, 0x6F, 0x00, 0x00, 0x00, 0x73, 0x65, 0x71, 0x75, 0x65, 0x6E, 0x74, 0x69, 0x61, 0x6C, 0x5F, 0x31, 0x2F, 0x71, 0x75, 0x61, 0x6E, 0x74, 0x5F, 0x63, 0x6F, 0x6E, 0x76, 0x32, 0x64, 0x5F, 0x35, 0x2F, 0x43, 0x6F, 0x6E, 0x76, 0x32, 0x44, 0x3B, 0x73, 0x65, 0x71, 0x75, 0x65, 0x6E, 0x74, 0x69, 0x61, 0x6C, 0x5F, 0x31, 0x2F, 0x71, 0x75, 0x61, 0x6E, 0x74, 0x5F, 0x63, 0x6F, 0x6E, 0x76, 0x32, 0x64, 0x5F, 0x35, 0x2F, 0x4C, 0x61, 0x73, 0x74, 0x56, 0x61, 0x6C, 0x75, 0x65, 0x51, 0x75, 0x61, 0x6E, 0x74, 0x2F, 0x46, 0x61, 0x6B, 0x65, 0x51, 0x75, 0x61, 0x6E, 0x74, 0x57, 0x69, 0x74, 0x68, 0x4D, 0x69, 0x6E, 0x4D, 0x61, 0x78, 0x56, 0x61, 0x72, 0x73, 0x50, 0x65, 0x72, 0x43, 0x68, 0x61, 0x6E, 0x6E, 0x65, 0x6C, 0x00, 0x50, 0xF9, 0xFF, 0xFF, 0x08, 0x00, 0x00, 0x00, 0x28, 0x00, 0x00, 0x00, 0x08, 0x00, 0x00, 0x00, 0x66, 0xEC, 0xED, 0x3A, 0x2C, 0x8C, 0x02, 0x3B, 0xB8, 0x80, 0xD4, 0x3A, 0xDC, 0x0D, 0x28, 0x3B, 0x5E, 0x9A, 0xE4, 0x3A, 0xAC, 0xE5, 0xF5, 0x3A, 0x64, 0x04, 0x07, 0x3B, 0x35, 0xE1, 0xE7, 0x3A, 0x08, 0x00, 0x00, 0x00, 0x00, 0x00, 0x00, 0x00, 0x00, 0x00, 0x00, 0x00, 0x00, 0x00, 0x00, 0x00, 0x00, 0x00, 0x00, 0x00, 0x00, 0x00, 0x00, 0x00, 0x00, 0x00, 0x00, 0x00, 0x00, 0x00, 0x00, 0x00, 0x00, 0x00, 0x00, 0x00, 0x00, 0x00, 0x00, 0x00, 0x00, 0x00, 0x00, 0x00, 0x00, 0x00, 0x00, 0x00, 0x00, 0x00, 0x00, 0x00, 0x00, 0x00, 0x00, 0x00, 0x00, 0x00, 0x00, 0x00, 0x00, 0x00, 0x00, 0x00, 0x00, 0x00, 0x00, 0x00, 0x00, 0x00, 0x0E, 0x00, 0x1A, 0x00, 0x08, 0x00, 0x0C, 0x00, 0x10, 0x00, 0x07, 0x00, 0x14, 0x00, 0x0E, 0x00, 0x00, 0x00, 0x00, 0x00, 0x00, 0x05, 0x02, 0x00, 0x00, 0x00, 0x38, 0x00, 0x00, 0x00, 0x2C, 0x00, 0x00, 0x00, 0x14, 0x00, 0x00, 0x00, 0x00, 0x00, 0x0E, 0x00, 0x14, 0x00, 0x00, 0x00, 0x10, 0x00, 0x0C, 0x00, 0x08, 0x00, 0x04, 0x00, 0x0E, 0x00, 0x00, 0x00, 0x02, 0x00, 0x00, 0x00, 0x02, 0x00, 0x00, 0x00, 0x02, 0x00, 0x00, 0x00, 0x02, 0x00, 0x00, 0x00, 0x01, 0x00, 0x00, 0x00, 0x06, 0x00, 0x00, 0x00, 0x01, 0x00, 0x00, 0x00, 0x05, 0x00, 0x00, 0x00, 0x9C, 0xFB, 0xFF, 0xFF, 0x11, 0x00, 0x00, 0x00, 0x00, 0x00, 0x00, 0x11, 0x02, 0x00, 0x00, 0x00, 0x90, 0xFB, 0xFF, 0xFF, 0x00, 0x00, 0x00, 0x09, 0x14, 0x00, 0x00, 0x00, 0x07, 0x00, 0x00, 0x00, 0x34, 0x00, 0x00, 0x00, 0x60, 0x00, 0x00, 0x00, 0x18, 0x00, 0x00, 0x00, 0x04, 0x00, 0x00, 0x00, 0x01, 0x00, 0x00, 0x00, 0x11, 0x00, 0x00, 0x00, 0x81, 0x00, 0x00, 0x00, 0x04, 0x00, 0x00, 0x00, 0x04, 0x00, 0x00, 0x00, 0xFF, 0xFF, 0xFF, 0xFF, 0x11, 0x00, 0x00, 0x00, 0x81, 0x00, 0x00, 0x00, 0x04, 0x00, 0x00, 0x00, 0x2A, 0x00, 0x00, 0x00, 0x73, 0x65, 0x71, 0x75, 0x65, 0x6E, 0x74, 0x69, 0x61, 0x6C, 0x5F, 0x31, 0x2F, 0x71, 0x75, 0x61, 0x6E, 0x74, 0x5F, 0x6D, 0x61, 0x78, 0x5F, 0x70, 0x6F, 0x6F, 0x6C, 0x69, 0x6E, 0x67, 0x32, 0x64, 0x5F, 0x34, 0x2F, 0x4D, 0x61, 0x78, 0x50, 0x6F, 0x6F, 0x6C, 0x00, 0x00, 0xA4, 0xFA, 0xFF, 0xFF, 0x08, 0x00, 0x00, 0x00, 0x0C, 0x00, 0x00, 0x00, 0x01, 0x00, 0x00, 0x00, 0x60, 0x83, 0x9E, 0x43, 0x01, 0x00, 0x00, 0x00, 0x80, 0xFF, 0xFF, 0xFF, 0xFF, 0xFF, 0xFF, 0xFF, 0x00, 0x00, 0x0E, 0x00, 0x18, 0x00, 0x08, 0x00, 0x0C, 0x00, 0x10, 0x00, 0x07, 0x00, 0x14, 0x00, 0x0E, 0x00, 0x00, 0x00, 0x00, 0x00, 0x00, 0x01, 0x01, 0x00, 0x00, 0x00, 0x30, 0x00, 0x00, 0x00, 0x24, 0x00, 0x00, 0x00, 0x10, 0x00, 0x00, 0x00, 0x0C, 0x00, 0x10, 0x00, 0x00, 0x00, 0x04, 0x00, 0x08, 0x00, 0x0F, 0x00, 0x0C, 0x00, 0x00, 0x00, 0x01, 0x00, 0x00, 0x00, 0x01, 0x00, 0x00, 0x00, 0x00, 0x00, 0x00, 0x01, 0x01, 0x00, 0x00, 0x00, 0x05, 0x00, 0x00, 0x00, 0x03, 0x00, 0x00, 0x00, 0x02, 0x00, 0x00, 0x00, 0x03, 0x00, 0x00, 0x00, 0x04, 0x00, 0x00, 0x00, 0x9C, 0xFC, 0xFF, 0xFF, 0x03, 0x00, 0x00, 0x00, 0x00, 0x00, 0x00, 0x03, 0x03, 0x00, 0x00, 0x00, 0x90, 0xFC, 0xFF, 0xFF, 0x00, 0x00, 0x00, 0x09, 0x14, 0x00, 0x00, 0x00, 0x06, 0x00, 0x00, 0x00, 0x34, 0x00, 0x00, 0x00, 0xD8, 0x00, 0x00, 0x00, 0x18, 0x00, 0x00, 0x00, 0x04, 0x00, 0x00, 0x00, 0x01, 0x00, 0x00, 0x00, 0x21, 0x00, 0x00, 0x00, 0x01, 0x01, 0x00, 0x00, 0x04, 0x00, 0x00, 0x00, 0x04, 0x00, 0x00, 0x00, 0xFF, 0xFF, 0xFF, 0xFF, 0x21, 0x00, 0x00, 0x00, 0x01, 0x01, 0x00, 0x00, 0x04, 0x00, 0x00, 0x00, 0xA3, 0x00, 0x00, 0x00, 0x73, 0x65, 0x71, 0x75, 0x65, 0x6E, 0x74, 0x69, 0x61, 0x6C, 0x5F, 0x31, 0x2F, 0x71, 0x75, 0x61, 0x6E, 0x74, 0x5F, 0x63, 0x6F, 0x6E, 0x76, 0x32, 0x64, 0x5F, 0x34, 0x2F, 0x52, 0x65, 0x6C, 0x75, 0x3B, 0x73, 0x65, 0x71, 0x75, 0x65, 0x6E, 0x74, 0x69, 0x61, 0x6C, 0x5F, 0x31, 0x2F, 0x71, 0x75, 0x61, 0x6E, 0x74, 0x5F, 0x63, 0x6F, 0x6E, 0x76, 0x32, 0x64, 0x5F, 0x34, 0x2F, 0x42, 0x69, 0x61, 0x73, 0x41, 0x64, 0x64, 0x3B, 0x73, 0x65, 0x71, 0x75, 0x65, 0x6E, 0x74, 0x69, 0x61, 0x6C, 0x5F, 0x31, 0x2F, 0x71, 0x75, 0x61, 0x6E, 0x74, 0x5F, 0x63, 0x6F, 0x6E, 0x76, 0x32, 0x64, 0x5F, 0x34, 0x2F, 0x43, 0x6F, 0x6E, 0x76, 0x32, 0x44, 0x3B, 0x73, 0x65, 0x71, 0x75, 0x65, 0x6E, 0x74, 0x69, 0x61, 0x6C, 0x5F, 0x31, 0x2F, 0x71, 0x75, 0x61, 0x6E, 0x74, 0x5F, 0x63, 0x6F, 0x6E, 0x76, 0x32, 0x64, 0x5F, 0x34, 0x2F, 0x42, 0x69, 0x61, 0x73, 0x41, 0x64, 0x64, 0x2F, 0x52, 0x65, 0x61, 0x64, 0x56, 0x61, 0x72, 0x69, 0x61, 0x62, 0x6C, 0x65, 0x4F, 0x70, 0x2F, 0x72, 0x65, 0x73, 0x6F, 0x75, 0x72, 0x63, 0x65, 0x00, 0x1C, 0xFC, 0xFF, 0xFF, 0x08, 0x00, 0x00, 0x00, 0x0C, 0x00, 0x00, 0x00, 0x01, 0x00, 0x00, 0x00, 0x60, 0x83, 0x9E, 0x43, 0x01, 0x00, 0x00, 0x00, 0x80, 0xFF, 0xFF, 0xFF, 0xFF, 0xFF, 0xFF, 0xFF, 0x0A, 0xFC, 0xFF, 0xFF, 0x04, 0x00, 0x00, 0x00, 0x10, 0x00, 0x00, 0x00, 0x00, 0x00, 0x00, 0x00, 0x00, 0x00, 0x00, 0x00, 0x00, 0x00, 0x00, 0x00, 0x00, 0x00, 0x00, 0x00, 0x0A, 0xFC, 0xFF, 0xFF, 0x00, 0x00, 0x00, 0x02, 0x10, 0x00, 0x00, 0x00, 0x05, 0x00, 0x00, 0x00, 0x10, 0x00, 0x00, 0x00, 0x94, 0x00, 0x00, 0x00, 0x01, 0x00, 0x00, 0x00, 0x04, 0x00, 0x00, 0x00, 0x82, 0x00, 0x00, 0x00, 0x73, 0x65, 0x71, 0x75, 0x65, 0x6E, 0x74, 0x69, 0x61, 0x6C, 0x5F, 0x31, 0x2F, 0x71, 0x75, 0x61, 0x6E, 0x74, 0x5F, 0x63, 0x6F, 0x6E, 0x76, 0x32, 0x64, 0x5F, 0x34, 0x2F, 0x42, 0x69, 0x61, 0x73, 0x41, 0x64, 0x64, 0x3B, 0x73, 0x65, 0x71, 0x75, 0x65, 0x6E, 0x74, 0x69, 0x61, 0x6C, 0x5F, 0x31, 0x2F, 0x71, 0x75, 0x61, 0x6E, 0x74, 0x5F, 0x63, 0x6F, 0x6E, 0x76, 0x32, 0x64, 0x5F, 0x34, 0x2F, 0x43, 0x6F, 0x6E, 0x76, 0x32, 0x44, 0x3B, 0x73, 0x65, 0x71, 0x75, 0x65, 0x6E, 0x74, 0x69, 0x61, 0x6C, 0x5F, 0x31, 0x2F, 0x71, 0x75, 0x61, 0x6E, 0x74, 0x5F, 0x63, 0x6F, 0x6E, 0x76, 0x32, 0x64, 0x5F, 0x34, 0x2F, 0x42, 0x69, 0x61, 0x73, 0x41, 0x64, 0x64, 0x2F, 0x52, 0x65, 0x61, 0x64, 0x56, 0x61, 0x72, 0x69, 0x61, 0x62, 0x6C, 0x65, 0x4F, 0x70, 0x2F, 0x72, 0x65, 0x73, 0x6F, 0x75, 0x72, 0x63, 0x65, 0x00, 0x00, 0x00, 0xFD, 0xFF, 0xFF, 0x08, 0x00, 0x00, 0x00, 0x18, 0x00, 0x00, 0x00, 0x04, 0x00, 0x00, 0x00, 0x46, 0x78, 0xC3, 0x40, 0x33, 0x67, 0x22, 0x41, 0xBC, 0xD5, 0x10, 0x41, 0x61, 0xC3, 0x2C, 0x41, 0x04, 0x00, 0x00, 0x00, 0x00, 0x00, 0x00, 0x00, 0x00, 0x00, 0x00, 0x00, 0x00, 0x00, 0x00, 0x00, 0x00, 0x00, 0x00, 0x00, 0x00, 0x00, 0x00, 0x00, 0x00, 0x00, 0x00, 0x00, 0x00, 0x00, 0x00, 0x00, 0x00, 0x00, 0x00, 0x00, 0x00, 0x00, 0x00, 0x00, 0x16, 0xFD, 0xFF, 0xFF, 0x04, 0x00, 0x00, 0x00, 0x24, 0x00, 0x00, 0x00, 0xD2, 0x8B, 0x84, 0xE2, 0xF7, 0x28, 0x37, 0xF2, 0x7F, 0xEE, 0xDD, 0x17, 0x81, 0x93, 0xBE, 0x5B, 0x40, 0x3D, 0x81, 0x81, 0x83, 0xE0, 0x5A, 0x17, 0x32, 0x20, 0xA0, 0xE6, 0xF9, 0x3F, 0xBD, 0x20, 0xE2, 0x1F, 0xA4, 0x81, 0x2A, 0xFD, 0xFF, 0xFF, 0x00, 0x00, 0x00, 0x09, 0x10, 0x00, 0x00, 0x00, 0x04, 0x00, 0x00, 0x00, 0x1C, 0x00, 0x00, 0x00, 0x8C, 0x00, 0x00, 0x00, 0x04, 0x00, 0x00, 0x00, 0x04, 0x00, 0x00, 0x00, 0x03, 0x00, 0x00, 0x00, 0x03, 0x00, 0x00, 0x00, 0x01, 0x00, 0x00, 0x00, 0x6F, 0x00, 0x00, 0x00, 0x73, 0x65, 0x71, 0x75, 0x65, 0x6E, 0x74, 0x69, 0x61, 0x6C, 0x5F, 0x31, 0x2F, 0x71, 0x75, 0x61, 0x6E, 0x74, 0x5F, 0x63, 0x6F, 0x6E, 0x76, 0x32, 0x64, 0x5F, 0x34, 0x2F, 0x43, 0x6F, 0x6E, 0x76, 0x32, 0x44, 0x3B, 0x73, 0x65, 0x71, 0x75, 0x65, 0x6E, 0x74, 0x69, 0x61, 0x6C, 0x5F, 0x31, 0x2F, 0x71, 0x75, 0x61, 0x6E, 0x74, 0x5F, 0x63, 0x6F, 0x6E, 0x76, 0x32, 0x64, 0x5F, 0x34, 0x2F, 0x4C, 0x61, 0x73, 0x74, 0x56, 0x61, 0x6C, 0x75, 0x65, 0x51, 0x75, 0x61, 0x6E, 0x74, 0x2F, 0x46, 0x61, 0x6B, 0x65, 0x51, 0x75, 0x61, 0x6E, 0x74, 0x57, 0x69, 0x74, 0x68, 0x4D, 0x69, 0x6E, 0x4D, 0x61, 0x78, 0x56, 0x61, 0x72, 0x73, 0x50, 0x65, 0x72, 0x43, 0x68, 0x61, 0x6E, 0x6E, 0x65, 0x6C, 0x00, 0x18, 0xFE, 0xFF, 0xFF, 0x08, 0x00, 0x00, 0x00, 0x18, 0x00, 0x00, 0x00, 0x04, 0x00, 0x00, 0x00, 0x64, 0xB4, 0xD3, 0x3A, 0x3F, 0xE4, 0x2F, 0x3B, 0x3E, 0xDD, 0x1C, 0x3B, 0xB4, 0x1C, 0x3B, 0x3B, 0x04, 0x00, 0x00, 0x00, 0x00, 0x00, 0x00, 0x00, 0x00, 0x00, 0x00, 0x00, 0x00, 0x00, 0x00, 0x00, 0x00, 0x00, 0x00, 0x00, 0x00, 0x00, 0x00, 0x00, 0x00, 0x00, 0x00, 0x00, 0x00, 0x00, 0x00, 0x00, 0x00, 0x00, 0x00, 0x00, 0x00, 0x00, 0x0A, 0x00, 0x0C, 0x00, 0x00, 0x00, 0x04, 0x00, 0x08, 0x00, 0x0A, 0x00, 0x00, 0x00, 0x10, 0x00, 0x00, 0x00, 0x04, 0x00, 0x00, 0x00, 0x01, 0x00, 0x00, 0x00, 0x02, 0x00, 0x00, 0x00, 0x01, 0x00, 0x00, 0x00, 0x00, 0x00, 0x00, 0x00, 0x0C, 0x00, 0x10, 0x00, 0x0B, 0x00, 0x00, 0x00, 0x0C, 0x00, 0x04, 0x00, 0x0C, 0x00, 0x00, 0x00, 0x72, 0x00, 0x00, 0x00, 0x00, 0x00, 0x00, 0x72, 0x01, 0x00, 0x00, 0x00, 0x14, 0x00, 0x1C, 0x00, 0x08, 0x00, 0x07, 0x00, 0x0C, 0x00, 0x10, 0x00, 0x14, 0x00, 0x00, 0x00, 0x00, 0x00, 0x18, 0x00, 0x14, 0x00, 0x00, 0x00, 0x00, 0x00, 0x00, 0x09, 0x14, 0x00, 0x00, 0x00, 0x03, 0x00, 0x00, 0x00, 0x34, 0x00, 0x00, 0x00, 0x44, 0x01, 0x00, 0x00, 0x18, 0x00, 0x00, 0x00, 0x04, 0x00, 0x00, 0x00, 0x01, 0x00, 0x00, 0x00, 0x21, 0x00, 0x00, 0x00, 0x01, 0x01, 0x00, 0x00, 0x01, 0x00, 0x00, 0x00, 0x04, 0x00, 0x00, 0x00, 0xFF, 0xFF, 0xFF, 0xFF, 0x21, 0x00, 0x00, 0x00, 0x01, 0x01, 0x00, 0x00, 0x01, 0x00, 0x00, 0x00, 0x03, 0x01, 0x00, 0x00, 0x73, 0x65, 0x71, 0x75, 0x65, 0x6E, 0x74, 0x69, 0x61, 0x6C, 0x5F, 0x31, 0x2F, 0x71, 0x75, 0x61, 0x6E, 0x74, 0x69, 0x7A, 0x65, 0x5F, 0x6C, 0x61, 0x79, 0x65, 0x72, 0x2F, 0x41, 0x6C, 0x6C, 0x56, 0x61, 0x6C, 0x75, 0x65, 0x73, 0x51, 0x75, 0x61, 0x6E, 0x74, 0x69, 0x7A, 0x65, 0x2F, 0x46, 0x61, 0x6B, 0x65, 0x51, 0x75, 0x61, 0x6E, 0x74, 0x57, 0x69, 0x74, 0x68, 0x4D, 0x69, 0x6E, 0x4D, 0x61, 0x78, 0x56, 0x61, 0x72, 0x73, 0x3B, 0x73, 0x65, 0x71, 0x75, 0x65, 0x6E, 0x74, 0x69, 0x61, 0x6C, 0x5F, 0x31, 0x2F, 0x71, 0x75, 0x61, 0x6E, 0x74, 0x69, 0x7A, 0x65, 0x5F, 0x6C, 0x61, 0x79, 0x65, 0x72, 0x2F, 0x41, 0x6C, 0x6C, 0x56, 0x61, 0x6C, 0x75, 0x65, 0x73, 0x51, 0x75, 0x61, 0x6E, 0x74, 0x69, 0x7A, 0x65, 0x2F, 0x46, 0x61, 0x6B, 0x65, 0x51, 0x75, 0x61, 0x6E, 0x74, 0x57, 0x69, 0x74, 0x68, 0x4D, 0x69, 0x6E, 0x4D, 0x61, 0x78, 0x56, 0x61, 0x72, 0x73, 0x2F, 0x52, 0x65, 0x61, 0x64, 0x56, 0x61, 0x72, 0x69, 0x61, 0x62, 0x6C, 0x65, 0x4F, 0x70, 0x2F, 0x72, 0x65, 0x73, 0x6F, 0x75, 0x72, 0x63, 0x65, 0x3B, 0x73, 0x65, 0x71, 0x75, 0x65, 0x6E, 0x74, 0x69, 0x61, 0x6C, 0x5F, 0x31, 0x2F, 0x71, 0x75, 0x61, 0x6E, 0x74, 0x69, 0x7A, 0x65, 0x5F, 0x6C, 0x61, 0x79, 0x65, 0x72, 0x2F, 0x41, 0x6C, 0x6C, 0x56, 0x61, 0x6C, 0x75, 0x65, 0x73, 0x51, 0x75, 0x61, 0x6E, 0x74, 0x69, 0x7A, 0x65, 0x2F, 0x46, 0x61, 0x6B, 0x65, 0x51, 0x75, 0x61, 0x6E, 0x74, 0x57, 0x69, 0x74, 0x68, 0x4D, 0x69, 0x6E, 0x4D, 0x61, 0x78, 0x56, 0x61, 0x72, 0x73, 0x2F, 0x52, 0x65, 0x61, 0x64, 0x56, 0x61, 0x72, 0x69, 0x61, 0x62, 0x6C, 0x65, 0x4F, 0x70, 0x5F, 0x31, 0x2F, 0x72, 0x65, 0x73, 0x6F, 0x75, 0x72, 0x63, 0x65, 0x00, 0x0C, 0x00, 0x0C, 0x00, 0x00, 0x00, 0x00, 0x00, 0x04, 0x00, 0x08, 0x00, 0x0C, 0x00, 0x00, 0x00, 0x08, 0x00, 0x00, 0x00, 0x0C, 0x00, 0x00, 0x00, 0x01, 0x00, 0x00, 0x00, 0x4A, 0x5E, 0x6C, 0x45, 0x01, 0x00, 0x00, 0x00, 0x80, 0xFF, 0xFF, 0xFF, 0xFF, 0xFF, 0xFF, 0xFF, 0x00, 0x00, 0x00, 0x00, 0x00, 0x00, 0x06, 0x00, 0x08, 0x00, 0x04, 0x00, 0x06, 0x00, 0x00, 0x00, 0x04, 0x00, 0x00, 0x00, 0x08, 0x00, 0x00, 0x00, 0xFF, 0xFF, 0xFF, 0xFF, 0x30, 0x03, 0x00, 0x00, 0x00, 0x00, 0x0E, 0x00, 0x18, 0x00, 0x08, 0x00, 0x07, 0x00, 0x0C, 0x00, 0x10, 0x00, 0x14, 0x00, 0x0E, 0x00, 0x00, 0x00, 0x00, 0x00, 0x00, 0x02, 0x10, 0x00, 0x00, 0x00, 0x02, 0x00, 0x00, 0x00, 0x10, 0x00, 0x00, 0x00, 0x34, 0x00, 0x00, 0x00, 0x01, 0x00, 0x00, 0x00, 0x02, 0x00, 0x00, 0x00, 0x22, 0x00, 0x00, 0x00, 0x73, 0x65, 0x71, 0x75, 0x65, 0x6E, 0x74, 0x69, 0x61, 0x6C, 0x5F, 0x31, 0x2F, 0x71, 0x75, 0x61, 0x6E, 0x74, 0x5F, 0x66, 0x6C, 0x61, 0x74, 0x74, 0x65, 0x6E, 0x5F, 0x31, 0x2F, 0x43, 0x6F, 0x6E, 0x73, 0x74, 0x00, 0x00, 0x98, 0xFF, 0xFF, 0xFF, 0x14, 0x00, 0x18, 0x00, 0x04, 0x00, 0x00, 0x00, 0x08, 0x00, 0x0C, 0x00, 0x10, 0x00, 0x00, 0x00, 0x00, 0x00, 0x14, 0x00, 0x14, 0x00, 0x00, 0x00, 0x14, 0x00, 0x00, 0x00, 0x01, 0x00, 0x00, 0x00, 0x34, 0x00, 0x00, 0x00, 0x3C, 0x00, 0x00, 0x00, 0x18, 0x00, 0x00, 0x00, 0x04, 0x00, 0x00, 0x00, 0x01, 0x00, 0x00, 0x00, 0x21, 0x00, 0x00, 0x00, 0x01, 0x01, 0x00, 0x00, 0x01, 0x00, 0x00, 0x00, 0x04, 0x00, 0x00, 0x00, 0xFF, 0xFF, 0xFF, 0xFF, 0x21, 0x00, 0x00, 0x00, 0x01, 0x01, 0x00, 0x00, 0x01, 0x00, 0x00, 0x00, 0x07, 0x00, 0x00, 0x00, 0x69, 0x6E, 0x70, 0x75, 0x74, 0x5F, 0x32, 0x00, 0xFC, 0xFF, 0xFF, 0xFF, 0x04, 0x00, 0x04, 0x00, 0x04, 0x00, 0x00, 0x00
};
unsigned int model_tflite_len = 15096;