
// ADDED LINES START
constexpr char* processing_method = "stft";
constexpr double expected_duration = 1.0;
constexpr int sample_rate = 16000;
constexpr int window_size_samples = 512;
constexpr int window_stride_samples = 480;

const char* RESPONSES[] = {"bed", "four", "left", "six"};
unsigned short NUM_RESPONSES = 4;

// ADDED LINES END

alignas(8) const unsigned char model_tflite[] = {
0x20, 0x00, 0x00, 0x00, 0x54, 0x46, 0x4C, 0x33, 0x00, 0x00, 0x00, 0x00, 0x14, 0x00, 0x20, 0x00, 0x04, 0x00, 0x08, 0x00, 0x0C, 0x00, 0x10, 0x00, 0x14, 0x00, 0x00, 0x00, 0x18, 0x00, 0x1C, 0x00, 0x14, 0x00, 0x00, 0x00, 0x03, 0x00, 0x00, 0x00, 0x18, 0x00, 0x00, 0x00, 0x34, 0x00, 0x00, 0x00, 0x08, 0x01, 0x00, 0x00, 0x34, 0x00, 0x00, 0x00, 0xB0, 0x00, 0x00, 0x00, 0xA8, 0x00, 0x00, 0x00, 0x07, 0x00, 0x00, 0x00, 0x88, 0x4B, 0x00, 0x00, 0x14, 0x48, 0x00, 0x00, 0x10, 0x47, 0x00, 0x00, 0xE0, 0x27, 0x00, 0x00, 0xAC, 0x05, 0x00, 0x00, 0x8C, 0x02, 0x00, 0x00, 0x04, 0x02, 0x00, 0x00, 0x01, 0x00, 0x00, 0x00, 0xF8, 0x00, 0x00, 0x00, 0x1E, 0x00, 0x00, 0x00, 0xE0, 0x4D, 0x00, 0x00, 0xDC, 0x4D, 0x00, 0x00, 0x00, 0x4D, 0x00, 0x00, 0xD4, 0x4D, 0x00, 0x00, 0x08, 0x4A, 0x00, 0x00, 0xF8, 0x48, 0x00, 0x00, 0xC8, 0x4D, 0x00, 0x00, 0xC4, 0x4D, 0x00, 0x00, 0x34, 0x44, 0x00, 0x00, 0xE8, 0x42, 0x00, 0x00, 0xB8, 0x4D, 0x00, 0x00, 0xB4, 0x4D, 0x00, 0x00, 0xBC, 0x3A, 0x00, 0x00, 0xF0, 0x38, 0x00, 0x00, 0xA8, 0x4D, 0x00, 0x00, 0xA4, 0x4D, 0x00, 0x00, 0x44, 0x2C, 0x00, 0x00, 0x54, 0x2A, 0x00, 0x00, 0x98, 0x4D, 0x00, 0x00, 0x94, 0x4D, 0x00, 0x00, 0x90, 0x4D, 0x00, 0x00, 0xA8, 0x06, 0x00, 0x00, 0xF0, 0x05, 0x00, 0x00, 0x84, 0x4D, 0x00, 0x00, 0x1C, 0x04, 0x00, 0x00, 0x7C, 0x03, 0x00, 0x00, 0x78, 0x4D, 0x00, 0x00, 0x74, 0x4D, 0x00, 0x00, 0x70, 0x4D, 0x00, 0x00, 0x3C, 0x00, 0x00, 0x00, 0x00, 0x00, 0x00, 0x00, 0x01, 0x00, 0x00, 0x00, 0x0C, 0x00, 0x00, 0x00, 0x08, 0x00, 0x0C, 0x00, 0x04, 0x00, 0x08, 0x00, 0x08, 0x00, 0x00, 0x00, 0x08, 0x00, 0x00, 0x00, 0x1D, 0x00, 0x00, 0x00, 0x13, 0x00, 0x00, 0x00, 0x6D, 0x69, 0x6E, 0x5F, 0x72, 0x75, 0x6E, 0x74, 0x69, 0x6D, 0x65, 0x5F, 0x76, 0x65, 0x72, 0x73, 0x69, 0x6F, 0x6E, 0x00, 0xAE, 0xB3, 0xFF, 0xFF, 0x04, 0x00, 0x00, 0x00, 0x10, 0x00, 0x00, 0x00, 0x31, 0x2E, 0x31, 0x34, 0x2E, 0x30, 0x00, 0x00, 0x00, 0x00, 0x00, 0x00, 0x00, 0x00, 0x00, 0x00, 0x0F, 0x00, 0x00, 0x00, 0x4D, 0x4C, 0x49, 0x52, 0x20, 0x43, 0x6F, 0x6E, 0x76, 0x65, 0x72, 0x74, 0x65, 0x64, 0x2E, 0x00, 0x00, 0x00, 0x0E, 0x00, 0x18, 0x00, 0x04, 0x00, 0x08, 0x00, 0x0C, 0x00, 0x10, 0x00, 0x14, 0x00, 0x0E, 0x00, 0x00, 0x00, 0x14, 0x00, 0x00, 0x00, 0x84, 0x00, 0x00, 0x00, 0x88, 0x00, 0x00, 0x00, 0x8C, 0x00, 0x00, 0x00, 0xC4, 0x00, 0x00, 0x00, 0x1C, 0x00, 0x00, 0x00, 0x80, 0x4C, 0x00, 0x00, 0x1C, 0x4C, 0x00, 0x00, 0x70, 0x4A, 0x00, 0x00, 0x30, 0x49, 0x00, 0x00, 0x0C, 0x48, 0x00, 0x00, 0xE0, 0x46, 0x00, 0x00, 0xDC, 0x45, 0x00, 0x00, 0x58, 0x44, 0x00, 0x00, 0x0C, 0x42, 0x00, 0x00, 0xD0, 0x40, 0x00, 0x00, 0xF4, 0x3F, 0x00, 0x00, 0x40, 0x3E, 0x00, 0x00, 0x34, 0x38, 0x00, 0x00, 0xD8, 0x36, 0x00, 0x00, 0xFC, 0x35, 0x00, 0x00, 0x48, 0x34, 0x00, 0x00, 0x98, 0x29, 0x00, 0x00, 0x14, 0x28, 0x00, 0x00, 0x3C, 0x27, 0x00, 0x00, 0x7C, 0x26, 0x00, 0x00, 0x8C, 0x25, 0x00, 0x00, 0x1C, 0x05, 0x00, 0x00, 0x40, 0x04, 0x00, 0x00, 0x48, 0x03, 0x00, 0x00, 0x90, 0x02, 0x00, 0x00, 0xCC, 0x01, 0x00, 0x00, 0x14, 0x01, 0x00, 0x00, 0x8C, 0x00, 0x00, 0x00, 0x01, 0x00, 0x00, 0x00, 0x00, 0x00, 0x00, 0x00, 0x01, 0x00, 0x00, 0x00, 0x1B, 0x00, 0x00, 0x00, 0x0E, 0x00, 0x00, 0x00, 0xA8, 0x49, 0x00, 0x00, 0x10, 0x46, 0x00, 0x00, 0x0C, 0x45, 0x00, 0x00, 0x24, 0x40, 0x00, 0x00, 0x4C, 0x3F, 0x00, 0x00, 0x34, 0x36, 0x00, 0x00, 0x5C, 0x35, 0x00, 0x00, 0x78, 0x27, 0x00, 0x00, 0xA4, 0x26, 0x00, 0x00, 0xEC, 0x25, 0x00, 0x00, 0xA8, 0x03, 0x00, 0x00, 0x4C, 0x01, 0x00, 0x00, 0x88, 0x00, 0x00, 0x00, 0x10, 0x00, 0x00, 0x00, 0x04, 0x00, 0x00, 0x00, 0x6D, 0x61, 0x69, 0x6E, 0x00, 0x00, 0x00, 0x00, 0x3E, 0xDA, 0xFF, 0xFF, 0x06, 0x00, 0x00, 0x00, 0x10, 0x00, 0x00, 0x00, 0x04, 0x00, 0x00, 0x00, 0x01, 0x00, 0x00, 0x00, 0x1B, 0x00, 0x00, 0x00, 0x01, 0x00, 0x00, 0x00, 0x1A, 0x00, 0x00, 0x00, 0xA0, 0xB6, 0xFF, 0xFF, 0x06, 0x00, 0x00, 0x00, 0x00, 0x00, 0x00, 0x06, 0x02, 0x00, 0x00, 0x00, 0x8C, 0xB4, 0xFF, 0xFF, 0x14, 0x00, 0x00, 0x00, 0x1C, 0x00, 0x00, 0x00, 0x24, 0x00, 0x00, 0x00, 0x30, 0x00, 0x00, 0x00, 0x10, 0x00, 0x00, 0x00, 0x02, 0x00, 0x00, 0x00, 0x01, 0x00, 0x00, 0x00, 0x04, 0x00, 0x00, 0x00, 0x02, 0x00, 0x00, 0x00, 0xFF, 0xFF, 0xFF, 0xFF, 0x04, 0x00, 0x00, 0x00, 0x08, 0x00, 0x00, 0x00, 0x49, 0x64, 0x65, 0x6E, 0x74, 0x69, 0x74, 0x79, 0x00, 0x00, 0x00, 0x00, 0x68, 0xB4, 0xFF, 0xFF, 0xB2, 0xBA, 0xFF, 0xFF, 0x00, 0x00, 0x00, 0x09, 0x05, 0x00, 0x00, 0x00, 0x1C, 0x00, 0x00, 0x00, 0x10, 0x00, 0x00, 0x00, 0x04, 0x00, 0x00, 0x00, 0x5E, 0xB5, 0xFF, 0xFF, 0x00, 0x00, 0x80, 0x3F, 0x01, 0x00, 0x00, 0x00, 0x1A, 0x00, 0x00, 0x00, 0x01, 0x00, 0x00, 0x00, 0x19, 0x00, 0x00, 0x00, 0x24, 0xB7, 0xFF, 0xFF, 0x19, 0x00, 0x00, 0x00, 0x00, 0x00, 0x00, 0x19, 0x02, 0x00, 0x00, 0x00, 0x18, 0xB7, 0xFF, 0xFF, 0x00, 0x00, 0x00, 0x09, 0x14, 0x00, 0x00, 0x00, 0x1B, 0x00, 0x00, 0x00, 0x24, 0x00, 0x00, 0x00, 0x48, 0x00, 0x00, 0x00, 0x10, 0x00, 0x00, 0x00, 0x02, 0x00, 0x00, 0x00, 0x01, 0x00, 0x00, 0x00, 0x04, 0x00, 0x00, 0x00, 0x02, 0x00, 0x00, 0x00, 0xFF, 0xFF, 0xFF, 0xFF, 0x04, 0x00, 0x00, 0x00, 0x22, 0x00, 0x00, 0x00, 0x73, 0x65, 0x71, 0x75, 0x65, 0x6E, 0x74, 0x69, 0x61, 0x6C, 0x5F, 0x31, 0x2F, 0x71, 0x75, 0x61, 0x6E, 0x74, 0x5F, 0x64, 0x65, 0x6E, 0x73, 0x65, 0x5F, 0x33, 0x2F, 0x53, 0x6F, 0x66, 0x74, 0x6D, 0x61, 0x78, 0x00, 0x00, 0x14, 0xB6, 0xFF, 0xFF, 0x08, 0x00, 0x00, 0x00, 0x0C, 0x00, 0x00, 0x00, 0x01, 0x00, 0x00, 0x00, 0x00, 0x00, 0x80, 0x3B, 0x01, 0x00, 0x00, 0x00, 0x80, 0xFF, 0xFF, 0xFF, 0xFF, 0xFF, 0xFF, 0xFF, 0x00, 0x00, 0x00, 0x00, 0x72, 0xBB, 0xFF, 0xFF, 0x00, 0x00, 0x00, 0x08, 0x04, 0x00, 0x00, 0x00, 0x18, 0x00, 0x00, 0x00, 0x0C, 0x00, 0x00, 0x00, 0x04, 0x00, 0x00, 0x00, 0x44, 0xB5, 0xFF, 0xFF, 0x01, 0x00, 0x00, 0x00, 0x19, 0x00, 0x00, 0x00, 0x03, 0x00, 0x00, 0x00, 0x16, 0x00, 0x00, 0x00, 0x17, 0x00, 0x00, 0x00, 0x18, 0x00, 0x00, 0x00, 0xCC, 0xB7, 0xFF, 0xFF, 0x00, 0x00, 0x00, 0x09, 0x14, 0x00, 0x00, 0x00, 0x1A, 0x00, 0x00, 0x00, 0x24, 0x00, 0x00, 0x00, 0x6C, 0x00, 0x00, 0x00, 0x10, 0x00, 0x00, 0x00, 0x02, 0x00, 0x00, 0x00, 0x01, 0x00, 0x00, 0x00, 0x04, 0x00, 0x00, 0x00, 0x02, 0x00, 0x00, 0x00, 0xFF, 0xFF, 0xFF, 0xFF, 0x04, 0x00, 0x00, 0x00, 0x44, 0x00, 0x00, 0x00, 0x73, 0x65, 0x71, 0x75, 0x65, 0x6E, 0x74, 0x69, 0x61, 0x6C, 0x5F, 0x31, 0x2F, 0x71, 0x75, 0x61, 0x6E, 0x74, 0x5F, 0x64, 0x65, 0x6E, 0x73, 0x65, 0x5F, 0x33, 0x2F, 0x4D, 0x61, 0x74, 0x4D, 0x75, 0x6C, 0x3B, 0x73, 0x65, 0x71, 0x75, 0x65, 0x6E, 0x74, 0x69, 0x61, 0x6C, 0x5F, 0x31, 0x2F, 0x71, 0x75, 0x61, 0x6E, 0x74, 0x5F, 0x64, 0x65, 0x6E, 0x73, 0x65, 0x5F, 0x33, 0x2F, 0x42, 0x69, 0x61, 0x73, 0x41, 0x64, 0x64, 0x00, 0x00, 0x00, 0x00, 0xEC, 0xB6, 0xFF, 0xFF, 0x08, 0x00, 0x00, 0x00, 0x0C, 0x00, 0x00, 0x00, 0x01, 0x00, 0x00, 0x00, 0xEB, 0x1A, 0x27, 0x3E, 0x01, 0x00, 0x00, 0x00, 0xE4, 0xFF, 0xFF, 0xFF, 0xFF, 0xFF, 0xFF, 0xFF, 0x00, 0x00, 0x00, 0x00, 0xDE, 0xB6, 0xFF, 0xFF, 0x04, 0x00, 0x00, 0x00, 0x10, 0x00, 0x00, 0x00, 0x3D, 0xFB, 0xFF, 0xFF, 0x1E, 0x02, 0x00, 0x00, 0xD1, 0x03, 0x00, 0x00, 0x2D, 0xFE, 0xFF, 0xFF, 0xDE, 0xB6, 0xFF, 0xFF, 0x00, 0x00, 0x00, 0x02, 0x10, 0x00, 0x00, 0x00, 0x19, 0x00, 0x00, 0x00, 0x10, 0x00, 0x00, 0x00, 0x4C, 0x00, 0x00, 0x00, 0x01, 0x00, 0x00, 0x00, 0x04, 0x00, 0x00, 0x00, 0x3A, 0x00, 0x00, 0x00, 0x73, 0x65, 0x71, 0x75, 0x65, 0x6E, 0x74, 0x69, 0x61, 0x6C, 0x5F, 0x31, 0x2F, 0x71, 0x75, 0x61, 0x6E, 0x74, 0x5F, 0x64, 0x65, 0x6E, 0x73, 0x65, 0x5F, 0x33, 0x2F, 0x42, 0x69, 0x61, 0x73, 0x41, 0x64, 0x64, 0x2F, 0x52, 0x65, 0x61, 0x64, 0x56, 0x61, 0x72, 0x69, 0x61, 0x62, 0x6C, 0x65, 0x4F, 0x70, 0x2F, 0x72, 0x65, 0x73, 0x6F, 0x75, 0x72, 0x63, 0x65, 0x00, 0x00, 0x8C, 0xB7, 0xFF, 0xFF, 0x08, 0x00, 0x00, 0x00, 0x0C, 0x00, 0x00, 0x00, 0x01, 0x00, 0x00, 0x00, 0xB2, 0x23, 0x07, 0x3A, 0x01, 0x00, 0x00, 0x00, 0x00, 0x00, 0x00, 0x00, 0x00, 0x00, 0x00, 0x00, 0x7A, 0xB7, 0xFF, 0xFF, 0x04, 0x00, 0x00, 0x00, 0x28, 0x00, 0x00, 0x00, 0x03, 0x5B, 0xD3, 0x22, 0x7F, 0xC1, 0xAB, 0x72, 0x29, 0xC3, 0xE5, 0xAB, 0xF4, 0x4B, 0x2F, 0x0B, 0xBE, 0x49, 0xF9, 0xFB, 0x27, 0x5C, 0x3D, 0x1D, 0xF0, 0xF0, 0xDD, 0x5E, 0xB1, 0xFC, 0x6A, 0x5C, 0xC0, 0x64, 0x9E, 0x8B, 0x57, 0xB6, 0xE1, 0x6A, 0x92, 0xB7, 0xFF, 0xFF, 0x00, 0x00, 0x00, 0x09, 0x10, 0x00, 0x00, 0x00, 0x18, 0x00, 0x00, 0x00, 0x14, 0x00, 0x00, 0x00, 0x78, 0x00, 0x00, 0x00, 0x02, 0x00, 0x00, 0x00, 0x04, 0x00, 0x00, 0x00, 0x0A, 0x00, 0x00, 0x00, 0x63, 0x00, 0x00, 0x00, 0x73, 0x65, 0x71, 0x75, 0x65, 0x6E, 0x74, 0x69, 0x61, 0x6C, 0x5F, 0x31, 0x2F, 0x71, 0x75, 0x61, 0x6E, 0x74, 0x5F, 0x64, 0x65, 0x6E, 0x73, 0x65, 0x5F, 0x33, 0x2F, 0x4D, 0x61, 0x74, 0x4D, 0x75, 0x6C, 0x3B, 0x73, 0x65, 0x71, 0x75, 0x65, 0x6E, 0x74, 0x69, 0x61, 0x6C, 0x5F, 0x31, 0x2F, 0x71, 0x75, 0x61, 0x6E, 0x74, 0x5F, 0x64, 0x65, 0x6E, 0x73, 0x65, 0x5F, 0x33, 0x2F, 0x4C, 0x61, 0x73, 0x74, 0x56, 0x61, 0x6C, 0x75, 0x65, 0x51, 0x75, 0x61, 0x6E, 0x74, 0x2F, 0x46, 0x61, 0x6B, 0x65, 0x51, 0x75, 0x61, 0x6E, 0x74, 0x57, 0x69, 0x74, 0x68, 0x4D, 0x69, 0x6E, 0x4D, 0x61, 0x78, 0x56, 0x61, 0x72, 0x73, 0x00, 0x6C, 0xB8, 0xFF, 0xFF, 0x08, 0x00, 0x00, 0x00, 0x0C, 0x00, 0x00, 0x00, 0x01, 0x00, 0x00, 0x00, 0xE4, 0x02, 0x8D, 0x3B, 0x01, 0x00, 0x00, 0x00, 0x00, 0x00, 0x00, 0x00, 0x00, 0x00, 0x00, 0x00, 0x00, 0x00, 0x00, 0x00, 0xCA, 0xBD, 0xFF, 0xFF, 0x00, 0x00, 0x00, 0x08, 0x04, 0x00, 0x00, 0x00, 0x18, 0x00, 0x00, 0x00, 0x0C, 0x00, 0x00, 0x00, 0x04, 0x00, 0x00, 0x00, 0x9C, 0xB7, 0xFF, 0xFF, 0x01, 0x00, 0x00, 0x00, 0x16, 0x00, 0x00, 0x00, 0x03, 0x00, 0x00, 0x00, 0x13, 0x00, 0x00, 0x00, 0x14, 0x00, 0x00, 0x00, 0x15, 0x00, 0x00, 0x00, 0x40, 0xBA, 0xFF, 0xFF, 0x09, 0x00, 0x00, 0x00, 0x00, 0x00, 0x00, 0x09, 0x04, 0x00, 0x00, 0x00, 0x34, 0xBA, 0xFF, 0xFF, 0x00, 0x00, 0x00, 0x09, 0x14, 0x00, 0x00, 0x00, 0x17, 0x00, 0x00, 0x00, 0x24, 0x00, 0x00, 0x00, 0x6C, 0x00, 0x00, 0x00, 0x10, 0x00, 0x00, 0x00, 0x02, 0x00, 0x00, 0x00, 0x01, 0x00, 0x00, 0x00, 0x0A, 0x00, 0x00, 0x00, 0x02, 0x00, 0x00, 0x00, 0xFF, 0xFF, 0xFF, 0xFF, 0x0A, 0x00, 0x00, 0x00, 0x44, 0x00, 0x00, 0x00, 0x73, 0x65, 0x71, 0x75, 0x65, 0x6E, 0x74, 0x69, 0x61, 0x6C, 0x5F, 0x31, 0x2F, 0x71, 0x75, 0x61, 0x6E, 0x74, 0x5F, 0x64, 0x65, 0x6E, 0x73, 0x65, 0x5F, 0x32, 0x2F, 0x4D, 0x61, 0x74, 0x4D, 0x75, 0x6C, 0x3B, 0x73, 0x65, 0x71, 0x75, 0x65, 0x6E, 0x74, 0x69, 0x61, 0x6C, 0x5F, 0x31, 0x2F, 0x71, 0x75, 0x61, 0x6E, 0x74, 0x5F, 0x64, 0x65, 0x6E, 0x73, 0x65, 0x5F, 0x32, 0x2F, 0x42, 0x69, 0x61, 0x73, 0x41, 0x64, 0x64, 0x00, 0x00, 0x00, 0x00, 0x54, 0xB9, 0xFF, 0xFF, 0x08, 0x00, 0x00, 0x00, 0x0C, 0x00, 0x00, 0x00, 0x01, 0x00, 0x00, 0x00, 0x03, 0x57, 0xF5, 0x3D, 0x01, 0x00, 0x00, 0x00, 0xF0, 0xFF, 0xFF, 0xFF, 0xFF, 0xFF, 0xFF, 0xFF, 0x00, 0x00, 0x00, 0x00, 0x46, 0xB9, 0xFF, 0xFF, 0x04, 0x00, 0x00, 0x00, 0x28, 0x00, 0x00, 0x00, 0x91, 0x00, 0x00, 0x00, 0x4B, 0x00, 0x00, 0x00, 0xE1, 0xFF, 0xFF, 0xFF, 0x4C, 0x00, 0x00, 0x00, 0xCF, 0xFF, 0xFF, 0xFF, 0xC2, 0xFF, 0xFF, 0xFF, 0x44, 0x00, 0x00, 0x00, 0x8C, 0xFF, 0xFF, 0xFF, 0xDF, 0xFF, 0xFF, 0xFF, 0x4B, 0x00, 0x00, 0x00, 0x5E, 0xB9, 0xFF, 0xFF, 0x00, 0x00, 0x00, 0x02, 0x10, 0x00, 0x00, 0x00, 0x16, 0x00, 0x00, 0x00, 0x10, 0x00, 0x00, 0x00, 0x4C, 0x00, 0x00, 0x00, 0x01, 0x00, 0x00, 0x00, 0x0A, 0x00, 0x00, 0x00, 0x3A, 0x00, 0x00, 0x00, 0x73, 0x65, 0x71, 0x75, 0x65, 0x6E, 0x74, 0x69, 0x61, 0x6C, 0x5F, 0x31, 0x2F, 0x71, 0x75, 0x61, 0x6E, 0x74, 0x5F, 0x64, 0x65, 0x6E, 0x73, 0x65, 0x5F, 0x32, 0x2F, 0x42, 0x69, 0x61, 0x73, 0x41, 0x64, 0x64, 0x2F, 0x52, 0x65, 0x61, 0x64, 0x56, 0x61, 0x72, 0x69, 0x61, 0x62, 0x6C, 0x65, 0x4F, 0x70, 0x2F, 0x72, 0x65, 0x73, 0x6F, 0x75, 0x72, 0x63, 0x65, 0x00, 0x00, 0x0C, 0xBA, 0xFF, 0xFF, 0x08, 0x00, 0x00, 0x00, 0x0C, 0x00, 0x00, 0x00, 0x01, 0x00, 0x00, 0x00, 0x9A, 0xD2, 0x28, 0x3B, 0x01, 0x00, 0x00, 0x00, 0x00, 0x00, 0x00, 0x00, 0x00, 0x00, 0x00, 0x00, 0xFA, 0xB9, 0xFF, 0xFF, 0x04, 0x00, 0x00, 0x00, 0xE0, 0x1F, 0x00, 0x00, 0x09, 0x0A, 0x03, 0x0C, 0xEB, 0x0A, 0xFD, 0x05, 0xFA, 0xFB, 0xFF, 0xFD, 0xF2, 0xF6, 0xF8, 0x10, 0x16, 0x10, 0x0E, 0xFB, 0xF5, 0x01, 0x07, 0xEF, 0x10, 0x03, 0x02, 0xEF, 0xEF, 0xF3, 0xF6, 0xFB, 0x12, 0xF2, 0xFB, 0x0A, 0x09, 0xFE, 0xF3, 0x04, 0xF8, 0xEB, 0x0D, 0xFD, 0xF8, 0xF7, 0xFB, 0x05, 0x13, 0x04, 0x10, 0x02, 0x0F, 0xFD, 0x0E, 0xFB, 0xFB, 0x13, 0xF3, 0x0E, 0xF4, 0x09, 0x17, 0xF2, 0x0E, 0x08, 0x17, 0x0B, 0xF5, 0xFC, 0x09, 0x0E, 0xFC, 0xF9, 0x01, 0x01, 0x05, 0x07, 0xF8, 0xFB, 0xFC, 0x01, 0xF6, 0xF0, 0xF0, 0xF4, 0xEE, 0x02, 0xF5, 0x0A, 0x0E, 0x0D, 0x06, 0x00, 0xFD, 0x19, 0x06, 0xFB, 0x17, 0x02, 0x12, 0x0E, 0xFF, 0x01, 0xEA, 0xEE, 0x0B, 0x13, 0x12, 0x0A, 0x0F, 0x11, 0x07, 0xF4, 0xF5, 0x0D, 0x0D, 0xF5, 0xF6, 0x10, 0xF3, 0xF5, 0xF8, 0xF0, 0xEF, 0x15, 0x01, 0xF7, 0x06, 0xF7, 0xF4, 0x0F, 0xF1, 0xFA, 0x0E, 0xF1, 0x07, 0x07, 0x0F, 0xFC, 0x08, 0xF7, 0x0B, 0xF4, 0x02, 0x02, 0xFA, 0xF1, 0x18, 0x00, 0xFB, 0x10, 0xF1, 0x05, 0xEE, 0xF7, 0x05, 0x00, 0x0F, 0x13, 0x08, 0xEC, 0x0A, 0xF2, 0x08, 0x14, 0x0C, 0x0E, 0xF9, 0xF8, 0xFA, 0x14, 0xFF, 0x05, 0x06, 0xF3, 0xEC, 0x03, 0x11, 0xF5, 0xF6, 0x08, 0xFA, 0x16, 0xDC, 0xF9, 0x01, 0xEF, 0x00, 0x02, 0x00, 0x0B, 0xF1, 0x11, 0x11, 0x01, 0x15, 0xEF, 0x04, 0xFB, 0xF9, 0xF5, 0x08, 0xFC, 0x00, 0xFE, 0x01, 0x11, 0xE9, 0xEE, 0x16, 0xFD, 0x11, 0xFA, 0x04, 0xF7, 0x12, 0x0D, 0xF0, 0xFF, 0x00, 0xFA, 0x07, 0x0B, 0xEE, 0x08, 0x11, 0xF2, 0xF5, 0xEF, 0xFC, 0xF3, 0x34, 0xFC, 0x0E, 0x13, 0x0A, 0x07, 0x0D, 0xF4, 0xF0, 0xF6, 0x04, 0xF8, 0x08, 0x0B, 0xFA, 0x13, 0xEC, 0xFB, 0xEC, 0x10, 0xFB, 0xF6, 0xEF, 0xF8, 0xFB, 0xF6, 0xF3, 0x02, 0xF2, 0x06, 0xF7, 0xFF, 0x48, 0xFB, 0xEE, 0xFA, 0x00, 0x0E, 0x12, 0x04, 0xF1, 0x09, 0x10, 0x08, 0x05, 0xFE, 0x08, 0xF2, 0xFE, 0x08, 0x07, 0x0A, 0xF2, 0x0B, 0xFD, 0xFC, 0xF9, 0x09, 0x04, 0x08, 0x0A, 0x08, 0xFA, 0xF9, 0x05, 0x0B, 0xF1, 0x02, 0xF1, 0xF4, 0xEF, 0x0C, 0xFE, 0x09, 0xF1, 0x0B, 0x06, 0x10, 0x0C, 0xEA, 0x01, 0x14, 0xF3, 0xFD, 0x03, 0xFB, 0xEE, 0xF4, 0xFE, 0x13, 0xF6, 0xFA, 0xF3, 0xF1, 0x06, 0xFE, 0x0D, 0xF8, 0x06, 0x11, 0x0A, 0xFA, 0xEF, 0x19, 0x04, 0x07, 0xFB, 0xF6, 0xF2, 0xF4, 0xFF, 0x12, 0x19, 0xFA, 0x13, 0x18, 0x11, 0x01, 0x05, 0x03, 0x11, 0x12, 0x0E, 0x09, 0xFD, 0x07, 0x08, 0x04, 0x19, 0x04, 0xF9, 0xFD, 0x0D, 0x19, 0x08, 0xFD, 0x0C, 0xFD, 0xF6, 0xFB, 0x00, 0xF1, 0xF1, 0x12, 0xF8, 0x12, 0x0A, 0x0F, 0xF1, 0x07, 0x10, 0xFE, 0x0C, 0xF1, 0xF4, 0xE5, 0x02, 0x10, 0x10, 0xFC, 0xFE, 0xF1, 0xFF, 0x0B, 0xFF, 0x08, 0x0C, 0xED, 0x0D, 0x12, 0xF8, 0x11, 0xFF, 0x02, 0x09, 0x02, 0xF0, 0x18, 0xFC, 0x0A, 0x04, 0x0D, 0x0F, 0x08, 0xF1, 0x05, 0x1C, 0x0C, 0x11, 0x02, 0x17, 0x07, 0xE9, 0x0B, 0x13, 0x03, 0xF9, 0xF6, 0xFE, 0xF9, 0xF4, 0xED, 0xF2, 0xF4, 0x0D, 0xF5, 0x04, 0x07, 0xE2, 0x13, 0x16, 0xF6, 0xFC, 0x05, 0x0D, 0x10, 0xFD, 0xF2, 0x1A, 0xF9, 0x06, 0x01, 0x11, 0xFF, 0xF0, 0x11, 0x02, 0x0E, 0xF8, 0x10, 0x01, 0x0C, 0x01, 0x14, 0x0B, 0x10, 0xF3, 0xF4, 0x02, 0xF7, 0xD4, 0x05, 0x07, 0xFC, 0xF2, 0xFD, 0xFB, 0xF9, 0xFF, 0xEC, 0xFB, 0x01, 0xF5, 0xEF, 0xFA, 0xEE, 0xE3, 0xF0, 0xFA, 0x05, 0xFD, 0xF9, 0x13, 0xEC, 0x10, 0xF1, 0x17, 0x0C, 0x0D, 0x12, 0x12, 0x0D, 0xD9, 0xF5, 0x16, 0x0D, 0x01, 0x0D, 0xF4, 0xE2, 0xFA, 0x06, 0x13, 0xFE, 0x0D, 0xF1, 0xF8, 0xEF, 0xEC, 0xFF, 0x07, 0x0A, 0xF8, 0xF0, 0xFF, 0x00, 0xF2, 0x02, 0xFB, 0xEB, 0xF1, 0xE9, 0x02, 0x02, 0x2D, 0xEE, 0x05, 0x0A, 0xFB, 0xFD, 0xF3, 0x09, 0x13, 0x02, 0xEE, 0x08, 0x12, 0xF4, 0xEF, 0xF5, 0x08, 0x10, 0x07, 0xF0, 0x0A, 0xEB, 0x0C, 0xFF, 0x06, 0x0A, 0x0A, 0xF1, 0xF2, 0x14, 0xF4, 0x04, 0x02, 0x08, 0x0E, 0x02, 0xF8, 0x0D, 0xF4, 0x03, 0x0C, 0xFB, 0xFC, 0xFC, 0xE7, 0xF5, 0x16, 0xFD, 0x0C, 0xF7, 0x12, 0xF1, 0x00, 0xF2, 0xF1, 0x0F, 0x12, 0x01, 0xFC, 0x0C, 0xF8, 0xFE, 0x11, 0xFB, 0xFE, 0xF5, 0xFD, 0xFC, 0xEE, 0x0D, 0xF4, 0x15, 0xF7, 0xFE, 0x0A, 0x22, 0x0D, 0xF6, 0x0B, 0xF1, 0x0F, 0x02, 0x18, 0x18, 0x07, 0xF9, 0x00, 0x10, 0xF6, 0x16, 0xF5, 0xE1, 0xFD, 0x04, 0x0E, 0x02, 0xFD, 0x0A, 0x04, 0x09, 0x08, 0xFA, 0xF4, 0x18, 0xEB, 0x04, 0x09, 0x23, 0x1C, 0xEF, 0x0C, 0xF2, 0x0A, 0x0E, 0x17, 0x0F, 0x06, 0xF7, 0x0F, 0x13, 0x09, 0xF0, 0xFF, 0x0F, 0x09, 0x15, 0x14, 0x00, 0xFC, 0x05, 0xFD, 0x1B, 0x0E, 0x0C, 0xF1, 0x00, 0x03, 0xFB, 0xF3, 0xF4, 0x03, 0x0F, 0x15, 0x0D, 0xE1, 0x11, 0x05, 0x09, 0x0B, 0x05, 0x16, 0x0B, 0xFF, 0xEF, 0x1C, 0xED, 0x10, 0x18, 0x14, 0x11, 0xE0, 0x0F, 0xF6, 0x00, 0x02, 0xF5, 0x10, 0x0D, 0xF6, 0xF7, 0xF3, 0x18, 0x02, 0x16, 0x11, 0x12, 0xE4, 0xF8, 0x0B, 0xFE, 0x18, 0x0B, 0xFF, 0xFC, 0xFC, 0x13, 0x04, 0x0A, 0x0C, 0x0E, 0xF0, 0x12, 0xC8, 0xEB, 0xF4, 0x19, 0xFE, 0x02, 0x05, 0x04, 0x07, 0xFF, 0x0C, 0x0D, 0x0E, 0x00, 0x15, 0xF7, 0xE7, 0xF1, 0xF7, 0x15, 0x11, 0xFF, 0xF0, 0x08, 0xEC, 0x03, 0xF8, 0x13, 0xEC, 0xF7, 0xF7, 0x0C, 0xC8, 0xF0, 0x17, 0xEB, 0xFE, 0x02, 0xFB, 0x09, 0xFF, 0xFB, 0x04, 0xF8, 0x06, 0x08, 0x05, 0x06, 0xEB, 0xEE, 0x0E, 0x00, 0x16, 0x07, 0x08, 0xF3, 0x0A, 0x06, 0x13, 0x13, 0xFC, 0xF7, 0x18, 0x08, 0x00, 0x15, 0xFD, 0xF3, 0xF5, 0x0E, 0xF3, 0xE0, 0x06, 0xF0, 0xEE, 0x06, 0x0C, 0x01, 0x16, 0x18, 0x70, 0x21, 0xED, 0x05, 0xFF, 0x0A, 0x12, 0xF7, 0xF2, 0xF6, 0xF7, 0xFF, 0x0D, 0xF1, 0x0D, 0xF2, 0xFF, 0xF2, 0x0E, 0x05, 0x05, 0x07, 0x09, 0xED, 0x0D, 0x05, 0xEF, 0x02, 0xFA, 0xFA, 0xEE, 0x0A, 0xEE, 0x11, 0x13, 0xFE, 0x05, 0xFC, 0x03, 0xFC, 0xF6, 0xF0, 0x0B, 0x02, 0x0D, 0x0E, 0xF9, 0x07, 0xF0, 0xFA, 0x00, 0xF8, 0xF5, 0xFD, 0x03, 0xF9, 0xFA, 0xF7, 0x0B, 0xFE, 0x10, 0x11, 0xF2, 0x13, 0x06, 0xF7, 0xF9, 0xFC, 0x13, 0x10, 0x06, 0xFE, 0xF0, 0x1B, 0x0F, 0x02, 0x00, 0xEE, 0x0B, 0x02, 0xF1, 0x09, 0xFF, 0x17, 0x12, 0x19, 0x07, 0x12, 0x10, 0xFA, 0x0D, 0x24, 0x09, 0x18, 0xFD, 0xF1, 0x10, 0xFB, 0xFE, 0x16, 0xED, 0x0D, 0x0C, 0x11, 0x13, 0x17, 0xFF, 0x03, 0xEE, 0xF3, 0xFD, 0xFE, 0xDF, 0xF7, 0xFC, 0x14, 0x09, 0x06, 0xF4, 0xF5, 0xFB, 0x11, 0x18, 0x05, 0x0B, 0xEE, 0x03, 0x08, 0x02, 0xFF, 0xFD, 0x0F, 0xF3, 0x0B, 0x07, 0x0B, 0x00, 0xEF, 0x0A, 0xFC, 0x16, 0x0B, 0x04, 0x11, 0xD2, 0xF0, 0x0D, 0xF2, 0xF5, 0x12, 0xFC, 0xFD, 0x10, 0xFA, 0x09, 0x11, 0x07, 0xF3, 0xF5, 0x0F, 0xFC, 0x0B, 0x14, 0xF9, 0xFB, 0x0B, 0xF4, 0x0D, 0x06, 0xFE, 0xED, 0x0D, 0x17, 0xEE, 0x17, 0x15, 0xDC, 0x00, 0x0F, 0x0B, 0xF7, 0x01, 0x08, 0x17, 0xF1, 0xF7, 0xF6, 0xE9, 0x03, 0xFA, 0xEC, 0xFB, 0xF7, 0xF9, 0xFC, 0x06, 0xFB, 0xF6, 0x06, 0x10, 0xF9, 0x00, 0x00, 0xE9, 0xEF, 0x0D, 0x13, 0x03, 0x57, 0x03, 0xEC, 0xF8, 0x03, 0xFA, 0xFB, 0x08, 0xFA, 0xFB, 0x01, 0xED, 0x0C, 0x12, 0x02, 0x02, 0x45, 0x15, 0xFE, 0xFB, 0xF4, 0x08, 0xF7, 0x06, 0x04, 0x08, 0x09, 0xED, 0x04, 0x13, 0x04, 0x02, 0x47, 0x0D, 0x0A, 0xF4, 0xF8, 0xED, 0xFA, 0xFF, 0x00, 0x09, 0x03, 0xFD, 0xFC, 0x0D, 0xEE, 0xF2, 0xFD, 0x0B, 0xFF, 0x0A, 0x05, 0xF5, 0x02, 0xF3, 0x0B, 0xFC, 0x01, 0x10, 0x06, 0xEC, 0xFF, 0x03, 0x1E, 0xFD, 0xEB, 0x13, 0x05, 0x05, 0xF7, 0x06, 0x07, 0x0A, 0xF0, 0x09, 0xF1, 0x0F, 0x07, 0xF7, 0xF8, 0xF5, 0xFE, 0x02, 0x06, 0xF1, 0xFB, 0x02, 0x0E, 0xF6, 0xF1, 0xF8, 0x08, 0xFA, 0x0B, 0xEE, 0x05, 0x0D, 0x09, 0x10, 0x0A, 0x01, 0xFD, 0xF9, 0xFF, 0xF1, 0xF3, 0x10, 0x04, 0x04, 0x15, 0xF4, 0x09, 0x14, 0xF7, 0xFD, 0xF6, 0x02, 0x02, 0x0C, 0x0C, 0xF8, 0xF8, 0xF2, 0xEF, 0x05, 0x18, 0x15, 0x04, 0x15, 0x0A, 0xFD, 0xFA, 0x00, 0x03, 0xF2, 0xF3, 0x0B, 0x06, 0x22, 0x02, 0x15, 0xF5, 0x0F, 0x17, 0xFA, 0xF9, 0xF2, 0x0E, 0x16, 0xF7, 0x01, 0x02, 0xFA, 0x10, 0x1C, 0xF1, 0xFC, 0x19, 0xF7, 0x02, 0x11, 0x15, 0x11, 0xFD, 0x1A, 0xFC, 0xF2, 0xF9, 0x0D, 0xFC, 0x0C, 0x01, 0xF2, 0xFC, 0x06, 0xF9, 0x00, 0x10, 0xFD, 0x0D, 0x04, 0x05, 0xF2, 0x07, 0xF7, 0x03, 0x18, 0x06, 0x0D, 0xFE, 0xF5, 0xF9, 0xF8, 0x14, 0xFA, 0x03, 0x0A, 0x08, 0x06, 0xFE, 0x17, 0x15, 0x19, 0x0C, 0xF0, 0xF4, 0xF7, 0xF0, 0xEF, 0xF7, 0x05, 0xF2, 0x08, 0xF1, 0x09, 0x16, 0x0B, 0x10, 0xF3, 0x16, 0x10, 0x14, 0xFB, 0xD2, 0xFC, 0xF1, 0xEE, 0x02, 0x0B, 0xF4, 0x15, 0x16, 0x03, 0x02, 0xFD, 0x13, 0x02, 0x16, 0x0C, 0xF3, 0x03, 0x13, 0x0B, 0xFA, 0x10, 0x15, 0x0F, 0x17, 0xF6, 0x19, 0x18, 0x17, 0xFA, 0x0B, 0x10, 0xDD, 0x0A, 0x03, 0xFC, 0x0E, 0x09, 0x16, 0x04, 0x0E, 0x01, 0x07, 0xFE, 0x10, 0x15, 0xEA, 0x10, 0xDB, 0xF6, 0x04, 0x0A, 0xFC, 0xF8, 0x07, 0xFA, 0xFD, 0xF1, 0x0F, 0x06, 0xFB, 0x10, 0x07, 0x00, 0xD4, 0x17, 0x0A, 0xF6, 0xEF, 0x0D, 0x08, 0x0B, 0xFC, 0xF7, 0xEC, 0x09, 0x13, 0xF9, 0x07, 0x10, 0xCD, 0x05, 0x0D, 0xF8, 0x08, 0x0E, 0x14, 0xFB, 0xE8, 0x0E, 0xF6, 0xEE, 0x0D, 0x04, 0x01, 0xF2, 0xF5, 0xEB, 0xEA, 0x07, 0x14, 0x0D, 0x11, 0xED, 0x0D, 0xE7, 0xF2, 0x1B, 0x12, 0x11, 0xEF, 0x12, 0x76, 0x0F, 0x07, 0x07, 0x10, 0x0B, 0xF1, 0x25, 0x09, 0xF9, 0x0E, 0x1F, 0x00, 0x0B, 0xEF, 0x09, 0x06, 0xFE, 0x02, 0x10, 0xF2, 0x06, 0x10, 0xEF, 0x03, 0xFF, 0x04, 0x0D, 0xF5, 0x07, 0xF8, 0xF5, 0x00, 0x13, 0x07, 0x08, 0xF2, 0xF5, 0x12, 0x06, 0xED, 0xF3, 0xF0, 0xF8, 0xED, 0x01, 0xF6, 0x01, 0x08, 0x0E, 0xFF, 0x05, 0x08, 0xFC, 0xF2, 0x10, 0x15, 0xFC, 0xF9, 0xF0, 0xEA, 0xFE, 0x10, 0xED, 0xF4, 0xFD, 0xFC, 0xF8, 0xF1, 0x00, 0x05, 0xF6, 0x0D, 0xF3, 0x06, 0x10, 0xEF, 0xEF, 0xF3, 0x0B, 0x12, 0x14, 0xFC, 0xF2, 0x0F, 0x08, 0xF5, 0xFE, 0xF4, 0x11, 0xFD, 0xEA, 0x07, 0xFD, 0x17, 0x00, 0xEA, 0x00, 0x13, 0xF3, 0xF3, 0xF2, 0x05, 0x17, 0xEE, 0xFB, 0x10, 0x2C, 0xFB, 0x00, 0xF7, 0x0A, 0x21, 0x06, 0xFD, 0x01, 0x04, 0x16, 0x0D, 0x05, 0xF2, 0xF1, 0x07, 0x12, 0x13, 0xF5, 0xF5, 0xF9, 0xFF, 0xF2, 0xF2, 0xFC, 0xFA, 0x04, 0x0C, 0x0B, 0xED, 0xF9, 0x17, 0x26, 0xEB, 0x00, 0xF9, 0x09, 0xDF, 0x02, 0x08, 0xEC, 0x07, 0xF8, 0x11, 0xFB, 0x14, 0xF8, 0x16, 0x1B, 0x12, 0xF4, 0x16, 0x0D, 0xCB, 0xF6, 0x14, 0xF7, 0x14, 0xF2, 0xF4, 0x05, 0x0F, 0x13, 0x08, 0x17, 0x0C, 0xF4, 0x00, 0xFB, 0xD0, 0x07, 0x12, 0xEB, 0x0E, 0xFB, 0xF1, 0x07, 0xEF, 0xF8, 0xF9, 0xFA, 0x16, 0x01, 0xF3, 0x03, 0xD7, 0x1A, 0xF9, 0x12, 0xFF, 0x17, 0xF4, 0xF6, 0xF6, 0x08, 0x0C, 0x0D, 0x16, 0xFE, 0xF4, 0xF3, 0xCE, 0x0E, 0xFB, 0xEF, 0x02, 0x03, 0x02, 0x0F, 0xFE, 0x09, 0x09, 0x0E, 0x17, 0x09, 0xF3, 0x03, 0xAD, 0x14, 0xFB, 0xF5, 0xF4, 0xF8, 0xFC, 0xFB, 0xF9, 0xF4, 0x15, 0x0D, 0x22, 0x15, 0x0A, 0x07, 0xED, 0xEE, 0x11, 0xEB, 0x13, 0x05, 0x14, 0x07, 0xE6, 0x0C, 0xF2, 0x15, 0xEA, 0xF5, 0xFA, 0x0E, 0x12, 0xF9, 0xFE, 0x03, 0xF0, 0x09, 0x17, 0xE0, 0x01, 0x13, 0xF6, 0x09, 0x13, 0x15, 0xF7, 0x0E, 0x62, 0x0F, 0x2B, 0xEB, 0x10, 0x09, 0x15, 0x29, 0x06, 0x00, 0x05, 0x00, 0x07, 0xF2, 0x06, 0xFA, 0x07, 0x0C, 0x03, 0xF2, 0x0C, 0x00, 0x09, 0x01, 0xF4, 0xFB, 0xF3, 0xF6, 0x0D, 0x04, 0x0C, 0xFC, 0x0B, 0x02, 0xFE, 0xF7, 0xEF, 0x03, 0x06, 0xFD, 0xFF, 0x07, 0x08, 0xF4, 0x07, 0x02, 0xF0, 0x0D, 0xF7, 0xED, 0x05, 0xFE, 0xF6, 0x03, 0x09, 0x05, 0x02, 0x04, 0x09, 0xF9, 0xE7, 0x0A, 0x0B, 0x04, 0xE5, 0x10, 0xFE, 0xED, 0xFC, 0x0E, 0x0A, 0xFE, 0xF0, 0x0B, 0x0C, 0x04, 0xFE, 0x00, 0xF8, 0xFA, 0x03, 0x0A, 0x08, 0x03, 0xEE, 0xEE, 0xF6, 0xFC, 0x14, 0x12, 0x0A, 0xF8, 0xF8, 0x07, 0x0B, 0xED, 0xEE, 0x0F, 0xF0, 0x04, 0x06, 0xFD, 0xEF, 0xEE, 0x00, 0x01, 0x09, 0x0B, 0xEE, 0x11, 0x00, 0xF7, 0x09, 0xEF, 0x05, 0xFD, 0x02, 0xF9, 0xF6, 0xFF, 0xF6, 0x13, 0xFF, 0x0D, 0x0C, 0x09, 0xEE, 0xF1, 0xEC, 0x0F, 0xFB, 0x07, 0xEE, 0xFC, 0x0D, 0xFD, 0xEF, 0xFB, 0xF5, 0x1C, 0xF9, 0xFF, 0x06, 0xEF, 0xE7, 0x0C, 0xFF, 0x02, 0xFE, 0x1A, 0x08, 0xF3, 0x17, 0x04, 0x0B, 0x07, 0xEB, 0x05, 0x01, 0xF5, 0xE1, 0x04, 0xF3, 0xF3, 0x01, 0xFE, 0xF2, 0xFC, 0xFC, 0x0F, 0x06, 0x01, 0x15, 0xFE, 0xF0, 0x13, 0x0D, 0xEC, 0xFC, 0xEF, 0xF8, 0xF5, 0x09, 0xEC, 0x0A, 0x07, 0xE9, 0xED, 0x14, 0xFB, 0xFD, 0xFF, 0x1A, 0x03, 0xFA, 0xF2, 0xEC, 0xF3, 0xEA, 0xF5, 0x01, 0x09, 0xE5, 0xFF, 0x00, 0x08, 0xF1, 0x00, 0x20, 0xF3, 0xFF, 0x02, 0xE9, 0x04, 0xF1, 0xFD, 0xF1, 0xF8, 0xFC, 0xE5, 0x06, 0xEA, 0xF9, 0x06, 0x37, 0x06, 0x09, 0xF6, 0xE7, 0xF5, 0x0C, 0x07, 0xE9, 0xF3, 0x07, 0xFF, 0xEE, 0x11, 0xF6, 0xFF, 0x17, 0x00, 0x11, 0xF4, 0x08, 0x08, 0xF7, 0x10, 0x0A, 0xF9, 0x03, 0xF3, 0xEF, 0xFE, 0xE8, 0x11, 0xF3, 0xF5, 0xF2, 0x06, 0xEF, 0x08, 0xFE, 0xFD, 0x08, 0xF9, 0xEA, 0xEC, 0xF5, 0xF3, 0xEB, 0xFD, 0xC7, 0xE9, 0x07, 0xFA, 0x11, 0xFD, 0x03, 0xE1, 0x0E, 0x01, 0xF7, 0x02, 0x0A, 0xFE, 0x09, 0x0C, 0xF5, 0x09, 0x05, 0x07, 0x08, 0xF1, 0xFE, 0xED, 0xFA, 0xFD, 0x0A, 0x0B, 0xF3, 0x0D, 0xFB, 0xF5, 0x01, 0xF4, 0xF3, 0x10, 0x05, 0x06, 0x00, 0x0B, 0x0C, 0x0A, 0x0D, 0xFE, 0xF9, 0xFA, 0x03, 0xF2, 0xFD, 0xF9, 0x0E, 0x0D, 0x0E, 0x08, 0xF9, 0x07, 0x09, 0x07, 0x02, 0x05, 0x06, 0xFA, 0x02, 0x09, 0x05, 0x00, 0xE8, 0x03, 0xEB, 0xF4, 0x07, 0xEB, 0x06, 0x09, 0xF1, 0x0A, 0xF1, 0x11, 0xF9, 0x12, 0x06, 0xF1, 0x0E, 0xF5, 0x08, 0x00, 0x05, 0x13, 0x02, 0x00, 0xEB, 0xEF, 0x13, 0x10, 0xEA, 0xF1, 0xF8, 0xFC, 0xEF, 0xEC, 0x13, 0xF1, 0x11, 0x06, 0xE9, 0x05, 0x0A, 0xF0, 0x11, 0xFE, 0x15, 0xF4, 0x00, 0x0E, 0xF4, 0xF3, 0xFD, 0xF9, 0xF5, 0x04, 0xF4, 0x13, 0xFD, 0x0E, 0xFD, 0x05, 0x00, 0xF8, 0x0B, 0xF0, 0xF7, 0x08, 0x0E, 0xFC, 0xF5, 0xFA, 0x10, 0x15, 0xF7, 0xFA, 0x0A, 0xF0, 0xEB, 0xFD, 0xFD, 0x0C, 0x03, 0xFE, 0xFA, 0x08, 0x0A, 0x15, 0xF4, 0x0F, 0xF2, 0xEE, 0xF5, 0xFE, 0x0B, 0xF0, 0xEF, 0xF1, 0x15, 0x15, 0x10, 0xF5, 0xF9, 0xF7, 0xF6, 0x0E, 0x10, 0x05, 0x09, 0x0B, 0x0F, 0x18, 0x06, 0x13, 0xF9, 0x01, 0xF5, 0x11, 0x08, 0xF1, 0x10, 0x0A, 0xFF, 0x03, 0x16, 0xE8, 0xF3, 0x0C, 0xEA, 0x0C, 0xFC, 0x0F, 0x05, 0x05, 0x0C, 0xEF, 0x07, 0x08, 0xF8, 0x02, 0x1B, 0x06, 0x09, 0x17, 0xDD, 0xEF, 0xF8, 0x12, 0x10, 0xF0, 0xF0, 0x0F, 0x04, 0x0D, 0x08, 0x0B, 0x0F, 0x01, 0xFA, 0x05, 0xE7, 0x07, 0x0A, 0x04, 0xF1, 0x16, 0xFA, 0x16, 0xF0, 0x00, 0xFE, 0xF5, 0x01, 0xFD, 0x0C, 0xF1, 0xEF, 0x0F, 0xF5, 0x0E, 0xF4, 0x11, 0x11, 0xF2, 0xF7, 0xF8, 0xF1, 0xF5, 0x17, 0xF5, 0x05, 0x05, 0x08, 0xEF, 0x0B, 0xF0, 0xF5, 0xF5, 0x14, 0xFE, 0x1B, 0xF9, 0xF0, 0x08, 0xEE, 0xEF, 0xF0, 0xFD, 0x08, 0xF2, 0xF1, 0x14, 0xF9, 0x05, 0x09, 0xF3, 0x0A, 0x01, 0xFF, 0xE8, 0x02, 0x13, 0xEB, 0xF3, 0x06, 0xF2, 0x0A, 0x09, 0xF5, 0xF6, 0xEB, 0x08, 0xF8, 0xEC, 0x0B, 0xFD, 0x05, 0x03, 0xF2, 0xE9, 0xFA, 0x04, 0x0E, 0x0F, 0xFF, 0xFF, 0x08, 0x00, 0x00, 0xFF, 0x04, 0x05, 0x04, 0x16, 0x00, 0x06, 0xFB, 0x07, 0xEF, 0xEC, 0x0F, 0x0F, 0x08, 0xFA, 0x0D, 0xEE, 0x0A, 0x06, 0x06, 0x06, 0x00, 0x07, 0xFC, 0xEF, 0x0A, 0xEF, 0x08, 0x06, 0x0C, 0xFC, 0x11, 0xF3, 0xEC, 0x1E, 0xF6, 0xF9, 0xF0, 0xF0, 0x08, 0xF9, 0x06, 0xF6, 0xF4, 0x14, 0xF2, 0x18, 0xF8, 0xED, 0xEC, 0x1A, 0x05, 0xED, 0xF5, 0xFB, 0xE8, 0xF8, 0xFD, 0xEF, 0x0B, 0xEE, 0xED, 0x02, 0x01, 0xF6, 0x14, 0x11, 0x01, 0x16, 0xFE, 0x06, 0xF7, 0x0F, 0xFF, 0xEF, 0xEF, 0x05, 0xF4, 0xF5, 0xFB, 0x08, 0x0E, 0x01, 0x03, 0x10, 0x0A, 0x1E, 0xF3, 0x03, 0x12, 0xEB, 0xFC, 0xF6, 0x0D, 0x04, 0x14, 0xFB, 0x09, 0x08, 0xF5, 0x0B, 0xF4, 0x06, 0xD8, 0x09, 0xFD, 0x01, 0x00, 0x08, 0xF1, 0x0F, 0xF3, 0xEF, 0xFD, 0x0B, 0x09, 0xF0, 0xEC, 0xF9, 0xFE, 0xF4, 0xF9, 0x07, 0xFE, 0x02, 0x00, 0xFB, 0xFB, 0xFB, 0xF2, 0xFE, 0x0E, 0x05, 0xF8, 0x13, 0x05, 0xEF, 0x13, 0xF4, 0x07, 0x14, 0xEB, 0x05, 0x01, 0xF0, 0x16, 0x01, 0xF3, 0xFE, 0xF8, 0x13, 0xF4, 0x0E, 0x03, 0xF3, 0xF7, 0x16, 0xF3, 0xFE, 0xFB, 0xF7, 0xF4, 0x10, 0x12, 0xFF, 0xF2, 0xFD, 0xF6, 0xF7, 0x09, 0xEE, 0x0C, 0x00, 0xF0, 0xF7, 0x00, 0x0E, 0x16, 0xF4, 0xEB, 0xF0, 0xFA, 0xF4, 0xD4, 0xF6, 0xFD, 0xD8, 0x0E, 0x03, 0x02, 0x10, 0x12, 0x0D, 0xFE, 0x03, 0x0D, 0x07, 0xEA, 0x13, 0xE7, 0x01, 0x07, 0x13, 0x0F, 0x09, 0xF2, 0x17, 0x0F, 0x06, 0x0B, 0x17, 0x0E, 0xFA, 0xFF, 0x0F, 0x27, 0x05, 0x12, 0x03, 0xF4, 0x04, 0x13, 0x07, 0x0E, 0x13, 0x0D, 0x08, 0x0C, 0xED, 0xFF, 0x04, 0x59, 0xFF, 0x07, 0x0A, 0x12, 0x20, 0xF6, 0x4C, 0x11, 0xF6, 0x0A, 0xFE, 0x0D, 0xFA, 0xFE, 0x12, 0x10, 0x0E, 0x0D, 0xFD, 0x0D, 0xFC, 0xF5, 0xE9, 0x10, 0x11, 0xED, 0x0B, 0x05, 0xEA, 0x03, 0xF6, 0xFE, 0x09, 0x03, 0xFB, 0x0A, 0x06, 0xFA, 0xFC, 0x00, 0x16, 0xF3, 0xF8, 0xF2, 0xF8, 0xFF, 0xFE, 0xF9, 0xF4, 0xF4, 0xFF, 0x13, 0xF6, 0x0B, 0x19, 0x04, 0xF9, 0x08, 0x0F, 0x03, 0x0B, 0xEC, 0x04, 0x12, 0x0F, 0x04, 0x06, 0xFF, 0xFF, 0xEC, 0x0A, 0xF4, 0x09, 0xFD, 0xF6, 0xF1, 0xFF, 0xED, 0x00, 0x12, 0x12, 0xF7, 0xFA, 0x12, 0xFC, 0xF1, 0x01, 0xF9, 0x05, 0x01, 0x05, 0x06, 0x00, 0x13, 0xEB, 0x09, 0x05, 0xFD, 0x09, 0xF1, 0xF5, 0xF0, 0xFB, 0x01, 0x06, 0xEC, 0xF1, 0x0A, 0x10, 0x10, 0xFD, 0x1B, 0x06, 0x08, 0x0E, 0xFF, 0xFD, 0x0E, 0xFD, 0xEE, 0xEF, 0xEE, 0xFA, 0xFD, 0x00, 0x0E, 0xF3, 0x1C, 0x0D, 0x04, 0xF2, 0xE9, 0x00, 0xF0, 0x05, 0x0A, 0x14, 0x13, 0x0B, 0xEB, 0xFB, 0xF2, 0xFB, 0x24, 0xF3, 0x0F, 0x09, 0x0D, 0xF3, 0xF2, 0x06, 0xF8, 0xFA, 0x03, 0x16, 0xFA, 0x15, 0x0E, 0xFB, 0x07, 0x00, 0x0C, 0x0E, 0xF2, 0x0A, 0x0B, 0xF1, 0xEB, 0xFB, 0x13, 0x1F, 0x0F, 0xF8, 0x03, 0xFB, 0x1C, 0x14, 0xFB, 0x0E, 0x04, 0x0C, 0xF6, 0xF8, 0x0C, 0x0E, 0x1D, 0x00, 0x09, 0xF7, 0x18, 0x17, 0x06, 0xFA, 0xEF, 0xF1, 0x0C, 0x07, 0xF8, 0xF4, 0xE9, 0xE9, 0x0A, 0x05, 0xF1, 0x11, 0x09, 0xF7, 0xA4, 0xEE, 0xEE, 0x0A, 0xFE, 0x04, 0x18, 0x0F, 0xF1, 0xEB, 0x17, 0x0C, 0xF2, 0xF1, 0x04, 0x14, 0xBC, 0x02, 0x00, 0x04, 0xF4, 0x25, 0x10, 0x05, 0xFA, 0xEA, 0x18, 0x1B, 0xFC, 0x02, 0x0A, 0x19, 0x81, 0x0D, 0x06, 0x10, 0xFF, 0x02, 0x21, 0xF8, 0x08, 0xFD, 0x23, 0xFB, 0x05, 0x04, 0xF2, 0xF9, 0xE3, 0x00, 0x07, 0x0A, 0x0B, 0x0F, 0x0F, 0xF1, 0xDF, 0xE9, 0x0A, 0x08, 0xEC, 0xED, 0x03, 0x11, 0x0D, 0xEC, 0xFD, 0x16, 0xEF, 0x1B, 0x12, 0x19, 0x0A, 0xFF, 0x0E, 0xFB, 0x07, 0xF9, 0x00, 0xF7, 0x00, 0x08, 0x0F, 0xED, 0x12, 0x07, 0x06, 0x05, 0xF5, 0xF1, 0xFE, 0x0B, 0xFD, 0x12, 0xFF, 0x05, 0x0D, 0xF7, 0xEF, 0xFA, 0x02, 0xFF, 0x0F, 0xF8, 0x07, 0x0E, 0xF7, 0xED, 0x01, 0xF7, 0x0C, 0x04, 0xF3, 0xFA, 0xFB, 0xF6, 0x09, 0x10, 0xF8, 0xF1, 0xF2, 0x0A, 0x01, 0xFD, 0x12, 0x05, 0xFE, 0x13, 0xED, 0x0B, 0xF5, 0xFA, 0xF8, 0xEA, 0xE8, 0xF4, 0x04, 0x12, 0xE5, 0xFD, 0xFD, 0x06, 0xFD, 0xE8, 0xE7, 0x03, 0xF3, 0xF0, 0xFC, 0x00, 0x06, 0xFB, 0xF8, 0xEC, 0x0C, 0xF7, 0x15, 0xF2, 0xF2, 0xF1, 0xF6, 0x02, 0x08, 0xFF, 0xF9, 0x11, 0xF0, 0x00, 0x17, 0x05, 0xEA, 0x04, 0xE9, 0xED, 0x0D, 0xF6, 0x12, 0xFE, 0x09, 0x0D, 0xEF, 0xEE, 0xE7, 0x0A, 0x0B, 0xF6, 0xEA, 0x00, 0xF3, 0x0D, 0x03, 0xF2, 0x02, 0xF5, 0x07, 0x08, 0xED, 0x05, 0xEA, 0xEC, 0x09, 0x07, 0x03, 0x00, 0xEC, 0xFF, 0xF0, 0x0D, 0x17, 0xF5, 0x09, 0x07, 0x03, 0x11, 0x0E, 0x0C, 0xF7, 0x09, 0xFD, 0xEE, 0xFA, 0x15, 0x13, 0x0C, 0x1A, 0xFE, 0xE5, 0x05, 0x04, 0xF5, 0x08, 0xFD, 0xEC, 0xEE, 0x00, 0x09, 0x0A, 0xFA, 0x17, 0x0B, 0x08, 0x0F, 0x0C, 0xF8, 0xFE, 0xF1, 0x0D, 0xF6, 0xE6, 0x0A, 0x0D, 0xE4, 0x05, 0xFE, 0x05, 0xF6, 0x2F, 0x05, 0xFA, 0x0E, 0x12, 0x03, 0x0C, 0x07, 0x0C, 0x09, 0x06, 0xED, 0xF3, 0x13, 0x1A, 0xF6, 0x0B, 0x03, 0x08, 0x02, 0x10, 0xFF, 0xF4, 0xF7, 0xFD, 0x12, 0xFD, 0x00, 0xEF, 0xF5, 0x1A, 0x0F, 0x34, 0xF4, 0xEC, 0x0B, 0x09, 0xF3, 0xFF, 0x00, 0x03, 0xF8, 0x1A, 0xFF, 0x05, 0x08, 0x10, 0xF1, 0x04, 0xFC, 0x07, 0xF9, 0x0E, 0xF6, 0x00, 0xEC, 0xEE, 0xF6, 0xFE, 0xF6, 0xF3, 0x11, 0x0F, 0xF8, 0xEB, 0xF1, 0xFB, 0x04, 0xF3, 0xEC, 0x0F, 0xEF, 0xFC, 0xF8, 0x03, 0x09, 0x0A, 0x02, 0xF5, 0x03, 0xEE, 0x04, 0x05, 0xF0, 0xF8, 0xF7, 0xF3, 0xEB, 0x01, 0x13, 0x01, 0x13, 0x0F, 0x14, 0xF8, 0xEF, 0x01, 0x03, 0xFA, 0x08, 0xF7, 0xF1, 0xFF, 0xF1, 0xE6, 0xFC, 0x03, 0xF3, 0xFD, 0x0C, 0x0D, 0xF6, 0x04, 0x05, 0x13, 0xF8, 0xF1, 0x08, 0xFB, 0xF1, 0xFF, 0x05, 0x0A, 0x0D, 0x0D, 0x0A, 0xFD, 0x06, 0x03, 0xEE, 0x08, 0x00, 0xF9, 0xFE, 0xF7, 0xE5, 0xF4, 0x04, 0x0D, 0x18, 0x16, 0x0A, 0xF8, 0x02, 0xF7, 0x02, 0x11, 0x0F, 0xF4, 0xF1, 0x02, 0xFF, 0x0F, 0xE8, 0x03, 0xF2, 0xFE, 0xF7, 0xF9, 0xE7, 0xE6, 0x07, 0x0E, 0x0B, 0xF5, 0x04, 0x01, 0xFD, 0xF8, 0x0D, 0xEF, 0x16, 0x02, 0x0D, 0x11, 0x09, 0x0F, 0xF5, 0xF8, 0xFD, 0x05, 0xFA, 0x04, 0x09, 0xF3, 0x02, 0x00, 0xE8, 0x02, 0x0C, 0x0A, 0xF9, 0x0A, 0x07, 0xF4, 0x11, 0xEE, 0x07, 0xF3, 0x08, 0x0D, 0x00, 0xE6, 0xE8, 0x06, 0x11, 0x0C, 0x08, 0x31, 0x03, 0x0C, 0x19, 0xF8, 0xF3, 0xED, 0xF4, 0xF3, 0x01, 0x09, 0x02, 0x08, 0xF1, 0x10, 0x07, 0x02, 0xFC, 0xEE, 0x07, 0x11, 0xE5, 0x07, 0xF1, 0xF0, 0xF2, 0xF2, 0xE5, 0xED, 0x14, 0x0D, 0xF7, 0x23, 0xF1, 0xF3, 0x16, 0x09, 0xEF, 0xF5, 0xEA, 0x04, 0xEE, 0x06, 0x09, 0xFB, 0xFF, 0xEF, 0xFD, 0x03, 0x1E, 0xED, 0x0E, 0x05, 0xFD, 0xF1, 0xF2, 0x0F, 0x10, 0xF3, 0xFB, 0xED, 0x05, 0xF6, 0xFD, 0xE2, 0xF3, 0xFA, 0x1B, 0xE9, 0x02, 0xFC, 0xF1, 0xEF, 0xF2, 0x08, 0x02, 0xF9, 0x06, 0x12, 0xF0, 0xFF, 0x06, 0xF3, 0xF3, 0xEC, 0xFA, 0xFE, 0xF5, 0x13, 0xFA, 0x16, 0xF4, 0x12, 0x09, 0x0D, 0xFA, 0x23, 0xEC, 0x09, 0x20, 0xEC, 0xFE, 0x12, 0xFA, 0x10, 0xEA, 0xFE, 0x07, 0xF3, 0x04, 0x05, 0x02, 0x09, 0xF7, 0x11, 0x0F, 0xF1, 0xE7, 0x11, 0x04, 0xE7, 0xEB, 0xFC, 0xF7, 0x00, 0xF7, 0xFB, 0xFF, 0xE4, 0xF8, 0x10, 0xE3, 0x12, 0xF5, 0xFF, 0x0F, 0xFB, 0x00, 0x10, 0x08, 0xF8, 0x08, 0xF7, 0xFF, 0xED, 0xF6, 0xF2, 0xFB, 0x13, 0x07, 0x04, 0xC8, 0xFE, 0xFE, 0x02, 0x09, 0xFA, 0xFF, 0x03, 0xFF, 0x04, 0x06, 0xFA, 0x06, 0x0E, 0x00, 0xF6, 0x14, 0xEE, 0x0D, 0xF9, 0x00, 0xED, 0xFD, 0xF7, 0xFC, 0x15, 0x0A, 0xF2, 0x02, 0x03, 0xFA, 0xFE, 0x01, 0xFF, 0xF9, 0xFC, 0x08, 0xF4, 0x16, 0xF4, 0x01, 0x09, 0xF0, 0x03, 0xF7, 0x13, 0xFC, 0x13, 0x01, 0x07, 0xEC, 0x0D, 0xFC, 0xFE, 0xF5, 0x0E, 0xF8, 0x0D, 0xF6, 0xFE, 0xFF, 0xF0, 0xFC, 0x0A, 0x04, 0xF3, 0x03, 0xFB, 0x02, 0x13, 0xF1, 0xFF, 0x08, 0xFA, 0xF4, 0x0C, 0x0E, 0xFA, 0x05, 0x07, 0xFC, 0x10, 0xF7, 0x10, 0x04, 0xFE, 0xFE, 0xEE, 0xFA, 0x00, 0x09, 0xF6, 0x09, 0xF0, 0x04, 0xFD, 0x05, 0xF6, 0xF0, 0xFD, 0xF7, 0xFF, 0x13, 0x07, 0xFE, 0xDF, 0x00, 0x0C, 0xF3, 0x0E, 0x07, 0xF6, 0x09, 0xFC, 0x0C, 0x04, 0x09, 0x00, 0x00, 0xF8, 0x0C, 0xF8, 0xF9, 0xF8, 0xF9, 0xF0, 0x0C, 0x06, 0x0A, 0x0D, 0x04, 0xFA, 0x12, 0x02, 0x10, 0x09, 0x11, 0xEA, 0xF1, 0xED, 0x13, 0xF8, 0xF2, 0xF7, 0x0D, 0x04, 0x0B, 0xFC, 0x05, 0xF0, 0xF1, 0xF5, 0x07, 0xF9, 0xF6, 0xF8, 0x0B, 0x12, 0x06, 0xF7, 0x04, 0x02, 0xF1, 0xF8, 0x19, 0xF0, 0xED, 0x08, 0x03, 0xDF, 0xFD, 0x07, 0xFF, 0xF7, 0xF8, 0x02, 0x11, 0x11, 0xFA, 0xFA, 0xF7, 0xEA, 0xFB, 0xF8, 0xFE, 0x04, 0xF9, 0x10, 0xFC, 0x06, 0xF2, 0xF3, 0x01, 0xFA, 0x14, 0x11, 0xFB, 0xFE, 0x0B, 0x01, 0xED, 0xFF, 0xF1, 0xF5, 0x05, 0x04, 0x00, 0xEB, 0xF7, 0x05, 0x0C, 0x00, 0xFE, 0x08, 0x0B, 0xE7, 0x04, 0x0A, 0xEC, 0xF1, 0x04, 0xF8, 0xE8, 0x0B, 0xFB, 0x10, 0xF6, 0x10, 0xEF, 0xEB, 0xF6, 0x0F, 0x12, 0xFD, 0xFF, 0xEF, 0x01, 0xFC, 0xFE, 0xF8, 0x17, 0x01, 0xF4, 0xEF, 0x0C, 0xF6, 0x03, 0xEB, 0xF0, 0x05, 0x02, 0xEF, 0x0A, 0x0E, 0xFC, 0x00, 0x1B, 0xFC, 0xF6, 0x00, 0xE6, 0xED, 0x00, 0x03, 0x00, 0xC2, 0xEF, 0x11, 0xEE, 0xFE, 0xF5, 0x13, 0x0D, 0xF2, 0xF6, 0x0B, 0xF1, 0x07, 0x0F, 0x0F, 0xF0, 0x01, 0x02, 0xFF, 0x02, 0x00, 0xFC, 0xEF, 0xEC, 0xFA, 0xF3, 0x0B, 0xF3, 0x03, 0x0C, 0x08, 0x11, 0xFA, 0x0C, 0xF8, 0x0A, 0xF6, 0x00, 0x0F, 0x05, 0xFD, 0xF6, 0x0C, 0xF6, 0x02, 0xEC, 0xFC, 0x0B, 0xFD, 0x09, 0xF1, 0xF1, 0x0E, 0x04, 0x13, 0x07, 0xF9, 0xFA, 0xEF, 0xFB, 0xF2, 0x08, 0x11, 0xFF, 0x0B, 0xED, 0x0B, 0xEF, 0x0F, 0x08, 0x0B, 0xF8, 0x0D, 0xF7, 0x01, 0x0C, 0xEB, 0x06, 0xF0, 0xFB, 0xF8, 0x08, 0xFE, 0x04, 0x0F, 0xF9, 0x10, 0xF7, 0xF4, 0x0B, 0x04, 0x03, 0xF9, 0xF6, 0xF5, 0xFC, 0x05, 0x00, 0x06, 0xF8, 0xF5, 0x03, 0x01, 0x0D, 0x00, 0x0B, 0x02, 0x0D, 0x02, 0x02, 0x10, 0x05, 0xEE, 0x05, 0xF2, 0x01, 0xF2, 0x09, 0xF3, 0xFB, 0xF6, 0x05, 0xFE, 0x00, 0x10, 0x12, 0x08, 0x01, 0xFF, 0xEA, 0xFE, 0xF7, 0x07, 0x0E, 0xFE, 0xEC, 0x17, 0xFF, 0x0A, 0xEA, 0xF0, 0x08, 0xFB, 0x0C, 0xF8, 0x03, 0x07, 0xEB, 0xFC, 0xFA, 0x12, 0x02, 0x06, 0xFA, 0xE8, 0x14, 0x14, 0xFA, 0x07, 0x0C, 0xFE, 0xF9, 0x06, 0xEA, 0x0E, 0xEF, 0xF8, 0xF6, 0x11, 0x14, 0xEA, 0x16, 0x14, 0xF9, 0xF7, 0x10, 0x17, 0x0B, 0xF2, 0x03, 0x11, 0x01, 0xED, 0x13, 0x0D, 0x02, 0x01, 0xFE, 0x0F, 0xEE, 0xFE, 0xF4, 0x02, 0xEC, 0xF4, 0xEF, 0xF1, 0x08, 0xEE, 0xFF, 0x0E, 0xFE, 0x04, 0x1A, 0xFA, 0x05, 0xFA, 0x11, 0x0F, 0x0F, 0x05, 0x04, 0xFB, 0xFB, 0xFC, 0xFC, 0x0A, 0xF3, 0xF6, 0x03, 0x0B, 0xF1, 0xF3, 0x04, 0x16, 0x0E, 0xE7, 0x08, 0x0F, 0x01, 0xF9, 0xF8, 0x0B, 0xEA, 0xE6, 0xFC, 0x05, 0xF3, 0x00, 0xFE, 0x13, 0xF6, 0x0F, 0x06, 0x03, 0xFD, 0xFD, 0xF6, 0xFA, 0x0F, 0xFD, 0x0E, 0x07, 0x0F, 0xEA, 0xFA, 0x11, 0x16, 0x02, 0xFD, 0xEA, 0xEC, 0x10, 0x20, 0xF6, 0xEF, 0xF8, 0xF1, 0x06, 0xED, 0x0B, 0xF2, 0xE1, 0xF2, 0x02, 0x0D, 0xEE, 0xFD, 0x11, 0x22, 0xF9, 0xFF, 0x0C, 0x02, 0xFC, 0x07, 0xF3, 0x06, 0x05, 0x0F, 0x03, 0xFD, 0xEF, 0x07, 0xFB, 0xF3, 0xF2, 0x0C, 0x03, 0x12, 0xF5, 0x02, 0xEE, 0x06, 0x04, 0x0A, 0x03, 0xF0, 0xEE, 0x03, 0x03, 0xFD, 0x01, 0xF2, 0x11, 0x06, 0x15, 0xF7, 0x0D, 0xF7, 0x0B, 0xF6, 0xF1, 0xF4, 0xF3, 0xF5, 0x06, 0x03, 0xF7, 0x13, 0x10, 0xEA, 0xF9, 0xFA, 0x0C, 0x03, 0xF6, 0x06, 0x0B, 0x01, 0xEC, 0xF7, 0xFA, 0xF5, 0x07, 0xF9, 0xFA, 0xE0, 0x02, 0xF6, 0x0F, 0xF0, 0xF7, 0x0C, 0xEA, 0x0E, 0xEF, 0xEF, 0xFA, 0x10, 0xFB, 0xF3, 0x04, 0x01, 0x0E, 0x13, 0x09, 0x01, 0xFE, 0x0B, 0x04, 0xF8, 0x12, 0x05, 0x0D, 0x0B, 0xF0, 0x07, 0x05, 0x04, 0x03, 0x0A, 0xE9, 0x03, 0xFB, 0x00, 0xF2, 0xDF, 0xEB, 0x01, 0xF9, 0xFC, 0xFA, 0x0C, 0x0E, 0x05, 0x09, 0x0A, 0xEC, 0xFF, 0xFB, 0xFF, 0x09, 0xEE, 0xF7, 0xEC, 0xEE, 0x00, 0x00, 0x0B, 0xF0, 0x00, 0x12, 0xFB, 0x09, 0x06, 0x08, 0x07, 0xF1, 0xF3, 0x02, 0x0F, 0x02, 0x0D, 0x0C, 0xFA, 0xFD, 0xFE, 0xF4, 0xF3, 0xE5, 0xFB, 0x0B, 0xE9, 0xFE, 0x0B, 0x01, 0x08, 0x09, 0xF6, 0x09, 0xF4, 0xEC, 0xF4, 0x0B, 0xE9, 0x01, 0x0E, 0x1E, 0xEC, 0xFE, 0xF3, 0x0A, 0x0E, 0x0A, 0x0C, 0x0A, 0xFE, 0xF8, 0xFA, 0xF6, 0xF4, 0xF6, 0xF1, 0x10, 0xFA, 0x10, 0xF0, 0x07, 0xF8, 0xEA, 0xF2, 0x10, 0xED, 0xF2, 0xE8, 0xEF, 0xF8, 0xF4, 0xFD, 0x24, 0x01, 0xE2, 0xFA, 0xE8, 0xF8, 0x09, 0x10, 0x09, 0xF9, 0x09, 0x07, 0xED, 0x06, 0x0B, 0xF1, 0x27, 0x0B, 0xE9, 0x07, 0x0C, 0x0D, 0x0A, 0x0B, 0xF3, 0xF9, 0x03, 0x06, 0x04, 0xEC, 0x07, 0x0D, 0x1C, 0xFF, 0xFA, 0xED, 0xF9, 0x06, 0xF0, 0xFE, 0x01, 0x03, 0xE9, 0xF3, 0xFA, 0x0A, 0xEE, 0xEB, 0x0F, 0xEA, 0x00, 0x01, 0x03, 0xFB, 0x11, 0x16, 0xFB, 0xF5, 0xF4, 0x00, 0xF6, 0xE6, 0xFD, 0xED, 0xD8, 0xF0, 0x0A, 0xF2, 0x12, 0xE2, 0xE9, 0x39, 0xF8, 0x00, 0x0B, 0xF7, 0xF8, 0x0A, 0xF2, 0x0E, 0xEF, 0xF4, 0x0A, 0xF6, 0x0D, 0x0C, 0x0A, 0x0C, 0xFA, 0x02, 0xFC, 0x04, 0xF4, 0xF6, 0xEF, 0xFC, 0x09, 0xFA, 0xFE, 0xF0, 0x07, 0xFD, 0xFA, 0xEE, 0xF1, 0x13, 0x0C, 0xFC, 0xEE, 0x03, 0xFD, 0x0A, 0x0A, 0xF9, 0x0A, 0xEE, 0x01, 0x16, 0x0D, 0x0F, 0xF4, 0xF4, 0xFD, 0x1F, 0x01, 0xF2, 0xF1, 0xEE, 0xF1, 0x0B, 0xFF, 0x02, 0x01, 0xF4, 0x01, 0x0C, 0xEE, 0x01, 0x04, 0x07, 0x0B, 0xFF, 0xED, 0xF6, 0x0C, 0xFD, 0x01, 0xFB, 0xF9, 0xEE, 0x01, 0x11, 0x02, 0xFD, 0x06, 0xF1, 0xF4, 0x15, 0xFE, 0x00, 0x15, 0x06, 0xF1, 0xFC, 0xF3, 0xFF, 0xE9, 0xF2, 0x0F, 0x03, 0x0A, 0xE9, 0x03, 0xFE, 0x15, 0xEC, 0x13, 0x03, 0xF5, 0xF8, 0xEC, 0xF1, 0x00, 0x03, 0xEF, 0xF9, 0xF0, 0xFF, 0x09, 0xEF, 0x08, 0xF5, 0xFD, 0x0C, 0xEE, 0x0E, 0xFB, 0x12, 0xED, 0xFD, 0xF8, 0x0E, 0xF3, 0x03, 0x01, 0xF9, 0xEC, 0x00, 0x1F, 0xF0, 0xF1, 0x02, 0xF9, 0x09, 0x0B, 0x19, 0xFC, 0xF6, 0xF7, 0xFE, 0x11, 0xFF, 0xED, 0xFB, 0x10, 0x0B, 0xFA, 0xFE, 0x11, 0xE6, 0xFF, 0x0E, 0x0D, 0xF1, 0xEB, 0xF6, 0x0A, 0xF7, 0x01, 0xFD, 0x0A, 0x16, 0xFA, 0xFB, 0x06, 0xF8, 0x0C, 0x0F, 0xFE, 0x08, 0xF1, 0xF7, 0x0B, 0x00, 0x10, 0xFC, 0x1D, 0xF2, 0x0E, 0x17, 0xFF, 0xFE, 0x0C, 0xFC, 0x04, 0x05, 0xFD, 0x04, 0x0B, 0x00, 0xEA, 0xFE, 0x04, 0xFF, 0x04, 0x04, 0xFC, 0xF2, 0xF2, 0x03, 0xFA, 0x0B, 0xF4, 0xEC, 0x09, 0x03, 0xEF, 0x08, 0xDA, 0x00, 0xF0, 0xFB, 0x0C, 0xF7, 0x0A, 0xFF, 0x14, 0xF9, 0xEB, 0x05, 0xEF, 0xF2, 0x06, 0xFD, 0xD8, 0xF3, 0xF4, 0x11, 0xFE, 0xF7, 0xF8, 0x01, 0x13, 0x18, 0x09, 0xF8, 0x13, 0xF9, 0x09, 0xF0, 0x02, 0x15, 0x06, 0xF1, 0x05, 0x16, 0xF7, 0xF2, 0x0B, 0xF3, 0x12, 0xF7, 0xFF, 0xF3, 0xEB, 0xF2, 0xA3, 0x15, 0xFB, 0x0A, 0x13, 0x15, 0x01, 0xF4, 0x00, 0x05, 0x00, 0x04, 0x0B, 0xF2, 0x10, 0xF0, 0x04, 0xFC, 0xF7, 0x04, 0x12, 0xF9, 0x0E, 0x0B, 0xF0, 0xF2, 0xF1, 0xF7, 0x0D, 0xF2, 0x03, 0xFB, 0xFB, 0xFE, 0x08, 0x0D, 0xF5, 0x00, 0x05, 0xF3, 0xF2, 0x00, 0x0A, 0xFD, 0xF8, 0x03, 0x05, 0x00, 0xFB, 0x03, 0x05, 0x06, 0x08, 0x10, 0x00, 0x02, 0x12, 0xFA, 0x07, 0x0B, 0x0A, 0xF2, 0xEC, 0xFA, 0x0B, 0xFD, 0x05, 0xF2, 0xEE, 0x0B, 0xF7, 0xEE, 0x07, 0x08, 0xEB, 0xFE, 0x0C, 0xFE, 0xF7, 0x13, 0x0D, 0x11, 0xF8, 0x0A, 0x0F, 0xEB, 0xE8, 0x10, 0x06, 0xEC, 0xEB, 0xF6, 0xF1, 0xFF, 0x01, 0x0D, 0x0B, 0x0D, 0xEA, 0x0F, 0xEA, 0xEB, 0xEA, 0xF2, 0x07, 0x0F, 0xFF, 0xE7, 0xF1, 0xFF, 0xF1, 0xF0, 0xE0, 0xF6, 0xFD, 0x14, 0x10, 0x0F, 0x05, 0x15, 0xF4, 0x08, 0x09, 0x0D, 0xFF, 0x13, 0x12, 0x0D, 0x00, 0x02, 0x02, 0xFF, 0x0F, 0xF8, 0xF0, 0x15, 0x0B, 0x07, 0x01, 0x01, 0x07, 0x12, 0xFD, 0x12, 0x08, 0xEA, 0xFE, 0xFC, 0x03, 0xF7, 0xE9, 0xF5, 0x0E, 0xFF, 0xF9, 0x0C, 0x07, 0xEB, 0xF2, 0x0E, 0x03, 0xED, 0xEC, 0x0D, 0x14, 0xFB, 0x0C, 0x19, 0x01, 0xF8, 0x05, 0x0A, 0x12, 0x13, 0xED, 0x16, 0x08, 0x07, 0x01, 0x0E, 0xF8, 0x0F, 0x0E, 0xF4, 0x0D, 0xFF, 0xFF, 0x0C, 0xF9, 0x15, 0xFA, 0x0B, 0x13, 0x09, 0xF0, 0xF0, 0xF9, 0x16, 0xFE, 0xF1, 0x0B, 0x00, 0x12, 0x11, 0x17, 0x04, 0xF1, 0x08, 0x0F, 0xFA, 0x10, 0x15, 0xEF, 0xF5, 0x10, 0x09, 0x0B, 0xF3, 0x06, 0xF7, 0x12, 0x15, 0xEC, 0x0F, 0x03, 0x07, 0xF8, 0x18, 0x0B, 0x08, 0xEA, 0x17, 0x02, 0x13, 0x04, 0x08, 0x00, 0x12, 0xF5, 0x0C, 0x21, 0xF0, 0xF9, 0xF8, 0xF4, 0xF1, 0x01, 0x02, 0x04, 0x0B, 0xFE, 0xF2, 0x19, 0xFF, 0x07, 0x15, 0x05, 0xF4, 0x00, 0xF8, 0xEF, 0xF6, 0x16, 0x0F, 0xF5, 0xF7, 0x05, 0x06, 0x0C, 0x13, 0xFE, 0x15, 0xC5, 0x05, 0x06, 0x10, 0x03, 0xFE, 0x00, 0x08, 0xFB, 0x0A, 0xF9, 0xFB, 0x03, 0xF4, 0x09, 0xFC, 0x00, 0x11, 0xEF, 0xFA, 0x00, 0xF6, 0x05, 0x0F, 0xFC, 0x09, 0x0D, 0x16, 0xF4, 0x00, 0x10, 0x03, 0x01, 0xF8, 0x15, 0x13, 0x03, 0x07, 0xFE, 0x0F, 0x05, 0x0A, 0xF6, 0x07, 0x0E, 0xFF, 0x0A, 0xEF, 0xEA, 0xF9, 0x10, 0xFB, 0xF7, 0x14, 0x06, 0x0D, 0x0E, 0x22, 0x00, 0xFB, 0x16, 0x11, 0xF6, 0xF9, 0x25, 0x01, 0x0D, 0x1D, 0xFA, 0x0B, 0xFB, 0x09, 0xFA, 0xFA, 0x13, 0x05, 0xFE, 0x0A, 0xF9, 0xF1, 0x04, 0x14, 0x0A, 0x22, 0x07, 0xF9, 0x0C, 0x0B, 0xEB, 0xFE, 0x02, 0x10, 0x13, 0x04, 0x08, 0xF4, 0xED, 0xDD, 0xF4, 0xF3, 0xFC, 0x01, 0xF7, 0x0E, 0xF3, 0xE6, 0x10, 0xF8, 0xE8, 0xEF, 0x09, 0xF4, 0xF3, 0xE8, 0x13, 0xF8, 0x15, 0x10, 0xF7, 0x04, 0xF5, 0xF7, 0xFA, 0x00, 0xF8, 0xFD, 0xFE, 0x11, 0xF1, 0x04, 0x13, 0x06, 0x11, 0x14, 0x0F, 0x17, 0x15, 0x0B, 0x14, 0x19, 0xF1, 0xE9, 0x02, 0xFC, 0x09, 0xF3, 0xFF, 0xEB, 0xF0, 0x1B, 0x03, 0x00, 0x13, 0x08, 0xE7, 0x14, 0x0C, 0xF7, 0xF7, 0xFB, 0x1C, 0x06, 0xFA, 0x09, 0xF3, 0xF7, 0xEE, 0x14, 0x05, 0x17, 0xE8, 0x09, 0x05, 0xEF, 0x0D, 0x15, 0x15, 0xE7, 0xF5, 0xE4, 0x04, 0x06, 0xFA, 0xEE, 0x0E, 0xFF, 0xFC, 0xFE, 0xF5, 0xEF, 0xE6, 0x01, 0x1F, 0xEC, 0xFF, 0xF8, 0x0F, 0x02, 0xF2, 0x12, 0x10, 0x16, 0xFA, 0x04, 0xF6, 0xEF, 0xF4, 0x0A, 0x09, 0xFE, 0x00, 0x12, 0xE9, 0x00, 0x02, 0x19, 0xF1, 0x02, 0xE8, 0x07, 0x10, 0x00, 0xE7, 0x15, 0x11, 0x03, 0x0E, 0xED, 0xF9, 0xF8, 0xF4, 0xFC, 0xFA, 0xEF, 0xF7, 0xFF, 0xFA, 0x10, 0xFF, 0xFB, 0x14, 0xF5, 0xF7, 0xFF, 0xEF, 0xE8, 0xF4, 0x12, 0xFC, 0x12, 0xF4, 0x1D, 0xF6, 0xFB, 0xF7, 0x16, 0x17, 0x1F, 0x06, 0x1C, 0x11, 0x0B, 0x02, 0x17, 0xF9, 0x01, 0xFE, 0xEF, 0x05, 0xED, 0x13, 0xF3, 0xD4, 0xFB, 0x14, 0x0A, 0xEF, 0xE3, 0x11, 0x17, 0x11, 0xF5, 0x03, 0xF8, 0xFD, 0xFC, 0xF6, 0xF5, 0xFD, 0x0A, 0x09, 0x05, 0xFF, 0x09, 0xFA, 0x0C, 0xFE, 0x03, 0x02, 0x06, 0xEE, 0x01, 0xEC, 0xF4, 0x14, 0xF7, 0x02, 0x0A, 0xF9, 0xFA, 0x0D, 0x0F, 0xF7, 0xFD, 0x06, 0xFA, 0x06, 0xFE, 0x03, 0xF7, 0xF9, 0x05, 0x06, 0x04, 0xF7, 0xEE, 0x06, 0xFD, 0xFE, 0x0A, 0xFD, 0x02, 0x0E, 0x0B, 0xFD, 0x03, 0x10, 0xF9, 0xEC, 0x12, 0x0F, 0x08, 0xEC, 0xF0, 0x04, 0xF9, 0x07, 0xF0, 0x12, 0x0F, 0x05, 0x0B, 0x10, 0x11, 0x08, 0x11, 0x06, 0xF7, 0x16, 0x14, 0x16, 0x02, 0x0F, 0xF4, 0xF2, 0xFC, 0x02, 0xED, 0x07, 0xED, 0xFA, 0xEC, 0xFB, 0xFF, 0x08, 0x15, 0x15, 0x0E, 0xF9, 0x0F, 0xF3, 0x16, 0xF9, 0x08, 0x08, 0x08, 0x0C, 0xF5, 0x06, 0xFD, 0xF5, 0x03, 0xF9, 0x04, 0xFB, 0x04, 0x03, 0xFD, 0xFC, 0x04, 0x06, 0x0B, 0xF5, 0x03, 0xF2, 0xF1, 0x00, 0xF8, 0x02, 0x0E, 0x0A, 0x0C, 0xF7, 0x0A, 0xF0, 0x0B, 0x0C, 0xEC, 0xF0, 0xFD, 0xEA, 0xFD, 0xF6, 0xEF, 0x0C, 0x0E, 0x15, 0xFA, 0xFC, 0xF3, 0x09, 0x08, 0xEE, 0x16, 0xF1, 0x0E, 0xEE, 0x10, 0x0A, 0xF5, 0xFE, 0x08, 0xF0, 0x07, 0xFF, 0x04, 0xFA, 0xFA, 0xDD, 0x14, 0x13, 0xF2, 0x14, 0x06, 0x08, 0xF5, 0x0E, 0x09, 0xF2, 0x01, 0xFA, 0x07, 0x05, 0x17, 0xF7, 0xF0, 0xF0, 0x01, 0x03, 0x16, 0x16, 0x00, 0x04, 0xF8, 0x17, 0x05, 0x17, 0xF6, 0x0F, 0xFD, 0x03, 0x0D, 0xFE, 0xED, 0x0A, 0x08, 0x10, 0xFD, 0xF1, 0xF7, 0x00, 0xFA, 0xF7, 0x15, 0x12, 0xF4, 0xF5, 0xEC, 0xED, 0x0F, 0xF3, 0x17, 0x17, 0xFB, 0x01, 0xEA, 0x06, 0xEF, 0xF3, 0x10, 0x10, 0xED, 0xF5, 0x12, 0x0D, 0xF6, 0x01, 0xFC, 0x06, 0x04, 0xE7, 0x02, 0x02, 0xFA, 0xFC, 0xF9, 0x16, 0x02, 0xE5, 0x0F, 0x13, 0x07, 0xFB, 0x0F, 0xF8, 0xF7, 0xEF, 0xEF, 0x09, 0x18, 0xF4, 0xF6, 0xEF, 0x0F, 0x21, 0x0B, 0xF5, 0x01, 0x04, 0x10, 0x0C, 0x07, 0xF2, 0x00, 0xF2, 0x09, 0x08, 0x00, 0xFC, 0x09, 0xF5, 0x0C, 0xFA, 0x14, 0xFC, 0xFF, 0x01, 0xF7, 0x08, 0x0A, 0x06, 0x07, 0x15, 0x09, 0x09, 0x15, 0xF8, 0x0C, 0xF5, 0xF6, 0xFB, 0xF9, 0x0E, 0x17, 0xFE, 0xF7, 0xFB, 0x02, 0x02, 0xFA, 0xFA, 0x06, 0x04, 0xF8, 0x05, 0x0C, 0x09, 0xF8, 0xFA, 0xFE, 0x08, 0x07, 0x02, 0xF4, 0x0F, 0x16, 0xF6, 0xF2, 0x09, 0xF7, 0x08, 0x07, 0x10, 0x0D, 0x07, 0x15, 0xFB, 0x08, 0x13, 0x09, 0xFC, 0x02, 0x01, 0xEB, 0xFC, 0xEF, 0xFD, 0x0E, 0x07, 0x09, 0xF9, 0xF6, 0xF4, 0x04, 0xF5, 0x0B, 0x0D, 0x0B, 0x10, 0x04, 0x17, 0x13, 0xF8, 0x19, 0x14, 0x06, 0xF1, 0xFA, 0xFD, 0xF7, 0xF3, 0x00, 0x10, 0x05, 0x11, 0x01, 0x04, 0x0B, 0xF8, 0x07, 0x0C, 0x09, 0xFA, 0xF2, 0x10, 0xFF, 0x0D, 0x08, 0x0C, 0xF1, 0xF8, 0x13, 0x0D, 0x05, 0x15, 0xF2, 0xED, 0x0A, 0x0B, 0xEC, 0xE9, 0x13, 0xF5, 0xF2, 0xEC, 0xFC, 0xFE, 0xF8, 0x10, 0x00, 0xF3, 0xF4, 0x00, 0xF0, 0x14, 0x05, 0x0F, 0xED, 0x01, 0x13, 0xFD, 0x11, 0xFB, 0x01, 0x08, 0x12, 0xF5, 0xFA, 0x05, 0xF5, 0x01, 0xF0, 0xF9, 0x07, 0xF3, 0x13, 0xF3, 0x0A, 0xFD, 0x06, 0x04, 0x0F, 0x07, 0xF1, 0xEF, 0x02, 0x09, 0xE8, 0xEE, 0xFA, 0x1A, 0xF5, 0x04, 0x10, 0x13, 0xF6, 0xE7, 0x02, 0xF5, 0xF4, 0x12, 0x05, 0x0B, 0x05, 0xFB, 0x04, 0xFC, 0xEA, 0x04, 0xFA, 0x18, 0xF7, 0xF0, 0x0F, 0x0B, 0x09, 0x11, 0x09, 0xF4, 0x02, 0x0F, 0xFF, 0xF3, 0xFB, 0x01, 0xF0, 0x01, 0x14, 0xF9, 0x08, 0x0A, 0x08, 0xFF, 0x04, 0x0A, 0xE7, 0xFD, 0xFE, 0x10, 0xFD, 0xFB, 0x06, 0x0F, 0x10, 0xDA, 0x08, 0xF0, 0xFA, 0xF0, 0xFD, 0x01, 0xE3, 0xE4, 0xEE, 0xFC, 0x00, 0x02, 0x04, 0x00, 0x00, 0xEF, 0x0D, 0x05, 0xEF, 0x11, 0xEC, 0x19, 0xFD, 0xF2, 0xF3, 0x14, 0x0D, 0x04, 0xF8, 0x16, 0xED, 0x35, 0x11, 0xFD, 0xED, 0x0A, 0x0B, 0xF0, 0xE6, 0xF1, 0xFE, 0x10, 0xF4, 0xFC, 0xF0, 0x02, 0x02, 0xF6, 0x10, 0xFD, 0x07, 0x0D, 0xFC, 0x0C, 0xFA, 0xFE, 0xFA, 0xF1, 0x0A, 0x03, 0xFE, 0xED, 0xF1, 0x09, 0xFA, 0xF7, 0x02, 0x06, 0xF0, 0xF5, 0xFE, 0x09, 0xFA, 0x0C, 0x0E, 0xF8, 0xF0, 0xFD, 0x10, 0x05, 0x03, 0x00, 0xF9, 0xFF, 0x0D, 0x0F, 0x17, 0x01, 0xF5, 0xF3, 0x06, 0xE9, 0xFF, 0x06, 0x0E, 0x04, 0x13, 0xF0, 0xFB, 0x0C, 0xF5, 0x0E, 0x07, 0x10, 0x08, 0x00, 0x01, 0x00, 0x18, 0xF9, 0xF3, 0xF4, 0xF4, 0x03, 0x01, 0x10, 0xF8, 0x00, 0x07, 0x0B, 0x04, 0x02, 0xEA, 0x0A, 0xF0, 0x10, 0xF8, 0x0B, 0xFD, 0x04, 0x0E, 0xF1, 0x13, 0x0D, 0xFC, 0x08, 0xFF, 0xFC, 0x13, 0x16, 0xF7, 0x0B, 0x0F, 0x06, 0x06, 0xF6, 0x00, 0x00, 0x07, 0x06, 0xF5, 0x08, 0x08, 0x07, 0x0D, 0xFE, 0x01, 0x03, 0x08, 0x1C, 0x11, 0x0D, 0x15, 0x07, 0xF2, 0xF0, 0x06, 0xF1, 0xFA, 0xFF, 0xF1, 0x02, 0xF1, 0x0F, 0xFB, 0xEE, 0x11, 0xF7, 0x03, 0xFA, 0xFC, 0xEE, 0x13, 0xFC, 0x08, 0xFC, 0x13, 0xEE, 0x0C, 0x16, 0xFE, 0xFC, 0xF1, 0xFE, 0x04, 0xFC, 0xEE, 0x05, 0xED, 0xF4, 0x06, 0x00, 0x0B, 0x09, 0x05, 0x16, 0x16, 0xD4, 0x10, 0xF9, 0x13, 0xF9, 0xFE, 0xF2, 0xEC, 0xF2, 0x0E, 0x01, 0x0B, 0x08, 0xFE, 0x13, 0x04, 0xDE, 0xED, 0x18, 0x1A, 0x14, 0x0D, 0xF9, 0xEC, 0x0B, 0xE9, 0xF4, 0x1F, 0xFF, 0xF3, 0x10, 0xF1, 0xF4, 0x06, 0x1D, 0xF7, 0x0C, 0xFF, 0xFC, 0x0E, 0xEF, 0xFF, 0xFE, 0x13, 0xF5, 0x06, 0xF0, 0x09, 0xE3, 0xFF, 0x00, 0x13, 0xF0, 0x17, 0xF0, 0xEB, 0x08, 0x04, 0x12, 0xF3, 0x21, 0x08, 0xFB, 0xF9, 0xCE, 0x11, 0x1A, 0xFD, 0x0D, 0x11, 0x09, 0xF2, 0xE3, 0xF7, 0x08, 0xEC, 0xEA, 0x16, 0x0D, 0xED, 0x00, 0x01, 0x10, 0xF5, 0x05, 0x01, 0xF1, 0xD8, 0xF2, 0x07, 0x0E, 0xF1, 0xEA, 0x02, 0xFF, 0x14, 0x39, 0x28, 0xE7, 0xFA, 0x12, 0x0F, 0x15, 0xCF, 0xF4, 0xFC, 0xFB, 0x04, 0x02, 0xFF, 0x00, 0xF4, 0x13, 0x01, 0xF9, 0xFE, 0xF8, 0x08, 0x00, 0xF4, 0x0B, 0xFB, 0x07, 0xF4, 0x14, 0x0B, 0xFE, 0xFB, 0x00, 0xFA, 0xFE, 0xF6, 0xF4, 0x00, 0x09, 0x01, 0xF2, 0x0E, 0x10, 0x0C, 0x08, 0x0B, 0x0D, 0xFC, 0xF4, 0x0D, 0x0A, 0x0C, 0xF1, 0x02, 0xF1, 0xF7, 0x17, 0x0C, 0x07, 0x14, 0xF1, 0x03, 0x01, 0xF7, 0x16, 0xF5, 0xF8, 0xFE, 0x11, 0x00, 0x08, 0x0F, 0x07, 0xF7, 0x01, 0x03, 0xF2, 0x06, 0x09, 0x01, 0x09, 0xF0, 0xFE, 0xFC, 0x04, 0x02, 0x06, 0xEF, 0x06, 0x0E, 0xF7, 0xF3, 0x0C, 0xF7, 0xFD, 0x15, 0xF6, 0x03, 0x0B, 0xF5, 0xFF, 0x01, 0x0F, 0xF9, 0xFF, 0xF4, 0x05, 0xF8, 0x01, 0xF3, 0x0C, 0xFF, 0xE5, 0xF2, 0x06, 0x03, 0x04, 0xF6, 0xF7, 0x00, 0xF4, 0x0D, 0xEA, 0x09, 0xFF, 0xFC, 0xFF, 0xF9, 0xE3, 0x10, 0xF8, 0xFD, 0xFE, 0x04, 0x04, 0x12, 0xFE, 0xEE, 0x08, 0xF7, 0xFF, 0xEB, 0x03, 0xFC, 0xFA, 0xFB, 0xFC, 0xFE, 0xEE, 0x01, 0xFD, 0x09, 0xF3, 0x13, 0x07, 0x03, 0x0A, 0xF8, 0xEC, 0xFF, 0x05, 0xFB, 0x12, 0xF9, 0xF9, 0x0B, 0x03, 0xF5, 0x0E, 0x14, 0x0A, 0xFC, 0x0C, 0xFA, 0xF2, 0xFB, 0x06, 0x0E, 0x07, 0x00, 0x03, 0xFC, 0x06, 0x03, 0x17, 0x16, 0x09, 0x07, 0xED, 0xED, 0xEA, 0xF1, 0x12, 0x09, 0xF3, 0x0C, 0x05, 0xFB, 0x00, 0xF5, 0x03, 0x12, 0xF4, 0xEF, 0x0A, 0xF1, 0xF4, 0xF4, 0x09, 0x04, 0xFB, 0x0C, 0x02, 0xEC, 0x06, 0x08, 0x11, 0x10, 0x02, 0xED, 0xF9, 0x11, 0x05, 0x0D, 0x20, 0xFB, 0xFC, 0xF6, 0xEE, 0xFA, 0x0B, 0x11, 0x0E, 0xF7, 0xFA, 0xF9, 0xFE, 0xEF, 0xF7, 0xF2, 0x3E, 0xEF, 0x01, 0xFE, 0xED, 0xEC, 0xFC, 0x16, 0xFD, 0xF9, 0x01, 0xF3, 0x01, 0xFA, 0x0E, 0x0C, 0x1F, 0xF6, 0x11, 0xF2, 0xF0, 0xF6, 0xEF, 0x05, 0x14, 0xFD, 0x0A, 0xF8, 0x0A, 0x11, 0x00, 0x0C, 0xF0, 0xF8, 0xFF, 0xFE, 0x0F, 0xF4, 0x0B, 0x02, 0xF9, 0x07, 0x0D, 0x0D, 0xEC, 0xFF, 0xF0, 0x10, 0xFC, 0x01, 0xF7, 0xFC, 0x02, 0x06, 0x07, 0x05, 0xFE, 0x04, 0xFB, 0x07, 0x00, 0x00, 0x00, 0xF5, 0x01, 0xF7, 0xED, 0x03, 0x0E, 0xEF, 0x09, 0xFB, 0x08, 0x08, 0x0F, 0xF7, 0xFF, 0x03, 0x06, 0x11, 0xFF, 0xF6, 0xF1, 0xF3, 0x08, 0x01, 0xF5, 0x13, 0x09, 0x12, 0x04, 0xF3, 0xF7, 0x11, 0xEF, 0x0E, 0xFB, 0x06, 0x01, 0x03, 0x08, 0xFD, 0xF8, 0x10, 0x0D, 0xEF, 0xF9, 0x01, 0xF7, 0x0A, 0xFA, 0xF1, 0x0F, 0x0C, 0x06, 0x0A, 0x00, 0x11, 0xF8, 0x00, 0xFA, 0x07, 0xEF, 0x02, 0x05, 0xF6, 0x02, 0xF3, 0xED, 0x09, 0xF8, 0xF6, 0xF6, 0xF9, 0x13, 0x05, 0xEB, 0x13, 0x13, 0x0C, 0x17, 0xF1, 0x07, 0x0E, 0xF9, 0xEC, 0xF6, 0x03, 0xF2, 0xEB, 0x13, 0xF0, 0xF9, 0x19, 0x0A, 0xFF, 0xFF, 0xF3, 0xFB, 0x00, 0xF8, 0x08, 0x09, 0xF1, 0x10, 0x0E, 0x09, 0xF4, 0x01, 0x12, 0xEA, 0x13, 0x10, 0xF1, 0x10, 0xF7, 0x12, 0xED, 0xEB, 0xF0, 0x0C, 0x05, 0xF7, 0xF0, 0xF8, 0xFF, 0x02, 0x0C, 0x0F, 0xED, 0xE7, 0x02, 0x02, 0x0C, 0x04, 0xF9, 0x0F, 0xFC, 0xFE, 0xFB, 0xFD, 0xEF, 0x00, 0xFF, 0x05, 0xF4, 0xEC, 0xFB, 0xFA, 0x16, 0xF5, 0x04, 0x02, 0x00, 0x0E, 0xF2, 0x10, 0x11, 0xE9, 0x1B, 0xF9, 0xEF, 0xEE, 0x03, 0x0A, 0x0B, 0xFF, 0x17, 0xFB, 0x0C, 0x0A, 0x18, 0x0E, 0x0D, 0xEE, 0xFD, 0x19, 0x12, 0x00, 0xF9, 0xF3, 0xFA, 0xFA, 0xED, 0xFA, 0x0B, 0x05, 0xF4, 0xF2, 0xF6, 0xF7, 0x07, 0xF4, 0xFF, 0xE7, 0x03, 0xE9, 0xF1, 0xF8, 0xF9, 0xFC, 0x0B, 0xE9, 0xF4, 0x01, 0xF5, 0xF1, 0x11, 0x00, 0xFA, 0xFC, 0xFA, 0xFC, 0xEF, 0xEA, 0xFE, 0xF8, 0xFF, 0x0A, 0xF5, 0xFB, 0xF4, 0x06, 0xEC, 0x12, 0xF5, 0xFC, 0x10, 0x05, 0xED, 0xEF, 0xF7, 0x02, 0x11, 0xEC, 0x04, 0x12, 0x00, 0x17, 0xF6, 0x13, 0xEE, 0xF0, 0x05, 0xF4, 0x09, 0xF2, 0x0E, 0x12, 0x1A, 0xEC, 0x1B, 0xF3, 0xF7, 0x06, 0x06, 0xF1, 0xFD, 0xFD, 0xEE, 0x02, 0x06, 0xF4, 0x00, 0x0E, 0xF4, 0xFC, 0x0D, 0x05, 0x07, 0x08, 0xFB, 0xF6, 0x0A, 0xF9, 0xFD, 0x0D, 0xEB, 0x07, 0xF5, 0xFB, 0x01, 0xF1, 0x0C, 0xF9, 0x15, 0x06, 0x05, 0xFA, 0x16, 0x11, 0x05, 0xFC, 0x01, 0x0D, 0x07, 0x07, 0x0A, 0xFC, 0x06, 0xFA, 0xF2, 0xF0, 0xE2, 0x13, 0xF3, 0xFC, 0xE5, 0x09, 0xFD, 0xF5, 0xF3, 0x05, 0xF6, 0xF5, 0x10, 0xED, 0x11, 0xFB, 0xFF, 0x09, 0xFC, 0x0E, 0xFF, 0xFC, 0x1D, 0x09, 0xF2, 0x07, 0x11, 0x0C, 0x0A, 0xFD, 0x0D, 0x10, 0x0B, 0xEC, 0xEB, 0x10, 0x03, 0xF2, 0xEF, 0xF2, 0xFD, 0x10, 0xED, 0x0C, 0x02, 0x10, 0xEC, 0x01, 0x0B, 0x02, 0xF7, 0xF1, 0xF7, 0xF5, 0x05, 0xF4, 0xF6, 0x0C, 0x16, 0x09, 0x0F, 0x0B, 0xFE, 0xF6, 0x06, 0x03, 0xEB, 0xFE, 0x0B, 0xF2, 0xF1, 0xF5, 0xFC, 0xF1, 0xF7, 0x04, 0x01, 0xFC, 0x02, 0xEB, 0xFD, 0x11, 0x05, 0xF0, 0x04, 0xFB, 0x12, 0x0F, 0x01, 0x0D, 0xFB, 0x0D, 0x05, 0x0E, 0x0D, 0xF2, 0x19, 0x1C, 0xFE, 0xFE, 0x00, 0x0D, 0xEF, 0x08, 0xEC, 0xED, 0x08, 0xEA, 0xF5, 0xF2, 0x11, 0x01, 0x08, 0x07, 0x04, 0x07, 0x01, 0x08, 0xF0, 0x01, 0xF6, 0xF9, 0xF1, 0x0B, 0x12, 0xF3, 0xEE, 0xEA, 0x0E, 0xF4, 0xF4, 0x0B, 0xFD, 0x0B, 0x0F, 0x00, 0xE8, 0x0D, 0xF5, 0xFD, 0xF1, 0xF8, 0x04, 0xEB, 0x18, 0x0B, 0xFD, 0xF1, 0x12, 0x0D, 0x03, 0xFD, 0xE2, 0x03, 0x0B, 0xF5, 0x05, 0x06, 0xEF, 0xF3, 0x06, 0x10, 0xF8, 0xEE, 0xF9, 0x12, 0xF5, 0xF8, 0xEC, 0xFA, 0xFE, 0xEC, 0xF2, 0x06, 0x05, 0x09, 0xFB, 0x05, 0xEC, 0x02, 0x17, 0x1B, 0xEF, 0xFC, 0xED, 0xFE, 0xFC, 0xE8, 0x18, 0x0F, 0xFF, 0x01, 0x17, 0x08, 0xE6, 0xFE, 0x13, 0xF9, 0x09, 0x09, 0xF3, 0x12, 0x06, 0x0D, 0x0D, 0x0C, 0x05, 0x09, 0xEF, 0x0B, 0xFC, 0x09, 0xF1, 0xF4, 0xF2, 0x0D, 0x09, 0x10, 0x0C, 0xF5, 0x24, 0x11, 0xFA, 0xFA, 0xF9, 0x01, 0x02, 0xF3, 0x02, 0x09, 0xF6, 0x10, 0x04, 0x0C, 0x01, 0x0F, 0xF2, 0xEF, 0xF9, 0xF1, 0xF9, 0xFB, 0x0D, 0xF1, 0x08, 0x04, 0x10, 0x0B, 0xF8, 0xF2, 0x08, 0x09, 0xF8, 0x01, 0xF8, 0xFA, 0xFD, 0xFA, 0xF3, 0x09, 0x12, 0xFF, 0x05, 0xFD, 0x00, 0xED, 0x07, 0xFD, 0xFA, 0x0C, 0xFE, 0x08, 0xF6, 0xFB, 0xED, 0x15, 0xFF, 0x08, 0xF9, 0xF1, 0xF5, 0x06, 0x00, 0x0A, 0x02, 0x03, 0xF5, 0xF9, 0x01, 0x12, 0xF2, 0x0B, 0xFA, 0x09, 0x0A, 0x0E, 0xF1, 0x10, 0x03, 0xFD, 0xF9, 0xF0, 0x0F, 0x04, 0x07, 0xF9, 0xEA, 0x0C, 0xFD, 0x07, 0x02, 0x15, 0x09, 0xF4, 0x08, 0xEA, 0xEA, 0x11, 0xF0, 0xF2, 0x01, 0xF7, 0x0A, 0xFD, 0x04, 0x05, 0xF7, 0xFE, 0x09, 0x15, 0x00, 0xF6, 0x04, 0x04, 0xF9, 0x04, 0xF0, 0xF6, 0xF6, 0x0F, 0xF0, 0x01, 0x0F, 0xEE, 0x05, 0xFD, 0x03, 0xEA, 0x0B, 0xF8, 0xF1, 0x06, 0x09, 0x07, 0x0F, 0x0B, 0x06, 0x15, 0xF0, 0xF7, 0xF1, 0xF4, 0x02, 0x03, 0x08, 0x06, 0x08, 0x0F, 0xFF, 0xEC, 0xF6, 0x00, 0x0D, 0x0A, 0xF7, 0xF9, 0xFC, 0xF3, 0xF6, 0xF2, 0x13, 0xF7, 0xEF, 0x07, 0x06, 0x02, 0x10, 0x04, 0x02, 0x08, 0x07, 0x05, 0xF4, 0xF7, 0xF1, 0xF0, 0x0E, 0x0E, 0x0C, 0x09, 0x1A, 0x04, 0x0F, 0x02, 0x12, 0xFF, 0xF4, 0x14, 0x06, 0xF9, 0xF8, 0x04, 0xFA, 0x13, 0x0D, 0x0D, 0xFE, 0x07, 0x15, 0x03, 0x09, 0x05, 0xF1, 0xF5, 0xFE, 0x00, 0xF0, 0xF0, 0x06, 0x12, 0xFE, 0x17, 0x01, 0xEB, 0xF4, 0xED, 0xF9, 0xEC, 0x08, 0xF6, 0x07, 0x1B, 0xEE, 0x0A, 0xF7, 0x0F, 0xFF, 0x0E, 0x18, 0x0D, 0x15, 0xFE, 0x08, 0x02, 0xF7, 0xF9, 0xF7, 0x12, 0x10, 0xF2, 0xFE, 0xFC, 0x08, 0xF4, 0x0E, 0x12, 0xF3, 0xF9, 0xF8, 0x21, 0xFB, 0xED, 0x1C, 0xF5, 0xF7, 0x08, 0x1B, 0xF8, 0x04, 0x07, 0x02, 0xF9, 0xF3, 0xFD, 0x18, 0x41, 0xF4, 0x00, 0x0E, 0x07, 0x08, 0xF9, 0x15, 0xFA, 0xFA, 0xF4, 0x0A, 0x06, 0xF7, 0xFE, 0xFF, 0xFF, 0x14, 0xF6, 0x11, 0xF6, 0xF0, 0x0A, 0x0F, 0x01, 0x15, 0x00, 0xFC, 0xFE, 0xF0, 0x11, 0x0E, 0xFC, 0x0E, 0xEB, 0xED, 0xF7, 0x08, 0xF5, 0x0E, 0x01, 0x09, 0xEC, 0x02, 0xF3, 0x09, 0x07, 0x02, 0x03, 0xF1, 0x0E, 0x0C, 0xF2, 0xF2, 0xFA, 0xEB, 0x06, 0x00, 0x07, 0xEB, 0x0C, 0xF1, 0x07, 0x09, 0xED, 0x05, 0x11, 0xF8, 0x08, 0xF9, 0xEC, 0xF8, 0x0E, 0xED, 0x03, 0x0C, 0xEE, 0xF4, 0xF4, 0xED, 0xE6, 0xEC, 0x0E, 0x09, 0x02, 0xF8, 0x17, 0xF2, 0xFB, 0xFE, 0x08, 0x1B, 0x05, 0xF7, 0xFD, 0x02, 0x0C, 0x17, 0x13, 0xFA, 0xFA, 0xF3, 0xF9, 0x04, 0xF5, 0x0B, 0xEF, 0x06, 0xFF, 0xF8, 0xEC, 0xEC, 0xF1, 0x06, 0x06, 0xF9, 0xF3, 0x0E, 0x12, 0xE7, 0xFF, 0xF7, 0xFB, 0x0B, 0x03, 0xF8, 0x04, 0x01, 0xF4, 0xE8, 0xE8, 0x11, 0xF8, 0xF3, 0xFF, 0xED, 0x02, 0xE9, 0xF9, 0x0F, 0xE9, 0xFC, 0x09, 0x00, 0xEE, 0x05, 0x05, 0x02, 0xF4, 0xF4, 0x14, 0xF9, 0xF1, 0x05, 0x08, 0xF6, 0x12, 0x0E, 0xF0, 0x0B, 0x13, 0xF3, 0xE6, 0xFC, 0xFE, 0xF6, 0x07, 0x0E, 0x12, 0xEE, 0xFD, 0x09, 0xF3, 0xF7, 0xF6, 0xE4, 0x03, 0xF2, 0x08, 0x06, 0xEB, 0x05, 0xEF, 0xEE, 0x08, 0xEB, 0xF6, 0x07, 0xEB, 0xF3, 0x0D, 0x09, 0x18, 0x0A, 0xED, 0xF8, 0x0E, 0x04, 0xF4, 0xFA, 0x04, 0x0F, 0x0D, 0xF7, 0x05, 0xF2, 0xF6, 0xF3, 0x03, 0xFE, 0x05, 0xF0, 0x11, 0xFB, 0xF9, 0xEC, 0xF1, 0xF6, 0xFE, 0x02, 0xF9, 0x0B, 0xFC, 0xFA, 0x19, 0xF9, 0xFC, 0xFE, 0xED, 0xFB, 0x08, 0x0B, 0xED, 0x04, 0x06, 0xF4, 0xFD, 0x0D, 0xF2, 0xF1, 0x3E, 0x0B, 0xF9, 0xF6, 0x03, 0x16, 0xF3, 0xEF, 0xFB, 0x0A, 0xE7, 0xEC, 0xEA, 0xFD, 0xEE, 0x0C, 0xDE, 0xEA, 0xF2, 0x09, 0xF2, 0x08, 0xFA, 0xFD, 0x0E, 0x1C, 0x06, 0x11, 0xEB, 0xFB, 0xEC, 0x14, 0xD9, 0xF9, 0x00, 0x05, 0x15, 0x11, 0x08, 0x04, 0xF8, 0xFC, 0xFA, 0x0E, 0x04, 0x0A, 0x00, 0x05, 0x05, 0x0B, 0xF1, 0xF6, 0x00, 0xFE, 0xED, 0x0F, 0x09, 0xFB, 0x13, 0xFA, 0x04, 0xFE, 0x00, 0xF8, 0x05, 0x01, 0xF6, 0xFA, 0x07, 0xF4, 0x0E, 0x18, 0x0E, 0x01, 0x04, 0x05, 0x0E, 0x0E, 0xFC, 0x13, 0xFD, 0xFF, 0x07, 0xFD, 0x07, 0xFA, 0xF9, 0x01, 0x12, 0x03, 0x02, 0xFF, 0x07, 0x01, 0x0A, 0xF0, 0x00, 0xF5, 0x0C, 0xF3, 0x13, 0xEA, 0xEC, 0xF8, 0x13, 0xF3, 0x07, 0x08, 0xFA, 0xFF, 0xF0, 0xF4, 0xEA, 0x05, 0x00, 0x01, 0x0B, 0x04, 0x0D, 0x0D, 0x0D, 0xF3, 0x06, 0xF0, 0x18, 0x12, 0xF9, 0x09, 0xF9, 0x11, 0xFB, 0x00, 0xF1, 0xF5, 0xEA, 0xED, 0x11, 0x06, 0xF9, 0xFB, 0x0C, 0x0C, 0xEF, 0x06, 0x0B, 0xFC, 0xDC, 0xFF, 0xF9, 0xEF, 0x10, 0xEF, 0xF8, 0xF5, 0x04, 0x14, 0xFE, 0x02, 0x02, 0xF3, 0x0E, 0x1A, 0xEC, 0xF3, 0x03, 0xFF, 0x00, 0x04, 0xFC, 0x12, 0xFB, 0xFA, 0x0C, 0x02, 0xE9, 0x0C, 0x1A, 0xF2, 0x08, 0x07, 0xF7, 0xE6, 0xF7, 0x03, 0xFD, 0x0B, 0xE9, 0xF5, 0x0A, 0x08, 0x08, 0xF9, 0xFF, 0xF4, 0xEF, 0xF0, 0xE9, 0xF4, 0x03, 0xFF, 0x0C, 0xEA, 0xF4, 0x09, 0xEA, 0x02, 0xF8, 0xE9, 0x18, 0x11, 0x0E, 0x21, 0x04, 0xFE, 0xEA, 0x02, 0x0C, 0x03, 0x0D, 0xEE, 0xE7, 0x0D, 0xF0, 0xEC, 0x0E, 0xF2, 0xFD, 0xE2, 0xF2, 0x04, 0xEC, 0xF9, 0xEF, 0xFA, 0xE9, 0xFC, 0xF6, 0x07, 0xF0, 0xE9, 0x2D, 0x09, 0xE1, 0x06, 0x0E, 0xF4, 0x0C, 0xF5, 0x17, 0x09, 0x0A, 0xF2, 0xF4, 0xF1, 0xF1, 0x03, 0x1F, 0xF8, 0xF5, 0x1D, 0x04, 0xF5, 0xE7, 0xE2, 0x00, 0x0C, 0xE8, 0xF4, 0xFE, 0x04, 0x08, 0xF8, 0x14, 0xFB, 0x06, 0xFB, 0x0C, 0x07, 0xF2, 0xE7, 0x04, 0xF0, 0x04, 0xEC, 0xF6, 0x0D, 0xFD, 0xF7, 0xD0, 0xEA, 0xEF, 0xF7, 0xF8, 0xFF, 0xFB, 0x1C, 0x09, 0xE9, 0xFB, 0x0B, 0xFA, 0x0D, 0x12, 0xF7, 0x8C, 0xD1, 0xF1, 0x06, 0xF3, 0xFF, 0xFE, 0xDD, 0x04, 0xFA, 0xEF, 0x09, 0xF4, 0xF2, 0x15, 0xFA, 0x04, 0x0A, 0x01, 0xFB, 0x04, 0x02, 0x13, 0x08, 0x09, 0x02, 0xF2, 0xF6, 0x0E, 0xEF, 0xF8, 0xF1, 0x05, 0xFF, 0x04, 0x03, 0xF9, 0x06, 0x02, 0x0F, 0x0A, 0xF9, 0x09, 0xFB, 0xF0, 0x0F, 0xFE, 0x11, 0xF4, 0x08, 0xF8, 0xFA, 0xEC, 0x00, 0x06, 0x01, 0xF6, 0xF2, 0x01, 0xF0, 0xF9, 0xF3, 0x15, 0xF3, 0xFB, 0xF7, 0x12, 0xF8, 0xF5, 0xF6, 0x0D, 0x0F, 0x15, 0xF6, 0xFC, 0xEC, 0x10, 0x0D, 0xED, 0x00, 0x01, 0x0A, 0xF8, 0xFB, 0x08, 0xF6, 0xFA, 0x0F, 0x14, 0x06, 0x03, 0x0C, 0xF6, 0xF3, 0xFB, 0x00, 0xFB, 0x0B, 0x01, 0x15, 0x09, 0xFF, 0xFC, 0xEE, 0x15, 0x12, 0x07, 0x04, 0xF8, 0x0B, 0xEF, 0x0D, 0x01, 0x0E, 0xF3, 0xFE, 0xEF, 0x00, 0xEF, 0x03, 0x02, 0xF9, 0x10, 0x0E, 0xFA, 0xFF, 0x12, 0x0B, 0x12, 0xF0, 0x01, 0x0B, 0x12, 0xF5, 0xF0, 0x05, 0xF5, 0xF0, 0xFC, 0x0C, 0x15, 0xFE, 0x19, 0x01, 0xFB, 0x0E, 0x08, 0x00, 0xF9, 0xFD, 0x10, 0x08, 0x00, 0x13, 0x00, 0x01, 0x0D, 0x10, 0xF5, 0xF8, 0x0F, 0xFB, 0xF3, 0xF9, 0x0C, 0x13, 0x11, 0xED, 0xFC, 0x10, 0x0D, 0xFB, 0x18, 0x16, 0x1A, 0x06, 0xF8, 0x08, 0x09, 0x0F, 0xF9, 0xFE, 0x11, 0xE6, 0x09, 0xF5, 0xFF, 0xEB, 0xFE, 0xFE, 0x02, 0x02, 0xFE, 0x03, 0x04, 0xEC, 0x01, 0xFD, 0xF4, 0xEB, 0x08, 0xEE, 0x0F, 0x0D, 0x03, 0x03, 0x01, 0xF0, 0xF7, 0x15, 0x04, 0xEF, 0x03, 0x05, 0x05, 0x07, 0x04, 0xF3, 0x1C, 0xFE, 0x16, 0xF1, 0x05, 0x0F, 0xE9, 0x17, 0x11, 0x15, 0xF8, 0x05, 0xF8, 0x0F, 0xEE, 0x03, 0x09, 0x05, 0xEF, 0x12, 0x14, 0x0B, 0xDD, 0xF8, 0x10, 0x15, 0xEB, 0x00, 0xF8, 0xEB, 0xF7, 0x06, 0x08, 0xF5, 0x08, 0xF0, 0x0E, 0xF7, 0xE9, 0xF8, 0x0F, 0xF1, 0xFF, 0x02, 0x17, 0xE6, 0xF4, 0xF6, 0xF0, 0x14, 0xF5, 0xF8, 0xF6, 0xFD, 0x06, 0x16, 0xF4, 0xF8, 0x0F, 0x15, 0x05, 0xFC, 0x10, 0xFA, 0x07, 0xF6, 0x06, 0xF6, 0x0A, 0x00, 0x0A, 0xF9, 0x11, 0x00, 0xF4, 0xFC, 0x04, 0x06, 0x0C, 0xFC, 0xFB, 0xF0, 0xFA, 0x0F, 0xFF, 0x05, 0x02, 0x13, 0xFC, 0x0B, 0xEE, 0xFA, 0x0A, 0xF6, 0x02, 0x05, 0x11, 0xEE, 0xFA, 0x13, 0xFA, 0x10, 0x02, 0xF5, 0xFD, 0xEA, 0x0E, 0x05, 0x0C, 0x0C, 0xF9, 0xF2, 0xF5, 0x02, 0x00, 0x16, 0xFD, 0x11, 0xFD, 0xF1, 0x0B, 0xF1, 0xEE, 0xF4, 0x05, 0xFC, 0xFB, 0xF1, 0x01, 0x00, 0x0B, 0x13, 0x0C, 0x0B, 0x0E, 0xF4, 0x12, 0xFD, 0x11, 0x02, 0x0F, 0x14, 0x0E, 0xF9, 0xFC, 0x09, 0x04, 0xFA, 0xEC, 0xF5, 0x08, 0xFF, 0xF2, 0xF5, 0xFE, 0x06, 0x03, 0xF8, 0xFF, 0x05, 0x02, 0x07, 0xF7, 0x08, 0x06, 0x00, 0x17, 0x06, 0x0F, 0xFA, 0x11, 0xF7, 0xF7, 0x08, 0xFA, 0x08, 0xEF, 0xFA, 0x0B, 0x0A, 0x05, 0xFC, 0x22, 0x14, 0xF9, 0xEF, 0x0E, 0xF5, 0x06, 0x03, 0xEA, 0xEC, 0x14, 0xEE, 0x0A, 0x12, 0xEF, 0x04, 0x07, 0xF6, 0xFA, 0xEE, 0x0A, 0x0C, 0x03, 0xFE, 0x03, 0xF8, 0x0F, 0x06, 0x0F, 0x0D, 0xF2, 0x0A, 0xE7, 0xFB, 0x0F, 0xFE, 0x15, 0xFE, 0xF3, 0xFD, 0xFE, 0xF9, 0x0B, 0xF1, 0x0C, 0x01, 0x04, 0xF3, 0xF0, 0xFA, 0xF7, 0xF8, 0x0C, 0xED, 0x13, 0x09, 0xEC, 0xFE, 0x04, 0x08, 0x07, 0xF3, 0x15, 0xFE, 0x0E, 0x15, 0x0D, 0x10, 0x03, 0xFF, 0xF8, 0xF3, 0xFE, 0x09, 0x0C, 0xFC, 0x16, 0x15, 0x03, 0xF5, 0xF2, 0xF0, 0x0D, 0x0A, 0x08, 0x02, 0x07, 0xF7, 0x12, 0xF1, 0xFF, 0x05, 0xFA, 0xF1, 0xF8, 0x11, 0x02, 0x03, 0xFF, 0xF7, 0xF3, 0x0A, 0xF3, 0xEE, 0xFD, 0xFC, 0x08, 0xF2, 0x13, 0xF8, 0xF5, 0xF3, 0xEB, 0xFD, 0xF4, 0xF3, 0xF5, 0x06, 0x11, 0xFA, 0xE6, 0x13, 0x01, 0x01, 0x0A, 0xEF, 0x11, 0x0B, 0xF9, 0x03, 0xEF, 0x06, 0xF6, 0x0D, 0xF9, 0xE3, 0xF7, 0xF4, 0xF8, 0xFE, 0x0C, 0x13, 0x0F, 0xFE, 0x12, 0xF0, 0xFD, 0x15, 0x11, 0x00, 0x01, 0xDB, 0xED, 0x0D, 0xFD, 0x01, 0x1B, 0x01, 0xF8, 0xF5, 0xEE, 0x0F, 0xFF, 0x0A, 0xF5, 0x0B, 0x04, 0xFF, 0x00, 0xF0, 0x09, 0x06, 0xF3, 0xF6, 0x06, 0xEF, 0x09, 0x0A, 0x08, 0x10, 0x07, 0x0D, 0xFA, 0x06, 0x02, 0xF4, 0xFE, 0xF7, 0x14, 0x03, 0xF0, 0x0B, 0xF9, 0xED, 0xFC, 0x02, 0x00, 0xF9, 0x10, 0x18, 0x03, 0x03, 0xFB, 0x05, 0xF5, 0x17, 0x0E, 0xF5, 0xFF, 0x02, 0x07, 0x10, 0xF7, 0xF8, 0xF9, 0xFD, 0xEC, 0x0D, 0x0E, 0x0A, 0x04, 0xF1, 0x08, 0xFE, 0x0A, 0xFB, 0x04, 0xF8, 0x13, 0xF6, 0xF5, 0x11, 0x19, 0x02, 0x0A, 0x01, 0xFB, 0x07, 0xFF, 0x07, 0x25, 0xEF, 0x12, 0x07, 0x09, 0x0A, 0xFB, 0x16, 0xEF, 0xFB, 0xEB, 0xED, 0x16, 0xF3, 0xFD, 0x15, 0x05, 0x0B, 0x0F, 0x1B, 0x0E, 0xF8, 0xF2, 0x12, 0x0F, 0xF0, 0xF8, 0xF0, 0x09, 0xFE, 0x08, 0x01, 0x17, 0xF4, 0x00, 0x1F, 0x00, 0xF2, 0x09, 0xEB, 0x04, 0xFE, 0x0B, 0xF4, 0x14, 0xEF, 0x05, 0xE7, 0x0F, 0x15, 0x01, 0x13, 0xF2, 0xF2, 0x0D, 0xF0, 0xF9, 0xEE, 0xFB, 0xE3, 0xF5, 0x08, 0x04, 0xFF, 0xEB, 0x04, 0x08, 0x03, 0x19, 0xEC, 0xF4, 0x0C, 0x09, 0xF6, 0xFA, 0x1C, 0x0F, 0x07, 0xFA, 0xEE, 0xE2, 0x1A, 0xED, 0xEF, 0x03, 0xED, 0xF9, 0xF1, 0x0B, 0x12, 0x12, 0x08, 0xED, 0xF0, 0x0F, 0x0D, 0xE3, 0xEF, 0xF5, 0x18, 0xFF, 0xEC, 0x10, 0x13, 0xFB, 0xFC, 0x10, 0xF8, 0x0C, 0x09, 0xF0, 0xFB, 0xEB, 0x03, 0xF4, 0xF4, 0x10, 0x02, 0x00, 0xFF, 0xF8, 0x0A, 0x0F, 0x02, 0x08, 0x01, 0xF5, 0xF6, 0xE9, 0xFB, 0xF4, 0xF1, 0x02, 0xEF, 0x00, 0x02, 0x0B, 0xEE, 0xF3, 0xFC, 0x15, 0x09, 0x0C, 0xFD, 0xE4, 0xEB, 0xFF, 0x11, 0x14, 0x00, 0x0C, 0x00, 0xE7, 0x02, 0x14, 0xFC, 0x13, 0xF4, 0x1A, 0x07, 0xE7, 0xF8, 0xFD, 0xEF, 0xF0, 0x0C, 0x14, 0xE5, 0x0E, 0x00, 0x17, 0x0E, 0xDF, 0x0C, 0xFE, 0xED, 0x42, 0x10, 0x04, 0xF8, 0xFA, 0xF4, 0x0A, 0xE2, 0xCA, 0xD9, 0xFF, 0xFF, 0x00, 0x00, 0x00, 0x09, 0x10, 0x00, 0x00, 0x00, 0x15, 0x00, 0x00, 0x00, 0x14, 0x00, 0x00, 0x00, 0x78, 0x00, 0x00, 0x00, 0x02, 0x00, 0x00, 0x00, 0x0A, 0x00, 0x00, 0x00, 0x30, 0x03, 0x00, 0x00, 0x63, 0x00, 0x00, 0x00, 0x73, 0x65, 0x71, 0x75, 0x65, 0x6E, 0x74, 0x69, 0x61, 0x6C, 0x5F, 0x31, 0x2F, 0x71, 0x75, 0x61, 0x6E, 0x74, 0x5F, 0x64, 0x65, 0x6E, 0x73, 0x65, 0x5F, 0x32, 0x2F, 0x4D, 0x61, 0x74, 0x4D, 0x75, 0x6C, 0x3B, 0x73, 0x65, 0x71, 0x75, 0x65, 0x6E, 0x74, 0x69, 0x61, 0x6C, 0x5F, 0x31, 0x2F, 0x71, 0x75, 0x61, 0x6E, 0x74, 0x5F, 0x64, 0x65, 0x6E, 0x73, 0x65, 0x5F, 0x32, 0x2F, 0x4C, 0x61, 0x73, 0x74, 0x56, 0x61, 0x6C, 0x75, 0x65, 0x51, 0x75, 0x61, 0x6E, 0x74, 0x2F, 0x46, 0x61, 0x6B, 0x65, 0x51, 0x75, 0x61, 0x6E, 0x74, 0x57, 0x69, 0x74, 0x68, 0x4D, 0x69, 0x6E, 0x4D, 0x61, 0x78, 0x56, 0x61, 0x72, 0x73, 0x00, 0xA4, 0xDA, 0xFF, 0xFF, 0x08, 0x00, 0x00, 0x00, 0x0C, 0x00, 0x00, 0x00, 0x01, 0x00, 0x00, 0x00, 0x82, 0xC3, 0x81, 0x3B, 0x01, 0x00, 0x00, 0x00, 0x00, 0x00, 0x00, 0x00, 0x00, 0x00, 0x00, 0x00, 0x00, 0x00, 0x0A, 0x00, 0x10, 0x00, 0x04, 0x00, 0x08, 0x00, 0x0C, 0x00, 0x0A, 0x00, 0x00, 0x00, 0x03, 0x00, 0x00, 0x00, 0x10, 0x00, 0x00, 0x00, 0x04, 0x00, 0x00, 0x00, 0x01, 0x00, 0x00, 0x00, 0x13, 0x00, 0x00, 0x00, 0x02, 0x00, 0x00, 0x00, 0x12, 0x00, 0x00, 0x00, 0x01, 0x00, 0x00, 0x00, 0x70, 0xDC, 0xFF, 0xFF, 0x16, 0x00, 0x00, 0x00, 0x00, 0x00, 0x00, 0x16, 0x01, 0x00, 0x00, 0x00, 0x64, 0xDC, 0xFF, 0xFF, 0x00, 0x00, 0x00, 0x09, 0x14, 0x00, 0x00, 0x00, 0x14, 0x00, 0x00, 0x00, 0x24, 0x00, 0x00, 0x00, 0x4C, 0x00, 0x00, 0x00, 0x10, 0x00, 0x00, 0x00, 0x02, 0x00, 0x00, 0x00, 0x01, 0x00, 0x00, 0x00, 0x30, 0x03, 0x00, 0x00, 0x02, 0x00, 0x00, 0x00, 0xFF, 0xFF, 0xFF, 0xFF, 0x30, 0x03, 0x00, 0x00, 0x24, 0x00, 0x00, 0x00, 0x73, 0x65, 0x71, 0x75, 0x65, 0x6E, 0x74, 0x69, 0x61, 0x6C, 0x5F, 0x31, 0x2F, 0x71, 0x75, 0x61, 0x6E, 0x74, 0x5F, 0x66, 0x6C, 0x61, 0x74, 0x74, 0x65, 0x6E, 0x5F, 0x31, 0x2F, 0x52, 0x65, 0x73, 0x68, 0x61, 0x70, 0x65, 0x00, 0x00, 0x00, 0x00, 0x64, 0xDB, 0xFF, 0xFF, 0x08, 0x00, 0x00, 0x00, 0x0C, 0x00, 0x00, 0x00, 0x01, 0x00, 0x00, 0x00, 0x31, 0x87, 0x26, 0x3F, 0x01, 0x00, 0x00, 0x00, 0x80, 0xFF, 0xFF, 0xFF, 0xFF, 0xFF, 0xFF, 0xFF, 0xBE, 0xE0, 0xFF, 0xFF, 0x00, 0x00, 0x00, 0x05, 0x02, 0x00, 0x00, 0x00, 0x28, 0x00, 0x00, 0x00, 0x1C, 0x00, 0x00, 0x00, 0x04, 0x00, 0x00, 0x00, 0xAE, 0xE1, 0xFF, 0xFF, 0x02, 0x00, 0x00, 0x00, 0x02, 0x00, 0x00, 0x00, 0x02, 0x00, 0x00, 0x00, 0x02, 0x00, 0x00, 0x00, 0x01, 0x00, 0x00, 0x00, 0x12, 0x00, 0x00, 0x00, 0x01, 0x00, 0x00, 0x00, 0x11, 0x00, 0x00, 0x00, 0x20, 0xDD, 0xFF, 0xFF, 0x00, 0x00, 0x00, 0x09, 0x14, 0x00, 0x00, 0x00, 0x13, 0x00, 0x00, 0x00, 0x34, 0x00, 0x00, 0x00, 0x60, 0x00, 0x00, 0x00, 0x18, 0x00, 0x00, 0x00, 0x04, 0x00, 0x00, 0x00, 0x01, 0x00, 0x00, 0x00, 0x03, 0x00, 0x00, 0x00, 0x11, 0x00, 0x00, 0x00, 0x10, 0x00, 0x00, 0x00, 0x04, 0x00, 0x00, 0x00, 0xFF, 0xFF, 0xFF, 0xFF, 0x03, 0x00, 0x00, 0x00, 0x11, 0x00, 0x00, 0x00, 0x10, 0x00, 0x00, 0x00, 0x2A, 0x00, 0x00, 0x00, 0x73, 0x65, 0x71, 0x75, 0x65, 0x6E, 0x74, 0x69, 0x61, 0x6C, 0x5F, 0x31, 0x2F, 0x71, 0x75, 0x61, 0x6E, 0x74, 0x5F, 0x6D, 0x61, 0x78, 0x5F, 0x70, 0x6F, 0x6F, 0x6C, 0x69, 0x6E, 0x67, 0x32, 0x64, 0x5F, 0x37, 0x2F, 0x4D, 0x61, 0x78, 0x50, 0x6F, 0x6F, 0x6C, 0x00, 0x00, 0x34, 0xDC, 0xFF, 0xFF, 0x08, 0x00, 0x00, 0x00, 0x0C, 0x00, 0x00, 0x00, 0x01, 0x00, 0x00, 0x00, 0x31, 0x87, 0x26, 0x3F, 0x01, 0x00, 0x00, 0x00, 0x80, 0xFF, 0xFF, 0xFF, 0xFF, 0xFF, 0xFF, 0xFF, 0x8E, 0xE1, 0xFF, 0xFF, 0x00, 0x00, 0x00, 0x01, 0x01, 0x00, 0x00, 0x00, 0x24, 0x00, 0x00, 0x00, 0x18, 0x00, 0x00, 0x00, 0x04, 0x00, 0x00, 0x00, 0x80, 0xE1, 0xFF, 0xFF, 0x01, 0x00, 0x00, 0x00, 0x01, 0x00, 0x00, 0x00, 0x00, 0x00, 0x00, 0x01, 0x01, 0x00, 0x00, 0x00, 0x11, 0x00, 0x00, 0x00, 0x03, 0x00, 0x00, 0x00, 0x0E, 0x00, 0x00, 0x00, 0x0F, 0x00, 0x00, 0x00, 0x10, 0x00, 0x00, 0x00, 0xF4, 0xDD, 0xFF, 0xFF, 0x00, 0x00, 0x00, 0x09, 0x14, 0x00, 0x00, 0x00, 0x12, 0x00, 0x00, 0x00, 0x34, 0x00, 0x00, 0x00, 0xFC, 0x00, 0x00, 0x00, 0x18, 0x00, 0x00, 0x00, 0x04, 0x00, 0x00, 0x00, 0x01, 0x00, 0x00, 0x00, 0x05, 0x00, 0x00, 0x00, 0x21, 0x00, 0x00, 0x00, 0x10, 0x00, 0x00, 0x00, 0x04, 0x00, 0x00, 0x00, 0xFF, 0xFF, 0xFF, 0xFF, 0x05, 0x00, 0x00, 0x00, 0x21, 0x00, 0x00, 0x00, 0x10, 0x00, 0x00, 0x00, 0xC6, 0x00, 0x00, 0x00, 0x73, 0x65, 0x71, 0x75, 0x65, 0x6E, 0x74, 0x69, 0x61, 0x6C, 0x5F, 0x31, 0x2F, 0x71, 0x75, 0x61, 0x6E, 0x74, 0x5F, 0x63, 0x6F, 0x6E, 0x76, 0x32, 0x64, 0x5F, 0x37, 0x2F, 0x52, 0x65, 0x6C, 0x75, 0x3B, 0x73, 0x65, 0x71, 0x75, 0x65, 0x6E, 0x74, 0x69, 0x61, 0x6C, 0x5F, 0x31, 0x2F, 0x71, 0x75, 0x61, 0x6E, 0x74, 0x5F, 0x63, 0x6F, 0x6E, 0x76, 0x32, 0x64, 0x5F, 0x37, 0x2F, 0x42, 0x69, 0x61, 0x73, 0x41, 0x64, 0x64, 0x3B, 0x73, 0x65, 0x71, 0x75, 0x65, 0x6E, 0x74, 0x69, 0x61, 0x6C, 0x5F, 0x31, 0x2F, 0x71, 0x75, 0x61, 0x6E, 0x74, 0x5F, 0x63, 0x6F, 0x6E, 0x76, 0x32, 0x64, 0x5F, 0x36, 0x2F, 0x43, 0x6F, 0x6E, 0x76, 0x32, 0x44, 0x3B, 0x73, 0x65, 0x71, 0x75, 0x65, 0x6E, 0x74, 0x69, 0x61, 0x6C, 0x5F, 0x31, 0x2F, 0x71, 0x75, 0x61, 0x6E, 0x74, 0x5F, 0x63, 0x6F, 0x6E, 0x76, 0x32, 0x64, 0x5F, 0x37, 0x2F, 0x43, 0x6F, 0x6E, 0x76, 0x32, 0x44, 0x3B, 0x73, 0x65, 0x71, 0x75, 0x65, 0x6E, 0x74, 0x69, 0x61, 0x6C, 0x5F, 0x31, 0x2F, 0x71, 0x75, 0x61, 0x6E, 0x74, 0x5F, 0x63, 0x6F, 0x6E, 0x76, 0x32, 0x64, 0x5F, 0x37, 0x2F, 0x42, 0x69, 0x61, 0x73, 0x41, 0x64, 0x64, 0x2F, 0x52, 0x65, 0x61, 0x64, 0x56, 0x61, 0x72, 0x69, 0x61, 0x62, 0x6C, 0x65, 0x4F, 0x70, 0x2F, 0x72, 0x65, 0x73, 0x6F, 0x75, 0x72, 0x63, 0x65, 0x00, 0x00, 0xA4, 0xDD, 0xFF, 0xFF, 0x08, 0x00, 0x00, 0x00, 0x0C, 0x00, 0x00, 0x00, 0x01, 0x00, 0x00, 0x00, 0x31, 0x87, 0x26, 0x3F, 0x01, 0x00, 0x00, 0x00, 0x80, 0xFF, 0xFF, 0xFF, 0xFF, 0xFF, 0xFF, 0xFF, 0x00, 0x00, 0x00, 0x00, 0x96, 0xDD, 0xFF, 0xFF, 0x04, 0x00, 0x00, 0x00, 0x40, 0x00, 0x00, 0x00, 0x05, 0x00, 0x00, 0x00, 0x02, 0x00, 0x00, 0x00, 0x03, 0x00, 0x00, 0x00, 0x02, 0x00, 0x00, 0x00, 0x00, 0x00, 0x00, 0x00, 0xFE, 0xFF, 0xFF, 0xFF, 0x02, 0x00, 0x00, 0x00, 0xFE, 0xFF, 0xFF, 0xFF, 0x32, 0x00, 0x00, 0x00, 0x06, 0x00, 0x00, 0x00, 0xFC, 0xFF, 0xFF, 0xFF, 0x02, 0x00, 0x00, 0x00, 0xFB, 0xFF, 0xFF, 0xFF, 0x0A, 0x00, 0x00, 0x00, 0xFF, 0xFF, 0xFF, 0xFF, 0x06, 0x00, 0x00, 0x00, 0xC6, 0xDD, 0xFF, 0xFF, 0x00, 0x00, 0x00, 0x02, 0x10, 0x00, 0x00, 0x00, 0x11, 0x00, 0x00, 0x00, 0x10, 0x00, 0x00, 0x00, 0xB8, 0x00, 0x00, 0x00, 0x01, 0x00, 0x00, 0x00, 0x10, 0x00, 0x00, 0x00, 0xA5, 0x00, 0x00, 0x00, 0x73, 0x65, 0x71, 0x75, 0x65, 0x6E, 0x74, 0x69, 0x61, 0x6C, 0x5F, 0x31, 0x2F, 0x71, 0x75, 0x61, 0x6E, 0x74, 0x5F, 0x63, 0x6F, 0x6E, 0x76, 0x32, 0x64, 0x5F, 0x37, 0x2F, 0x42, 0x69, 0x61, 0x73, 0x41, 0x64, 0x64, 0x3B, 0x73, 0x65, 0x71, 0x75, 0x65, 0x6E, 0x74, 0x69, 0x61, 0x6C, 0x5F, 0x31, 0x2F, 0x71, 0x75, 0x61, 0x6E, 0x74, 0x5F, 0x63, 0x6F, 0x6E, 0x76, 0x32, 0x64, 0x5F, 0x36, 0x2F, 0x43, 0x6F, 0x6E, 0x76, 0x32, 0x44, 0x3B, 0x73, 0x65, 0x71, 0x75, 0x65, 0x6E, 0x74, 0x69, 0x61, 0x6C, 0x5F, 0x31, 0x2F, 0x71, 0x75, 0x61, 0x6E, 0x74, 0x5F, 0x63, 0x6F, 0x6E, 0x76, 0x32, 0x64, 0x5F, 0x37, 0x2F, 0x43, 0x6F, 0x6E, 0x76, 0x32, 0x44, 0x3B, 0x73, 0x65, 0x71, 0x75, 0x65, 0x6E, 0x74, 0x69, 0x61, 0x6C, 0x5F, 0x31, 0x2F, 0x71, 0x75, 0x61, 0x6E, 0x74, 0x5F, 0x63, 0x6F, 0x6E, 0x76, 0x32, 0x64, 0x5F, 0x37, 0x2F, 0x42, 0x69, 0x61, 0x73, 0x41, 0x64, 0x64, 0x2F, 0x52, 0x65, 0x61, 0x64, 0x56, 0x61, 0x72, 0x69, 0x61, 0x62, 0x6C, 0x65, 0x4F, 0x70, 0x2F, 0x72, 0x65, 0x73, 0x6F, 0x75, 0x72, 0x63, 0x65, 0x00, 0x00, 0x00, 0xE0, 0xDE, 0xFF, 0xFF, 0x08, 0x00, 0x00, 0x00, 0x48, 0x00, 0x00, 0x00, 0x10, 0x00, 0x00, 0x00, 0x7D, 0xA5, 0xEF, 0x3C, 0xAA, 0x27, 0x13, 0x3D, 0x59, 0x2F, 0xD4, 0x3C, 0x68, 0x30, 0x09, 0x3D, 0x42, 0x7D, 0xF7, 0x3C, 0x82, 0x24, 0x1B, 0x3D, 0x18, 0x56, 0xF5, 0x3C, 0xAE, 0x9A, 0xFF, 0x3C, 0x9D, 0x5C, 0xF2, 0x3C, 0x6D, 0xBD, 0x02, 0x3D, 0x4A, 0xBA, 0xDA, 0x3C, 0xF7, 0x67, 0x00, 0x3D, 0x04, 0x32, 0x11, 0x3D, 0x01, 0xFB, 0xF5, 0x3C, 0x31, 0x9E, 0xEB, 0x3C, 0x49, 0xA5, 0xE5, 0x3C, 0x10, 0x00, 0x00, 0x00, 0x00, 0x00, 0x00, 0x00, 0x00, 0x00, 0x00, 0x00, 0x00, 0x00, 0x00, 0x00, 0x00, 0x00, 0x00, 0x00, 0x00, 0x00, 0x00, 0x00, 0x00, 0x00, 0x00, 0x00, 0x00, 0x00, 0x00, 0x00, 0x00, 0x00, 0x00, 0x00, 0x00, 0x00, 0x00, 0x00, 0x00, 0x00, 0x00, 0x00, 0x00, 0x00, 0x00, 0x00, 0x00, 0x00, 0x00, 0x00, 0x00, 0x00, 0x00, 0x00, 0x00, 0x00, 0x00, 0x00, 0x00, 0x00, 0x00, 0x00, 0x00, 0x00, 0x00, 0x00, 0x00, 0x00, 0x00, 0x00, 0x00, 0x00, 0x00, 0x00, 0x00, 0x00, 0x00, 0x00, 0x00, 0x00, 0x00, 0x00, 0x00, 0x00, 0x00, 0x00, 0x00, 0x00, 0x00, 0x00, 0x00, 0x00, 0x00, 0x00, 0x00, 0x00, 0x00, 0x00, 0x00, 0x00, 0x00, 0x00, 0x00, 0x00, 0x00, 0x00, 0x00, 0x00, 0x00, 0x00, 0x00, 0x00, 0x00, 0x00, 0x00, 0x00, 0x00, 0x00, 0x00, 0x00, 0x00, 0x00, 0x00, 0x00, 0x00, 0x00, 0x00, 0x00, 0x00, 0x00, 0x82, 0xDF, 0xFF, 0xFF, 0x04, 0x00, 0x00, 0x00, 0x00, 0x09, 0x00, 0x00, 0x11, 0x2E, 0x9E, 0x0C, 0xB2, 0x00, 0xA6, 0xC4, 0x28, 0x37, 0xB2, 0x07, 0x08, 0x0F, 0x44, 0xC2, 0x56, 0xC4, 0x0F, 0x0F, 0x4A, 0xA5, 0xD2, 0x92, 0x13, 0x0F, 0xA5, 0xE6, 0x90, 0x38, 0xDB, 0x58, 0xFA, 0xBF, 0xC0, 0xDA, 0xFF, 0x9F, 0xE6, 0xE0, 0x37, 0x89, 0x2B, 0x54, 0x05, 0x35, 0x87, 0x37, 0x36, 0xCF, 0xCE, 0xE6, 0x56, 0x32, 0x44, 0x05, 0xE5, 0x20, 0xD1, 0x34, 0xA4, 0xD7, 0x27, 0xE7, 0xE3, 0x4D, 0xC6, 0xF0, 0xD3, 0x9D, 0x4A, 0x52, 0xDC, 0xF6, 0xAD, 0xC8, 0x37, 0x46, 0x03, 0x17, 0x1C, 0x8C, 0x59, 0x23, 0x50, 0xF9, 0x59, 0x4B, 0x13, 0xE4, 0x08, 0x4B, 0xB4, 0xD0, 0xEF, 0x54, 0x0E, 0x6F, 0xBD, 0xD4, 0xB8, 0x93, 0x23, 0x43, 0x19, 0xF1, 0x16, 0x37, 0xCE, 0x27, 0x13, 0x20, 0x06, 0x5B, 0x1A, 0xB9, 0x2A, 0x81, 0xF7, 0xE0, 0x9C, 0xE7, 0x19, 0xC1, 0x20, 0x66, 0xD5, 0x16, 0xF2, 0x9A, 0x98, 0x1F, 0x3A, 0x92, 0xFC, 0xB6, 0xEC, 0x64, 0x2B, 0xDA, 0xDB, 0x9E, 0xEF, 0x45, 0xED, 0x07, 0x28, 0xF4, 0xB1, 0xE3, 0x2E, 0xCF, 0x2E, 0xA1, 0x47, 0xB7, 0xAC, 0x22, 0x01, 0xD6, 0xF4, 0xA8, 0xF9, 0xFA, 0x4B, 0x08, 0x02, 0xB5, 0xD8, 0xBB, 0xEF, 0x30, 0xC3, 0x14, 0xA9, 0xDF, 0x10, 0x2F, 0xDC, 0x9D, 0xA4, 0xC5, 0xAB, 0x26, 0x12, 0xD3, 0xE0, 0xBF, 0xE0, 0xC3, 0x0E, 0xB8, 0x1F, 0xBC, 0x30, 0x49, 0xF2, 0xA7, 0x15, 0x2E, 0xB4, 0xF6, 0xED, 0xC6, 0xE5, 0xF6, 0xB1, 0x04, 0xFA, 0x3E, 0xC6, 0x10, 0x2A, 0x18, 0xC5, 0xB5, 0xC9, 0x4E, 0x46, 0xCA, 0x81, 0xBB, 0x1D, 0xCD, 0x0E, 0xF6, 0xB7, 0xDA, 0x29, 0xAD, 0x2B, 0xD0, 0x1F, 0xDB, 0xC3, 0xBC, 0xF2, 0xEE, 0x3B, 0x3A, 0xC1, 0x1B, 0xE8, 0x0D, 0x2A, 0x0B, 0x34, 0x24, 0xC2, 0xF0, 0x0D, 0x0C, 0x07, 0xD0, 0xE8, 0x03, 0x26, 0x2B, 0x3C, 0x00, 0x0B, 0xE8, 0x23, 0x19, 0x17, 0xD0, 0xDC, 0x07, 0x21, 0x1B, 0xEF, 0x41, 0xA2, 0xA4, 0x11, 0xBC, 0x2E, 0xF5, 0x0E, 0xC9, 0x35, 0x9B, 0x2D, 0xC6, 0x9B, 0xBC, 0x2F, 0x0B, 0x07, 0x0C, 0x1B, 0xDB, 0x30, 0xF3, 0x1E, 0xEC, 0xDE, 0xEE, 0xB9, 0x04, 0x0A, 0xF0, 0x1E, 0x1E, 0x21, 0x82, 0x1E, 0xA9, 0xC8, 0xFE, 0x81, 0x10, 0xCB, 0x42, 0x0C, 0xCA, 0xD8, 0x2A, 0x1B, 0x68, 0x48, 0x2C, 0xF7, 0xF9, 0x38, 0x01, 0x1E, 0xB4, 0xC5, 0xDB, 0x3A, 0x30, 0xBD, 0x19, 0xDD, 0x04, 0x00, 0x08, 0xE6, 0xDD, 0x1E, 0x0E, 0xD3, 0xEC, 0x0B, 0x49, 0x1F, 0x9D, 0xE0, 0xE8, 0xE4, 0xC0, 0x2C, 0x13, 0x11, 0xDF, 0x17, 0xFE, 0xF2, 0x37, 0xEF, 0x4F, 0x19, 0xE5, 0xED, 0xC1, 0xC3, 0x5F, 0x40, 0xAD, 0xCC, 0xBD, 0x42, 0x0B, 0xDC, 0xDC, 0x38, 0x5C, 0x2E, 0xC9, 0x09, 0x2D, 0xED, 0x3E, 0x21, 0x0D, 0xFE, 0x14, 0xF3, 0xFD, 0x98, 0x03, 0x2D, 0xA4, 0x41, 0xC9, 0x08, 0xE1, 0xB8, 0x48, 0xE7, 0xC3, 0xEC, 0xD2, 0x03, 0xEF, 0x8A, 0xD6, 0xAF, 0x83, 0x25, 0xD3, 0x2C, 0x8C, 0x45, 0xE5, 0xE9, 0xB8, 0x13, 0x06, 0xA0, 0x0E, 0x25, 0xAE, 0xFD, 0x98, 0xFE, 0xCF, 0x13, 0xC3, 0x0F, 0x05, 0x51, 0x0E, 0xE5, 0xE5, 0xBF, 0x13, 0x4E, 0x03, 0xC7, 0xC8, 0xD1, 0xAD, 0xB0, 0xB1, 0xF3, 0xCF, 0xEE, 0x9D, 0x9F, 0x0B, 0xC1, 0xA9, 0x21, 0x14, 0xAF, 0xC6, 0xA4, 0xC6, 0x94, 0x93, 0x30, 0x32, 0x1E, 0xE7, 0xD5, 0x12, 0x1B, 0xE5, 0xCF, 0x4A, 0xE3, 0xC0, 0x1D, 0x4E, 0x1B, 0x13, 0xDB, 0xFB, 0xF7, 0x23, 0x37, 0xA5, 0x16, 0xFA, 0x1E, 0xD1, 0x07, 0xE5, 0x09, 0xC3, 0xC5, 0xFE, 0x34, 0xBD, 0x07, 0xC2, 0x43, 0x81, 0xEA, 0xE0, 0x9A, 0xBB, 0xB9, 0xBE, 0xAA, 0xE8, 0xBD, 0x13, 0xDF, 0x12, 0xD9, 0xEA, 0x0B, 0x38, 0xA6, 0x1E, 0x1C, 0xEB, 0xC3, 0xD3, 0x1D, 0xB5, 0x4D, 0x04, 0x21, 0xC3, 0x18, 0x1B, 0x13, 0x2D, 0xE1, 0x0F, 0x3A, 0xAE, 0x16, 0xF8, 0x05, 0x04, 0x14, 0xB9, 0xA8, 0x48, 0x8A, 0xB5, 0x2F, 0xFF, 0x04, 0xC9, 0xBB, 0x12, 0x16, 0x1F, 0xC1, 0x36, 0x0F, 0xAB, 0x10, 0x1F, 0xF6, 0xD1, 0xEA, 0xB9, 0xB2, 0xF0, 0xE8, 0xE5, 0xDC, 0xE6, 0x00, 0xD0, 0x20, 0xA1, 0xA2, 0xBF, 0x21, 0x03, 0x2D, 0xB9, 0x9D, 0x0F, 0x4C, 0xA5, 0xF1, 0x9E, 0x4D, 0xB1, 0xC8, 0x23, 0x58, 0x94, 0xCE, 0xC2, 0x8C, 0x58, 0xB5, 0x8A, 0x27, 0x9B, 0xC9, 0xED, 0x2C, 0xFC, 0x28, 0xD4, 0xD1, 0x2D, 0xD8, 0xC9, 0x15, 0x24, 0x04, 0xAC, 0x31, 0x0E, 0x1E, 0xA0, 0x07, 0x35, 0xFD, 0xC7, 0x34, 0xD9, 0x01, 0x49, 0x34, 0xC0, 0x48, 0xD9, 0x86, 0xD1, 0x8F, 0x16, 0x07, 0x3D, 0xEA, 0x08, 0xA5, 0xF2, 0xFC, 0x97, 0xBC, 0x4F, 0x89, 0xC3, 0x28, 0xD7, 0xC3, 0xBB, 0xD4, 0xE6, 0x19, 0x47, 0xF9, 0x30, 0xA6, 0xAD, 0x0F, 0xB2, 0xEF, 0xEE, 0xEE, 0xFB, 0xAF, 0xF2, 0xBB, 0x4E, 0x81, 0x49, 0xE2, 0xB2, 0x52, 0xCD, 0xD7, 0x20, 0x46, 0x09, 0xCF, 0x3D, 0xAE, 0x18, 0x3E, 0x27, 0xB6, 0xCF, 0x1B, 0x2B, 0xC2, 0x4A, 0xFF, 0x3E, 0xE9, 0xC2, 0xEE, 0xE9, 0xA4, 0xBD, 0xFF, 0xB0, 0xDC, 0x38, 0x50, 0xEB, 0x2E, 0xAE, 0xF4, 0x3F, 0x1F, 0xF5, 0xD5, 0x00, 0x3C, 0x09, 0x59, 0xA0, 0xDA, 0xD6, 0x4E, 0x2E, 0x4B, 0xBC, 0x02, 0x01, 0xDB, 0xAD, 0xD9, 0x37, 0xEC, 0xDB, 0x06, 0x2F, 0xCE, 0xDE, 0x0E, 0xFF, 0x13, 0xE8, 0x33, 0xD9, 0x36, 0xE2, 0x0B, 0x38, 0x30, 0xF1, 0xEC, 0x13, 0x15, 0xA4, 0xB4, 0xAC, 0x29, 0x09, 0x2E, 0x81, 0x19, 0xC6, 0xD3, 0xA9, 0x15, 0x40, 0xF7, 0xCD, 0xFF, 0xF1, 0xB7, 0x2A, 0x17, 0x44, 0xBF, 0x13, 0xFF, 0xE8, 0xCB, 0xAD, 0x0D, 0x37, 0xAD, 0x3F, 0xDD, 0x35, 0xE1, 0x1F, 0xEE, 0xDB, 0x22, 0xC1, 0xF8, 0xBC, 0xCB, 0x16, 0xD4, 0xBA, 0xA7, 0x1E, 0x00, 0x2F, 0x27, 0xEF, 0xB1, 0xF9, 0xEC, 0xBF, 0xEA, 0xF8, 0x19, 0x1E, 0x0E, 0x1E, 0x29, 0xCB, 0xE3, 0xD5, 0xFB, 0xF8, 0xBC, 0xFE, 0xB2, 0x0A, 0xBB, 0x13, 0xCC, 0x3A, 0x9D, 0xA4, 0xAD, 0xBC, 0xB9, 0x0B, 0x21, 0x33, 0x3A, 0xC6, 0xE1, 0x95, 0x0B, 0x9A, 0xC4, 0x25, 0xCF, 0x14, 0xC1, 0x25, 0xB4, 0x24, 0x13, 0xAF, 0x0B, 0x1D, 0x2F, 0xC6, 0xF8, 0x12, 0xD7, 0x0C, 0xF7, 0x09, 0xAB, 0x3C, 0x30, 0xD3, 0xEB, 0x42, 0x21, 0x96, 0x5E, 0xCA, 0xB7, 0xCD, 0xA1, 0x1F, 0xAC, 0x32, 0xBF, 0x2E, 0xC2, 0xDE, 0xC1, 0x64, 0x4A, 0x95, 0x1B, 0xD3, 0xF0, 0xB8, 0xF5, 0x2E, 0xE4, 0xBF, 0x5A, 0xD8, 0xF0, 0x57, 0x2E, 0x04, 0x35, 0x33, 0x2A, 0x95, 0xC3, 0x02, 0x04, 0xF1, 0x00, 0x49, 0xE1, 0xDE, 0xD0, 0xB8, 0x31, 0xDF, 0x93, 0xC8, 0x19, 0x39, 0x88, 0xE1, 0x95, 0x35, 0x23, 0x29, 0xFC, 0x86, 0x50, 0x2A, 0x30, 0x4D, 0xB1, 0xD0, 0xE2, 0xF4, 0xF9, 0xD0, 0xD6, 0xA7, 0xF0, 0x14, 0xF6, 0xFD, 0xC3, 0x95, 0xF0, 0x22, 0xC6, 0x1A, 0x3D, 0xB6, 0xAC, 0xBA, 0xD0, 0x18, 0xE9, 0xED, 0x40, 0x8C, 0x3F, 0xAB, 0xDC, 0x13, 0x2F, 0x19, 0x12, 0xD8, 0xE9, 0xF5, 0xB2, 0xCF, 0xA1, 0xE6, 0x0E, 0xD9, 0x0C, 0xE5, 0x43, 0x2D, 0xF3, 0x43, 0x36, 0x01, 0xD1, 0xAD, 0x23, 0xEB, 0x8B, 0x9E, 0x03, 0x8E, 0xE4, 0x15, 0xB1, 0xFE, 0x3F, 0x81, 0x3F, 0xCA, 0x48, 0x0B, 0xD9, 0x99, 0xD3, 0x1E, 0xEA, 0x0B, 0x4B, 0x3B, 0x24, 0x52, 0xE9, 0x1A, 0xEC, 0x19, 0x50, 0xF6, 0x9A, 0x06, 0xFC, 0xAC, 0x27, 0x9F, 0x15, 0x28, 0xA5, 0xC0, 0x35, 0x0B, 0x02, 0x49, 0xE3, 0xAB, 0x9D, 0xC5, 0x98, 0x3D, 0x34, 0x02, 0xEA, 0xD2, 0x0D, 0xEA, 0xAA, 0xCC, 0xCE, 0xF5, 0x28, 0xCB, 0xB0, 0x10, 0xC7, 0xB4, 0x91, 0xB9, 0x83, 0xF5, 0x46, 0xF3, 0xA4, 0x18, 0x43, 0xF0, 0xCB, 0x95, 0x92, 0xA6, 0xF6, 0x09, 0xC5, 0xFE, 0xFC, 0xFC, 0x4B, 0x40, 0x52, 0x30, 0x0D, 0xA6, 0x8D, 0x81, 0xB1, 0x01, 0x4C, 0x46, 0x0D, 0xDF, 0x03, 0xE0, 0x92, 0x3D, 0x14, 0xFE, 0x29, 0xB0, 0xD8, 0x03, 0x37, 0x0B, 0x93, 0xF8, 0x3B, 0xA3, 0xC7, 0xD5, 0xBC, 0xDF, 0x51, 0x52, 0x9A, 0xF5, 0xFB, 0x9B, 0xAA, 0xBA, 0x47, 0xA5, 0xF6, 0xFB, 0x9E, 0xF8, 0x52, 0x2B, 0x58, 0x33, 0x1C, 0x90, 0xFF, 0xCD, 0xA2, 0x4B, 0x13, 0x3B, 0xF6, 0xC3, 0x06, 0xDC, 0x2F, 0x18, 0x51, 0x97, 0x2E, 0xE4, 0x06, 0x09, 0x0C, 0xFD, 0xE0, 0xDE, 0x45, 0xB9, 0x32, 0xE1, 0x3A, 0x01, 0xCD, 0x46, 0xB7, 0xDF, 0x98, 0x12, 0xF4, 0x0E, 0x37, 0xF6, 0xD6, 0x87, 0xD5, 0xDA, 0xFE, 0xC2, 0x2C, 0xA4, 0xDE, 0x01, 0xEA, 0xF8, 0x57, 0xB3, 0xA0, 0x43, 0x50, 0xC2, 0x81, 0xC2, 0x36, 0xDF, 0xA3, 0xBC, 0xB3, 0xBD, 0x28, 0x0F, 0xE4, 0x18, 0x37, 0x1E, 0x3E, 0x2C, 0xB1, 0x9A, 0xC8, 0x64, 0xAF, 0xE8, 0xCD, 0xC7, 0xC3, 0xF5, 0x9E, 0x45, 0xE7, 0x30, 0x1C, 0xE6, 0xAA, 0x1C, 0xE1, 0xBB, 0xDB, 0xEA, 0xEA, 0xF3, 0x53, 0xCB, 0xD8, 0xBB, 0xC1, 0xB2, 0xEF, 0x00, 0xE8, 0xE0, 0xF0, 0x20, 0x18, 0xCF, 0xFB, 0x08, 0xFA, 0xB1, 0xA0, 0x46, 0x1C, 0xCD, 0xF8, 0x03, 0xE8, 0xB4, 0x51, 0xD9, 0x27, 0xB6, 0xBF, 0x0A, 0xC4, 0xE7, 0xEA, 0xFA, 0xF2, 0x2F, 0x3F, 0xBD, 0x29, 0x17, 0xB3, 0xB5, 0xE0, 0x39, 0x9B, 0xF3, 0xA8, 0xF5, 0xB4, 0x12, 0xDC, 0x0F, 0x00, 0x0C, 0xFD, 0xAE, 0xAA, 0x0C, 0xF7, 0xAC, 0xC5, 0xE7, 0x51, 0xEC, 0x97, 0xC8, 0x55, 0x0B, 0x0C, 0xAC, 0x3C, 0xEC, 0x46, 0x0B, 0xF1, 0x1E, 0xEE, 0xE9, 0xB1, 0x0A, 0x32, 0x17, 0x1D, 0x01, 0x4A, 0x23, 0xAE, 0x0C, 0xC3, 0x47, 0xC0, 0xFE, 0xC7, 0xAA, 0x12, 0xF7, 0xF1, 0xEC, 0xBD, 0x1A, 0xF4, 0x0A, 0x18, 0x30, 0x07, 0x6A, 0xB7, 0x94, 0x1B, 0xF7, 0xAE, 0x02, 0x04, 0x96, 0xBC, 0xA9, 0x18, 0xB8, 0xFF, 0x34, 0x9B, 0xB0, 0x2C, 0xF5, 0xFA, 0xCE, 0x2E, 0x08, 0x28, 0x17, 0xE8, 0x37, 0xCD, 0x1D, 0xBD, 0x27, 0x3A, 0x2A, 0x04, 0xEA, 0xA4, 0xFF, 0x49, 0xB2, 0x9A, 0x92, 0x1C, 0xF6, 0xF5, 0x3B, 0x8F, 0xA5, 0x1B, 0xF8, 0xE8, 0x81, 0x3B, 0xE6, 0x94, 0xE6, 0xE1, 0xDA, 0xD7, 0x31, 0xA6, 0x55, 0x20, 0x29, 0x33, 0x54, 0xE9, 0xC2, 0xF8, 0x04, 0xB6, 0xB8, 0xA2, 0x10, 0x9C, 0xEB, 0x3F, 0x14, 0xC6, 0xD1, 0xB0, 0x4F, 0x28, 0xAB, 0x3B, 0xF3, 0x25, 0xE6, 0xBA, 0x36, 0x34, 0xE6, 0x8F, 0x0E, 0x0F, 0x07, 0x4F, 0x94, 0xE6, 0x23, 0xA4, 0x0A, 0xD2, 0xF2, 0xAB, 0xAE, 0x03, 0xCE, 0x0B, 0x4A, 0x16, 0x17, 0x17, 0xAA, 0xA4, 0x1C, 0x29, 0x29, 0x11, 0x01, 0xDD, 0x95, 0x81, 0x59, 0x8F, 0x3F, 0x0C, 0xC8, 0x35, 0x04, 0xB2, 0xA6, 0x92, 0x71, 0x1D, 0xBD, 0x4A, 0x05, 0xA5, 0x8D, 0xC2, 0xFC, 0x38, 0xF4, 0x33, 0x8F, 0x4F, 0x94, 0x19, 0x65, 0x4F, 0xD8, 0xBF, 0x25, 0xA1, 0x18, 0x51, 0xB1, 0xF7, 0x63, 0x0C, 0x3B, 0xED, 0xF0, 0xAA, 0x0C, 0x57, 0xD8, 0xAE, 0x2C, 0x3A, 0x8B, 0x5C, 0xCB, 0x1D, 0xE8, 0x50, 0x51, 0x62, 0xA4, 0xA7, 0xE7, 0xC2, 0xD2, 0x2B, 0x5F, 0x5B, 0x58, 0x4C, 0x22, 0x95, 0x26, 0xB4, 0x0B, 0xA9, 0xC1, 0x5A, 0x6F, 0xFF, 0x29, 0xA0, 0xB3, 0x35, 0x96, 0x2A, 0x35, 0x0D, 0x15, 0x60, 0x59, 0xCB, 0xC3, 0xB4, 0x25, 0x46, 0x18, 0x36, 0x38, 0x10, 0xAE, 0x37, 0xF2, 0xD5, 0x36, 0x1E, 0x26, 0xFA, 0x0E, 0xE3, 0x0D, 0x6F, 0xBE, 0x4F, 0x42, 0xEF, 0x66, 0xD5, 0x45, 0x51, 0xD9, 0xA9, 0x48, 0xED, 0xC1, 0xA2, 0x5A, 0x6B, 0xB5, 0xD5, 0xF1, 0x2E, 0x61, 0xD4, 0xA3, 0xA1, 0xC0, 0x67, 0xE8, 0x22, 0x33, 0xDE, 0xE7, 0x0A, 0xE9, 0xF2, 0x04, 0x0D, 0xB7, 0x2A, 0xF8, 0xAE, 0x1D, 0xCD, 0x0F, 0x05, 0xBA, 0x35, 0x19, 0xF3, 0xF2, 0x34, 0xA2, 0xAC, 0x0E, 0xCC, 0x10, 0x1A, 0xA3, 0xE2, 0x2B, 0x94, 0xCF, 0xC7, 0xAD, 0xBA, 0xDD, 0xFD, 0xBD, 0x33, 0xD5, 0x23, 0xAA, 0xA6, 0xD1, 0x16, 0xE5, 0xDC, 0xAD, 0xD5, 0xA7, 0x05, 0x13, 0x3E, 0xCE, 0x23, 0x0E, 0x53, 0x3B, 0xC9, 0x3C, 0x3B, 0x2F, 0x44, 0x10, 0xD8, 0x97, 0x4B, 0xE5, 0x98, 0xE6, 0xDE, 0xFB, 0x28, 0x2C, 0x4F, 0x00, 0x9F, 0x65, 0x94, 0xEB, 0x18, 0xDF, 0x62, 0xF5, 0xD4, 0x06, 0xF8, 0x02, 0x5E, 0xE6, 0x53, 0xC0, 0x3A, 0x23, 0xE4, 0xA4, 0xE0, 0xF8, 0x97, 0xD8, 0xD1, 0x31, 0x4B, 0x03, 0x0F, 0x02, 0xE0, 0xA5, 0xA6, 0xFC, 0x29, 0xC0, 0xA4, 0xEB, 0xA6, 0xE3, 0x25, 0x38, 0xED, 0xEC, 0x2C, 0x17, 0x4D, 0x40, 0x51, 0xF7, 0x38, 0xD7, 0xB0, 0xB6, 0x5A, 0x04, 0xB8, 0x1F, 0x95, 0x55, 0xE6, 0x3E, 0x81, 0x23, 0x22, 0x2C, 0xD6, 0x01, 0x0A, 0x19, 0x9B, 0xC0, 0x22, 0x36, 0x00, 0x36, 0xE9, 0xC5, 0x15, 0x48, 0x0C, 0x4D, 0xCB, 0xD9, 0x17, 0xC7, 0x17, 0xCB, 0xE5, 0x24, 0x3C, 0x39, 0x47, 0x32, 0xCF, 0x08, 0xA3, 0xE2, 0xD7, 0xDB, 0x2C, 0x03, 0x0C, 0xF1, 0xEA, 0xDD, 0x9F, 0x05, 0xF0, 0xC8, 0x01, 0xF4, 0x04, 0x49, 0x1F, 0xD3, 0x40, 0xE6, 0xBC, 0xF2, 0xD1, 0x20, 0xEF, 0x3E, 0x17, 0x27, 0xCA, 0xC3, 0x34, 0xC6, 0xE5, 0xB6, 0xBB, 0xED, 0x0B, 0xCE, 0x2F, 0x05, 0x06, 0xF0, 0xD1, 0xC0, 0xE0, 0x27, 0x33, 0x21, 0x9C, 0x2A, 0x02, 0xE8, 0xAC, 0x11, 0x2A, 0x16, 0x30, 0xAC, 0x3C, 0xA0, 0xE0, 0x37, 0x32, 0x0E, 0x39, 0x40, 0xEB, 0x9F, 0xE9, 0xB0, 0x29, 0x97, 0xE5, 0xC7, 0xDB, 0xF8, 0x1C, 0xBE, 0x28, 0x01, 0x2B, 0xBC, 0xBC, 0xB4, 0x15, 0xD3, 0x41, 0xAD, 0xF5, 0x17, 0x05, 0xD5, 0x05, 0x0D, 0x3B, 0xDB, 0x3D, 0x3D, 0xFA, 0x81, 0x14, 0xFB, 0x30, 0x28, 0xC3, 0xCA, 0xD4, 0x1A, 0x07, 0x07, 0x17, 0xD7, 0xEC, 0x13, 0xDE, 0x3F, 0x9B, 0x9E, 0xB5, 0x2E, 0xB0, 0x1B, 0x3B, 0x2E, 0x95, 0x56, 0x22, 0x53, 0x15, 0x97, 0xA3, 0xEE, 0x2D, 0xE7, 0x46, 0xD4, 0xC8, 0x41, 0x4C, 0x98, 0xCB, 0x38, 0xD6, 0x4D, 0x24, 0x10, 0x14, 0x8A, 0xED, 0xA4, 0xF7, 0x52, 0xB1, 0x4C, 0xF0, 0x46, 0x02, 0x37, 0x02, 0x03, 0xF7, 0x37, 0xFC, 0xD0, 0x2D, 0x12, 0xC3, 0xCA, 0xB7, 0x0B, 0x3D, 0x0A, 0x18, 0xEB, 0xDA, 0xB5, 0x32, 0x3D, 0x25, 0x2F, 0xA5, 0xFA, 0x2F, 0x03, 0x0D, 0xA3, 0x05, 0x97, 0x1B, 0xC8, 0x28, 0x06, 0x3C, 0xB9, 0x08, 0x00, 0xCB, 0xF9, 0x3E, 0xBE, 0xB2, 0xF2, 0xBE, 0x18, 0x32, 0x30, 0xB0, 0x00, 0xC5, 0xE8, 0x29, 0x81, 0x22, 0x0C, 0x9F, 0xB5, 0x0B, 0x13, 0xEF, 0xFC, 0xDA, 0x96, 0x0B, 0xD5, 0x46, 0xFC, 0xCD, 0xE5, 0xDF, 0x00, 0x2B, 0xDD, 0x45, 0xBA, 0xE6, 0xE7, 0xFC, 0xEB, 0xC2, 0xE6, 0x2A, 0xB9, 0x0A, 0x22, 0x50, 0x03, 0x2A, 0x2C, 0xBF, 0xEF, 0x2E, 0xC2, 0x1F, 0x0E, 0xF0, 0x49, 0xE1, 0xA1, 0x27, 0xBE, 0xC9, 0xE4, 0x37, 0x36, 0xF0, 0x0D, 0x5F, 0x11, 0x19, 0xA8, 0xD0, 0x63, 0xE3, 0x18, 0x25, 0xCE, 0x05, 0x0A, 0x25, 0x96, 0xC8, 0x2F, 0x9D, 0x4C, 0xA1, 0x39, 0x29, 0x61, 0x54, 0xF0, 0x09, 0x18, 0x95, 0xAB, 0xB0, 0xAF, 0xC3, 0xDF, 0xAD, 0xEF, 0x52, 0x00, 0x1F, 0xEB, 0x53, 0x94, 0x4E, 0x35, 0xE7, 0xBC, 0x49, 0xCC, 0xF9, 0xB5, 0x44, 0x8C, 0x9E, 0xB0, 0xC0, 0x9F, 0xBC, 0xB3, 0x4E, 0x9C, 0xE5, 0x8C, 0xFD, 0x9E, 0x1F, 0x09, 0x36, 0xFC, 0x9C, 0x2F, 0xEA, 0xA3, 0x8B, 0xED, 0xF6, 0xEB, 0xC4, 0xFE, 0xB4, 0x44, 0x92, 0xD0, 0xB0, 0x9D, 0x19, 0x5E, 0xA9, 0xA1, 0x85, 0x20, 0xA0, 0x92, 0x32, 0xEC, 0x81, 0xE7, 0x3B, 0x4A, 0xAC, 0xF5, 0xC1, 0xE1, 0xA8, 0x52, 0xA4, 0x2D, 0xA1, 0x58, 0xB0, 0x04, 0x22, 0x54, 0xCC, 0xF5, 0x1A, 0x07, 0xE7, 0x20, 0xA1, 0x1D, 0x8C, 0xF3, 0x37, 0x02, 0x32, 0xE6, 0xDE, 0x27, 0x40, 0xC5, 0xA2, 0x3B, 0xA6, 0x1E, 0xF3, 0x11, 0x03, 0x61, 0xD5, 0xD2, 0x98, 0x92, 0x33, 0x3F, 0xBF, 0xF0, 0x06, 0xD6, 0xC3, 0xD4, 0x3E, 0xCB, 0x4F, 0xFA, 0xE9, 0x1E, 0x59, 0xE5, 0xA7, 0x55, 0xA1, 0xBA, 0x3F, 0xBB, 0x8D, 0xD2, 0xAE, 0x89, 0xDB, 0x33, 0xE8, 0xB6, 0x13, 0xFB, 0xBF, 0xA1, 0xC4, 0x1F, 0x5C, 0x58, 0xE5, 0x53, 0x64, 0x0E, 0x3B, 0xA1, 0x9F, 0x22, 0x96, 0x1E, 0x1A, 0xA1, 0x13, 0x1D, 0x06, 0xFE, 0xED, 0x02, 0xEE, 0x81, 0x2C, 0xD8, 0xD6, 0x31, 0x53, 0x04, 0x1A, 0x2D, 0x09, 0x93, 0xB6, 0xEB, 0x38, 0xB0, 0x54, 0x1D, 0xBB, 0xA3, 0xD8, 0x9A, 0x04, 0xAB, 0x8F, 0xB6, 0x2A, 0x5E, 0x3E, 0xD6, 0x1A, 0x21, 0xE6, 0x3D, 0x54, 0x16, 0x83, 0x13, 0x1C, 0x02, 0x40, 0xAB, 0xEB, 0xE7, 0xCB, 0xE3, 0xB3, 0x46, 0x87, 0xFE, 0x15, 0xC5, 0x1A, 0x9E, 0xCF, 0x9F, 0x53, 0x9A, 0xB5, 0x0B, 0xB6, 0xB2, 0xF8, 0xC7, 0x01, 0xE7, 0xF4, 0x1C, 0xB9, 0xB0, 0xBF, 0xCE, 0xC7, 0x39, 0x09, 0xDD, 0xB7, 0xDB, 0xE0, 0xAF, 0xD6, 0x41, 0x72, 0xE8, 0xFF, 0xFF, 0x00, 0x00, 0x00, 0x09, 0x10, 0x00, 0x00, 0x00, 0x10, 0x00, 0x00, 0x00, 0x1C, 0x00, 0x00, 0x00, 0x8C, 0x00, 0x00, 0x00, 0x04, 0x00, 0x00, 0x00, 0x10, 0x00, 0x00, 0x00, 0x03, 0x00, 0x00, 0x00, 0x03, 0x00, 0x00, 0x00, 0x10, 0x00, 0x00, 0x00, 0x6F, 0x00, 0x00, 0x00, 0x73, 0x65, 0x71, 0x75, 0x65, 0x6E, 0x74, 0x69, 0x61, 0x6C, 0x5F, 0x31, 0x2F, 0x71, 0x75, 0x61, 0x6E, 0x74, 0x5F, 0x63, 0x6F, 0x6E, 0x76, 0x32, 0x64, 0x5F, 0x37, 0x2F, 0x43, 0x6F, 0x6E, 0x76, 0x32, 0x44, 0x3B, 0x73, 0x65, 0x71, 0x75, 0x65, 0x6E, 0x74, 0x69, 0x61, 0x6C, 0x5F, 0x31, 0x2F, 0x71, 0x75, 0x61, 0x6E, 0x74, 0x5F, 0x63, 0x6F, 0x6E, 0x76, 0x32, 0x64, 0x5F, 0x37, 0x2F, 0x4C, 0x61, 0x73, 0x74, 0x56, 0x61, 0x6C, 0x75, 0x65, 0x51, 0x75, 0x61, 0x6E, 0x74, 0x2F, 0x46, 0x61, 0x6B, 0x65, 0x51, 0x75, 0x61, 0x6E, 0x74, 0x57, 0x69, 0x74, 0x68, 0x4D, 0x69, 0x6E, 0x4D, 0x61, 0x78, 0x56, 0x61, 0x72, 0x73, 0x50, 0x65, 0x72, 0x43, 0x68, 0x61, 0x6E, 0x6E, 0x65, 0x6C, 0x00, 0x60, 0xE9, 0xFF, 0xFF, 0x08, 0x00, 0x00, 0x00, 0x48, 0x00, 0x00, 0x00, 0x10, 0x00, 0x00, 0x00, 0x4E, 0x23, 0xAA, 0x3A, 0x49, 0xF2, 0xD0, 0x3A, 0x3A, 0xA4, 0x96, 0x3A, 0xBB, 0xCB, 0xC2, 0x3A, 0xBA, 0xB4, 0xAF, 0x3A, 0xC6, 0x49, 0xDC, 0x3A, 0x6D, 0x2D, 0xAE, 0x3A, 0x9A, 0x77, 0xB5, 0x3A, 0xD0, 0x10, 0xAC, 0x3A, 0x7E, 0xA3, 0xB9, 0x3A, 0x5C, 0x49, 0x9B, 0x3A, 0x27, 0x53, 0xB6, 0x3A, 0xFE, 0x29, 0xCE, 0x3A, 0x81, 0xA2, 0xAE, 0x3A, 0x21, 0x47, 0xA7, 0x3A, 0xAD, 0x09, 0xA3, 0x3A, 0x10, 0x00, 0x00, 0x00, 0x00, 0x00, 0x00, 0x00, 0x00, 0x00, 0x00, 0x00, 0x00, 0x00, 0x00, 0x00, 0x00, 0x00, 0x00, 0x00, 0x00, 0x00, 0x00, 0x00, 0x00, 0x00, 0x00, 0x00, 0x00, 0x00, 0x00, 0x00, 0x00, 0x00, 0x00, 0x00, 0x00, 0x00, 0x00, 0x00, 0x00, 0x00, 0x00, 0x00, 0x00, 0x00, 0x00, 0x00, 0x00, 0x00, 0x00, 0x00, 0x00, 0x00, 0x00, 0x00, 0x00, 0x00, 0x00, 0x00, 0x00, 0x00, 0x00, 0x00, 0x00, 0x00, 0x00, 0x00, 0x00, 0x00, 0x00, 0x00, 0x00, 0x00, 0x00, 0x00, 0x00, 0x00, 0x00, 0x00, 0x00, 0x00, 0x00, 0x00, 0x00, 0x00, 0x00, 0x00, 0x00, 0x00, 0x00, 0x00, 0x00, 0x00, 0x00, 0x00, 0x00, 0x00, 0x00, 0x00, 0x00, 0x00, 0x00, 0x00, 0x00, 0x00, 0x00, 0x00, 0x00, 0x00, 0x00, 0x00, 0x00, 0x00, 0x00, 0x00, 0x00, 0x00, 0x00, 0x00, 0x00, 0x00, 0x00, 0x00, 0x00, 0x00, 0x00, 0x00, 0x00, 0x00, 0x00, 0x00, 0x6E, 0xEF, 0xFF, 0xFF, 0x00, 0x00, 0x00, 0x05, 0x02, 0x00, 0x00, 0x00, 0x28, 0x00, 0x00, 0x00, 0x1C, 0x00, 0x00, 0x00, 0x04, 0x00, 0x00, 0x00, 0x5E, 0xF0, 0xFF, 0xFF, 0x02, 0x00, 0x00, 0x00, 0x02, 0x00, 0x00, 0x00, 0x02, 0x00, 0x00, 0x00, 0x02, 0x00, 0x00, 0x00, 0x01, 0x00, 0x00, 0x00, 0x0E, 0x00, 0x00, 0x00, 0x01, 0x00, 0x00, 0x00, 0x0D, 0x00, 0x00, 0x00, 0xD0, 0xEB, 0xFF, 0xFF, 0x00, 0x00, 0x00, 0x09, 0x14, 0x00, 0x00, 0x00, 0x0F, 0x00, 0x00, 0x00, 0x34, 0x00, 0x00, 0x00, 0x60, 0x00, 0x00, 0x00, 0x18, 0x00, 0x00, 0x00, 0x04, 0x00, 0x00, 0x00, 0x01, 0x00, 0x00, 0x00, 0x05, 0x00, 0x00, 0x00, 0x21, 0x00, 0x00, 0x00, 0x10, 0x00, 0x00, 0x00, 0x04, 0x00, 0x00, 0x00, 0xFF, 0xFF, 0xFF, 0xFF, 0x05, 0x00, 0x00, 0x00, 0x21, 0x00, 0x00, 0x00, 0x10, 0x00, 0x00, 0x00, 0x2A, 0x00, 0x00, 0x00, 0x73, 0x65, 0x71, 0x75, 0x65, 0x6E, 0x74, 0x69, 0x61, 0x6C, 0x5F, 0x31, 0x2F, 0x71, 0x75, 0x61, 0x6E, 0x74, 0x5F, 0x6D, 0x61, 0x78, 0x5F, 0x70, 0x6F, 0x6F, 0x6C, 0x69, 0x6E, 0x67, 0x32, 0x64, 0x5F, 0x36, 0x2F, 0x4D, 0x61, 0x78, 0x50, 0x6F, 0x6F, 0x6C, 0x00, 0x00, 0xE4, 0xEA, 0xFF, 0xFF, 0x08, 0x00, 0x00, 0x00, 0x0C, 0x00, 0x00, 0x00, 0x01, 0x00, 0x00, 0x00, 0x1D, 0x4B, 0xB4, 0x41, 0x01, 0x00, 0x00, 0x00, 0x80, 0xFF, 0xFF, 0xFF, 0xFF, 0xFF, 0xFF, 0xFF, 0x00, 0x00, 0x00, 0x00, 0x42, 0xF0, 0xFF, 0xFF, 0x00, 0x00, 0x00, 0x01, 0x01, 0x00, 0x00, 0x00, 0x24, 0x00, 0x00, 0x00, 0x18, 0x00, 0x00, 0x00, 0x04, 0x00, 0x00, 0x00, 0x34, 0xF0, 0xFF, 0xFF, 0x01, 0x00, 0x00, 0x00, 0x01, 0x00, 0x00, 0x00, 0x00, 0x00, 0x00, 0x01, 0x01, 0x00, 0x00, 0x00, 0x0D, 0x00, 0x00, 0x00, 0x03, 0x00, 0x00, 0x00, 0x0A, 0x00, 0x00, 0x00, 0x0B, 0x00, 0x00, 0x00, 0x0C, 0x00, 0x00, 0x00, 0xA8, 0xEC, 0xFF, 0xFF, 0x00, 0x00, 0x00, 0x09, 0x14, 0x00, 0x00, 0x00, 0x0E, 0x00, 0x00, 0x00, 0x34, 0x00, 0x00, 0x00, 0xD8, 0x00, 0x00, 0x00, 0x18, 0x00, 0x00, 0x00, 0x04, 0x00, 0x00, 0x00, 0x01, 0x00, 0x00, 0x00, 0x09, 0x00, 0x00, 0x00, 0x41, 0x00, 0x00, 0x00, 0x10, 0x00, 0x00, 0x00, 0x04, 0x00, 0x00, 0x00, 0xFF, 0xFF, 0xFF, 0xFF, 0x09, 0x00, 0x00, 0x00, 0x41, 0x00, 0x00, 0x00, 0x10, 0x00, 0x00, 0x00, 0xA3, 0x00, 0x00, 0x00, 0x73, 0x65, 0x71, 0x75, 0x65, 0x6E, 0x74, 0x69, 0x61, 0x6C, 0x5F, 0x31, 0x2F, 0x71, 0x75, 0x61, 0x6E, 0x74, 0x5F, 0x63, 0x6F, 0x6E, 0x76, 0x32, 0x64, 0x5F, 0x36, 0x2F, 0x52, 0x65, 0x6C, 0x75, 0x3B, 0x73, 0x65, 0x71, 0x75, 0x65, 0x6E, 0x74, 0x69, 0x61, 0x6C, 0x5F, 0x31, 0x2F, 0x71, 0x75, 0x61, 0x6E, 0x74, 0x5F, 0x63, 0x6F, 0x6E, 0x76, 0x32, 0x64, 0x5F, 0x36, 0x2F, 0x42, 0x69, 0x61, 0x73, 0x41, 0x64, 0x64, 0x3B, 0x73, 0x65, 0x71, 0x75, 0x65, 0x6E, 0x74, 0x69, 0x61, 0x6C, 0x5F, 0x31, 0x2F, 0x71, 0x75, 0x61, 0x6E, 0x74, 0x5F, 0x63, 0x6F, 0x6E, 0x76, 0x32, 0x64, 0x5F, 0x36, 0x2F, 0x43, 0x6F, 0x6E, 0x76, 0x32, 0x44, 0x3B, 0x73, 0x65, 0x71, 0x75, 0x65, 0x6E, 0x74, 0x69, 0x61, 0x6C, 0x5F, 0x31, 0x2F, 0x71, 0x75, 0x61, 0x6E, 0x74, 0x5F, 0x63, 0x6F, 0x6E, 0x76, 0x32, 0x64, 0x5F, 0x36, 0x2F, 0x42, 0x69, 0x61, 0x73, 0x41, 0x64, 0x64, 0x2F, 0x52, 0x65, 0x61, 0x64, 0x56, 0x61, 0x72, 0x69, 0x61, 0x62, 0x6C, 0x65, 0x4F, 0x70, 0x2F, 0x72, 0x65, 0x73, 0x6F, 0x75, 0x72, 0x63, 0x65, 0x00, 0x34, 0xEC, 0xFF, 0xFF, 0x08, 0x00, 0x00, 0x00, 0x0C, 0x00, 0x00, 0x00, 0x01, 0x00, 0x00, 0x00, 0x1D, 0x4B, 0xB4, 0x41, 0x01, 0x00, 0x00, 0x00, 0x80, 0xFF, 0xFF, 0xFF, 0xFF, 0xFF, 0xFF, 0xFF, 0x22, 0xEC, 0xFF, 0xFF, 0x04, 0x00, 0x00, 0x00, 0x40, 0x00, 0x00, 0x00, 0x01, 0x00, 0x00, 0x00, 0x00, 0x00, 0x00, 0x00, 0x00, 0x00, 0x00, 0x00, 0x02, 0x00, 0x00, 0x00, 0xFF, 0xFF, 0xFF, 0xFF, 0xFB, 0xFF, 0xFF, 0xFF, 0x00, 0x00, 0x00, 0x00, 0x00, 0x00, 0x00, 0x00, 0xFE, 0xFF, 0xFF, 0xFF, 0xFF, 0xFF, 0xFF, 0xFF, 0x00, 0x00, 0x00, 0x00, 0xFF, 0xFF, 0xFF, 0xFF, 0xFE, 0xFF, 0xFF, 0xFF, 0x00, 0x00, 0x00, 0x00, 0x00, 0x00, 0x00, 0x00, 0x00, 0x00, 0x00, 0x00, 0x52, 0xEC, 0xFF, 0xFF, 0x00, 0x00, 0x00, 0x02, 0x10, 0x00, 0x00, 0x00, 0x0D, 0x00, 0x00, 0x00, 0x10, 0x00, 0x00, 0x00, 0x94, 0x00, 0x00, 0x00, 0x01, 0x00, 0x00, 0x00, 0x10, 0x00, 0x00, 0x00, 0x82, 0x00, 0x00, 0x00, 0x73, 0x65, 0x71, 0x75, 0x65, 0x6E, 0x74, 0x69, 0x61, 0x6C, 0x5F, 0x31, 0x2F, 0x71, 0x75, 0x61, 0x6E, 0x74, 0x5F, 0x63, 0x6F, 0x6E, 0x76, 0x32, 0x64, 0x5F, 0x36, 0x2F, 0x42, 0x69, 0x61, 0x73, 0x41, 0x64, 0x64, 0x3B, 0x73, 0x65, 0x71, 0x75, 0x65, 0x6E, 0x74, 0x69, 0x61, 0x6C, 0x5F, 0x31, 0x2F, 0x71, 0x75, 0x61, 0x6E, 0x74, 0x5F, 0x63, 0x6F, 0x6E, 0x76, 0x32, 0x64, 0x5F, 0x36, 0x2F, 0x43, 0x6F, 0x6E, 0x76, 0x32, 0x44, 0x3B, 0x73, 0x65, 0x71, 0x75, 0x65, 0x6E, 0x74, 0x69, 0x61, 0x6C, 0x5F, 0x31, 0x2F, 0x71, 0x75, 0x61, 0x6E, 0x74, 0x5F, 0x63, 0x6F, 0x6E, 0x76, 0x32, 0x64, 0x5F, 0x36, 0x2F, 0x42, 0x69, 0x61, 0x73, 0x41, 0x64, 0x64, 0x2F, 0x52, 0x65, 0x61, 0x64, 0x56, 0x61, 0x72, 0x69, 0x61, 0x62, 0x6C, 0x65, 0x4F, 0x70, 0x2F, 0x72, 0x65, 0x73, 0x6F, 0x75, 0x72, 0x63, 0x65, 0x00, 0x00, 0x48, 0xED, 0xFF, 0xFF, 0x08, 0x00, 0x00, 0x00, 0x48, 0x00, 0x00, 0x00, 0x10, 0x00, 0x00, 0x00, 0xFD, 0x59, 0x26, 0x3E, 0xDC, 0x6D, 0x30, 0x3E, 0x7F, 0x24, 0x22, 0x3E, 0x18, 0x68, 0x36, 0x3E, 0x01, 0x81, 0x3F, 0x3E, 0x7B, 0x7E, 0x0A, 0x3E, 0x8E, 0xB9, 0x2D, 0x3E, 0x2E, 0x94, 0x2A, 0x3E, 0xB5, 0xB1, 0x27, 0x3E, 0x3B, 0x5E, 0x23, 0x3E, 0xB0, 0xFF, 0x20, 0x3E, 0x75, 0x3A, 0x33, 0x3E, 0x61, 0x80, 0x3F, 0x3E, 0x98, 0x8B, 0x32, 0x3E, 0x9D, 0x0F, 0x2F, 0x3E, 0x2B, 0xD1, 0x37, 0x3E, 0x10, 0x00, 0x00, 0x00, 0x00, 0x00, 0x00, 0x00, 0x00, 0x00, 0x00, 0x00, 0x00, 0x00, 0x00, 0x00, 0x00, 0x00, 0x00, 0x00, 0x00, 0x00, 0x00, 0x00, 0x00, 0x00, 0x00, 0x00, 0x00, 0x00, 0x00, 0x00, 0x00, 0x00, 0x00, 0x00, 0x00, 0x00, 0x00, 0x00, 0x00, 0x00, 0x00, 0x00, 0x00, 0x00, 0x00, 0x00, 0x00, 0x00, 0x00, 0x00, 0x00, 0x00, 0x00, 0x00, 0x00, 0x00, 0x00, 0x00, 0x00, 0x00, 0x00, 0x00, 0x00, 0x00, 0x00, 0x00, 0x00, 0x00, 0x00, 0x00, 0x00, 0x00, 0x00, 0x00, 0x00, 0x00, 0x00, 0x00, 0x00, 0x00, 0x00, 0x00, 0x00, 0x00, 0x00, 0x00, 0x00, 0x00, 0x00, 0x00, 0x00, 0x00, 0x00, 0x00, 0x00, 0x00, 0x00, 0x00, 0x00, 0x00, 0x00, 0x00, 0x00, 0x00, 0x00, 0x00, 0x00, 0x00, 0x00, 0x00, 0x00, 0x00, 0x00, 0x00, 0x00, 0x00, 0x00, 0x00, 0x00, 0x00, 0x00, 0x00, 0x00, 0x00, 0x00, 0x00, 0x00, 0x00, 0x00, 0x00, 0xEA, 0xED, 0xFF, 0xFF, 0x04, 0x00, 0x00, 0x00, 0x80, 0x04, 0x00, 0x00, 0x4B, 0x13, 0x4E, 0x83, 0x3B, 0xFE, 0xCF, 0xA7, 0xEB, 0x06, 0x50, 0xE5, 0xFB, 0xD2, 0xF9, 0x13, 0xD0, 0x2A, 0xF4, 0x19, 0xC8, 0xB3, 0xCC, 0xCE, 0x8E, 0x5B, 0x9A, 0xBE, 0xA2, 0x86, 0xC3, 0x08, 0x3A, 0x8A, 0xDF, 0xDA, 0xB4, 0x35, 0xC2, 0x81, 0xFD, 0xBD, 0x33, 0x8B, 0xC6, 0xC5, 0x49, 0xC7, 0xA3, 0x18, 0x28, 0xCB, 0x1C, 0x09, 0x0A, 0xD6, 0x9A, 0xDF, 0x8C, 0xFF, 0xD3, 0x31, 0x0A, 0x27, 0xEF, 0xD7, 0xBB, 0x10, 0xA5, 0x82, 0x04, 0xFF, 0xCB, 0x2B, 0xC6, 0xA3, 0x43, 0x3F, 0x1A, 0x20, 0x56, 0xD9, 0xBC, 0x19, 0x07, 0x2E, 0xF5, 0xAD, 0x62, 0x1E, 0x0E, 0xBF, 0xF3, 0x50, 0xF8, 0x12, 0xB6, 0x49, 0x00, 0xAE, 0x95, 0x4A, 0x0A, 0x1B, 0x3F, 0x8A, 0x7F, 0x7B, 0xDB, 0xFC, 0xC5, 0xC5, 0xC5, 0xF1, 0x2A, 0xC4, 0xC7, 0x1C, 0xDE, 0x23, 0xF3, 0x42, 0x1A, 0x26, 0xB9, 0x0C, 0xE5, 0xA4, 0x5A, 0x97, 0xD5, 0xD9, 0xD5, 0x31, 0x99, 0x24, 0x04, 0x29, 0x46, 0x11, 0xAE, 0x1A, 0xBE, 0x45, 0xD5, 0x02, 0xDE, 0xD6, 0xCB, 0x43, 0xB5, 0x5C, 0xDD, 0x0E, 0xA5, 0x0F, 0x0B, 0x37, 0xA3, 0xEF, 0x68, 0x25, 0xEA, 0xEB, 0x3E, 0xF4, 0x36, 0xD9, 0x98, 0xBD, 0x81, 0xE5, 0xB1, 0xAD, 0x2D, 0xF2, 0x0F, 0xDF, 0xB8, 0xE4, 0xB8, 0x45, 0x19, 0x42, 0x42, 0xA7, 0xE7, 0x8D, 0xFF, 0xED, 0xE4, 0xDF, 0x01, 0xED, 0xFD, 0x12, 0xF5, 0x25, 0x2B, 0x28, 0xE5, 0xEE, 0x29, 0x3A, 0xD3, 0x13, 0x0D, 0xFD, 0x94, 0xAA, 0xA0, 0x05, 0x9B, 0xFB, 0x96, 0x32, 0xF0, 0xDB, 0x08, 0x36, 0xA2, 0x1A, 0xDB, 0xED, 0x50, 0x36, 0xFF, 0xFD, 0x4C, 0xF0, 0x24, 0x2A, 0xBD, 0x57, 0x52, 0xDF, 0xE3, 0xE0, 0xED, 0xED, 0x2B, 0xE6, 0x46, 0x72, 0x94, 0x07, 0xED, 0xD3, 0x13, 0x8E, 0x1F, 0xE0, 0xDB, 0xDD, 0xE2, 0xB8, 0xDF, 0xB4, 0xD4, 0xCD, 0xD6, 0x23, 0x27, 0xD9, 0xDA, 0xAA, 0x5C, 0x73, 0x94, 0xED, 0xC3, 0xDE, 0xA8, 0x14, 0x97, 0x0A, 0x83, 0x9C, 0x88, 0x08, 0xAB, 0xA0, 0xC6, 0x81, 0xB8, 0x11, 0xE1, 0xB5, 0x03, 0xB3, 0xE3, 0x22, 0x28, 0xDE, 0xDF, 0xFD, 0xC4, 0x00, 0x0E, 0x02, 0xCA, 0xFD, 0x9C, 0x16, 0xD1, 0x22, 0xCC, 0xEB, 0xB7, 0xFC, 0xF7, 0xFD, 0x02, 0x28, 0x9D, 0x93, 0x31, 0x2D, 0x42, 0x96, 0x42, 0xD3, 0xD9, 0xD5, 0xAE, 0xF8, 0xB1, 0x96, 0x12, 0xC6, 0x2C, 0x0C, 0x30, 0xD3, 0x02, 0x8E, 0xDC, 0xAF, 0xFE, 0x08, 0x01, 0xF5, 0x81, 0x18, 0xD9, 0xCD, 0x1B, 0xAC, 0x13, 0xFB, 0xFA, 0xA3, 0x07, 0xB0, 0x24, 0xC2, 0xF9, 0x19, 0x1D, 0x33, 0x6A, 0x35, 0xE8, 0xBA, 0x4E, 0xF7, 0x5D, 0x25, 0xD1, 0x41, 0x39, 0x0E, 0x67, 0x81, 0x61, 0xC2, 0x58, 0x34, 0xB6, 0xD1, 0xE6, 0x24, 0xAC, 0xE4, 0xE1, 0xF5, 0xDA, 0xFD, 0x8E, 0x9B, 0x03, 0xCE, 0x72, 0x10, 0x61, 0xB1, 0x94, 0x2B, 0xB5, 0x85, 0xD3, 0xA1, 0xD0, 0xDD, 0x4D, 0x76, 0x61, 0x17, 0x14, 0x71, 0x42, 0xB7, 0x16, 0xB7, 0x4B, 0x45, 0x48, 0x2A, 0x28, 0xE7, 0x11, 0x2A, 0x03, 0x54, 0x0D, 0x66, 0xCC, 0x0B, 0xB6, 0xA9, 0x4C, 0xDE, 0x15, 0x38, 0x1D, 0x89, 0xB1, 0xB3, 0xDD, 0x2F, 0xFF, 0xAA, 0x36, 0xD6, 0xB6, 0x48, 0x85, 0x81, 0x54, 0x14, 0x9A, 0xF2, 0x1A, 0x88, 0x43, 0xCF, 0xF9, 0xE4, 0xF8, 0xF9, 0x37, 0xD2, 0x46, 0xD2, 0xD0, 0xB3, 0x61, 0xCF, 0xC0, 0x8D, 0x8E, 0x22, 0x9B, 0xCC, 0xEB, 0x01, 0xB9, 0xFC, 0xCE, 0x8A, 0x08, 0xCF, 0x1F, 0xC9, 0x27, 0x38, 0xB7, 0xAF, 0x30, 0x14, 0x00, 0xD3, 0x4C, 0x3E, 0x2D, 0x9C, 0x45, 0xDF, 0x28, 0xBA, 0xAC, 0xE2, 0x2C, 0x8C, 0xA6, 0xFE, 0xEC, 0x4C, 0xBE, 0x93, 0x23, 0xA5, 0x01, 0x8B, 0xA8, 0x30, 0x1F, 0x18, 0xBA, 0xA7, 0xF1, 0x9F, 0x19, 0xAF, 0x03, 0x9C, 0x11, 0xD5, 0xCB, 0xFB, 0x9F, 0xE5, 0xFC, 0xCB, 0x23, 0xF1, 0x2C, 0x9D, 0x5F, 0x1D, 0xC2, 0xE0, 0x35, 0x1C, 0x34, 0x0E, 0x8B, 0x1F, 0x4C, 0x84, 0xDD, 0x81, 0x15, 0x19, 0x15, 0x27, 0xAB, 0x31, 0xEA, 0x3F, 0xFB, 0x51, 0xB1, 0x01, 0xD3, 0x48, 0xD9, 0x09, 0x98, 0xD6, 0x1E, 0xD4, 0x92, 0x3A, 0xCE, 0xDA, 0x4C, 0xAA, 0xDC, 0xBE, 0x2A, 0xF7, 0x00, 0x3A, 0xA3, 0xCA, 0xC0, 0xEE, 0xB7, 0x39, 0x92, 0x30, 0xEE, 0xEF, 0x22, 0x86, 0x2D, 0x84, 0x2F, 0x1C, 0x27, 0xBC, 0xD2, 0xF7, 0xAF, 0x40, 0xAA, 0x33, 0x15, 0x7F, 0x0A, 0xEB, 0xD8, 0x44, 0x98, 0xBB, 0xB2, 0x9C, 0x1F, 0xE0, 0x8E, 0x3E, 0xBA, 0xA6, 0x56, 0x20, 0x95, 0xB7, 0x20, 0x29, 0x2E, 0x3A, 0x42, 0x50, 0xF1, 0xC7, 0xD1, 0xF5, 0xB1, 0x51, 0x8C, 0xB4, 0x44, 0xFD, 0x94, 0xD6, 0x97, 0x36, 0xCE, 0x4A, 0xB3, 0x86, 0xEE, 0xAC, 0xC4, 0xA5, 0x62, 0x21, 0xAA, 0xAE, 0xC5, 0x2F, 0x8A, 0x16, 0x1F, 0x12, 0xE9, 0x30, 0x4E, 0xE3, 0x2C, 0x09, 0x85, 0x34, 0x88, 0x11, 0xFD, 0x5F, 0xD0, 0x1D, 0xC0, 0x93, 0x1E, 0x25, 0xF7, 0x4F, 0xD9, 0x3A, 0xEA, 0xBD, 0xFF, 0xFF, 0xC8, 0xFA, 0xA6, 0x98, 0xB0, 0xA5, 0x84, 0xD6, 0x4B, 0x8C, 0x81, 0xE8, 0x21, 0xA7, 0xD8, 0x8D, 0xF1, 0x52, 0x1E, 0xE1, 0xD2, 0x9A, 0xE7, 0xE4, 0xE5, 0xB0, 0x1E, 0x29, 0x6C, 0x2F, 0xF8, 0x1D, 0xB5, 0xDA, 0x22, 0x07, 0xE0, 0x36, 0xD7, 0x15, 0xA2, 0x2E, 0xC0, 0xC8, 0x4D, 0x0B, 0x81, 0x4A, 0xEC, 0xBB, 0x18, 0xE8, 0x34, 0x01, 0x4A, 0xF2, 0x31, 0xCE, 0x8C, 0x83, 0x8D, 0x89, 0x33, 0xAF, 0x42, 0x34, 0x16, 0xE3, 0xE0, 0x27, 0xD5, 0xC5, 0x87, 0xC8, 0xCE, 0x41, 0x83, 0x02, 0xAA, 0x42, 0xE1, 0xD0, 0x13, 0xCE, 0x92, 0xA5, 0x12, 0x2D, 0x89, 0x27, 0xEA, 0x39, 0xA1, 0xD1, 0x14, 0x08, 0xDF, 0x3F, 0x05, 0xE7, 0xDB, 0x94, 0x42, 0x03, 0x0C, 0x61, 0x9D, 0xAF, 0x98, 0xCF, 0x18, 0x6F, 0xB5, 0x1C, 0xCD, 0xB3, 0xF5, 0x33, 0xDF, 0xEC, 0x49, 0xAC, 0x2C, 0xB9, 0x1C, 0xC3, 0xFF, 0x1A, 0x42, 0xCD, 0x9D, 0x9A, 0xD6, 0x11, 0x09, 0x17, 0x04, 0xDC, 0xD2, 0xFB, 0x21, 0xA6, 0xD4, 0xA4, 0x81, 0x01, 0x1F, 0x2D, 0x03, 0xB2, 0x4E, 0xE2, 0xFB, 0xFC, 0xC4, 0x4D, 0xEE, 0x4B, 0xD0, 0xFA, 0x06, 0x2A, 0xF8, 0xF4, 0x9F, 0xAC, 0x45, 0x11, 0x19, 0x90, 0xB1, 0xFF, 0xED, 0x38, 0xF2, 0xA8, 0x05, 0x0B, 0x1E, 0x18, 0xBB, 0x29, 0xBD, 0xEA, 0xE9, 0xD8, 0x31, 0xB3, 0x27, 0x9E, 0xF3, 0xD8, 0xFD, 0x3F, 0xE0, 0x1F, 0x81, 0x22, 0xE1, 0x3D, 0xDA, 0xBC, 0xE7, 0xF5, 0x97, 0x13, 0xC9, 0xDD, 0x14, 0xA9, 0x95, 0xD5, 0xE8, 0x03, 0xE0, 0xC1, 0xE7, 0xC8, 0x36, 0xF5, 0x27, 0x44, 0x47, 0x11, 0x22, 0x00, 0xB5, 0x21, 0xFD, 0xF9, 0x9E, 0x05, 0xE7, 0xD7, 0xC3, 0x04, 0x39, 0x02, 0xD5, 0x2C, 0xBC, 0x0A, 0xB7, 0x5C, 0xCE, 0xB5, 0xDF, 0xFC, 0x21, 0xDE, 0x33, 0x37, 0xF7, 0x9C, 0x00, 0xD7, 0x81, 0x52, 0x85, 0x02, 0x56, 0xC7, 0xC6, 0x2F, 0xB5, 0x67, 0xA3, 0x08, 0x53, 0x3A, 0xAF, 0xBB, 0xE7, 0xBD, 0x15, 0xBB, 0xD0, 0xCD, 0x67, 0xE2, 0x15, 0x27, 0x00, 0x09, 0xEF, 0x07, 0x4F, 0x43, 0x27, 0xFB, 0xE0, 0xD4, 0xB7, 0x27, 0xB1, 0x57, 0x0A, 0x2D, 0xA0, 0x3F, 0x9B, 0xD7, 0xA3, 0xF0, 0x0C, 0x0E, 0xCE, 0xF6, 0x16, 0xD4, 0xB3, 0x8F, 0x9B, 0x37, 0xFE, 0xFF, 0x47, 0x01, 0x93, 0xB8, 0x2D, 0x46, 0x93, 0xC0, 0x9F, 0xC8, 0x2E, 0x32, 0x14, 0x81, 0x04, 0xB1, 0xFD, 0x95, 0x29, 0x2F, 0xF0, 0x3D, 0x9B, 0x08, 0x11, 0x43, 0x93, 0xE0, 0x30, 0x39, 0x08, 0x19, 0x8F, 0x1D, 0x92, 0xA6, 0x27, 0xF4, 0xE0, 0xFE, 0xFD, 0xF5, 0xFE, 0xEB, 0x2C, 0xF4, 0x26, 0x2E, 0x4B, 0xE0, 0xEB, 0x14, 0xA2, 0xAA, 0x81, 0xEE, 0xA4, 0x43, 0x1B, 0x97, 0x49, 0x99, 0x00, 0xA1, 0x95, 0xB0, 0x96, 0xC6, 0xC1, 0x2B, 0xB2, 0xDD, 0xF3, 0xBC, 0x4B, 0x00, 0xB1, 0xAA, 0xF8, 0x99, 0xD0, 0xCB, 0xA7, 0x36, 0xDB, 0x37, 0x9E, 0x2B, 0x3D, 0x4E, 0x48, 0xB3, 0x99, 0x0B, 0xBF, 0x14, 0x89, 0x06, 0x15, 0xE3, 0x1C, 0x40, 0xCC, 0x34, 0xB8, 0xA8, 0xB3, 0xA8, 0x24, 0xB5, 0xAE, 0x82, 0x1B, 0x8B, 0x8C, 0xF8, 0x2B, 0x24, 0xE5, 0xDB, 0xBE, 0x23, 0xD4, 0x08, 0x33, 0x11, 0x8E, 0x2F, 0xF9, 0xEC, 0xAF, 0x81, 0x92, 0xDD, 0xE8, 0x31, 0x1A, 0x0F, 0x0B, 0xEE, 0xAA, 0xAE, 0x28, 0xD7, 0x5A, 0xF2, 0xFF, 0xFF, 0x00, 0x00, 0x00, 0x09, 0x10, 0x00, 0x00, 0x00, 0x0C, 0x00, 0x00, 0x00, 0x1C, 0x00, 0x00, 0x00, 0x8C, 0x00, 0x00, 0x00, 0x04, 0x00, 0x00, 0x00, 0x10, 0x00, 0x00, 0x00, 0x03, 0x00, 0x00, 0x00, 0x03, 0x00, 0x00, 0x00, 0x08, 0x00, 0x00, 0x00, 0x6F, 0x00, 0x00, 0x00, 0x73, 0x65, 0x71, 0x75, 0x65, 0x6E, 0x74, 0x69, 0x61, 0x6C, 0x5F, 0x31, 0x2F, 0x71, 0x75, 0x61, 0x6E, 0x74, 0x5F, 0x63, 0x6F, 0x6E, 0x76, 0x32, 0x64, 0x5F, 0x36, 0x2F, 0x43, 0x6F, 0x6E, 0x76, 0x32, 0x44, 0x3B, 0x73, 0x65, 0x71, 0x75, 0x65, 0x6E, 0x74, 0x69, 0x61, 0x6C, 0x5F, 0x31, 0x2F, 0x71, 0x75, 0x61, 0x6E, 0x74, 0x5F, 0x63, 0x6F, 0x6E, 0x76, 0x32, 0x64, 0x5F, 0x36, 0x2F, 0x4C, 0x61, 0x73, 0x74, 0x56, 0x61, 0x6C, 0x75, 0x65, 0x51, 0x75, 0x61, 0x6E, 0x74, 0x2F, 0x46, 0x61, 0x6B, 0x65, 0x51, 0x75, 0x61, 0x6E, 0x74, 0x57, 0x69, 0x74, 0x68, 0x4D, 0x69, 0x6E, 0x4D, 0x61, 0x78, 0x56, 0x61, 0x72, 0x73, 0x50, 0x65, 0x72, 0x43, 0x68, 0x61, 0x6E, 0x6E, 0x65, 0x6C, 0x00, 0x48, 0xF3, 0xFF, 0xFF, 0x08, 0x00, 0x00, 0x00, 0x48, 0x00, 0x00, 0x00, 0x10, 0x00, 0x00, 0x00, 0xD8, 0x89, 0xBA, 0x3A, 0xC9, 0xD6, 0xC5, 0x3A, 0x98, 0xD1, 0xB5, 0x3A, 0xB6, 0x8A, 0xCC, 0x3A, 0x3D, 0xBE, 0xD6, 0x3A, 0xEC, 0x4C, 0x9B, 0x3A, 0x78, 0xCE, 0xC2, 0x3A, 0x5C, 0x47, 0xBF, 0x3A, 0x46, 0x0B, 0xBC, 0x3A, 0x67, 0x31, 0xB7, 0x3A, 0x42, 0x89, 0xB4, 0x3A, 0x58, 0xFA, 0xC8, 0x3A, 0x8A, 0xBD, 0xD6, 0x3A, 0x43, 0x36, 0xC8, 0x3A, 0x09, 0x4E, 0xC4, 0x3A, 0x9B, 0x1F, 0xCE, 0x3A, 0x10, 0x00, 0x00, 0x00, 0x00, 