
// ADDED LINES START
constexpr char* processing_method = "stft";
constexpr double expected_duration = 1.0;
constexpr int sample_rate = 16000;
constexpr int window_size_samples = 1024;
constexpr int window_stride_samples = 960;
constexpr int mfcc_coefficients = 13;
// ADDED LINES END

unsigned char model[] = {
0x20, 0x00, 0x00, 0x00, 0x54, 0x46, 0x4C, 0x33, 0x00, 0x00, 0x00, 0x00, 0x14, 0x00, 0x20, 0x00, 0x04, 0x00, 0x08, 0x00, 0x0C, 0x00, 0x10, 0x00, 0x14, 0x00, 0x00, 0x00, 0x18, 0x00, 0x1C, 0x00, 0x14, 0x00, 0x00, 0x00, 0x03, 0x00, 0x00, 0x00, 0x18, 0x00, 0x00, 0x00, 0x28, 0x00, 0x00, 0x00, 0xCC, 0x00, 0x00, 0x00, 0x28, 0x00, 0x00, 0x00, 0x74, 0x00, 0x00, 0x00, 0x6C, 0x00, 0x00, 0x00, 0x04, 0x00, 0x00, 0x00, 0x7C, 0x33, 0x00, 0x00, 0x78, 0x12, 0x00, 0x00, 0x18, 0x02, 0x00, 0x00, 0x90, 0x01, 0x00, 0x00, 0x01, 0x00, 0x00, 0x00, 0xC8, 0x00, 0x00, 0x00, 0x12, 0x00, 0x00, 0x00, 0x6C, 0x39, 0x00, 0x00, 0x68, 0x39, 0x00, 0x00, 0x18, 0x38, 0x00, 0x00, 0x00, 0x37, 0x00, 0x00, 0x6C, 0x35, 0x00, 0x00, 0xD0, 0x34, 0x00, 0x00, 0x54, 0x39, 0x00, 0x00, 0x14, 0x13, 0x00, 0x00, 0x4C, 0x39, 0x00, 0x00, 0x34, 0x0F, 0x00, 0x00, 0x44, 0x39, 0x00, 0x00, 0x6C, 0x05, 0x00, 0x00, 0x3C, 0x39, 0x00, 0x00, 0x34, 0x03, 0x00, 0x00, 0x34, 0x39, 0x00, 0x00, 0x30, 0x39, 0x00, 0x00, 0x2C, 0x39, 0x00, 0x00, 0x3C, 0x00, 0x00, 0x00, 0x00, 0x00, 0x00, 0x00, 0x01, 0x00, 0x00, 0x00, 0x0C, 0x00, 0x00, 0x00, 0x08, 0x00, 0x0C, 0x00, 0x04, 0x00, 0x08, 0x00, 0x08, 0x00, 0x00, 0x00, 0x08, 0x00, 0x00, 0x00, 0x11, 0x00, 0x00, 0x00, 0x13, 0x00, 0x00, 0x00, 0x6D, 0x69, 0x6E, 0x5F, 0x72, 0x75, 0x6E, 0x74, 0x69, 0x6D, 0x65, 0x5F, 0x76, 0x65, 0x72, 0x73, 0x69, 0x6F, 0x6E, 0x00, 0x66, 0xC8, 0xFF, 0xFF, 0x04, 0x00, 0x00, 0x00, 0x10, 0x00, 0x00, 0x00, 0x31, 0x2E, 0x31, 0x34, 0x2E, 0x30, 0x00, 0x00, 0x00, 0x00, 0x00, 0x00, 0x00, 0x00, 0x00, 0x00, 0x0F, 0x00, 0x00, 0x00, 0x4D, 0x4C, 0x49, 0x52, 0x20, 0x43, 0x6F, 0x6E, 0x76, 0x65, 0x72, 0x74, 0x65, 0x64, 0x2E, 0x00, 0x00, 0x00, 0x0E, 0x00, 0x18, 0x00, 0x04, 0x00, 0x08, 0x00, 0x0C, 0x00, 0x10, 0x00, 0x14, 0x00, 0x0E, 0x00, 0x00, 0x00, 0x14, 0x00, 0x00, 0x00, 0x54, 0x00, 0x00, 0x00, 0x58, 0x00, 0x00, 0x00, 0x5C, 0x00, 0x00, 0x00, 0x78, 0x00, 0x00, 0x00, 0x10, 0x00, 0x00, 0x00, 0x44, 0x38, 0x00, 0x00, 0x9C, 0x37, 0x00, 0x00, 0xB4, 0x36, 0x00, 0x00, 0xA0, 0x35, 0x00, 0x00, 0x0C, 0x34, 0x00, 0x00, 0x94, 0x32, 0x00, 0x00, 0x88, 0x31, 0x00, 0x00, 0x78, 0x11, 0x00, 0x00, 0x68, 0x10, 0x00, 0x00, 0x98, 0x0D, 0x00, 0x00, 0xA0, 0x0C, 0x00, 0x00, 0xD0, 0x03, 0x00, 0x00, 0xE8, 0x02, 0x00, 0x00, 0xB8, 0x01, 0x00, 0x00, 0x00, 0x01, 0x00, 0x00, 0x78, 0x00, 0x00, 0x00, 0x01, 0x00, 0x00, 0x00, 0x00, 0x00, 0x00, 0x00, 0x01, 0x00, 0x00, 0x00, 0x0F, 0x00, 0x00, 0x00, 0x07, 0x00, 0x00, 0x00, 0x08, 0x32, 0x00, 0x00, 0xEC, 0x10, 0x00, 0x00, 0x28, 0x0D, 0x00, 0x00, 0x64, 0x03, 0x00, 0x00, 0x54, 0x01, 0x00, 0x00, 0x90, 0x00, 0x00, 0x00, 0x18, 0x00, 0x00, 0x00, 0x04, 0x00, 0x00, 0x00, 0x6D, 0x61, 0x69, 0x6E, 0x00, 0x00, 0x0A, 0x00, 0x10, 0x00, 0x04, 0x00, 0x08, 0x00, 0x0C, 0x00, 0x0A, 0x00, 0x00, 0x00, 0x03, 0x00, 0x00, 0x00, 0x10, 0x00, 0x00, 0x00, 0x04, 0x00, 0x00, 0x00, 0x01, 0x00, 0x00, 0x00, 0x0F, 0x00, 0x00, 0x00, 0x01, 0x00, 0x00, 0x00, 0x0E, 0x00, 0x00, 0x00, 0x2C, 0xCE, 0xFF, 0xFF, 0x06, 0x00, 0x00, 0x00, 0x00, 0x00, 0x00, 0x06, 0x02, 0x00, 0x00, 0x00, 0x84, 0xC8, 0xFF, 0xFF, 0x14, 0x00, 0x00, 0x00, 0x10, 0x00, 0x00, 0x00, 0x24, 0x00, 0x00, 0x00, 0x30, 0x00, 0x00, 0x00, 0x10, 0x00, 0x00, 0x00, 0x02, 0x00, 0x00, 0x00, 0x01, 0x00, 0x00, 0x00, 0x02, 0x00, 0x00, 0x00, 0x02, 0x00, 0x00, 0x00, 0xFF, 0xFF, 0xFF, 0xFF, 0x02, 0x00, 0x00, 0x00, 0x08, 0x00, 0x00, 0x00, 0x49, 0x64, 0x65, 0x6E, 0x74, 0x69, 0x74, 0x79, 0x00, 0x00, 0x00, 0x00, 0x68, 0xC8, 0xFF, 0xFF, 0x82, 0xF3, 0xFF, 0xFF, 0x00, 0x00, 0x00, 0x09, 0x02, 0x00, 0x00, 0x00, 0x1C, 0x00, 0x00, 0x00, 0x10, 0x00, 0x00, 0x00, 0x04, 0x00, 0x00, 0x00, 0xD2, 0xC9, 0xFF, 0xFF, 0x00, 0x00, 0x80, 0x3F, 0x01, 0x00, 0x00, 0x00, 0x0E, 0x00, 0x00, 0x00, 0x01, 0x00, 0x00, 0x00, 0x0D, 0x00, 0x00, 0x00, 0xB0, 0xCE, 0xFF, 0xFF, 0x19, 0x00, 0x00, 0x00, 0x00, 0x00, 0x00, 0x19, 0x02, 0x00, 0x00, 0x00, 0xA4, 0xCE, 0xFF, 0xFF, 0x00, 0x00, 0x00, 0x09, 0x14, 0x00, 0x00, 0x00, 0x0F, 0x00, 0x00, 0x00, 0x24, 0x00, 0x00, 0x00, 0x48, 0x00, 0x00, 0x00, 0x10, 0x00, 0x00, 0x00, 0x02, 0x00, 0x00, 0x00, 0x01, 0x00, 0x00, 0x00, 0x02, 0x00, 0x00, 0x00, 0x02, 0x00, 0x00, 0x00, 0xFF, 0xFF, 0xFF, 0xFF, 0x02, 0x00, 0x00, 0x00, 0x22, 0x00, 0x00, 0x00, 0x73, 0x65, 0x71, 0x75, 0x65, 0x6E, 0x74, 0x69, 0x61, 0x6C, 0x5F, 0x31, 0x2F, 0x71, 0x75, 0x61, 0x6E, 0x74, 0x5F, 0x64, 0x65, 0x6E, 0x73, 0x65, 0x5F, 0x37, 0x2F, 0x53, 0x6F, 0x66, 0x74, 0x6D, 0x61, 0x78, 0x00, 0x00, 0x94, 0xC9, 0xFF, 0xFF, 0x08, 0x00, 0x00, 0x00, 0x0C, 0x00, 0x00, 0x00, 0x01, 0x00, 0x00, 0x00, 0x00, 0x00, 0x80, 0x3B, 0x01, 0x00, 0x00, 0x00, 0x80, 0xFF, 0xFF, 0xFF, 0xFF, 0xFF, 0xFF, 0xFF, 0x00, 0x00, 0x00, 0x00, 0x42, 0xF4, 0xFF, 0xFF, 0x00, 0x00, 0x00, 0x08, 0x01, 0x00, 0x00, 0x00, 0x18, 0x00, 0x00, 0x00, 0x0C, 0x00, 0x00, 0x00, 0x04, 0x00, 0x00, 0x00, 0x44, 0xC9, 0xFF, 0xFF, 0x01, 0x00, 0x00, 0x00, 0x0D, 0x00, 0x00, 0x00, 0x03, 0x00, 0x00, 0x00, 0x0B, 0x00, 0x00, 0x00, 0x0C, 0x00, 0x00, 0x00, 0x04, 0x00, 0x00, 0x00, 0x58, 0xCF, 0xFF, 0xFF, 0x00, 0x00, 0x00, 0x09, 0x14, 0x00, 0x00, 0x00, 0x0E, 0x00, 0x00, 0x00, 0x24, 0x00, 0x00, 0x00, 0x6C, 0x00, 0x00, 0x00, 0x10, 0x00, 0x00, 0x00, 0x02, 0x00, 0x00, 0x00, 0x01, 0x00, 0x00, 0x00, 0x02, 0x00, 0x00, 0x00, 0x02, 0x00, 0x00, 0x00, 0xFF, 0xFF, 0xFF, 0xFF, 0x02, 0x00, 0x00, 0x00, 0x44, 0x00, 0x00, 0x00, 0x73, 0x65, 0x71, 0x75, 0x65, 0x6E, 0x74, 0x69, 0x61, 0x6C, 0x5F, 0x31, 0x2F, 0x71, 0x75, 0x61, 0x6E, 0x74, 0x5F, 0x64, 0x65, 0x6E, 0x73, 0x65, 0x5F, 0x37, 0x2F, 0x4D, 0x61, 0x74, 0x4D, 0x75, 0x6C, 0x3B, 0x73, 0x65, 0x71, 0x75, 0x65, 0x6E, 0x74, 0x69, 0x61, 0x6C, 0x5F, 0x31, 0x2F, 0x71, 0x75, 0x61, 0x6E, 0x74, 0x5F, 0x64, 0x65, 0x6E, 0x73, 0x65, 0x5F, 0x37, 0x2F, 0x42, 0x69, 0x61, 0x73, 0x41, 0x64, 0x64, 0x00, 0x00, 0x00, 0x00, 0x6C, 0xCA, 0xFF, 0xFF, 0x08, 0x00, 0x00, 0x00, 0x0C, 0x00, 0x00, 0x00, 0x01, 0x00, 0x00, 0x00, 0xA1, 0x03, 0x5D, 0x3E, 0x01, 0x00, 0x00, 0x00, 0xA3, 0xFF, 0xFF, 0xFF, 0xFF, 0xFF, 0xFF, 0xFF, 0x4E, 0xCB, 0xFF, 0xFF, 0x04, 0x00, 0x00, 0x00, 0x80, 0x00, 0x00, 0x00, 0x08, 0x4C, 0x70, 0x39, 0x2E, 0x0D, 0x49, 0xB5, 0x43, 0xC9, 0x6D, 0x46, 0xC6, 0x3B, 0x78, 0x23, 0xC0, 0xE8, 0x46, 0xFF, 0x14, 0x35, 0xCD, 0xF4, 0x41, 0x4E, 0x6C, 0xC0, 0xCF, 0x18, 0xCC, 0x51, 0x35, 0x32, 0x92, 0xFB, 0x21, 0xC7, 0x03, 0x9B, 0xF9, 0x56, 0xA4, 0x65, 0x12, 0x2D, 0xC1, 0xDF, 0x3B, 0x40, 0xD5, 0x84, 0x15, 0xCD, 0x43, 0x21, 0xAA, 0xDC, 0x22, 0x23, 0xB4, 0x02, 0xCE, 0x4E, 0xDD, 0x6B, 0x7F, 0x51, 0x64, 0xD0, 0xC1, 0x96, 0xAD, 0x36, 0x29, 0x12, 0x4A, 0xDA, 0x5D, 0xD4, 0xA7, 0x24, 0x20, 0x5B, 0x41, 0xE3, 0x17, 0xB2, 0xD8, 0x2B, 0x02, 0xF8, 0x5E, 0xFC, 0x3F, 0x4F, 0x00, 0xD3, 0xC3, 0x0A, 0x3C, 0xA7, 0x5A, 0xB9, 0xA6, 0x51, 0xCB, 0x38, 0xBF, 0x5E, 0x95, 0x46, 0xAE, 0x5E, 0x91, 0xD1, 0xEE, 0x07, 0x0A, 0xDD, 0x3E, 0x27, 0x79, 0x24, 0x1F, 0x16, 0x3D, 0x14, 0x86, 0xCB, 0xFF, 0xFF, 0x00, 0x00, 0x00, 0x09, 0x10, 0x00, 0x00, 0x00, 0x0D, 0x00, 0x00, 0x00, 0x14, 0x00, 0x00, 0x00, 0x78, 0x00, 0x00, 0x00, 0x02, 0x00, 0x00, 0x00, 0x02, 0x00, 0x00, 0x00, 0x40, 0x00, 0x00, 0x00, 0x63, 0x00, 0x00, 0x00, 0x73, 0x65, 0x71, 0x75, 0x65, 0x6E, 0x74, 0x69, 0x61, 0x6C, 0x5F, 0x31, 0x2F, 0x71, 0x75, 0x61, 0x6E, 0x74, 0x5F, 0x64, 0x65, 0x6E, 0x73, 0x65, 0x5F, 0x37, 0x2F, 0x4D, 0x61, 0x74, 0x4D, 0x75, 0x6C, 0x3B, 0x73, 0x65, 0x71, 0x75, 0x65, 0x6E, 0x74, 0x69, 0x61, 0x6C, 0x5F, 0x31, 0x2F, 0x71, 0x75, 0x61, 0x6E, 0x74, 0x5F, 0x64, 0x65, 0x6E, 0x73, 0x65, 0x5F, 0x37, 0x2F, 0x4C, 0x61, 0x73, 0x74, 0x56, 0x61, 0x6C, 0x75, 0x65, 0x51, 0x75, 0x61, 0x6E, 0x74, 0x2F, 0x46, 0x61, 0x6B, 0x65, 0x51, 0x75, 0x61, 0x6E, 0x74, 0x57, 0x69, 0x74, 0x68, 0x4D, 0x69, 0x6E, 0x4D, 0x61, 0x78, 0x56, 0x61, 0x72, 0x73, 0x00, 0xA4, 0xCB, 0xFF, 0xFF, 0x08, 0x00, 0x00, 0x00, 0x0C, 0x00, 0x00, 0x00, 0x01, 0x00, 0x00, 0x00, 0x97, 0x5D, 0x24, 0x3B, 0x01, 0x00, 0x00, 0x00, 0x00, 0x00, 0x00, 0x00, 0x00, 0x00, 0x00, 0x00, 0x4E, 0xF6, 0xFF, 0xFF, 0x00, 0x00, 0x00, 0x08, 0x01, 0x00, 0x00, 0x00, 0x1C, 0x00, 0x00, 0x00, 0x10, 0x00, 0x00, 0x00, 0x04, 0x00, 0x00, 0x00, 0x7E, 0xF2, 0xFF, 0xFF, 0x00, 0x00, 0x00, 0x01, 0x01, 0x00, 0x00, 0x00, 0x0B, 0x00, 0x00, 0x00, 0x03, 0x00, 0x00, 0x00, 0x09, 0x00, 0x00, 0x00, 0x0A, 0x00, 0x00, 0x00, 0x03, 0x00, 0x00, 0x00, 0x68, 0xD1, 0xFF, 0xFF, 0x00, 0x00, 0x00, 0x09, 0x14, 0x00, 0x00, 0x00, 0x0C, 0x00, 0x00, 0x00, 0x24, 0x00, 0x00, 0x00, 0x8C, 0x00, 0x00, 0x00, 0x10, 0x00, 0x00, 0x00, 0x02, 0x00, 0x00, 0x00, 0x01, 0x00, 0x00, 0x00, 0x40, 0x00, 0x00, 0x00, 0x02, 0x00, 0x00, 0x00, 0xFF, 0xFF, 0xFF, 0xFF, 0x40, 0x00, 0x00, 0x00, 0x64, 0x00, 0x00, 0x00, 0x73, 0x65, 0x71, 0x75, 0x65, 0x6E, 0x74, 0x69, 0x61, 0x6C, 0x5F, 0x31, 0x2F, 0x71, 0x75, 0x61, 0x6E, 0x74, 0x5F, 0x64, 0x65, 0x6E, 0x73, 0x65, 0x5F, 0x36, 0x2F, 0x4D, 0x61, 0x74, 0x4D, 0x75, 0x6C, 0x3B, 0x73, 0x65, 0x71, 0x75, 0x65, 0x6E, 0x74, 0x69, 0x61, 0x6C, 0x5F, 0x31, 0x2F, 0x71, 0x75, 0x61, 0x6E, 0x74, 0x5F, 0x64, 0x65, 0x6E, 0x73, 0x65, 0x5F, 0x36, 0x2F, 0x42, 0x69, 0x61, 0x73, 0x41, 0x64, 0x64, 0x3B, 0x73, 0x65, 0x71, 0x75, 0x65, 0x6E, 0x74, 0x69, 0x61, 0x6C, 0x5F, 0x31, 0x2F, 0x71, 0x75, 0x61, 0x6E, 0x74, 0x5F, 0x64, 0x65, 0x6E, 0x73, 0x65, 0x5F, 0x36, 0x2F, 0x52, 0x65, 0x6C, 0x75, 0x00, 0x00, 0x00, 0x00, 0x9C, 0xCC, 0xFF, 0xFF, 0x08, 0x00, 0x00, 0x00, 0x0C, 0x00, 0x00, 0x00, 0x01, 0x00, 0x00, 0x00, 0x8B, 0xB8, 0x41, 0x3F, 0x01, 0x00, 0x00, 0x00, 0x85, 0xFF, 0xFF, 0xFF, 0xFF, 0xFF, 0xFF, 0xFF, 0x7E, 0xCD, 0xFF, 0xFF, 0x04, 0x00, 0x00, 0x00, 0x00, 0x08, 0x00, 0x00, 0xB3, 0xB6, 0xF6, 0x09, 0xD2, 0x25, 0xE5, 0x16, 0xF1, 0x36, 0xD0, 0x60, 0xB9, 0xD8, 0xE8, 0xA7, 0xF1, 0xF4, 0xDD, 0xD1, 0x2D, 0xF6, 0xD5, 0x56, 0x0B, 0xDF, 0x4A, 0xF9, 0x4D, 0xBF, 0x42, 0x65, 0x69, 0x25, 0xC3, 0xDD, 0x5E, 0x9D, 0x6D, 0x16, 0xE6, 0x63, 0x1B, 0x21, 0x63, 0xE7, 0xD1, 0x32, 0xC2, 0xF5, 0xFE, 0xE6, 0xA0, 0xC3, 0xDF, 0xFB, 0x66, 0x41, 0xED, 0x56, 0x32, 0xE3, 0xFA, 0x21, 0xD1, 0x15, 0x41, 0x18, 0x62, 0x49, 0xAC, 0x10, 0xBF, 0xC0, 0xED, 0x15, 0x63, 0x05, 0x92, 0x58, 0x02, 0x6E, 0x56, 0x59, 0xCF, 0xC3, 0x11, 0x1D, 0xF2, 0x24, 0x35, 0x5F, 0xB6, 0x43, 0x9F, 0xC3, 0xB6, 0x45, 0x2A, 0xCC, 0x67, 0x21, 0xB2, 0x95, 0x53, 0xED, 0x1B, 0xC1, 0x29, 0xDA, 0x9F, 0xCA, 0x3E, 0xF6, 0x64, 0xAE, 0xC5, 0x09, 0x19, 0x1E, 0xB6, 0x52, 0x98, 0x51, 0xE0, 0x19, 0x29, 0x50, 0x60, 0x1E, 0x20, 0x12, 0x11, 0xAF, 0xFB, 0x1E, 0xD6, 0xD0, 0xFA, 0xFB, 0x05, 0xF5, 0x2D, 0x32, 0x34, 0x00, 0xF6, 0x2B, 0x17, 0x66, 0x15, 0x5B, 0xAA, 0xD5, 0x6E, 0x55, 0xE3, 0xC9, 0xB0, 0x4E, 0x9B, 0x20, 0x9A, 0xF0, 0x92, 0x24, 0xBC, 0x98, 0xC9, 0x5E, 0x50, 0xA8, 0x76, 0x20, 0xB6, 0xD9, 0xA6, 0xA4, 0xBF, 0x1A, 0x35, 0xB5, 0xCC, 0x98, 0xC0, 0x50, 0x65, 0xF6, 0x97, 0xE8, 0x32, 0x1B, 0x55, 0x6C, 0x59, 0xFD, 0x3F, 0x06, 0xCC, 0xF0, 0xF5, 0x2C, 0x09, 0xC4, 0x69, 0x66, 0x58, 0xEB, 0xA6, 0xE6, 0x0F, 0x9E, 0xE9, 0x0E, 0x41, 0xBB, 0xBC, 0x0F, 0x46, 0xD3, 0xFB, 0x31, 0xD3, 0xA6, 0x3A, 0x48, 0xBB, 0x9E, 0x41, 0x06, 0x9C, 0x96, 0xB8, 0xE7, 0x49, 0xDF, 0xC8, 0x33, 0x27, 0x2C, 0xB4, 0xB5, 0xE6, 0x22, 0x63, 0x49, 0xCC, 0xA3, 0xDA, 0x4A, 0xCC, 0xE3, 0x98, 0x39, 0x09, 0xCB, 0xB0, 0x16, 0x38, 0xFC, 0xEE, 0x37, 0x59, 0xE6, 0x1B, 0x41, 0x38, 0x9F, 0xE0, 0x4F, 0x03, 0xF8, 0xF1, 0x21, 0x3D, 0x27, 0xAB, 0x1E, 0x3A, 0x47, 0xB1, 0x69, 0xF8, 0x52, 0x03, 0x30, 0x99, 0xCE, 0xB9, 0x30, 0xEF, 0xD7, 0x29, 0x6F, 0xEC, 0x3D, 0x08, 0xA1, 0x58, 0x49, 0x4A, 0xAD, 0xF4, 0xE3, 0x5B, 0x42, 0x2E, 0x9C, 0x1F, 0x02, 0x94, 0x30, 0xF1, 0x69, 0x1C, 0x2E, 0xB5, 0x94, 0x44, 0x04, 0x4A, 0x63, 0xDE, 0xF7, 0x55, 0x25, 0x61, 0x4C, 0x06, 0xAA, 0xE2, 0xA6, 0xBF, 0x69, 0x09, 0x5F, 0x19, 0x68, 0xBF, 0x58, 0xAC, 0x40, 0x8B, 0xB6, 0x4F, 0xB2, 0xA8, 0x2B, 0x2E, 0xB3, 0x70, 0x10, 0xBB, 0xF1, 0x2C, 0xE4, 0xC4, 0x17, 0xDE, 0x48, 0x5C, 0xCF, 0x68, 0xB6, 0x2F, 0xC1, 0xD9, 0xD1, 0xC0, 0x4B, 0x0E, 0xE2, 0xA2, 0xDD, 0x72, 0x40, 0x9F, 0x57, 0x5D, 0xB5, 0x33, 0xB0, 0xA7, 0x2F, 0xC8, 0xC4, 0xD0, 0xB6, 0xA4, 0x08, 0xA2, 0x16, 0xB7, 0x5E, 0xD6, 0x12, 0x36, 0x6F, 0x0C, 0xE6, 0x21, 0xF2, 0x9F, 0xBA, 0xAA, 0x2B, 0x61, 0xFE, 0xC7, 0x1B, 0x4C, 0x1A, 0xBF, 0x53, 0x5B, 0x16, 0xFA, 0xE5, 0xD3, 0xBD, 0x8F, 0xF1, 0x09, 0x21, 0xCA, 0x58, 0x5F, 0xF3, 0x04, 0x63, 0x10, 0xFB, 0x0C, 0xBE, 0xB0, 0xBC, 0xCF, 0xA8, 0x21, 0x03, 0x33, 0x00, 0x32, 0xF0, 0x64, 0x02, 0x32, 0xE0, 0x9F, 0xC8, 0x17, 0x07, 0xED, 0xC6, 0xEE, 0x5C, 0xE0, 0x08, 0xB7, 0xDB, 0x9B, 0xED, 0x06, 0xE4, 0x42, 0x58, 0x02, 0x55, 0x52, 0x13, 0xE6, 0x37, 0xC3, 0xC4, 0xB0, 0x70, 0xB1, 0x36, 0x2F, 0xCE, 0xE3, 0xAC, 0x22, 0x2D, 0x26, 0x2C, 0xD1, 0xD7, 0x5D, 0xEC, 0x4A, 0x97, 0xF0, 0x15, 0xB1, 0xF8, 0x9C, 0x32, 0x11, 0xAF, 0x1E, 0xBB, 0x03, 0xB9, 0xC4, 0x0A, 0xC5, 0xA9, 0xC8, 0x35, 0x60, 0x05, 0xF5, 0x14, 0xB2, 0x2E, 0x14, 0x3B, 0xD8, 0x2E, 0x35, 0x0E, 0xBE, 0x5B, 0x44, 0xAB, 0xA8, 0x71, 0x17, 0x9E, 0x9B, 0x99, 0x3F, 0xBC, 0xD9, 0xC0, 0x1C, 0x5E, 0x5E, 0xCF, 0x22, 0x52, 0x67, 0x67, 0xD6, 0x00, 0x56, 0xD9, 0x45, 0x0E, 0xBD, 0x0E, 0xC4, 0x24, 0xA1, 0xB5, 0x58, 0xA1, 0x08, 0xD4, 0xA6, 0x37, 0xEA, 0xC3, 0x58, 0xA7, 0x56, 0xEA, 0x03, 0xC9, 0x9E, 0xD2, 0x02, 0x2C, 0x4F, 0xAD, 0xE5, 0xDC, 0xA3, 0x41, 0x91, 0x3C, 0x2B, 0xC0, 0x2B, 0x2E, 0x9B, 0x4F, 0x09, 0xEB, 0xF8, 0xB0, 0xFE, 0x39, 0x5E, 0x24, 0xB1, 0xB0, 0x55, 0x60, 0xD4, 0x6A, 0x9E, 0x66, 0xB2, 0x69, 0x18, 0xA2, 0x8D, 0xB9, 0x4B, 0xB0, 0x9F, 0xAA, 0x59, 0xAC, 0x31, 0xC7, 0xCA, 0x4C, 0x37, 0x79, 0x0F, 0x30, 0x63, 0x52, 0xA9, 0x20, 0x12, 0x07, 0x9A, 0xE1, 0xE9, 0x97, 0xA4, 0x9D, 0x17, 0x4D, 0xE7, 0xED, 0xE5, 0x0D, 0x9B, 0x18, 0x22, 0x71, 0x9A, 0xFF, 0xFF, 0x28, 0xAB, 0xB0, 0xAF, 0x60, 0xB6, 0x2D, 0x01, 0x05, 0xA4, 0xBF, 0x9C, 0x51, 0xBA, 0xAC, 0x60, 0xD9, 0x5E, 0x94, 0x37, 0x4E, 0x23, 0x91, 0x16, 0xC0, 0xFF, 0x99, 0xC6, 0x32, 0x36, 0x2A, 0xAC, 0x0C, 0xF6, 0x41, 0x9D, 0x9A, 0xCF, 0x98, 0xAE, 0x27, 0xBD, 0x2B, 0xEE, 0x5C, 0xF8, 0x1F, 0xE5, 0x19, 0x64, 0x39, 0xDF, 0x08, 0xFD, 0xAB, 0xE3, 0x33, 0xF7, 0x2E, 0x3B, 0x2F, 0xBB, 0xFA, 0xC6, 0xA7, 0x5B, 0xEC, 0x0C, 0x17, 0xA5, 0xA7, 0x45, 0x04, 0x9D, 0xBA, 0x21, 0x3B, 0x68, 0xC1, 0xB7, 0x41, 0x62, 0xF9, 0xAF, 0x26, 0x5C, 0xF4, 0xB0, 0x01, 0x09, 0xB1, 0xEC, 0x94, 0xAB, 0x39, 0x99, 0x4F, 0xD3, 0xCD, 0x31, 0x44, 0xE4, 0x59, 0xA9, 0x15, 0xC1, 0x04, 0x18, 0x53, 0x1E, 0x25, 0x3E, 0x4C, 0x31, 0x23, 0x27, 0x4E, 0x53, 0xBD, 0x2D, 0xFA, 0xD3, 0xAE, 0xE5, 0xE7, 0xFE, 0xF9, 0x54, 0x21, 0xD5, 0xD6, 0x49, 0x64, 0xE0, 0xDE, 0xF5, 0x03, 0x5A, 0x91, 0x60, 0x9C, 0xD1, 0x45, 0x4B, 0xD1, 0xFC, 0x1B, 0x08, 0x19, 0xA7, 0xA8, 0x38, 0xC3, 0xBD, 0xBC, 0x39, 0x24, 0x13, 0xC4, 0x31, 0x9D, 0x39, 0xDF, 0xFC, 0x1D, 0xCB, 0x25, 0x50, 0x57, 0xBA, 0x61, 0xAD, 0x3A, 0xD1, 0x5D, 0x45, 0x02, 0xC1, 0x10, 0x13, 0x33, 0xD6, 0xC2, 0xA1, 0x98, 0xB2, 0xD8, 0xFF, 0xB9, 0xEA, 0xD0, 0x97, 0x24, 0xB2, 0x11, 0x20, 0x5D, 0x05, 0x03, 0x0E, 0x4D, 0x0B, 0xAD, 0x96, 0x3E, 0xEB, 0xBE, 0xF2, 0x46, 0x42, 0x0B, 0x61, 0xCF, 0x93, 0x31, 0xA3, 0x52, 0xD4, 0xD1, 0xFF, 0x95, 0xF9, 0x15, 0x2C, 0xD6, 0xD9, 0x9D, 0xA0, 0xD3, 0xC7, 0x8F, 0xFE, 0xFA, 0x09, 0x5A, 0xE4, 0xDD, 0xFB, 0xA5, 0x53, 0x24, 0xFD, 0x64, 0x9D, 0x55, 0x0E, 0x2B, 0x44, 0xBC, 0x4B, 0x14, 0xE4, 0xF8, 0x52, 0xAB, 0xFD, 0x45, 0x2C, 0xBC, 0xC0, 0x64, 0x54, 0x33, 0x15, 0x4D, 0x5A, 0xC9, 0xB2, 0x1A, 0x29, 0xED, 0x5D, 0xF9, 0x1A, 0x2C, 0x14, 0xC0, 0x27, 0x66, 0x41, 0xB9, 0xD6, 0xBF, 0xD2, 0x1F, 0x01, 0x08, 0x0F, 0x61, 0xFA, 0x6C, 0x41, 0x2E, 0x14, 0x27, 0x6D, 0x16, 0xD7, 0x28, 0x9F, 0x5E, 0xCE, 0xD1, 0xB5, 0x24, 0xEA, 0x46, 0x35, 0x2D, 0xD3, 0xB4, 0x55, 0xB9, 0x06, 0x65, 0x43, 0xC9, 0xDF, 0xE5, 0xC9, 0x9D, 0x11, 0x41, 0xDD, 0x24, 0x93, 0x20, 0xB4, 0x65, 0x0B, 0x23, 0x22, 0xA4, 0xCB, 0xD1, 0xBA, 0xBC, 0xCC, 0x06, 0xF1, 0xD8, 0x9D, 0x3E, 0x60, 0x15, 0x0C, 0x14, 0x88, 0x65, 0x36, 0xBB, 0x41, 0x1A, 0x65, 0xBD, 0xDB, 0x49, 0x10, 0xF4, 0xE5, 0x64, 0xE1, 0x43, 0x9A, 0x28, 0xF4, 0x02, 0x48, 0x25, 0x63, 0x60, 0xAF, 0x5E, 0xF0, 0xA3, 0xA2, 0x4F, 0x2F, 0x1E, 0xF6, 0x15, 0x68, 0x3A, 0xBC, 0x0F, 0x12, 0x3E, 0x04, 0xF1, 0x12, 0xB9, 0x2E, 0xCE, 0xBE, 0x96, 0x4C, 0xC5, 0x12, 0x09, 0xDA, 0xD7, 0xFF, 0x3F, 0xFE, 0x5A, 0x3E, 0x3A, 0x5E, 0x07, 0xBE, 0xD8, 0x51, 0x04, 0xFB, 0x41, 0xE0, 0xB7, 0xBE, 0xF4, 0xB7, 0x9D, 0x69, 0xEB, 0xDE, 0xF3, 0x39, 0xEE, 0xAC, 0x27, 0x22, 0x4F, 0xFA, 0x56, 0xDD, 0xF9, 0xE3, 0xF5, 0x3C, 0x0B, 0x9E, 0x4C, 0x38, 0xD5, 0x4B, 0x62, 0xDC, 0x20, 0xA7, 0x26, 0x04, 0x32, 0x90, 0x4B, 0x57, 0x44, 0x31, 0x2B, 0xED, 0xEB, 0xDE, 0xEB, 0x9E, 0x4D, 0xB9, 0x3F, 0xF6, 0xAA, 0x0C, 0xAC, 0x0C, 0x1F, 0x2A, 0xE5, 0x64, 0xB1, 0x34, 0xBD, 0x3D, 0x50, 0x98, 0xAC, 0xDA, 0xFE, 0x33, 0x6A, 0x28, 0x3D, 0xF3, 0x2E, 0xF5, 0x67, 0xB9, 0x07, 0xE7, 0xC9, 0xF7, 0xA5, 0x4F, 0x6D, 0xE5, 0x2A, 0xD5, 0xA6, 0xB4, 0xE4, 0x55, 0xF7, 0x69, 0x21, 0xDB, 0xBA, 0xDC, 0x28, 0x2E, 0xF1, 0xB1, 0xFC, 0x69, 0xE5, 0xEA, 0x9C, 0xE4, 0x02, 0x14, 0xDE, 0xBC, 0x67, 0xFC, 0x0C, 0x16, 0x56, 0xED, 0x79, 0x50, 0x1A, 0x37, 0x67, 0x47, 0x8E, 0x00, 0xDF, 0x58, 0x66, 0x21, 0x0A, 0x1F, 0xDC, 0x21, 0x19, 0x01, 0xDB, 0xAE, 0xE1, 0xAC, 0xAD, 0x60, 0x97, 0x55, 0xAF, 0x18, 0x91, 0x4E, 0x33, 0xD9, 0xC5, 0x38, 0x6F, 0x30, 0xA8, 0x0F, 0xC3, 0x5B, 0xAF, 0xDA, 0x03, 0x3A, 0xD0, 0xDA, 0xAC, 0xC8, 0x19, 0xB3, 0xA2, 0x46, 0x00, 0xC4, 0xDC, 0x30, 0x4C, 0xBE, 0x75, 0xEA, 0x08, 0x6D, 0xB4, 0x57, 0xA9, 0xED, 0x9E, 0xD7, 0x34, 0xEF, 0x23, 0x1C, 0xA4, 0xAC, 0xA8, 0xAC, 0x9F, 0x18, 0x2B, 0x11, 0x61, 0xB9, 0xF6, 0x20, 0x17, 0x25, 0x93, 0xF6, 0xCA, 0xEB, 0x2A, 0xBA, 0xBF, 0x4A, 0x02, 0x08, 0x31, 0xB5, 0xE1, 0xF7, 0xAD, 0xF2, 0x29, 0xDC, 0x46, 0xBB, 0x09, 0xB5, 0xC5, 0xEB, 0x05, 0x2C, 0x55, 0x3B, 0xDA, 0x2A, 0x63, 0x5B, 0xDB, 0x07, 0x1E, 0xE1, 0xB3, 0xA1, 0xCD, 0x16, 0x2E, 0xF2, 0xE6, 0x48, 0x61, 0x20, 0x0D, 0xC3, 0x5D, 0xC6, 0x21, 0xCD, 0xB2, 0x47, 0xC9, 0xF2, 0xE2, 0x13, 0x3F, 0x2A, 0xB1, 0xC9, 0x04, 0x24, 0x6F, 0xC2, 0x32, 0x02, 0xC9, 0x12, 0xF3, 0x5D, 0x5B, 0x42, 0x05, 0x5F, 0x55, 0xC0, 0x8A, 0x20, 0xB9, 0xB1, 0xB2, 0xDC, 0x3A, 0xA4, 0xEC, 0x09, 0x10, 0x30, 0xEB, 0x25, 0xBF, 0x1C, 0xD8, 0x4C, 0xC9, 0x6F, 0x57, 0x0A, 0xAB, 0xD1, 0xD2, 0xD6, 0x36, 0xDE, 0x21, 0x3E, 0xCF, 0xE4, 0x1D, 0x38, 0x9A, 0x4C, 0xE5, 0xDB, 0xAD, 0xE9, 0xB5, 0xC3, 0xDE, 0x37, 0x1C, 0x95, 0x57, 0xEE, 0x07, 0xBD, 0x18, 0xF4, 0xEF, 0xCB, 0x9D, 0xF8, 0xA8, 0x07, 0xF5, 0x61, 0x99, 0xBE, 0xAF, 0x45, 0x39, 0xC7, 0x0F, 0xCC, 0xC4, 0x10, 0x41, 0xD4, 0x69, 0xBF, 0x63, 0x62, 0x1E, 0x55, 0x89, 0xF7, 0xA4, 0xAA, 0xCF, 0xA7, 0x8E, 0xAD, 0xCC, 0x38, 0x9E, 0x2C, 0xF0, 0x57, 0xC0, 0xA9, 0x08, 0xF5, 0x18, 0x1E, 0x6F, 0xC0, 0xFC, 0x02, 0x27, 0x36, 0xB3, 0x46, 0xB5, 0xC3, 0x2B, 0x0C, 0xF3, 0xC8, 0xF4, 0xBA, 0xF5, 0xF8, 0x07, 0x63, 0x20, 0x37, 0xF6, 0xC4, 0x2E, 0xFC, 0xED, 0xF8, 0x06, 0xA2, 0x5C, 0x4F, 0xE3, 0x24, 0xBA, 0xCF, 0xDA, 0x9F, 0xCC, 0xBA, 0xEA, 0xA0, 0xDF, 0xA3, 0x64, 0xFC, 0xAB, 0x1A, 0xFE, 0xDB, 0x91, 0x60, 0xF2, 0x4D, 0x11, 0x02, 0x4B, 0x40, 0xF7, 0xFA, 0xE8, 0x2E, 0xF3, 0xCB, 0x0B, 0x48, 0x1E, 0x0A, 0xB0, 0x15, 0x2F, 0x2D, 0xB8, 0x3A, 0x57, 0x4C, 0xFB, 0x11, 0xEC, 0x6A, 0xD5, 0xE5, 0x2B, 0x32, 0xAE, 0xAB, 0xEA, 0x61, 0x0D, 0xFB, 0xFC, 0xC1, 0xAD, 0xF3, 0xC5, 0x81, 0xCD, 0xD6, 0x0B, 0x8F, 0xE7, 0xD2, 0xD5, 0x3D, 0x21, 0xF6, 0x9C, 0x25, 0x01, 0x1F, 0x33, 0x30, 0x15, 0x0E, 0x12, 0x2B, 0x40, 0x0E, 0xC2, 0x9A, 0xED, 0x24, 0xEA, 0xF0, 0xDF, 0x68, 0xC5, 0x0E, 0x1F, 0x06, 0xD5, 0xF5, 0x6F, 0xAB, 0xF5, 0x08, 0xB1, 0x16, 0xFE, 0x5D, 0x01, 0x23, 0x17, 0x0B, 0x29, 0x33, 0xF7, 0xBF, 0xAF, 0x0C, 0xE9, 0xDB, 0xFD, 0xD1, 0x9F, 0xC9, 0x34, 0x35, 0x19, 0x3E, 0x0F, 0x86, 0x33, 0xCF, 0x90, 0x3C, 0x31, 0xED, 0x61, 0xCF, 0x45, 0xE3, 0x63, 0xF9, 0x4D, 0x16, 0xFE, 0x59, 0x40, 0x1B, 0x02, 0xFC, 0x17, 0x1B, 0xB8, 0xE1, 0x4E, 0xC2, 0x70, 0x9C, 0xFE, 0xFA, 0x0E, 0xD6, 0x5B, 0x9A, 0xDD, 0xCF, 0xC9, 0x10, 0x3E, 0x3D, 0xAA, 0x1E, 0xF7, 0xD8, 0x98, 0xE7, 0xF4, 0xCE, 0xEF, 0xBE, 0xD7, 0x36, 0xCE, 0xAE, 0xB7, 0x0B, 0x95, 0xBC, 0x1D, 0xC7, 0x05, 0xC3, 0xA8, 0x97, 0x6B, 0x59, 0xE3, 0x21, 0xBD, 0xA9, 0x4E, 0x0D, 0x25, 0x13, 0xEF, 0x04, 0xEA, 0xA5, 0xC0, 0x6A, 0x0F, 0x52, 0x04, 0xE0, 0x61, 0xE5, 0xEA, 0xDE, 0xFA, 0x6A, 0x71, 0xC0, 0xBE, 0x98, 0x52, 0x2D, 0x53, 0xF7, 0xAB, 0xE1, 0x18, 0x47, 0xE0, 0xA4, 0xFA, 0x66, 0xB7, 0x29, 0x43, 0xB2, 0x92, 0xE3, 0xE8, 0x10, 0x19, 0x40, 0x91, 0xBF, 0xE3, 0xC2, 0x61, 0xDF, 0x2E, 0x15, 0xE6, 0xE6, 0x3B, 0xCC, 0xE0, 0xB9, 0x8E, 0xA6, 0x0B, 0xA5, 0x44, 0x16, 0x33, 0x0A, 0xB5, 0x67, 0x70, 0x1F, 0xA7, 0x21, 0x1F, 0xEB, 0xF6, 0x4B, 0xFC, 0x30, 0x55, 0x08, 0x1C, 0x47, 0x5E, 0x57, 0x46, 0x1D, 0x36, 0x99, 0x88, 0x3A, 0xF6, 0x98, 0xF0, 0x6C, 0xCB, 0x44, 0xB4, 0xAC, 0xA9, 0xC7, 0x04, 0x18, 0xF8, 0x2B, 0x1C, 0xFD, 0xF5, 0x0D, 0xE9, 0xB8, 0x4E, 0xEA, 0x02, 0xA6, 0xB0, 0x4B, 0x16, 0xD5, 0xA4, 0x4B, 0xF2, 0x68, 0x18, 0xFB, 0x2C, 0xA7, 0x65, 0x3E, 0x9D, 0x1C, 0x28, 0xEB, 0xF4, 0x21, 0x4B, 0x36, 0xBD, 0x1B, 0xC3, 0x9F, 0xD6, 0x1E, 0x49, 0x27, 0x67, 0xA9, 0x5A, 0x09, 0x40, 0x50, 0xC5, 0x31, 0x55, 0x2F, 0xB6, 0x56, 0xFD, 0x00, 0xBF, 0xF6, 0x27, 0xA1, 0x0F, 0xF1, 0xFA, 0xD5, 0x1D, 0xAC, 0xBB, 0x47, 0x38, 0xC0, 0x57, 0xCF, 0x06, 0xF8, 0x63, 0x1E, 0xC5, 0xE2, 0x30, 0x10, 0x22, 0x6C, 0x1E, 0xEB, 0xF8, 0x0F, 0x3C, 0xAE, 0xA1, 0x25, 0x74, 0xF6, 0x14, 0xA0, 0xBF, 0x0F, 0xD6, 0x59, 0x2D, 0xD8, 0x13, 0x4F, 0x53, 0x38, 0x38, 0x58, 0x3F, 0xB1, 0x9C, 0x0E, 0xD6, 0x63, 0x3C, 0x0B, 0xC3, 0xEE, 0x34, 0x47, 0x63, 0xF8, 0xAF, 0x30, 0xA8, 0x4A, 0xDA, 0x9D, 0x67, 0xED, 0x63, 0x2F, 0x4E, 0xAA, 0xF7, 0x09, 0x34, 0xFD, 0xE4, 0xC8, 0xD2, 0x10, 0x43, 0x0B, 0x64, 0xDC, 0xF2, 0x49, 0xDB, 0x5F, 0x58, 0x3B, 0xAF, 0x28, 0xF4, 0x1E, 0xFE, 0xD6, 0xC6, 0xBA, 0xDA, 0x12, 0xCD, 0x4D, 0x35, 0xFF, 0x08, 0xFD, 0xE7, 0xB2, 0xEF, 0x10, 0x1A, 0x57, 0x8F, 0x26, 0xBA, 0xE8, 0xA2, 0x00, 0xB2, 0xFA, 0x47, 0x21, 0xDD, 0x3D, 0x5A, 0xF7, 0xAB, 0x29, 0x41, 0xFF, 0x9E, 0xD9, 0x49, 0xCE, 0xB5, 0x94, 0xC2, 0xD4, 0xDA, 0xF9, 0x04, 0x16, 0x12, 0x0D, 0xE1, 0x68, 0xAE, 0xB9, 0x21, 0xBC, 0x4B, 0xA2, 0xFD, 0xC9, 0xC8, 0x5E, 0x64, 0x17, 0xDC, 0x2E, 0x36, 0xA4, 0x50, 0xD3, 0xC7, 0x4D, 0x20, 0xED, 0x3B, 0xCC, 0x31, 0xD1, 0x58, 0x4B, 0xB3, 0xF2, 0xE2, 0xC7, 0xB8, 0x94, 0x27, 0x41, 0x20, 0xB4, 0x91, 0x22, 0xE4, 0x54, 0x62, 0x58, 0xC2, 0xB9, 0x0D, 0x0E, 0xD6, 0xCF, 0x1D, 0x16, 0xFB, 0xCA, 0x55, 0xD8, 0xFA, 0x00, 0x34, 0x98, 0x9A, 0xDF, 0x39, 0x36, 0xD5, 0xFF, 0xFF, 0x00, 0x00, 0x00, 0x09, 0x10, 0x00, 0x00, 0x00, 0x0B, 0x00, 0x00, 0x00, 0x14, 0x00, 0x00, 0x00, 0x78, 0x00, 0x00, 0x00, 0x02, 0x00, 0x00, 0x00, 0x40, 0x00, 0x00, 0x00, 0x20, 0x00, 0x00, 0x00, 0x63, 0x00, 0x00, 0x00, 0x73, 0x65, 0x71, 0x75, 0x65, 0x6E, 0x74, 0x69, 0x61, 0x6C, 0x5F, 0x31, 0x2F, 0x71, 0x75, 0x61, 0x6E, 0x74, 0x5F, 0x64, 0x65, 0x6E, 0x73, 0x65, 0x5F, 0x36, 0x2F, 0x4D, 0x61, 0x74, 0x4D, 0x75, 0x6C, 0x3B, 0x73, 0x65, 0x71, 0x75, 0x65, 0x6E, 0x74, 0x69, 0x61, 0x6C, 0x5F, 0x31, 0x2F, 0x71, 0x75, 0x61, 0x6E, 0x74, 0x5F, 0x64, 0x65, 0x6E, 0x73, 0x65, 0x5F, 0x36, 0x2F, 0x4C, 0x61, 0x73, 0x74, 0x56, 0x61, 0x6C, 0x75, 0x65, 0x51, 0x75, 0x61, 0x6E, 0x74, 0x2F, 0x46, 0x61, 0x6B, 0x65, 0x51, 0x75, 0x61, 0x6E, 0x74, 0x57, 0x69, 0x74, 0x68, 0x4D, 0x69, 0x6E, 0x4D, 0x61, 0x78, 0x56, 0x61, 0x72, 0x73, 0x00, 0x54, 0xD5, 0xFF, 0xFF, 0x08, 0x00, 0x00, 0x00, 0x0C, 0x00, 0x00, 0x00, 0x01, 0x00, 0x00, 0x00, 0x42, 0xCA, 0x14, 0x3B, 0x01, 0x00, 0x00, 0x00, 0x00, 0x00, 0x00, 0x00, 0x00, 0x00, 0x00, 0x00, 0x00, 0x00, 0x0E, 0x00, 0x18, 0x00, 0x08, 0x00, 0x0C, 0x00, 0x10, 0x00, 0x07, 0x00, 0x14, 0x00, 0x0E, 0x00, 0x00, 0x00, 0x00, 0x00, 0x00, 0x08, 0x01, 0x00, 0x00, 0x00, 0x1C, 0x00, 0x00, 0x00, 0x10, 0x00, 0x00, 0x00, 0x04, 0x00, 0x00, 0x00, 0x3E, 0xFC, 0xFF, 0xFF, 0x00, 0x00, 0x00, 0x01, 0x01, 0x00, 0x00, 0x00, 0x09, 0x00, 0x00, 0x00, 0x03, 0x00, 0x00, 0x00, 0x07, 0x00, 0x00, 0x00, 0x08, 0x00, 0x00, 0x00, 0x02, 0x00, 0x00, 0x00, 0x28, 0xDB, 0xFF, 0xFF, 0x00, 0x00, 0x00, 0x09, 0x14, 0x00, 0x00, 0x00, 0x0A, 0x00, 0x00, 0x00, 0x24, 0x00, 0x00, 0x00, 0x8C, 0x00, 0x00, 0x00, 0x10, 0x00, 0x00, 0x00, 0x02, 0x00, 0x00, 0x00, 0x01, 0x00, 0x00, 0x00, 0x20, 0x00, 0x00, 0x00, 0x02, 0x00, 0x00, 0x00, 0xFF, 0xFF, 0xFF, 0xFF, 0x20, 0x00, 0x00, 0x00, 0x64, 0x00, 0x00, 0x00, 0x73, 0x65, 0x71, 0x75, 0x65, 0x6E, 0x74, 0x69, 0x61, 0x6C, 0x5F, 0x31, 0x2F, 0x71, 0x75, 0x61, 0x6E, 0x74, 0x5F, 0x64, 0x65, 0x6E, 0x73, 0x65, 0x5F, 0x35, 0x2F, 0x4D, 0x61, 0x74, 0x4D, 0x75, 0x6C, 0x3B, 0x73, 0x65, 0x71, 0x75, 0x65, 0x6E, 0x74, 0x69, 0x61, 0x6C, 0x5F, 0x31, 0x2F, 0x71, 0x75, 0x61, 0x6E, 0x74, 0x5F, 0x64, 0x65, 0x6E, 0x73, 0x65, 0x5F, 0x35, 0x2F, 0x42, 0x69, 0x61, 0x73, 0x41, 0x64, 0x64, 0x3B, 0x73, 0x65, 0x71, 0x75, 0x65, 0x6E, 0x74, 0x69, 0x61, 0x6C, 0x5F, 0x31, 0x2F, 0x71, 0x75, 0x61, 0x6E, 0x74, 0x5F, 0x64, 0x65, 0x6E, 0x73, 0x65, 0x5F, 0x35, 0x2F, 0x52, 0x65, 0x6C, 0x75, 0x00, 0x00, 0x00, 0x00, 0x5C, 0xD6, 0xFF, 0xFF, 0x08, 0x00, 0x00, 0x00, 0x0C, 0x00, 0x00, 0x00, 0x01, 0x00, 0x00, 0x00, 0xEA, 0x3B, 0x7D, 0x40, 0x01, 0x00, 0x00, 0x00, 0x81, 0xFF, 0xFF, 0xFF, 0xFF, 0xFF, 0xFF, 0xFF, 0x3E, 0xD7, 0xFF, 0xFF, 0x04, 0x00, 0x00, 0x00, 0x00, 0x02, 0x00, 0x00, 0xED, 0xE7, 0xB7, 0x62, 0x16, 0xB5, 0x06, 0xDC, 0xC2, 0x11, 0xEE, 0x04, 0x56, 0x55, 0x97, 0x4F, 0x8C, 0x27, 0x67, 0x43, 0x1F, 0xB8, 0xEF, 0x37, 0xE7, 0xC5, 0x54, 0x21, 0x52, 0xA7, 0xC1, 0x43, 0x68, 0x8C, 0x4A, 0x17, 0xB1, 0xDC, 0xE4, 0x27, 0x9E, 0xE5, 0x32, 0x8F, 0x44, 0x5C, 0x55, 0x1C, 0x07, 0xEA, 0x22, 0x0B, 0x04, 0xA7, 0xDF, 0xFC, 0x18, 0x98, 0x72, 0x44, 0xF1, 0x45, 0xC8, 0xBC, 0xDF, 0xB3, 0x98, 0xE9, 0x22, 0x26, 0xD4, 0x03, 0x1D, 0xB4, 0x13, 0xAE, 0xD5, 0xC1, 0xE0, 0xC2, 0x44, 0x5A, 0xA6, 0xEA, 0xA3, 0x54, 0x65, 0x13, 0x9D, 0xDB, 0xA4, 0xC4, 0x30, 0x18, 0xDE, 0x38, 0x15, 0x05, 0x40, 0x1E, 0x26, 0xCB, 0x54, 0x04, 0xEC, 0x0E, 0xF9, 0xDF, 0x78, 0x27, 0xBB, 0x27, 0x5C, 0xFA, 0xBE, 0xD7, 0x89, 0xF0, 0x94, 0x6B, 0x23, 0x3E, 0x98, 0x34, 0x9C, 0xC7, 0x34, 0xE7, 0xDA, 0x59, 0x45, 0xF0, 0xEA, 0xB1, 0x9C, 0x2D, 0xC9, 0xDB, 0x42, 0x6D, 0xAF, 0xEB, 0x2F, 0x0B, 0xA4, 0xBB, 0xB3, 0x0E, 0xA4, 0x3C, 0x38, 0xA0, 0x6B, 0x5A, 0x26, 0x0B, 0x12, 0x1A, 0xD2, 0x42, 0xD8, 0xD0, 0xA9, 0xA3, 0x76, 0xA8, 0xF9, 0xFE, 0x08, 0xD4, 0xEE, 0xB7, 0xB0, 0x41, 0xD7, 0x49, 0x32, 0xB4, 0x90, 0xF0, 0x3C, 0x64, 0x77, 0xAA, 0xD4, 0x69, 0xB4, 0xEF, 0xCE, 0xAF, 0xAE, 0xB8, 0x19, 0x25, 0x6C, 0xF3, 0xAB, 0xE5, 0x4E, 0xCA, 0xA3, 0x95, 0x19, 0xD0, 0x43, 0x5F, 0xB2, 0xAE, 0xFE, 0x8F, 0xE7, 0x95, 0xD1, 0x85, 0x5A, 0x90, 0xB4, 0xB0, 0x1C, 0x68, 0xED, 0x02, 0x0C, 0xE6, 0x97, 0x14, 0x27, 0x02, 0xC8, 0xC4, 0x27, 0x9D, 0xA0, 0x58, 0x2F, 0x4C, 0x47, 0xA1, 0x8D, 0xAE, 0x13, 0xD2, 0x9E, 0xAA, 0x94, 0x98, 0xCE, 0x00, 0x3A, 0x14, 0x02, 0x04, 0xFE, 0x44, 0x46, 0x71, 0xD1, 0x1D, 0xC6, 0xEC, 0x9E, 0x60, 0x5C, 0x9D, 0x3B, 0x6C, 0xF2, 0x47, 0xA0, 0x9B, 0x95, 0xAA, 0xDE, 0x49, 0x62, 0x8A, 0x59, 0x18, 0xAD, 0x58, 0x3C, 0x2B, 0x5C, 0x98, 0x8F, 0x06, 0x4C, 0xF8, 0xC0, 0x00, 0x18, 0x63, 0xCE, 0x5C, 0x1C, 0xD1, 0xCF, 0x16, 0x00, 0xE5, 0x28, 0xEB, 0xF6, 0xF1, 0xE2, 0xDE, 0x93, 0xC3, 0x65, 0x30, 0x6F, 0x29, 0xD5, 0xC4, 0xD0, 0xFB, 0x6F, 0x97, 0xC1, 0x5C, 0x92, 0xAE, 0x50, 0x2E, 0xFF, 0x78, 0xD9, 0xF0, 0x11, 0x5E, 0x00, 0x9A, 0xDA, 0x95, 0xCD, 0x48, 0x92, 0x19, 0xD1, 0xFB, 0x05, 0x6A, 0xEE, 0x0E, 0x22, 0xD9, 0x15, 0x18, 0x2E, 0x28, 0xA4, 0xA5, 0xDB, 0x25, 0xC5, 0x1D, 0xA7, 0x1D, 0x35, 0xDB, 0x2C, 0xCB, 0x5F, 0x95, 0xD5, 0x12, 0xC1, 0x5A, 0x5A, 0x70, 0x46, 0x37, 0x14, 0xA1, 0x26, 0x19, 0x0D, 0x52, 0xAF, 0x0F, 0xF6, 0x2B, 0x89, 0xC6, 0x44, 0x09, 0x08, 0xAC, 0xB8, 0xC0, 0xB2, 0x07, 0x45, 0x16, 0xFB, 0x1C, 0x01, 0x9A, 0x62, 0xF6, 0x44, 0xCA, 0xAC, 0xF3, 0x6F, 0xFE, 0x90, 0x81, 0x1B, 0x03, 0xE3, 0xAB, 0x58, 0x0A, 0xF2, 0xEE, 0x5A, 0x03, 0x2C, 0x8B, 0x73, 0x14, 0x63, 0x54, 0x2E, 0x5D, 0xD2, 0xAF, 0x34, 0x93, 0x2C, 0x14, 0x1D, 0x57, 0x95, 0x7B, 0xBC, 0x58, 0x97, 0xC8, 0x01, 0x5C, 0xD5, 0x19, 0x0D, 0xC6, 0xC5, 0xB7, 0xA0, 0xD9, 0x2B, 0xA8, 0x2F, 0x6A, 0xA3, 0x20, 0xF9, 0x1F, 0xFB, 0x22, 0x1A, 0xBC, 0x9C, 0xB2, 0xFE, 0x7A, 0x6E, 0x5C, 0x1B, 0x4D, 0xB6, 0x45, 0xB8, 0x5E, 0xFE, 0x8A, 0xDF, 0x6D, 0x02, 0xE4, 0x64, 0x0D, 0xA2, 0xB6, 0xD5, 0xB3, 0xA6, 0x44, 0xDE, 0x58, 0x67, 0xD5, 0x1A, 0x5C, 0xBC, 0x49, 0x20, 0x0F, 0x27, 0x31, 0x4A, 0xF4, 0xAB, 0x9B, 0x4D, 0x3D, 0x25, 0xE4, 0xD4, 0x2D, 0x00, 0xA2, 0xF6, 0xD8, 0xFF, 0xFF, 0x00, 0x00, 0x00, 0x09, 0x10, 0x00, 0x00, 0x00, 0x09, 0x00, 0x00, 0x00, 0x14, 0x00, 0x00, 0x00, 0x78, 0x00, 0x00, 0x00, 0x02, 0x00, 0x00, 0x00, 0x20, 0x00, 0x00, 0x00, 0x10, 0x00, 0x00, 0x00, 0x63, 0x00, 0x00, 0x00, 0x73, 0x65, 0x71, 0x75, 0x65, 0x6E, 0x74, 0x69, 0x61, 0x6C, 0x5F, 0x31, 0x2F, 0x71, 0x75, 0x61, 0x6E, 0x74, 0x5F, 0x64, 0x65, 0x6E, 0x73, 0x65, 0x5F, 0x35, 0x2F, 0x4D, 0x61, 0x74, 0x4D, 0x75, 0x6C, 0x3B, 0x73, 0x65, 0x71, 0x75, 0x65, 0x6E, 0x74, 0x69, 0x61, 0x6C, 0x5F, 0x31, 0x2F, 0x71, 0x75, 0x61, 0x6E, 0x74, 0x5F, 0x64, 0x65, 0x6E, 0x73, 0x65, 0x5F, 0x35, 0x2F, 0x4C, 0x61, 0x73, 0x74, 0x56, 0x61, 0x6C, 0x75, 0x65, 0x51, 0x75, 0x61, 0x6E, 0x74, 0x2F, 0x46, 0x61, 0x6B, 0x65, 0x51, 0x75, 0x61, 0x6E, 0x74, 0x57, 0x69, 0x74, 0x68, 0x4D, 0x69, 0x6E, 0x4D, 0x61, 0x78, 0x56, 0x61, 0x72, 0x73, 0x00, 0x14, 0xD9, 0xFF, 0xFF, 0x08, 0x00, 0x00, 0x00, 0x0C, 0x00, 0x00, 0x00, 0x01, 0x00, 0x00, 0x00, 0xEF, 0x0E, 0x3F, 0x3B, 0x01, 0x00, 0x00, 0x00, 0x00, 0x00, 0x00, 0x00, 0x00, 0x00, 0x00, 0x00, 0x00, 0x00, 0x0E, 0x00, 0x1A, 0x00, 0x08, 0x00, 0x0C, 0x00, 0x10, 0x00, 0x07, 0x00, 0x14, 0x00, 0x0E, 0x00, 0x00, 0x00, 0x00, 0x00, 0x00, 0x08, 0x01, 0x00, 0x00, 0x00, 0x24, 0x00, 0x00, 0x00, 0x18, 0x00, 0x00, 0x00, 0x0C, 0x00, 0x00, 0x00, 0x00, 0x00, 0x06, 0x00, 0x08, 0x00, 0x07, 0x00, 0x06, 0x00, 0x00, 0x00, 0x00, 0x00, 0x00, 0x01, 0x01, 0x00, 0x00, 0x00, 0x07, 0x00, 0x00, 0x00, 0x03, 0x00, 0x00, 0x00, 0x05, 0x00, 0x00, 0x00, 0x06, 0x00, 0x00, 0x00, 0x01, 0x00, 0x00, 0x00, 0x0C, 0xDF, 0xFF, 0xFF, 0x09, 0x00, 0x00, 0x00, 0x00, 0x00, 0x00, 0x09, 0x04, 0x00, 0x00, 0x00, 0x00, 0xDF, 0xFF, 0xFF, 0x00, 0x00, 0x00, 0x09, 0x14, 0x00, 0x00, 0x00, 0x08, 0x00, 0x00, 0x00, 0x24, 0x00, 0x00, 0x00, 0x8C, 0x00, 0x00, 0x00, 0x10, 0x00, 0x00, 0x00, 0x02, 0x00, 0x00, 0x00, 0x01, 0x00, 0x00, 0x00, 0x10, 0x00, 0x00, 0x00, 0x02, 0x00, 0x00, 0x00, 0xFF, 0xFF, 0xFF, 0xFF, 0x10, 0x00, 0x00, 0x00, 0x64, 0x00, 0x00, 0x00, 0x73, 0x65, 0x71, 0x75, 0x65, 0x6E, 0x74, 0x69, 0x61, 0x6C, 0x5F, 0x31, 0x2F, 0x71, 0x75, 0x61, 0x6E, 0x74, 0x5F, 0x64, 0x65, 0x6E, 0x73, 0x65, 0x5F, 0x34, 0x2F, 0x4D, 0x61, 0x74, 0x4D, 0x75, 0x6C, 0x3B, 0x73, 0x65, 0x71, 0x75, 0x65, 0x6E, 0x74, 0x69, 0x61, 0x6C, 0x5F, 0x31, 0x2F, 0x71, 0x75, 0x61, 0x6E, 0x74, 0x5F, 0x64, 0x65, 0x6E, 0x73, 0x65, 0x5F, 0x34, 0x2F, 0x42, 0x69, 0x61, 0x73, 0x41, 0x64, 0x64, 0x3B, 0x73, 0x65, 0x71, 0x75, 0x65, 0x6E, 0x74, 0x69, 0x61, 0x6C, 0x5F, 0x31, 0x2F, 0x71, 0x75, 0x61, 0x6E, 0x74, 0x5F, 0x64, 0x65, 0x6E, 0x73, 0x65, 0x5F, 0x34, 0x2F, 0x52, 0x65, 0x6C, 0x75, 0x00, 0x00, 0x00, 0x00, 0x34, 0xDA, 0xFF, 0xFF, 0x08, 0x00, 0x00, 0x00, 0x0C, 0x00, 0x00, 0x00, 0x01, 0x00, 0x00, 0x00, 0x28, 0x87, 0x9A, 0x41, 0x01, 0x00, 0x00, 0x00, 0x80, 0xFF, 0xFF, 0xFF, 0xFF, 0xFF, 0xFF, 0xFF, 0x16, 0xDB, 0xFF, 0xFF, 0x04, 0x00, 0x00, 0x00, 0x40, 0x1F, 0x00, 0x00, 0xE9, 0xCB, 0xB0, 0x9D, 0xF7, 0xA7, 0x1F, 0xB1, 0xF4, 0xCA, 0xB9, 0x43, 0xCD, 0xC3, 0x9E, 0xD3, 0x4D, 0x2E, 0x30, 0xD9, 0x32, 0xF9, 0x10, 0xAA, 0x47, 0x0E, 0x5D, 0xFE, 0xDE, 0x0C, 0xDE, 0x9B, 0xF8, 0xB8, 0xC3, 0x1E, 0xA3, 0xC7, 0xFD, 0x04, 0x9F, 0xFA, 0x43, 0x2C, 0xE0, 0x18, 0xD2, 0x6F, 0x0C, 0x47, 0x29, 0x1C, 0xFF, 0x9F, 0xDF, 0xAD, 0xB9, 0x10, 0x20, 0xD6, 0xBF, 0x3F, 0x24, 0x3F, 0xC9, 0xD5, 0xD6, 0xA9, 0x91, 0x1D, 0xCC, 0x25, 0xEE, 0x34, 0x53, 0x07, 0xA8, 0xC3, 0xF9, 0xD0, 0xC9, 0x9E, 0x5A, 0xEA, 0xB3, 0x37, 0xFA, 0xD2, 0xDC, 0xD5, 0xB9, 0x16, 0xE6, 0x5A, 0x10, 0xB1, 0xA5, 0x52, 0x2A, 0xCC, 0x43, 0x5E, 0x45, 0x46, 0xDC, 0xAB, 0x27, 0xF4, 0xDB, 0xCA, 0x26, 0xE4, 0x2D, 0xB9, 0xF8, 0xF2, 0xC7, 0xCB, 0x39, 0x1B, 0xA3, 0xFA, 0xBF, 0x59, 0xDC, 0x1A, 0x01, 0xA9, 0xF6, 0xBE, 0xA5, 0x2D, 0x05, 0x28, 0x44, 0x0C, 0xA4, 0x0D, 0xD7, 0xD4, 0x96, 0xF4, 0x36, 0x0B, 0x0D, 0xE4, 0x02, 0xB8, 0x0A, 0x5D, 0x0C, 0xDD, 0x21, 0xC1, 0x09, 0xB5, 0x45, 0xE7, 0x48, 0x59, 0xF5, 0x28, 0xE9, 0xA0, 0x39, 0x4D, 0x22, 0xF2, 0x2F, 0x00, 0x2B, 0xA8, 0xD0, 0x28, 0xAF, 0x19, 0xDD, 0x1E, 0xEB, 0x43, 0x0D, 0xC8, 0x77, 0xD0, 0xFF, 0x61, 0x3A, 0x19, 0x30, 0xB1, 0xA9, 0xFA, 0x9C, 0x31, 0xBD, 0xEB, 0x17, 0x54, 0x02, 0xB3, 0xFC, 0x27, 0x59, 0x9C, 0xED, 0xA2, 0x01, 0x1D, 0xD8, 0x1B, 0xD2, 0x0E, 0x4F, 0x34, 0xAB, 0xB6, 0x35, 0x2C, 0x46, 0xFC, 0xE7, 0xF9, 0xD3, 0x2F, 0x3D, 0xCF, 0x09, 0xD1, 0xC5, 0x42, 0x2D, 0xD4, 0x39, 0x57, 0x2B, 0x4B, 0x0C, 0xD4, 0x53, 0x40, 0xC3, 0xB8, 0x2E, 0xE6, 0xE7, 0xB0, 0xB6, 0xAE, 0xDF, 0xEC, 0x4F, 0xF4, 0x5A, 0x48, 0xB3, 0xB2, 0xD8, 0xD8, 0xE4, 0x43, 0x01, 0xA1, 0x5A, 0x00, 0xE5, 0xF1, 0xBE, 0xC5, 0xB8, 0x12, 0xEF, 0x3B, 0xB3, 0x13, 0xD1, 0xFC, 0x1C, 0x08, 0xCD, 0x2E, 0xC4, 0xC2, 0x5F, 0xB5, 0x58, 0xDB, 0x6B, 0xD4, 0x53, 0x53, 0x39, 0x20, 0xC1, 0xB9, 0xE6, 0x39, 0xBF, 0xC7, 0x5D, 0xA5, 0x47, 0xF3, 0x41, 0xE7, 0x1C, 0xD1, 0xA0, 0xFD, 0x54, 0x18, 0xFE, 0xC8, 0x4C, 0x50, 0x44, 0xDD, 0x35, 0x69, 0x16, 0xDD, 0xF2, 0xB1, 0xD4, 0xBB, 0x39, 0x27, 0x05, 0xF9, 0xEA, 0xD2, 0xEA, 0x21, 0xE1, 0xD5, 0xD4, 0xED, 0xE1, 0x51, 0x46, 0xBB, 0xE2, 0x0F, 0xF3, 0xC6, 0x03, 0xE7, 0x9E, 0x3A, 0xB3, 0x62, 0xD4, 0x48, 0xE3, 0xC2, 0x21, 0x59, 0x00, 0x52, 0x30, 0xF8, 0xE7, 0xDB, 0x5F, 0xFA, 0x2E, 0x55, 0xF9, 0xED, 0xE2, 0xCE, 0x0A, 0x0E, 0x28, 0x30, 0xFE, 0xAA, 0xB8, 0x10, 0xB7, 0xCA, 0xBC, 0xD8, 0xAA, 0xBB, 0x4D, 0x51, 0x5A, 0x49, 0xB5, 0x4F, 0x4A, 0xCB, 0xD5, 0xB0, 0x39, 0xC4, 0xF8, 0x23, 0xAD, 0xE2, 0xF7, 0x35, 0xDD, 0xC6, 0x19, 0x04, 0xE3, 0xF2, 0xC5, 0xF6, 0x45, 0xC6, 0x03, 0xAD, 0xE8, 0x1C, 0x41, 0x98, 0xF4, 0x5D, 0x27, 0xE6, 0xA3, 0xD9, 0xE9, 0x4D, 0xE4, 0xEF, 0xCC, 0x46, 0x9F, 0x3A, 0xB6, 0xA7, 0x40, 0x53, 0x3C, 0x1C, 0x10, 0xC0, 0xD4, 0xD4, 0x17, 0x32, 0x0A, 0xF5, 0x14, 0x11, 0xEF, 0xB3, 0x32, 0x68, 0x6A, 0xD5, 0xEE, 0xE7, 0xEE, 0x6F, 0x46, 0x3F, 0xDB, 0x22, 0x58, 0xE5, 0xCA, 0x14, 0x17, 0xD9, 0x41, 0x28, 0xA4, 0x4C, 0xDE, 0x03, 0x55, 0x35, 0x1A, 0x20, 0xC5, 0xDD, 0xFC, 0x06, 0xDD, 0x2C, 0xC0, 0xD5, 0xB9, 0xD2, 0x71, 0xB1, 0xBF, 0x56, 0x5A, 0xF3, 0xF5, 0x49, 0x56, 0x29, 0x66, 0xC2, 0x50, 0xA8, 0xE2, 0x53, 0x05, 0xE5, 0xB1, 0xC5, 0xF5, 0x38, 0xC2, 0xEA, 0xCD, 0x58, 0xC3, 0x27, 0x38, 0x4E, 0xF2, 0xF2, 0xB3, 0xFD, 0xB3, 0x14, 0xE1, 0xFA, 0x10, 0x75, 0xB3, 0x54, 0x44, 0x4A, 0xA4, 0x8E, 0xC1, 0xDE, 0x11, 0x0A, 0x53, 0x14, 0x33, 0x48, 0x30, 0x3B, 0xAA, 0xC5, 0x16, 0x1C, 0x39, 0x3E, 0x36, 0x9F, 0x2A, 0x2B, 0xAE, 0xCF, 0xFD, 0xE3, 0xC4, 0xE2, 0xE9, 0x59, 0x19, 0xA7, 0xF8, 0xC7, 0x3F, 0x48, 0x00, 0xF9, 0x46, 0x5D, 0xB0, 0xE9, 0xD4, 0x5F, 0xCD, 0xEE, 0x33, 0xD2, 0x20, 0x02, 0x2D, 0x28, 0x3D, 0xDC, 0x54, 0xC4, 0xAA, 0x37, 0x30, 0x09, 0xA5, 0xF5, 0xE7, 0x32, 0x4D, 0x31, 0x65, 0xEA, 0xBB, 0xD6, 0x27, 0x17, 0xD7, 0xC0, 0x17, 0x63, 0x3D, 0x9D, 0xD0, 0x13, 0xC9, 0x4D, 0x3F, 0x13, 0x4D, 0xD2, 0xB9, 0xD4, 0xA0, 0xD4, 0x50, 0x4A, 0xF4, 0xF7, 0x40, 0x43, 0xDA, 0xE1, 0xBD, 0xA0, 0x4A, 0xE8, 0xC9, 0x3E, 0x2B, 0x45, 0xA7, 0xC8, 0x49, 0xF3, 0xF4, 0x16, 0x29, 0xE8, 0xC4, 0xB3, 0xDD, 0x0D, 0xB5, 0x30, 0x09, 0xD1, 0xA5, 0xBC, 0xA2, 0xDD, 0x16, 0x4A, 0xDA, 0xFE, 0xA6, 0x22, 0x20, 0x53, 0x21, 0xD3, 0xE2, 0xAE, 0x34, 0xD1, 0x2F, 0x5F, 0xDC, 0xBF, 0x1A, 0xAF, 0xF6, 0xCE, 0xE3, 0x4C, 0xE4, 0xA5, 0xE7, 0x64, 0x30, 0x1C, 0xFF, 0xF1, 0x34, 0x25, 0x3A, 0xEE, 0x06, 0x55, 0xC1, 0x2F, 0xF6, 0x33, 0x42, 0x43, 0x01, 0xE5, 0xDE, 0x2E, 0xE2, 0x31, 0xA3, 0xCF, 0x5D, 0x41, 0x45, 0xE7, 0xD4, 0x37, 0xC4, 0xE8, 0xF1, 0xB2, 0x3B, 0xF9, 0x04, 0xBD, 0x4C, 0xF2, 0x4F, 0x39, 0x60, 0x6C, 0x3C, 0xE6, 0xBC, 0xC1, 0xB6, 0x58, 0x9B, 0x37, 0xB6, 0x23, 0x37, 0xCC, 0xE5, 0xD1, 0x43, 0x41, 0x16, 0x16, 0x07, 0xB1, 0x93, 0xD5, 0x00, 0xDB, 0x0D, 0xA1, 0x33, 0xB0, 0x4A, 0x08, 0xCF, 0xC4, 0xD2, 0x20, 0x97, 0x16, 0xF9, 0xEB, 0x58, 0xD5, 0x65, 0x0C, 0x1C, 0x04, 0x9D, 0xE6, 0xF9, 0xD5, 0x0C, 0x3A, 0xFA, 0xF5, 0x53, 0x19, 0x1E, 0x03, 0x5A, 0xF7, 0x54, 0x0A, 0xE1, 0xA8, 0xE4, 0xB7, 0x26, 0x1B, 0x24, 0x28, 0x20, 0xE9, 0xC5, 0x32, 0x4E, 0xCA, 0xE7, 0x4F, 0x2C, 0xDB, 0x24, 0x52, 0x66, 0xCE, 0xDA, 0xC4, 0x0E, 0x3D, 0x0B, 0x0D, 0xD7, 0x32, 0xCD, 0x40, 0x24, 0x1D, 0xED, 0xB7, 0x4E, 0xE1, 0x0A, 0x1B, 0xD2, 0xF5, 0xD7, 0x0B, 0xBA, 0x5B, 0xE9, 0x48, 0x58, 0x12, 0x24, 0x60, 0xC2, 0xB0, 0x28, 0xBA, 0xFF, 0xBB, 0xEF, 0xBF, 0x56, 0xB9, 0x10, 0x5F, 0x3B, 0x1E, 0xCD, 0x0E, 0xAE, 0xEB, 0x43, 0xC9, 0x5C, 0xE1, 0xD6, 0xCB, 0xDE, 0xC0, 0x27, 0x60, 0x0A, 0xDE, 0xD8, 0xA8, 0x0F, 0xDA, 0x53, 0xF8, 0xD9, 0xEC, 0xAA, 0xF8, 0xE8, 0x66, 0x23, 0xF2, 0x01, 0xAD, 0x9B, 0xB4, 0x2C, 0x50, 0x3C, 0x2C, 0x0B, 0x07, 0x37, 0xAE, 0xA3, 0x38, 0x98, 0x04, 0x23, 0x09, 0xA9, 0xBC, 0x43, 0xB8, 0x4F, 0x1C, 0xE4, 0x1C, 0x18, 0x54, 0xD2, 0xEA, 0x3B, 0xF5, 0xC5, 0xAD, 0x2B, 0x50, 0xD1, 0xF9, 0xBB, 0xF6, 0x43, 0xC0, 0xD5, 0xAA, 0x34, 0xAA, 0xB1, 0x22, 0xEE, 0x58, 0xBB, 0x4E, 0x4C, 0xB0, 0xCA, 0x03, 0x2C, 0x0E, 0x12, 0x9E, 0x26, 0xDC, 0xA5, 0x43, 0xE3, 0x08, 0x27, 0x66, 0xE9, 0x11, 0xAD, 0x23, 0x07, 0xE4, 0xDD, 0x04, 0x00, 0x19, 0x29, 0xD2, 0x13, 0x35, 0x17, 0xC8, 0x08, 0xBA, 0x18, 0x0F, 0x56, 0x33, 0xF7, 0x65, 0x2F, 0xCB, 0xB3, 0x47, 0xF9, 0x41, 0x3A, 0xAD, 0x56, 0xBC, 0x24, 0x29, 0x93, 0x0F, 0x2C, 0x5F, 0xB5, 0x4E, 0xF1, 0xDA, 0x4F, 0xA5, 0x4B, 0xF7, 0xE3, 0x00, 0x34, 0x0A, 0xC8, 0x36, 0xD6, 0x3F, 0x9B, 0xC2, 0x54, 0x1A, 0xA0, 0xDF, 0x95, 0xE5, 0xC5, 0x26, 0xEF, 0xE9, 0x2E, 0xDC, 0x36, 0xE8, 0x3F, 0x5A, 0x51, 0x4E, 0x4B, 0x06, 0x9D, 0x2F, 0xC9, 0x1D, 0x18, 0xDF, 0xF0, 0x1F, 0x69, 0xA9, 0x25, 0x9B, 0x17, 0xBA, 0x8F, 0x1A, 0xDF, 0xD1, 0x06, 0x38, 0x05, 0x05, 0x0B, 0x50, 0xA2, 0x0D, 0xC9, 0x03, 0x09, 0x35, 0x5B, 0xBB, 0xFF, 0xEB, 0xF4, 0xEC, 0x68, 0xEA, 0xB0, 0xB0, 0x4E, 0xEB, 0xE8, 0xDE, 0x01, 0x56, 0x61, 0xAB, 0xB3, 0xD3, 0x24, 0xC1, 0xC7, 0xA7, 0x0E, 0x4B, 0xE3, 0x1A, 0x51, 0xD1, 0x4C, 0xB6, 0x13, 0x47, 0x3C, 0x1E, 0xE7, 0x35, 0xBF, 0x25, 0x20, 0xE1, 0x14, 0x1B, 0xEC, 0xBA, 0x49, 0xE2, 0xB5, 0x23, 0x9B, 0xDA, 0xC6, 0xBD, 0xFA, 0xBE, 0x26, 0xC1, 0x19, 0x1E, 0xA7, 0x24, 0x20, 0x3B, 0xC0, 0x1F, 0x58, 0xE0, 0xEE, 0x56, 0xB9, 0x4C, 0xE6, 0xE0, 0x21, 0x53, 0x30, 0xD3, 0xFE, 0x41, 0xF6, 0x22, 0xDA, 0xCC, 0x1B, 0xBC, 0xF6, 0xA0, 0xB8, 0xBC, 0xDD, 0xBE, 0xDA, 0xBA, 0x55, 0x01, 0xC1, 0x39, 0x45, 0xBF, 0x0B, 0x4B, 0xD7, 0xB5, 0x27, 0xAA, 0x8E, 0x31, 0x15, 0x51, 0x66, 0x5D, 0x99, 0x09, 0x3B, 0xF2, 0x08, 0xC9, 0xC7, 0x66, 0x25, 0xC1, 0xD8, 0xB3, 0xC8, 0xAA, 0x58, 0x48, 0x36, 0xBC, 0x08, 0x2D, 0x4C, 0xE7, 0xF9, 0xB5, 0xC7, 0xBB, 0xB3, 0xF2, 0xA5, 0xEF, 0x55, 0x5F, 0x47, 0x3B, 0x03, 0x5F, 0xC9, 0xDC, 0xE9, 0x2F, 0xD4, 0x48, 0x23, 0x85, 0xCC, 0xB1, 0xEF, 0xD7, 0xD9, 0xFA, 0xE6, 0x1F, 0xEA, 0x4F, 0xD9, 0x1B, 0x0D, 0x2A, 0x1F, 0xE3, 0xF9, 0xCF, 0xEA, 0x1E, 0xFB, 0x42, 0x10, 0x08, 0xCF, 0xAC, 0xB9, 0x36, 0xA5, 0xD3, 0x4D, 0x0A, 0x59, 0xAA, 0x45, 0xB9, 0x49, 0xC8, 0x25, 0xC9, 0x5D, 0xBB, 0xFB, 0xD6, 0x3F, 0xCF, 0xD9, 0x07, 0xB9, 0x38, 0xD6, 0x6E, 0x85, 0x02, 0x3D, 0x2F, 0xC8, 0x44, 0xDB, 0xE6, 0xC4, 0x35, 0x4D, 0x33, 0xCC, 0xB3, 0xFE, 0x5B, 0xDF, 0xC6, 0x36, 0x04, 0x12, 0xC2, 0xBD, 0xD9, 0xFB, 0x6E, 0xEB, 0xEB, 0x35, 0xA2, 0xBF, 0x5B, 0xA3, 0xDC, 0xB1, 0x32, 0x99, 0x06, 0x3E, 0xDB, 0x1C, 0x54, 0x21, 0xB7, 0x26, 0x09, 0x43, 0x20, 0x33, 0xB8, 0xBE, 0xB7, 0xCA, 0x47, 0x45, 0x43, 0x03, 0x2A, 0xB2, 0x16, 0xE3, 0xCC, 0x4E, 0xFB, 0xE1, 0xA8, 0x51, 0xD5, 0x40, 0x0D, 0xB7, 0xFC, 0xBB, 0x35, 0xBE, 0x13, 0xF7, 0x1C, 0x2E, 0xF6, 0xB7, 0x3A, 0x22, 0xE3, 0xE1, 0xBF, 0x3C, 0x48, 0x23, 0xCE, 0x1B, 0xAC, 0x50, 0x99, 0x47, 0xFD, 0xE1, 0xA4, 0xD1, 0x1E, 0xEF, 0x4B, 0xF1, 0xF8, 0xBE, 0xB2, 0xB2, 0x11, 0x50, 0xAD, 0xB7, 0xFA, 0xDE, 0x26, 0xB3, 0xC3, 0xBE, 0xC9, 0xBF, 0xB9, 0x2F, 0x2A, 0x4D, 0xBA, 0x07, 0x5B, 0xE2, 0xE7, 0x5A, 0xAE, 0xDF, 0x4B, 0xF2, 0x03, 0x5E, 0xBB, 0x37, 0x42, 0xD5, 0xFB, 0xBA, 0xE3, 0x23, 0xF3, 0x5E, 0x53, 0x5B, 0xE2, 0xAE, 0xBC, 0x72, 0x04, 0x3B, 0x34, 0xF6, 0xD4, 0x2C, 0x4E, 0x48, 0x66, 0xE4, 0xCB, 0xD5, 0x5A, 0xF0, 0xF4, 0x1D, 0x20, 0x55, 0xE0, 0xD8, 0xB9, 0xAA, 0xDD, 0x21, 0x0D, 0xA4, 0x51, 0x0C, 0x10, 0x3B, 0xBF, 0xCF, 0xB0, 0xB1, 0xCB, 0x35, 0xC3, 0x33, 0xF1, 0xAC, 0xB8, 0xC9, 0x15, 0xCE, 0xEE, 0xA6, 0x59, 0xDE, 0xE4, 0xF2, 0xC5, 0xA4, 0x6C, 0xA8, 0x04, 0xB7, 0xD0, 0x54, 0x09, 0xB0, 0x05, 0x37, 0x5F, 0xDA, 0x6A, 0xC0, 0x48, 0xB1, 0xF3, 0xDE, 0x54, 0x35, 0xD6, 0x5A, 0xFA, 0xAF, 0x2D, 0xA4, 0x5D, 0x31, 0xDC, 0x08, 0xE3, 0xE8, 0xFC, 0xB6, 0x19, 0x03, 0x48, 0xCA, 0x3A, 0xC6, 0xCA, 0x98, 0x4F, 0x35, 0xC4, 0xBC, 0x57, 0x65, 0xBB, 0x2B, 0xD6, 0x5B, 0xE5, 0xF5, 0x38, 0x3E, 0x1D, 0x26, 0xFF, 0x38, 0x29, 0x9B, 0x03, 0xEF, 0xF2, 0x4E, 0x9F, 0x43, 0x46, 0x20, 0xD0, 0x1D, 0x43, 0x8F, 0xDD, 0xD3, 0x44, 0xD5, 0x36, 0xE2, 0xA7, 0x11, 0x0E, 0xC4, 0xB6, 0xD4, 0x9D, 0x04, 0xED, 0x0F, 0xF3, 0xAA, 0xF2, 0x5B, 0xCC, 0xA0, 0x1A, 0xEE, 0xBB, 0x61, 0xCD, 0xEA, 0xD1, 0xD8, 0x20, 0xBC, 0x1D, 0xEA, 0x3A, 0xF2, 0x12, 0xCF, 0xB4, 0xFD, 0x45, 0x1C, 0x37, 0x17, 0xC9, 0x53, 0xED, 0xB4, 0x50, 0x1A, 0x56, 0x21, 0xAF, 0xA7, 0x45, 0xDC, 0xB3, 0xEA, 0x4C, 0x0D, 0x3A, 0x3A, 0x33, 0x18, 0x35, 0x97, 0xED, 0x01, 0x4E, 0x0B, 0x1F, 0x3C, 0xC0, 0xD8, 0xEF, 0x30, 0x40, 0x5B, 0x53, 0xF6, 0x32, 0x00, 0xD4, 0x46, 0xF6, 0xE3, 0x4D, 0x19, 0xCB, 0xAF, 0x48, 0x0C, 0x23, 0x66, 0xFA, 0xB1, 0xA5, 0x23, 0xD5, 0x2A, 0x39, 0x48, 0x72, 0xB0, 0x0A, 0x42, 0x70, 0xAE, 0x52, 0x32, 0xDD, 0xCC, 0x35, 0x1D, 0x27, 0xAC, 0xB5, 0xC2, 0xE7, 0xD4, 0x0E, 0xB4, 0x47, 0x34, 0x11, 0x1A, 0xA3, 0xB1, 0xCE, 0xDF, 0xF9, 0xD6, 0xAC, 0xE1, 0x34, 0xA9, 0xC5, 0x08, 0x26, 0xA2, 0xC6, 0xBE, 0x0E, 0x35, 0x33, 0xCE, 0x2F, 0x07, 0x56, 0x3B, 0x19, 0x18, 0xC2, 0xE5, 0xA8, 0x31, 0xD0, 0x2B, 0xA1, 0x53, 0x91, 0x4F, 0xE1, 0xF4, 0x25, 0xDA, 0xD1, 0xF9, 0xCA, 0xAF, 0xD1, 0xB2, 0x6A, 0xDE, 0xFE, 0x0F, 0x24, 0x6F, 0x35, 0xA8, 0xB9, 0xCD, 0x24, 0x1D, 0x07, 0x50, 0xA7, 0x28, 0x34, 0x4F, 0x06, 0xD9, 0x40, 0x28, 0xF7, 0x2F, 0x0A, 0xE2, 0x1A, 0xC8, 0x11, 0x0C, 0xF1, 0xD4, 0x17, 0x27, 0x15, 0x11, 0xA8, 0x04, 0xDC, 0xAD, 0x0B, 0xC4, 0xD2, 0xCB, 0x10, 0x4E, 0x00, 0x5D, 0x35, 0x5F, 0xD4, 0xAE, 0xA3, 0x68, 0xB2, 0xD6, 0x9E, 0x2E, 0xB3, 0x12, 0xD7, 0xA0, 0x78, 0xC3, 0xDD, 0xF7, 0xE3, 0xA1, 0x58, 0xCD, 0x35, 0x48, 0xD7, 0xDE, 0xDC, 0xEE, 0xDA, 0x57, 0x2F, 0xEF, 0x16, 0xD1, 0xC4, 0xEC, 0x17, 0x44, 0x36, 0xB1, 0x5E, 0x02, 0xCF, 0xAE, 0x0A, 0x23, 0xA6, 0x1F, 0x4B, 0xA5, 0x17, 0x27, 0x4D, 0xC3, 0xB7, 0x33, 0xD5, 0x30, 0x19, 0xA9, 0xA2, 0x11, 0xCD, 0x65, 0x2A, 0x47, 0xE4, 0xDF, 0x9F, 0xD3, 0xC7, 0x06, 0x2A, 0xD1, 0x0D, 0xD1, 0xCF, 0x1F, 0x46, 0x67, 0x4D, 0x05, 0xFE, 0xFE, 0x55, 0x2F, 0xE9, 0x0F, 0x27, 0x54, 0xF6, 0xF7, 0xB0, 0xDC, 0x10, 0x4E, 0x23, 0xF1, 0x53, 0x09, 0xBF, 0x27, 0xF1, 0xF2, 0xA6, 0x4B, 0xC1, 0xCB, 0x9E, 0xAC, 0xA8, 0x12, 0x3A, 0xBE, 0x2B, 0xA7, 0xA4, 0x07, 0xAF, 0xF0, 0xA3, 0x46, 0x89, 0x0E, 0x4A, 0xE0, 0xE5, 0xA4, 0xE9, 0xB4, 0xCF, 0xB7, 0x4D, 0x3B, 0xE3, 0x32, 0x52, 0xC6, 0x4A, 0x3C, 0x2E, 0x4C, 0xCF, 0x4D, 0x42, 0x0E, 0x39, 0xD3, 0x1D, 0x2F, 0x26, 0x5A, 0x5F, 0x55, 0x73, 0x61, 0x21, 0xF1, 0xB9, 0x10, 0x9B, 0x97, 0x29, 0xD6, 0xE8, 0xBD, 0x11, 0x21, 0xB1, 0x1E, 0x0C, 0xB4, 0xC3, 0x54, 0xB7, 0x21, 0x2A, 0x53, 0xDE, 0xDE, 0x02, 0x38, 0xB2, 0x0D, 0xAA, 0xF6, 0xF7, 0xA6, 0xB5, 0x49, 0x3B, 0xA0, 0x52, 0x6E, 0xA5, 0x46, 0xD5, 0x48, 0x1C, 0x93, 0x1B, 0x56, 0x35, 0x1E, 0x2D, 0xE6, 0x28, 0x0E, 0xE6, 0x56, 0x6B, 0x0E, 0x26, 0x28, 0xB4, 0x51, 0xE0, 0xFA, 0x2C, 0x2C, 0xED, 0xFE, 0x6B, 0x35, 0x23, 0x44, 0x0F, 0x4E, 0x68, 0x34, 0x12, 0x0B, 0xF0, 0xCA, 0xE0, 0xF2, 0x30, 0x6B, 0xB0, 0xFC, 0x48, 0xA0, 0xF3, 0xE8, 0x1E, 0x0A, 0x17, 0x51, 0x54, 0xD0, 0xEE, 0x20, 0xB5, 0x9B, 0x24, 0x48, 0xC4, 0xAF, 0x21, 0x3F, 0x32, 0x11, 0xB3, 0xEC, 0x9C, 0xAC, 0x5F, 0xA8, 0xE7, 0xE7, 0x1B, 0xFA, 0xAB, 0x54, 0xC8, 0xC8, 0x13, 0xBF, 0x38, 0x0F, 0xFD, 0xEE, 0x48, 0x36, 0xDA, 0x45, 0xD8, 0x15, 0x0F, 0x58, 0xC9, 0x05, 0x3B, 0xC9, 0x2B, 0x3A, 0x43, 0x08, 0x9C, 0xBD, 0xA6, 0xD8, 0x07, 0x54, 0x0D, 0xDF, 0x23, 0xA5, 0xC6, 0x68, 0xFE, 0xB9, 0x5B, 0x93, 0xEC, 0x75, 0x5B, 0xCA, 0xF9, 0xF5, 0xE3, 0x29, 0xDA, 0x15, 0xC3, 0x59, 0xE9, 0x0E, 0x30, 0x02, 0xEB, 0x49, 0x32, 0x64, 0x69, 0x1E, 0x22, 0x53, 0x11, 0xDB, 0x09, 0x9C, 0xBB, 0x08, 0x20, 0xBE, 0xAB, 0xAA, 0x41, 0xF4, 0xD0, 0xE6, 0x31, 0xED, 0xDD, 0x0E, 0xE7, 0x25, 0xC4, 0x30, 0xAA, 0x2F, 0x35, 0x28, 0x1C, 0xFE, 0x53, 0xFF, 0xCB, 0xE2, 0xB9, 0xE8, 0x0A, 0x1F, 0xEC, 0xB4, 0xB3, 0x12, 0xC0, 0x33, 0xE7, 0xF4, 0xE6, 0xC8, 0x5C, 0xF7, 0xD4, 0x2D, 0xEC, 0x42, 0x30, 0xC2, 0xFC, 0xC8, 0xD2, 0x68, 0xC5, 0x17, 0x1E, 0x01, 0xD3, 0x44, 0x10, 0xD3, 0x49, 0x03, 0xAC, 0x19, 0x24, 0x2D, 0xC2, 0xDC, 0xAF, 0x26, 0x49, 0x33, 0xBD, 0xE5, 0x38, 0x11, 0x03, 0x3B, 0x53, 0x32, 0x26, 0xED, 0xD5, 0x0B, 0xCF, 0x59, 0x62, 0xD9, 0x96, 0x27, 0xED, 0xEB, 0xAB, 0x35, 0xE1, 0xBB, 0xA6, 0xD2, 0xF3, 0x1B, 0x3E, 0x22, 0xB1, 0xE2, 0x07, 0x3C, 0x5B, 0xF3, 0x1C, 0x21, 0xBF, 0x31, 0x08, 0xD2, 0xCE, 0xBA, 0xD1, 0x09, 0x23, 0xC7, 0xA9, 0xE2, 0x11, 0xAD, 0x4E, 0xEA, 0x11, 0x38, 0x27, 0xCD, 0xC1, 0xA4, 0xCD, 0x29, 0xA8, 0x34, 0xC1, 0x42, 0x40, 0x23, 0xD9, 0x09, 0xAC, 0x09, 0x69, 0x71, 0xB7, 0xB0, 0xEF, 0xB8, 0x47, 0x39, 0xE7, 0xFE, 0x58, 0xDC, 0x43, 0x1C, 0xEA, 0x2B, 0x1E, 0x36, 0xC0, 0xB3, 0xA8, 0x12, 0xCA, 0x3F, 0xB2, 0x3E, 0x4D, 0x0C, 0x08, 0x04, 0xF5, 0x50, 0x46, 0xAB, 0xC1, 0x1A, 0x5A, 0x2C, 0x5C, 0xE2, 0xF2, 0xA9, 0x99, 0x0C, 0x93, 0xD4, 0xAB, 0x1B, 0x9D, 0xEE, 0xB7, 0xA4, 0xE1, 0x34, 0x2A, 0xAA, 0xB7, 0x06, 0x1C, 0xEB, 0x03, 0xFB, 0x5A, 0x03, 0x98, 0xE7, 0xC5, 0x40, 0x1F, 0x26, 0xE1, 0xE2, 0x4B, 0x2D, 0x5B, 0x3A, 0xEA, 0x25, 0xEA, 0x26, 0x24, 0xEA, 0x39, 0xC2, 0x0C, 0x3B, 0x9A, 0x54, 0x58, 0x08, 0x53, 0xF7, 0xF9, 0x2D, 0x35, 0x1C, 0xC8, 0x36, 0xF0, 0xF2, 0xB5, 0x30, 0xAD, 0xDF, 0x2C, 0xD3, 0xBC, 0xB4, 0x4A, 0x38, 0xC9, 0xFC, 0xAB, 0xDD, 0x3E, 0x12, 0x02, 0xC1, 0x34, 0xE2, 0x28, 0x0D, 0xC9, 0xAE, 0x1C, 0x37, 0xD0, 0x18, 0xFA, 0x6A, 0x28, 0x5F, 0x56, 0x48, 0x36, 0x45, 0x26, 0xCC, 0x0E, 0x21, 0x39, 0x2C, 0x97, 0xC6, 0xCC, 0xBC, 0x4D, 0xE6, 0x4F, 0x35, 0x4E, 0xFC, 0x30, 0xEA, 0xF4, 0x0D, 0x3D, 0xF8, 0x2F, 0x43, 0x47, 0xFF, 0x0B, 0x69, 0x68, 0x58, 0xE8, 0xDF, 0xEB, 0xD9, 0xA8, 0x52, 0x32, 0xB8, 0x0A, 0x59, 0x01, 0xA2, 0x01, 0x12, 0x98, 0x10, 0xBC, 0xC1, 0x0C, 0x11, 0x13, 0x1D, 0xFF, 0xF4, 0xFF, 0xF0, 0xF5, 0xD8, 0xF0, 0xB4, 0xA8, 0xF3, 0x74, 0x34, 0x55, 0x0A, 0xFB, 0x42, 0xA0, 0xF8, 0x45, 0x54, 0x64, 0xF4, 0xFA, 0x23, 0x71, 0xCD, 0xC1, 0xFB, 0xDD, 0xAB, 0xD2, 0xE9, 0xC2, 0x49, 0xF1, 0xBC, 0xE6, 0xC3, 0x29, 0x35, 0x2E, 0x0F, 0x73, 0xC1, 0x9B, 0x96, 0x53, 0xB0, 0xFB, 0xC8, 0xEE, 0xD1, 0x6B, 0xA7, 0xEC, 0xB7, 0x11, 0x32, 0x9E, 0xB6, 0xC9, 0x09, 0x1C, 0x05, 0xCE, 0xA5, 0x5F, 0x9F, 0x12, 0xDD, 0xE3, 0xEF, 0x29, 0x6A, 0x01, 0x40, 0x72, 0xFF, 0xBD, 0x37, 0xC0, 0x71, 0x4F, 0xC6, 0x7A, 0x65, 0x52, 0xC4, 0xD2, 0x1B, 0xEA, 0x51, 0xD0, 0x5E, 0xE6, 0xB6, 0x25, 0xE6, 0x2A, 0x0B, 0x1D, 0xC9, 0x32, 0xE8, 0xFB, 0x44, 0xC8, 0xE6, 0x43, 0xD8, 0x16, 0x42, 0xF3, 0x6E, 0x3E, 0x1B, 0x28, 0x5E, 0xB4, 0xC7, 0xCD, 0x03, 0xEC, 0x28, 0x2B, 0xEB, 0x1E, 0x1D, 0xB4, 0x4A, 0xAE, 0x53, 0xE7, 0x9C, 0xF5, 0x39, 0xD9, 0x3F, 0xEB, 0xD4, 0xF0, 0xEC, 0x9A, 0x07, 0x3F, 0x2A, 0xC2, 0xB1, 0xFA, 0x9D, 0x5A, 0xDF, 0x55, 0x0D, 0x13, 0xB6, 0xBC, 0x32, 0x58, 0x0F, 0x59, 0xFD, 0x05, 0xB5, 0xFC, 0x23, 0xDC, 0x46, 0xFE, 0x32, 0xB6, 0x37, 0x3A, 0xAE, 0x43, 0x08, 0x4D, 0xB6, 0x31, 0xD0, 0x23, 0x9F, 0xD7, 0xEF, 0xF5, 0xD2, 0x1A, 0x54, 0x61, 0x2E, 0xC5, 0x08, 0xB8, 0xCE, 0xF5, 0xA6, 0x3C, 0x63, 0xFB, 0x0B, 0xAB, 0xF5, 0x01, 0xE7, 0xC6, 0x0A, 0x46, 0x43, 0xB3, 0x51, 0x0C, 0x43, 0xC2, 0xB8, 0xE0, 0xAA, 0x1B, 0x1A, 0x14, 0xEB, 0x28, 0x40, 0xED, 0x35, 0x5A, 0xB3, 0x29, 0xB4, 0x21, 0x46, 0x69, 0x08, 0x3C, 0x65, 0xD7, 0x59, 0x2B, 0xF9, 0x07, 0x64, 0xE4, 0xCF, 0xAD, 0x13, 0x01, 0x52, 0x99, 0x51, 0xC5, 0xE0, 0xD3, 0xC6, 0xBB, 0xA5, 0x26, 0x2F, 0x0E, 0xF2, 0x0F, 0xBC, 0x01, 0xAA, 0xD9, 0x1A, 0xCD, 0x48, 0x05, 0xEB, 0x21, 0xE4, 0x59, 0xD8, 0x0F, 0xE2, 0xA3, 0xA1, 0xF8, 0xF9, 0x04, 0xB4, 0x2F, 0x53, 0x03, 0x50, 0xC3, 0xB8, 0x05, 0xBC, 0x43, 0x26, 0x62, 0x25, 0x33, 0x0F, 0x39, 0xC9, 0xCA, 0x41, 0x11, 0xC2, 0xBC, 0xBE, 0xD9, 0x28, 0x4A, 0x44, 0x09, 0xBA, 0x00, 0xAB, 0xD3, 0x2D, 0xC6, 0x32, 0xD9, 0x64, 0xEC, 0xD6, 0xB0, 0x40, 0xB6, 0xF1, 0x0A, 0xEB, 0xF2, 0xE3, 0x27, 0xE5, 0x07, 0xCA, 0x32, 0xCF, 0x26, 0xD8, 0x04, 0xCA, 0x46, 0x09, 0x2E, 0xDF, 0x30, 0x6D, 0xBE, 0x9F, 0xA6, 0x49, 0xF4, 0xB3, 0xB2, 0x0C, 0x47, 0x51, 0xD0, 0x0D, 0xCC, 0xC4, 0xD0, 0x47, 0x2C, 0x99, 0xB0, 0x39, 0x0D, 0x3F, 0xB6, 0xC9, 0xC9, 0x0D, 0x36, 0x07, 0x09, 0x3C, 0x1B, 0x1B, 0x0A, 0x21, 0x1A, 0xEB, 0xB5, 0xE5, 0x1F, 0x10, 0xEE, 0xDF, 0x13, 0xEC, 0x39, 0xD8, 0xE2, 0xFC, 0x4A, 0x2C, 0xD8, 0x26, 0xE5, 0xCB, 0x17, 0xCF, 0x44, 0x2E, 0xD0, 0x11, 0x23, 0x49, 0xD6, 0x0C, 0xAA, 0x31, 0xCE, 0x3E, 0x21, 0xBC, 0xA8, 0x08, 0xC7, 0xF0, 0xF3, 0x42, 0xE7, 0xB9, 0xCD, 0x59, 0x63, 0x20, 0x97, 0xB3, 0xF0, 0xE4, 0x9C, 0xA6, 0xDA, 0x10, 0xE6, 0x2B, 0xD4, 0x46, 0x4F, 0x2B, 0x60, 0xC7, 0xF0, 0x60, 0x41, 0xE6, 0x1E, 0x43, 0xF7, 0x63, 0xB3, 0xD6, 0xE7, 0xBE, 0xFD, 0x66, 0xEC, 0xC5, 0x13, 0x48, 0x4E, 0xB1, 0xE2, 0x25, 0x14, 0x91, 0xBF, 0x0B, 0xF3, 0xAD, 0x4E, 0x00, 0x64, 0x24, 0xAD, 0x37, 0x48, 0x5A, 0xAB, 0xCE, 0x54, 0x5D, 0x45, 0xB5, 0x61, 0xDD, 0x22, 0x2A, 0x1C, 0xB3, 0x42, 0x16, 0xF8, 0x9A, 0xB9, 0x4E, 0x1A, 0x45, 0x5A, 0x12, 0x59, 0xB1, 0x11, 0xCB, 0xF8, 0xF6, 0x4B, 0x20, 0x24, 0x43, 0x35, 0x6A, 0xB2, 0xA5, 0xBE, 0x5E, 0xE2, 0xD7, 0xF7, 0xD5, 0xAC, 0xF9, 0xD9, 0xCB, 0x49, 0xAA, 0x13, 0xEC, 0x11, 0x24, 0xE4, 0x30, 0xE0, 0x2A, 0xFF, 0xF6, 0xFD, 0x4C, 0xC2, 0x32, 0x19, 0x46, 0x21, 0xAF, 0x5D, 0xF8, 0xE3, 0x1B, 0x02, 0x4B, 0xDE, 0x25, 0x55, 0xBD, 0x9D, 0x29, 0xE3, 0xE5, 0xF3, 0x19, 0x0B, 0xFB, 0x48, 0x0D, 0xAD, 0x0C, 0x37, 0xE5, 0xBC, 0xC7, 0x54, 0x3F, 0xCA, 0x1F, 0xA7, 0x3E, 0xFA, 0x3D, 0xFC, 0xA4, 0xF0, 0x34, 0xE2, 0x23, 0x1F, 0xB9, 0xB8, 0xA7, 0x62, 0x17, 0xD1, 0xFC, 0x13, 0xDB, 0xE5, 0x34, 0xD9, 0x3A, 0xC6, 0xD0, 0x5C, 0x0B, 0x10, 0xE2, 0x4E, 0x1B, 0x2D, 0xE3, 0xCD, 0xBA, 0x41, 0xDD, 0xB2, 0xE9, 0xD4, 0xBD, 0xDE, 0x14, 0xE4, 0x08, 0x3F, 0xF3, 0x18, 0x4C, 0x22, 0x3F, 0x4A, 0xC5, 0x4B, 0x09, 0x0C, 0x27, 0x29, 0xB2, 0x24, 0xE9, 0xC0, 0xD9, 0xB9, 0x11, 0xAD, 0x1A, 0x08, 0x07, 0x79, 0xA6, 0x2F, 0x62, 0x16, 0x17, 0x17, 0xBA, 0xEC, 0x4D, 0x32, 0x16, 0x24, 0xD9, 0xDC, 0x4D, 0xF8, 0x20, 0xFA, 0xBA, 0x2C, 0x3F, 0x1A, 0xD9, 0xFF, 0x58, 0xB0, 0xE1, 0xE7, 0xA7, 0x47, 0x07, 0x35, 0x3E, 0x01, 0x0B, 0x3B, 0x4B, 0xFE, 0x9A, 0xA4, 0x55, 0x6F, 0x40, 0x5B, 0xEE, 0xC0, 0xCA, 0xE6, 0xFF, 0x40, 0x09, 0xFF, 0x5E, 0x34, 0x2F, 0x57, 0x31, 0x12, 0x47, 0xC9, 0xDA, 0xAB, 0xD4, 0xA5, 0x3A, 0x0F, 0xFE, 0xE9, 0x5A, 0x2A, 0xC1, 0xCB, 0x03, 0xDA, 0xCB, 0x3A, 0xAE, 0xCA, 0x17, 0xD1, 0x41, 0xDE, 0xF4, 0xF2, 0x07, 0x3F, 0xB8, 0xA8, 0x5B, 0x24, 0x2E, 0x3E, 0xE1, 0xBA, 0x3C, 0xAD, 0xF2, 0x5B, 0xD3, 0x4C, 0x13, 0xF6, 0xAE, 0xB0, 0x16, 0xC0, 0xEB, 0x23, 0xDA, 0x3F, 0xD3, 0xB4, 0x22, 0x61, 0x4E, 0x1B, 0x6B, 0xB6, 0xAA, 0x62, 0xE9, 0xC3, 0x47, 0x3B, 0xD6, 0x1C, 0xFA, 0xD7, 0xC5, 0xC9, 0x12, 0xBB, 0x1B, 0xA2, 0xD8, 0xE7, 0xDD, 0xBD, 0x6B, 0xEC, 0x14, 0x44, 0x06, 0xE3, 0x04, 0xA5, 0xC2, 0x0F, 0x8E, 0xB2, 0x1C, 0x98, 0x4F, 0x31, 0xE9, 0xE5, 0x27, 0xD0, 0xDB, 0x1A, 0xC5, 0xF2, 0x50, 0x54, 0xD5, 0xE8, 0xE2, 0xC7, 0x3B, 0x5A, 0x4D, 0xAB, 0x06, 0xE2, 0x4A, 0x5E, 0x5C, 0x63, 0xF8, 0x35, 0x5F, 0x2C, 0xB9, 0xBB, 0xDD, 0x46, 0x47, 0xCD, 0x38, 0x11, 0x42, 0xB6, 0x4C, 0xBA, 0x53, 0xB0, 0xCA, 0xD0, 0xE8, 0x02, 0x37, 0x06, 0x4D, 0xE7, 0x21, 0xEB, 0xB7, 0x4D, 0xAE, 0xBE, 0xFA, 0xC0, 0xC4, 0xBD, 0x16, 0xD4, 0x54, 0xE6, 0x12, 0x3F, 0x55, 0xBC, 0xE8, 0x52, 0xAD, 0x0E, 0x3C, 0x37, 0xCD, 0x36, 0x4D, 0x1D, 0x35, 0xD1, 0xCB, 0xEA, 0x01, 0xEB, 0x05, 0x52, 0xB8, 0x0D, 0xF8, 0xAD, 0x23, 0x19, 0xF0, 0xF5, 0x0C, 0x16, 0x2A, 0x40, 0xC5, 0xB7, 0xDC, 0xCA, 0x0C, 0xE6, 0xCA, 0xC7, 0xBB, 0x60, 0xDB, 0xFF, 0xF2, 0xDC, 0x70, 0xD5, 0xDB, 0x11, 0xBB, 0xFA, 0x3E, 0x9C, 0xCC, 0xCC, 0x24, 0xF8, 0x99, 0xB5, 0x04, 0x25, 0xFA, 0xBD, 0x42, 0x5B, 0x05, 0xBB, 0x96, 0x14, 0xA8, 0xAF, 0xD1, 0xF0, 0xE0, 0xFA, 0x5A, 0xC9, 0x07, 0xD2, 0x27, 0xF6, 0xC6, 0xD9, 0xCE, 0xA8, 0x2A, 0xAA, 0xE5, 0x5B, 0x3F, 0x3C, 0xBD, 0x58, 0xF7, 0x99, 0x3C, 0x64, 0x38, 0x10, 0x1E, 0xDA, 0xEA, 0x3E, 0x9F, 0x56, 0xC3, 0xE4, 0x1B, 0xD2, 0xDB, 0xF5, 0xAA, 0x4D, 0x73, 0x58, 0xD3, 0xDC, 0xAB, 0x46, 0x3F, 0x1C, 0x9C, 0xC4, 0xDE, 0x04, 0xD7, 0x40, 0xB6, 0xC0, 0x52, 0xCE, 0x4C, 0xA8, 0x22, 0xC3, 0xC2, 0x69, 0x2F, 0x28, 0xF1, 0x36, 0xEA, 0xD8, 0x1F, 0x5C, 0x10, 0x51, 0x41, 0x30, 0xB4, 0xE8, 0xEC, 0x55, 0xF2, 0x14, 0x3B, 0x37, 0xEE, 0xCB, 0x32, 0xC8, 0xD5, 0x1D, 0xE9, 0xAD, 0x51, 0x46, 0xC7, 0xE3, 0xC9, 0x2B, 0xF0, 0x26, 0xCF, 0x5E, 0x24, 0xA5, 0x24, 0x36, 0x35, 0x41, 0xE7, 0xE1, 0x08, 0xDA, 0xFA, 0xCA, 0xDE, 0x01, 0xB6, 0x41, 0xB5, 0x5D, 0x64, 0x23, 0x0B, 0x01, 0x4F, 0xF0, 0xA2, 0xCF, 0xDF, 0xED, 0x53, 0xA7, 0x1C, 0xB4, 0xAF, 0xAE, 0x36, 0xB4, 0xAD, 0x0A, 0xC3, 0xEC, 0xF3, 0xC9, 0x04, 0x50, 0x72, 0xCD, 0xED, 0xC7, 0xA9, 0x20, 0x92, 0x39, 0x15, 0x1F, 0x69, 0x31, 0xCB, 0x4A, 0xD5, 0xAA, 0x30, 0xA9, 0x3E, 0x01, 0xBF, 0xB9, 0xCF, 0xC6, 0x1F, 0xC3, 0x00, 0x9B, 0xD0, 0xD1, 0xAE, 0x30, 0x55, 0x66, 0xE2, 0x16, 0x93, 0xA1, 0xCC, 0xC3, 0xC5, 0x4D, 0xB5, 0xCE, 0xD5, 0x1A, 0x54, 0xE7, 0xFD, 0x4B, 0x1B, 0x14, 0xC1, 0x1E, 0x0A, 0x3B, 0x3D, 0x06, 0x15, 0xD3, 0xD7, 0xC8, 0x00, 0x10, 0x03, 0xB9, 0x69, 0xD3, 0xB1, 0xAB, 0xE1, 0xE3, 0x4F, 0x52, 0xD0, 0xBE, 0x30, 0x0C, 0x35, 0x9D, 0x3C, 0x39, 0xCB, 0x1C, 0x19, 0xD3, 0xE8, 0x31, 0x98, 0xE9, 0xD9, 0x1B, 0xE0, 0x09, 0xC2, 0x57, 0x65, 0xA1, 0x33, 0x6D, 0xCE, 0xC9, 0xFB, 0x32, 0x68, 0x02, 0x38, 0xF7, 0x50, 0xB6, 0x50, 0x3A, 0xDA, 0x3E, 0xD2, 0xAE, 0x44, 0x50, 0x0B, 0xA1, 0x0D, 0x36, 0x56, 0xFD, 0xB9, 0xBA, 0xAC, 0x2A, 0xD9, 0xAD, 0xA1, 0xD9, 0xC5, 0x5E, 0x36, 0x4C, 0xED, 0x30, 0xBC, 0xBC, 0x37, 0xD7, 0x16, 0x14, 0x2E, 0x28, 0xA2, 0x3D, 0x33, 0x17, 0xBF, 0xE5, 0xB5, 0x35, 0xEC, 0x0F, 0x13, 0xA6, 0x63, 0xB3, 0xB9, 0xF7, 0x1F, 0x65, 0x6B, 0x50, 0xAA, 0xAC, 0xE1, 0x19, 0x5A, 0x15, 0x34, 0x52, 0x3F, 0x04, 0xFC, 0xBF, 0xA0, 0x5C, 0x22, 0xFF, 0x43, 0x10, 0xFE, 0x9A, 0xE9, 0xDA, 0xB7, 0xBB, 0xC3, 0x1C, 0xDD, 0xB7, 0x0B, 0x29, 0x43, 0x65, 0x39, 0x20, 0xB2, 0x9E, 0xAB, 0xCB, 0xA3, 0xF1, 0x2B, 0x06, 0x1F, 0x2D, 0x0F, 0xA0, 0x10, 0xBC, 0x30, 0x5F, 0x93, 0xF9, 0xDF, 0x52, 0x0E, 0x3A, 0xEF, 0x32, 0x59, 0xA5, 0xC5, 0x0D, 0x61, 0x42, 0x3B, 0xAC, 0xE4, 0x0F, 0xC9, 0xC1, 0x22, 0xD3, 0xC9, 0x58, 0xDF, 0xC7, 0x1E, 0x60, 0xDA, 0x12, 0xAB, 0xF9, 0xF9, 0x34, 0xB8, 0xF4, 0x44, 0xC1, 0xB5, 0x5E, 0x05, 0x50, 0x4F, 0xE9, 0xBF, 0x2F, 0x43, 0xE1, 0x4B, 0xDA, 0x08, 0x59, 0xBB, 0xD8, 0xF7, 0x08, 0x0D, 0x62, 0xBA, 0xCA, 0x5D, 0x1E, 0x60, 0x54, 0x4A, 0xC6, 0xF4, 0xCC, 0x18, 0xDE, 0xB2, 0x3B, 0x12, 0x44, 0x17, 0xDF, 0xCB, 0xDC, 0xF9, 0xAF, 0x14, 0x4C, 0xB6, 0x9F, 0xE3, 0x02, 0xB8, 0x27, 0xCC, 0x3B, 0x27, 0xE9, 0xCB, 0x13, 0x23, 0x04, 0xD6, 0xD2, 0xF6, 0xF7, 0x03, 0xA2, 0x30, 0x3A, 0xE8, 0xCA, 0x12, 0x27, 0x1E, 0x2A, 0x3B, 0x1E, 0x5E, 0x24, 0x41, 0x38, 0xDB, 0x29, 0x0D, 0x52, 0x17, 0x1C, 0x28, 0xBB, 0xE4, 0x3C, 0xD1, 0xAE, 0xF4, 0xBB, 0xB8, 0xDC, 0xC1, 0x12, 0x2C, 0xCD, 0xAF, 0x21, 0x27, 0x0C, 0x0C, 0x55, 0xB8, 0xFA, 0x4C, 0x32, 0x17, 0xD7, 0x56, 0x23, 0x04, 0xE7, 0x14, 0x32, 0xDF, 0x0D, 0x32, 0xEA, 0xB0, 0x4A, 0xC5, 0x6F, 0x56, 0x46, 0x26, 0x4D, 0x06, 0xD5, 0x61, 0xB0, 0x15, 0xF7, 0xDE, 0xD4, 0xBB, 0xF1, 0xCC, 0xB2, 0xCD, 0x3A, 0x22, 0x4D, 0x40, 0x42, 0xA9, 0x13, 0x07, 0x5F, 0xAF, 0xA7, 0xBA, 0x22, 0x54, 0xC7, 0x11, 0x36, 0x12, 0x40, 0x1F, 0x3E, 0xBC, 0x5C, 0xE3, 0x26, 0x95, 0x1E, 0xEE, 0x45, 0xB0, 0xB1, 0xF2, 0x5B, 0x28, 0x52, 0x98, 0xE3, 0x3C, 0xD9, 0x46, 0x46, 0x36, 0x5A, 0x40, 0x1B, 0xCD, 0x3B, 0x66, 0x73, 0xAA, 0xE5, 0x22, 0x65, 0x1F, 0x2B, 0x3C, 0xF2, 0xD8, 0x53, 0xC3, 0x27, 0x42, 0x0A, 0xB2, 0xDD, 0x0B, 0xD5, 0x56, 0x6E, 0x12, 0x2B, 0x25, 0x95, 0xB2, 0xBF, 0xA6, 0x1F, 0x69, 0x19, 0xBB, 0x0D, 0xDD, 0xC7, 0x37, 0xE8, 0xDF, 0xCF, 0xDC, 0x11, 0x16, 0x04, 0xE7, 0x0F, 0x08, 0x04, 0x18, 0x55, 0x77, 0xFA, 0x03, 0xD8, 0x0B, 0xD9, 0xD8, 0xBA, 0x3D, 0xE8, 0xB6, 0xEE, 0xC9, 0xF4, 0xD1, 0x36, 0xF4, 0x4C, 0x53, 0x3C, 0xA8, 0xA0, 0xDF, 0x19, 0xE9, 0xD7, 0x38, 0xAF, 0x59, 0x45, 0x29, 0x1D, 0x36, 0xC4, 0xD7, 0xB2, 0xB3, 0xBC, 0xA8, 0xD3, 0xA1, 0xE5, 0x55, 0x05, 0xAE, 0xD4, 0x4D, 0x1B, 0x1A, 0xAD, 0x46, 0x9E, 0xDB, 0x25, 0x3E, 0x19, 0xB3, 0xCC, 0xE4, 0xF0, 0xF1, 0x2C, 0xD4, 0xE8, 0x14, 0xB2, 0xFE, 0xDF, 0xA4, 0xFF, 0xFA, 0xBD, 0x4B, 0x01, 0xCF, 0x3B, 0xB3, 0x4F, 0x30, 0x26, 0x98, 0x48, 0x17, 0x49, 0xBA, 0xDD, 0x54, 0x29, 0x43, 0x1D, 0x9B, 0xC8, 0xA4, 0x65, 0xEF, 0xA7, 0xA4, 0xB5, 0x11, 0xAE, 0xC5, 0x28, 0xE2, 0xA3, 0xD0, 0xD9, 0xCD, 0xEA, 0x44, 0x08, 0x09, 0xAF, 0xF2, 0x26, 0x49, 0xD5, 0x46, 0xCC, 0x46, 0x4A, 0x9E, 0x37, 0x53, 0x45, 0xFD, 0xCE, 0xE4, 0x9B, 0xD3, 0xD6, 0x26, 0x46, 0xD4, 0xB9, 0xB2, 0x38, 0x3A, 0xD5, 0x0F, 0x10, 0x20, 0xF2, 0xAF, 0xED, 0xFC, 0x01, 0xBE, 0xFE, 0xC0, 0xD9, 0x05, 0x9D, 0xEC, 0xFB, 0xE8, 0x02, 0x03, 0xC2, 0x39, 0x00, 0x2B, 0xCF, 0x3E, 0x45, 0x16, 0x2C, 0x16, 0x06, 0xF2, 0x1E, 0xF2, 0x5F, 0xBB, 0xC4, 0x17, 0xBA, 0x19, 0x57, 0xD7, 0x25, 0xF2, 0x35, 0x52, 0xC1, 0xEA, 0xBF, 0xA5, 0x49, 0xAA, 0xF2, 0x50, 0x4D, 0x2B, 0x42, 0xC6, 0xD1, 0x44, 0xC3, 0xA2, 0xF6, 0x28, 0x4E, 0xB8, 0x4E, 0x0C, 0xB4, 0xE5, 0x53, 0x5F, 0x2E, 0x1F, 0x17, 0x19, 0xC9, 0x03, 0xB1, 0x50, 0xA8, 0xC1, 0x2D, 0x6E, 0x41, 0x0B, 0x46, 0xB5, 0x4F, 0xFC, 0x02, 0xF6, 0xFE, 0xEC, 0xCB, 0x26, 0xAA, 0x59, 0xA4, 0x3B, 0xE3, 0xAF, 0x30, 0x48, 0x08, 0xFF, 0xFE, 0x1C, 0x21, 0xA4, 0xBA, 0x57, 0x39, 0xEF, 0xC5, 0x51, 0xC7, 0x4D, 0x2B, 0xB1, 0x46, 0xF9, 0xF2, 0xFA, 0x37, 0xAC, 0x36, 0x23, 0xCB, 0x68, 0xE1, 0xFE, 0x24, 0xD5, 0x00, 0x13, 0xE5, 0xA3, 0xA0, 0x3F, 0xF2, 0x30, 0x29, 0xE6, 0xEC, 0xD5, 0x3E, 0xEF, 0x07, 0xDF, 0x50, 0xFB, 0x3A, 0xAC, 0x2A, 0x62, 0x17, 0xF6, 0x23, 0x21, 0xC1, 0xB6, 0xDE, 0x65, 0xE3, 0xDF, 0xEC, 0x65, 0x46, 0xBB, 0x15, 0x4E, 0xFA, 0xA7, 0x47, 0xD1, 0xFC, 0x2A, 0xD6, 0xEF, 0x68, 0x2C, 0x09, 0xE9, 0x67, 0x28, 0x5F, 0xAC, 0xE9, 0xEE, 0x3A, 0xCD, 0x4B, 0x53, 0x6C, 0x24, 0xC7, 0x2B, 0xE5, 0x4B, 0x40, 0xB7, 0x1B, 0x0D, 0xCE, 0x51, 0x1B, 0xD3, 0xC3, 0x15, 0xCE, 0xE1, 0xD7, 0x03, 0x9F, 0x95, 0xBE, 0xCD, 0x94, 0xC0, 0xF2, 0xCF, 0xB4, 0x44, 0x04, 0x5B, 0xD3, 0xDF, 0x12, 0x13, 0x2E, 0x38, 0x2E, 0x9D, 0x48, 0x10, 0x28, 0xAC, 0x55, 0xD6, 0xF3, 0xFB, 0xE4, 0x36, 0xA9, 0x05, 0x09, 0xA5, 0xA3, 0x19, 0x5B, 0x22, 0xD8, 0x61, 0xE7, 0x2B, 0x27, 0x11, 0xAD, 0xFC, 0x01, 0x13, 0x05, 0xCF, 0xB5, 0x13, 0x07, 0x9D, 0x06, 0x0E, 0x9F, 0xF2, 0x41, 0xA6, 0x06, 0x42, 0xB5, 0x5E, 0xF5, 0x3A, 0xD7, 0x51, 0x27, 0xD6, 0xD5, 0xE8, 0xA9, 0xA8, 0xBA, 0x39, 0x5A, 0xAD, 0xBF, 0x99, 0x3E, 0xFC, 0x39, 0xC5, 0x47, 0xCB, 0xB4, 0x3A, 0x09, 0x40, 0xA8, 0xC6, 0xF7, 0xB4, 0x37, 0x70, 0x4F, 0x43, 0xC3, 0x5A, 0x42, 0x3D, 0xEE, 0x39, 0xFB, 0xB9, 0xC6, 0x1F, 0x04, 0xC7, 0xFF, 0xEA, 0x94, 0xAB, 0xD5, 0xCE, 0x4C, 0xFA, 0x2F, 0x58, 0xC6, 0xDB, 0xA4, 0xE3, 0xDB, 0x08, 0xE2, 0x10, 0x06, 0xEF, 0xCB, 0xBA, 0xD1, 0x26, 0x9E, 0x01, 0x60, 0xA5, 0x4F, 0xE4, 0xDD, 0x59, 0xAE, 0x5B, 0x33, 0xDC, 0x30, 0x31, 0x25, 0xC6, 0x40, 0xE0, 0xCC, 0x70, 0xAD, 0x26, 0x3B, 0xB0, 0xDF, 0x16, 0xC9, 0x0A, 0xEC, 0x14, 0x59, 0x04, 0xA4, 0xB6, 0xB4, 0xD8, 0x3C, 0xA9, 0xD3, 0xE9, 0xE6, 0x2C, 0xE7, 0xFC, 0x5A, 0xED, 0xDC, 0xF1, 0x57, 0xBC, 0xB5, 0xDA, 0x37, 0x1F, 0xE8, 0xAA, 0x12, 0x2C, 0x50, 0xDE, 0x50, 0x3C, 0xED, 0x40, 0x17, 0x07, 0x4A, 0xAD, 0xF0, 0xDC, 0x47, 0xE5, 0xFC, 0xDC, 0x31, 0x58, 0x4A, 0x4A, 0xC1, 0xA2, 0x47, 0xE4, 0x0C, 0x4F, 0xB7, 0x15, 0x56, 0x3A, 0x45, 0xBA, 0xAD, 0x4A, 0xA6, 0x3C, 0xD0, 0x07, 0x2F, 0xCD, 0x2D, 0x0D, 0xCD, 0x59, 0xB9, 0x08, 0x27, 0xB1, 0x6E, 0xE7, 0x2D, 0xA1, 0xC0, 0xCE, 0xC9, 0xD4, 0x1D, 0xA6, 0xA9, 0xD5, 0xB8, 0xA0, 0x05, 0xAF, 0x1C, 0xC7, 0xDB, 0x65, 0x51, 0xF9, 0xC4, 0xF1, 0xDF, 0xCB, 0x2B, 0xAC, 0xB5, 0x2F, 0x25, 0x37, 0xEA, 0xF8, 0x3A, 0x11, 0xEF, 0x23, 0xF2, 0x40, 0xA4, 0xB4, 0xE7, 0xB3, 0x3D, 0x28, 0x1C, 0x51, 0xFB, 0xD3, 0x25, 0x3B, 0xA7, 0xBA, 0x02, 0xD7, 0x16, 0x1A, 0x46, 0xCD, 0x1C, 0xAE, 0x41, 0x49, 0x17, 0xE4, 0xE9, 0x9C, 0x09, 0x3D, 0x0D, 0x4C, 0xD0, 0x57, 0x2D, 0xB6, 0xE1, 0xD3, 0xD9, 0x02, 0x4E, 0xB8, 0xAC, 0xB4, 0x1A, 0x1E, 0x5F, 0x0B, 0x25, 0x59, 0x19, 0x1B, 0x08, 0xBA, 0x29, 0xA2, 0x33, 0x33, 0xB4, 0xAF, 0x42, 0x04, 0x36, 0xBE, 0x68, 0x1B, 0x2C, 0x03, 0x41, 0xA4, 0xCB, 0xD4, 0xA2, 0xD7, 0x46, 0x0C, 0x17, 0x27, 0xF1, 0x1E, 0xCA, 0x23, 0xF4, 0x9B, 0xC9, 0xD6, 0xB5, 0xF1, 0x21, 0x0F, 0xEF, 0xB2, 0x4E, 0x2F, 0x1B, 0xD7, 0x4E, 0x68, 0x42, 0x58, 0x02, 0x54, 0xD8, 0xB4, 0xE7, 0x38, 0x45, 0x40, 0xCF, 0xCA, 0xFD, 0xD0, 0x0A, 0x15, 0xDB, 0x15, 0xD3, 0x69, 0x09, 0x16, 0xDF, 0x09, 0xE5, 0x55, 0x9D, 0x02, 0x35, 0xE6, 0x08, 0xF7, 0xEC, 0xF0, 0xCD, 0xF8, 0xA7, 0xA7, 0x34, 0x57, 0xA4, 0xEC, 0x28, 0x03, 0xAA, 0xF6, 0x2F, 0x50, 0xC8, 0x4A, 0xC2, 0x4C, 0xD6, 0x49, 0xFA, 0x52, 0xD7, 0xFB, 0xF0, 0x44, 0x0A, 0xCF, 0x05, 0x22, 0x53, 0xCC, 0x2A, 0x39, 0x46, 0xBC, 0x4D, 0xAE, 0xBB, 0xF8, 0xB0, 0xB5, 0x49, 0x04, 0xC2, 0x9B, 0xD6, 0xFD, 0xD0, 0xF8, 0xA9, 0x67, 0x31, 0x07, 0x42, 0x02, 0xB2, 0xF7, 0xA7, 0x04, 0xCF, 0x35, 0x1C, 0x03, 0x29, 0x05, 0xED, 0x12, 0xE4, 0xC6, 0xDC, 0x29, 0xC4, 0xC7, 0xB9, 0xE3, 0x46, 0x67, 0x46, 0xC8, 0x0A, 0x17, 0x24, 0x11, 0xD1, 0x16, 0xAF, 0xB8, 0x00, 0x3C, 0xF4, 0xBC, 0x01, 0x4A, 0xE7, 0xB4, 0xB3, 0xC9, 0x1B, 0x46, 0xDF, 0xD6, 0xCF, 0x05, 0xDC, 0xC7, 0xCB, 0xA1, 0x38, 0xD8, 0x03, 0xF3, 0xB8, 0x2E, 0xF0, 0x20, 0x04, 0x17, 0x29, 0x14, 0xED, 0xD5, 0x68, 0x9C, 0x56, 0x14, 0xBE, 0xA1, 0x4B, 0x03, 0xBC, 0xFE, 0xC8, 0x10, 0xA8, 0xDA, 0x47, 0x05, 0x10, 0xB7, 0xFC, 0x2D, 0xA4, 0xD6, 0xFF, 0xD0, 0xD9, 0xD3, 0xB0, 0x4D, 0xEA, 0xDA, 0xB8, 0xFB, 0x54, 0xD9, 0x1F, 0x47, 0xCF, 0xCA, 0x9B, 0xF9, 0xAB, 0x20, 0x45, 0x10, 0xFB, 0xEF, 0xB7, 0x63, 0xA8, 0xFF, 0xC9, 0x1D, 0x26, 0x52, 0x0C, 0x42, 0xCA, 0xE7, 0xE7, 0xCD, 0x00, 0xF2, 0x3D, 0xB9, 0xC7, 0x63, 0xE4, 0xAE, 0xC4, 0xF6, 0x22, 0xBB, 0x51, 0x35, 0xA6, 0xD5, 0x2D, 0x2C, 0x32, 0xDA, 0xE7, 0xBE, 0xB8, 0x37, 0xA8, 0xD5, 0xB6, 0x00, 0x22, 0x01, 0xF2, 0xF0, 0x0B, 0xD0, 0xC7, 0x5C, 0x56, 0x20, 0x44, 0x46, 0xC1, 0x2F, 0xD4, 0x2C, 0x41, 0xCD, 0x17, 0x17, 0xC5, 0x55, 0xF6, 0x4C, 0x12, 0x0E, 0xA1, 0x56, 0xB9, 0x45, 0x11, 0xCB, 0x1E, 0xAC, 0x9E, 0x61, 0x25, 0x00, 0xC7, 0xA4, 0xDF, 0x54, 0xEC, 0xF5, 0xB8, 0xAC, 0x9D, 0x14, 0x4C, 0x25, 0x3A, 0xEF, 0xB3, 0x9F, 0x40, 0xCB, 0xF1, 0x2B, 0x47, 0xB4, 0xC1, 0xE1, 0x2E, 0xF7, 0x18, 0xD0, 0x56, 0xFF, 0x1E, 0xB2, 0xDD, 0xC3, 0x23, 0x4D, 0x12, 0xDB, 0x06, 0x4C, 0xF8, 0xEA, 0x36, 0x2E, 0x17, 0xEB, 0xCA, 0x41, 0xB8, 0xA0, 0xD7, 0xFE, 0x2C, 0xE4, 0xD6, 0x0F, 0x22, 0x27, 0x0E, 0x06, 0xA6, 0xF7, 0x4D, 0x19, 0xD6, 0x1B, 0x02, 0x50, 0x56, 0x3D, 0xEC, 0xBE, 0xA3, 0xBD, 0x30, 0x9B, 0xE7, 0xCF, 0xDA, 0x08, 0x3E, 0x0E, 0x48, 0xC7, 0xEC, 0xF5, 0x3D, 0x22, 0x06, 0xE1, 0xBD, 0x5E, 0x2E, 0x2F, 0x14, 0x07, 0x49, 0x4A, 0x07, 0xE5, 0xE3, 0xE0, 0x95, 0x12, 0xB2, 0x4F, 0xD4, 0xC0, 0xD9, 0x9D, 0xE5, 0xDF, 0xF2, 0xDF, 0x09, 0x58, 0xCE, 0x11, 0x1D, 0xE3, 0xE0, 0x27, 0xB7, 0xAF, 0xD9, 0x51, 0xB5, 0xE0, 0xD0, 0x56, 0x00, 0x5B, 0xC5, 0xFA, 0xB5, 0xC9, 0xC8, 0xD5, 0x58, 0x61, 0x43, 0x23, 0x1F, 0xD6, 0xFB, 0x23, 0xB5, 0x52, 0x0D, 0x3F, 0xD1, 0x3C, 0x2F, 0xE2, 0x54, 0x19, 0xB9, 0x44, 0xC6, 0x3F, 0x4B, 0x5D, 0x4C, 0x94, 0xF2, 0x02, 0x2E, 0x2F, 0x61, 0xD4, 0xE4, 0x43, 0xBF, 0x02, 0x4F, 0xCF, 0xAF, 0xD5, 0x07, 0xF4, 0x11, 0x13, 0xF9, 0xD6, 0xFE, 0x28, 0xC1, 0x37, 0xBD, 0x25, 0xFE, 0x30, 0x46, 0x30, 0xF1, 0x0C, 0x98, 0xF0, 0x03, 0xFD, 0x37, 0x1E, 0xA9, 0xFF, 0xD1, 0x04, 0x3B, 0xCE, 0xDA, 0x06, 0xCA, 0x1A, 0xF9, 0xC8, 0x0C, 0x57, 0x31, 0xED, 0xF9, 0x0D, 0x0A, 0xFC, 0xE9, 0xED, 0x38, 0x63, 0xF9, 0xB5, 0xFA, 0xAD, 0xE6, 0x29, 0xFA, 0x37, 0x28, 0xE0, 0xEA, 0x30, 0x40, 0xB2, 0xC8, 0xCA, 0xD0, 0x01, 0xF3, 0x40, 0xB2, 0x01, 0x63, 0xE3, 0xC1, 0xEE, 0x35, 0x1F, 0x15, 0xDD, 0x20, 0xAF, 0xC4, 0xC8, 0xFF, 0xC2, 0x42, 0xD1, 0xB4, 0xD4, 0x46, 0x3C, 0xB4, 0xBC, 0xE8, 0x54, 0xC1, 0xCC, 0xE7, 0x42, 0x5C, 0xC9, 0x26, 0xBA, 0x56, 0x3B, 0x18, 0xC3, 0xF8, 0x19, 0xC8, 0x4E, 0x08, 0x56, 0x30, 0xF5, 0xE8, 0xDC, 0x02, 0x0D, 0x24, 0xAD, 0xBC, 0x34, 0x54, 0x1A, 0xC1, 0xD2, 0x39, 0xD4, 0x01, 0xA0, 0xA2, 0x40, 0x42, 0xE8, 0x26, 0xB2, 0x32, 0xAF, 0x16, 0x23, 0x3D, 0xEA, 0x18, 0x5B, 0xC1, 0xEA, 0x47, 0x96, 0x63, 0xD6, 0x29, 0xDC, 0x58, 0x4E, 0x19, 0x39, 0x06, 0x12, 0x65, 0x09, 0xB8, 0x30, 0x1E, 0xEB, 0x06, 0xD0, 0x23, 0x4F, 0x0B, 0xCD, 0x9E, 0x5C, 0xFA, 0xF4, 0x48, 0x10, 0xCD, 0x24, 0xC4, 0x0B, 0x42, 0x47, 0x53, 0x5A, 0x41, 0x0E, 0xE1, 0xF7, 0xD3, 0x3B, 0x16, 0xC8, 0x01, 0x1B, 0x1B, 0xF9, 0x63, 0xDA, 0xB1, 0xF3, 0x19, 0xD7, 0xFC, 0x4E, 0x14, 0x94, 0x63, 0x4E, 0x59, 0xBF, 0x0B, 0xE1, 0xD2, 0xAA, 0x64, 0xEA, 0x08, 0xDD, 0x43, 0x2C, 0x58, 0x24, 0x01, 0xB4, 0x1C, 0x66, 0x3D, 0xD3, 0x3F, 0xFD, 0x45, 0x1A, 0x6D, 0x40, 0x3C, 0xED, 0x45, 0xF4, 0x16, 0x61, 0xBD, 0xBB, 0x2B, 0xBC, 0x10, 0x59, 0xAC, 0xA6, 0x40, 0x59, 0x0C, 0xC1, 0xA9, 0xC8, 0x02, 0xCF, 0x13, 0xB9, 0xAC, 0xBF, 0xC2, 0x4F, 0xCE, 0xB1, 0xD5, 0xE0, 0xD5, 0xA2, 0x59, 0x5F, 0xAC, 0xA7, 0x53, 0xD8, 0xC9, 0xA2, 0x43, 0x28, 0x29, 0xFF, 0x16, 0xCF, 0x5B, 0x22, 0x6F, 0xAA, 0x12, 0xE9, 0x9F, 0xDA, 0x6B, 0x4C, 0xEE, 0x35, 0x44, 0xC6, 0x3B, 0x0A, 0xBB, 0x05, 0x31, 0xD7, 0xCA, 0xAB, 0xD5, 0xB6, 0xA8, 0x4C, 0x57, 0xA9, 0x4C, 0x28, 0xC4, 0x18, 0x06, 0x31, 0x4B, 0x18, 0x12, 0xE1, 0x47, 0x43, 0xC2, 0x43, 0xD6, 0x10, 0x53, 0xF5, 0xC9, 0x0F, 0x0D, 0x0E, 0xFC, 0x59, 0xAC, 0x0F, 0x9B, 0x1C, 0xF1, 0x1C, 0x12, 0x0B, 0xBC, 0x27, 0x49, 0xF1, 0x45, 0xDD, 0xE3, 0x15, 0xD5, 0x10, 0xE4, 0xC0, 0xC5, 0xDC, 0xFB, 0x54, 0x12, 0x1C, 0x2A, 0x4C, 0xC1, 0x25, 0xEF, 0xE9, 0xE0, 0xC3, 0x24, 0x9F, 0x13, 0x0E, 0xA7, 0xCD, 0x25, 0xBA, 0x22, 0xE0, 0xC6, 0x42, 0x61, 0xE4, 0xB1, 0xCA, 0x42, 0x0C, 0xCF, 0x42, 0xFE, 0x63, 0x0F, 0x1A, 0xE2, 0xEC, 0x53, 0xC4, 0xFE, 0x63, 0x28, 0x39, 0x2A, 0x0A, 0xE6, 0x17, 0xC8, 0xC2, 0x46, 0x33, 0xCB, 0x16, 0x05, 0x9B, 0xFC, 0xCF, 0x5B, 0x2E, 0xA9, 0xAB, 0x63, 0xDF, 0xC8, 0x39, 0x4B, 0xBB, 0xDC, 0x1E, 0x9B, 0xED, 0xE3, 0xAD, 0x27, 0xBB, 0xB3, 0x21, 0x24, 0x48, 0x47, 0xFC, 0xB7, 0x18, 0x10, 0xD1, 0x1C, 0xEF, 0x2A, 0x6E, 0xAE, 0x4A, 0x32, 0x5B, 0xBA, 0xA9, 0x5A, 0xC6, 0xD1, 0xA9, 0x9E, 0xEB, 0x20, 0x51, 0x14, 0xEE, 0x60, 0x2F, 0x16, 0x41, 0x31, 0x52, 0xBA, 0xDD, 0x33, 0x17, 0x2F, 0xD3, 0x09, 0xB5, 0xD5, 0x29, 0x37, 0x13, 0x13, 0xAB, 0x0F, 0xB1, 0x02, 0x43, 0x5B, 0x25, 0xF4, 0x1E, 0x26, 0xB2, 0x05, 0xB8, 0xF8, 0xB2, 0xE4, 0xC8, 0xD4, 0xBE, 0xFB, 0x50, 0x0C, 0xF7, 0xC0, 0x24, 0x4B, 0x0D, 0x11, 0x67, 0x06, 0x37, 0x17, 0x5F, 0xDE, 0x89, 0xFB, 0xEC, 0x4C, 0xB8, 0xD4, 0xF0, 0x60, 0xA2, 0xCD, 0x9D, 0xE2, 0x39, 0xF0, 0xD2, 0x39, 0xE8, 0xEF, 0x18, 0x51, 0xE0, 0xCE, 0x4F, 0x46, 0x40, 0x38, 0xC3, 0x49, 0xD5, 0xF5, 0xCE, 0x24, 0x98, 0x5E, 0x29, 0xB1, 0x01, 0x30, 0xC1, 0xD5, 0xC6, 0xA5, 0xB2, 0xC4, 0x5D, 0xBF, 0x01, 0xAD, 0xDD, 0x63, 0xD6, 0x2E, 0xD3, 0xDA, 0xC0, 0xD0, 0x9D, 0xF3, 0x2F, 0xC7, 0x03, 0x5E, 0x07, 0x31, 0x12, 0xA0, 0x64, 0x5B, 0xB2, 0x24, 0xBE, 0x1D, 0x0A, 0x4C, 0xFB, 0xCD, 0x2E, 0xF8, 0xCA, 0xE3, 0x3E, 0xE7, 0xDF, 0x16, 0x0B, 0xA6, 0x97, 0xBA, 0xB0, 0x10, 0x45, 0x15, 0xDF, 0x0D, 0x07, 0x35, 0xE8, 0xA2, 0xEF, 0x25, 0x10, 0x44, 0xAA, 0xA4, 0xC1, 0xEF, 0x2C, 0xE8, 0xF9, 0x0D, 0x09, 0xF8, 0x94, 0x17, 0xCA, 0x27, 0x2B, 0x3E, 0x33, 0x1B, 0x09, 0x58, 0xFC, 0xAF, 0x2D, 0xEC, 0xE7, 0x36, 0x4B, 0xEE, 0x56, 0xCE, 0xFB, 0x53, 0xC3, 0x47, 0x9D, 0xB3, 0xF4, 0x17, 0xF5, 0x54, 0x0D, 0xC2, 0x16, 0xE2, 0x68, 0x0D, 0x29, 0x32, 0x9C, 0x63, 0xC9, 0xE7, 0xF6, 0xC9, 0x11, 0x40, 0x20, 0x4D, 0xF4, 0x39, 0xDA, 0xED, 0x0B, 0x56, 0x50, 0xCB, 0x39, 0x2B, 0x65, 0x93, 0x5F, 0xF6, 0x97, 0x47, 0xB5, 0xCC, 0x01, 0xEC, 0xC0, 0xB8, 0x44, 0x0E, 0x15, 0x95, 0x54, 0x33, 0xA0, 0x14, 0x20, 0x48, 0x5A, 0xFC, 0x22, 0xA4, 0x2C, 0x59, 0xF5, 0x32, 0x11, 0x1F, 0x3F, 0x01, 0x5B, 0x39, 0x4A, 0xA2, 0x55, 0xEF, 0x11, 0x25, 0xAE, 0x24, 0xD5, 0x56, 0x29, 0x25, 0xF0, 0xF3, 0x1A, 0xCD, 0xBB, 0x41, 0xEE, 0xCF, 0x20, 0xBF, 0xA8, 0xA1, 0xC4, 0x27, 0x61, 0x1A, 0xAF, 0x3F, 0x9E, 0x02, 0x12, 0xCA, 0x9F, 0xA7, 0xB4, 0xC6, 0x22, 0x55, 0xCA, 0xD1, 0x9E, 0x9B, 0x0D, 0xDE, 0x32, 0x20, 0x28, 0x0A, 0xE3, 0xF6, 0x63, 0xC6, 0xEA, 0x12, 0x2C, 0x60, 0xEC, 0xCD, 0x00, 0x07, 0xAF, 0xE4, 0x65, 0x3E, 0x0A, 0xF4, 0x25, 0xFE, 0xE6, 0xB6, 0xE8, 0x2A, 0x34, 0x30, 0xD8, 0xE1, 0x33, 0x04, 0xD4, 0xDE, 0x05, 0xD4, 0x3E, 0xCA, 0xF9, 0xE8, 0x0A, 0x0F, 0x1D, 0x4F, 0xA2, 0x00, 0xD8, 0x4E, 0xF7, 0x03, 0x3F, 0xF8, 0x9E, 0xD5, 0x05, 0x5A, 0xE1, 0x58, 0xB6, 0x2C, 0xD6, 0xDD, 0xD6, 0x9E, 0x15, 0x61, 0xD6, 0x15, 0xC1, 0x46, 0x10, 0x57, 0x55, 0xB3, 0x4D, 0x41, 0x70, 0xE3, 0x42, 0x66, 0x26, 0x45, 0x29, 0xEB, 0xFC, 0x1D, 0x4F, 0xEF, 0x3D, 0xEF, 0x05, 0x18, 0xD2, 0x4C, 0xC5, 0xBC, 0xE3, 0x06, 0xE9, 0xFE, 0x42, 0xE5, 0x50, 0x0F, 0xA3, 0x4A, 0xBE, 0x40, 0x09, 0x4B, 0xAE, 0xEB, 0xD6, 0x49, 0xBE, 0xF3, 0xB3, 0x94, 0xCC, 0x17, 0xDA, 0x65, 0xFB, 0xFF, 0xD5, 0x06, 0xD7, 0xE7, 0x53, 0x21, 0xE7, 0xBA, 0xD4, 0xAE, 0xF3, 0x27, 0x62, 0x3F, 0xAC, 0xFB, 0x5B, 0x4B, 0xC6, 0xE8, 0x2C, 0xED, 0x00, 0xE4, 0xB5, 0x2C, 0x5D, 0x37, 0x27, 0xF9, 0x37, 0x40, 0x5C, 0xF9, 0xE7, 0x3C, 0xBB, 0xC6, 0x49, 0xB8, 0xF5, 0xDC, 0x2A, 0x51, 0x56, 0x62, 0x1C, 0x3F, 0xA8, 0x3D, 0x3D, 0x33, 0x08, 0xFB, 0x9D, 0xB5, 0xBA, 0xC9, 0x28, 0xFB, 0x54, 0xC8, 0xDF, 0x0A, 0xD6, 0x9A, 0xFF, 0xFC, 0xBF, 0x9C, 0x3A, 0x1E, 0xB8, 0xDD, 0x44, 0x53, 0xFE, 0xE3, 0x9F, 0xC4, 0xC7, 0x18, 0xE4, 0x0D, 0x36, 0x21, 0xEF, 0x2B, 0xE7, 0x1B, 0xCD, 0x4D, 0x1A, 0xB3, 0x9F, 0x4D, 0xA4, 0xAE, 0x35, 0xBA, 0xC4, 0xF8, 0x1D, 0xA2, 0xBC, 0xEA, 0xCA, 0x0A, 0x1B, 0xF4, 0x36, 0x3D, 0x44, 0xBA, 0xCC, 0xF7, 0x0E, 0x64, 0x35, 0xF3, 0xDC, 0x29, 0x0A, 0xB9, 0x0D, 0xF9, 0x23, 0x1B, 0xBE, 0x2E, 0x4F, 0xF2, 0x35, 0xFC, 0xFD, 0x37, 0x4F, 0x36, 0xFC, 0xB3, 0x01, 0x3C, 0x51, 0xCA, 0xC4, 0xAE, 0xDA, 0x4D, 0x3C, 0xD2, 0x22, 0xA8, 0x47, 0x05, 0xAF, 0xFE, 0x5E, 0xF8, 0x05, 0x9C, 0xC5, 0x55, 0x3F, 0x00, 0xAF, 0xFB, 0x05, 0x2D, 0xF7, 0x15, 0x4A, 0xDC, 0x35, 0xDC, 0xEF, 0xEF, 0x09, 0x13, 0x45, 0xBC, 0x0F, 0xB9, 0x5F, 0x20, 0x65, 0x2D, 0x18, 0x3F, 0x05, 0xBC, 0xC5, 0x37, 0xDC, 0x27, 0x60, 0x21, 0xC8, 0xE3, 0x04, 0xCE, 0x4F, 0xE2, 0x32, 0xFB, 0xC4, 0xBA, 0xC3, 0x06, 0xC9, 0xDE, 0x2A, 0x61, 0xF0, 0x55, 0xBB, 0x20, 0xC9, 0xF6, 0xB1, 0x18, 0x34, 0x32, 0xB1, 0x01, 0xAC, 0xE1, 0xD4, 0x2F, 0x14, 0x41, 0x28, 0x2F, 0x98, 0x26, 0x4A, 0xB5, 0xEB, 0x1A, 0xE3, 0x1A, 0x23, 0x2E, 0x9F, 0x65, 0xB8, 0xCD, 0x16, 0xD3, 0xB2, 0xF1, 0xFB, 0xCF, 0xF1, 0x2B, 0x9B, 0xA6, 0xFF, 0x5C, 0x69, 0x11, 0x04, 0x41, 0xFA, 0xD3, 0xCD, 0xBE, 0xA7, 0xEF, 0x1B, 0xF5, 0xBE, 0xDE, 0xC2, 0x3F, 0xD8, 0xFF, 0xD1, 0xDE, 0xA7, 0xEB, 0xC1, 0xFD, 0xE8, 0x35, 0x13, 0xBB, 0xB0, 0xAB, 0xD2, 0x02, 0x1F, 0x2C, 0xF4, 0xDA, 0x0E, 0xA2, 0xCC, 0xB6, 0x48, 0x20, 0x39, 0x4F, 0x1D, 0xE2, 0x17, 0xF6, 0x2D, 0xBB, 0xBC, 0x4A, 0xAB, 0x30, 0xAE, 0xDD, 0x3B, 0xC2, 0xB5, 0x48, 0x3F, 0x12, 0xA1, 0xA8, 0xA3, 0xA9, 0x5C, 0xD4, 0xE5, 0x29, 0xAE, 0xEF, 0x2D, 0x58, 0x3A, 0x41, 0x4A, 0x58, 0xD1, 0x57, 0x9D, 0x66, 0x53, 0x6E, 0xFA, 0xF1, 0xF6, 0x35, 0x6D, 0xA3, 0x03, 0x51, 0xD8, 0x06, 0xE9, 0xFD, 0xCB, 0xF9, 0xFE, 0xA3, 0x33, 0x27, 0x1C, 0x0D, 0x13, 0xCD, 0xF0, 0x27, 0xF6, 0xA0, 0xB9, 0x1B, 0x00, 0x9E, 0x2F, 0x37, 0xCB, 0xD2, 0x37, 0x1D, 0x22, 0x1D, 0x1E, 0xBA, 0xC6, 0xAF, 0x6A, 0xEE, 0xAC, 0x39, 0xA6, 0x6F, 0x3B, 0x63, 0x08, 0xA3, 0xD1, 0xEF, 0xEE, 0x56, 0x66, 0x43, 0xB5, 0xCB, 0xA7, 0x27, 0xD6, 0xCF, 0x9F, 0xCC, 0x9A, 0xCA, 0x23, 0xC3, 0xF1, 0xA6, 0x32, 0x21, 0x93, 0xF2, 0xE8, 0x25, 0xD9, 0x21, 0x23, 0x4B, 0xAE, 0xC4, 0x5C, 0xD6, 0xC0, 0x70, 0xF3, 0x44, 0xA3, 0xF2, 0x3E, 0xDA, 0xE9, 0x50, 0xFB, 0xD6, 0x1B, 0xB6, 0xAB, 0xC4, 0xA3, 0xD3, 0xBB, 0xA2, 0x4C, 0x16, 0x2A, 0x24, 0x97, 0xF6, 0x4B, 0xCA, 0xEF, 0x10, 0x40, 0xA2, 0xFA, 0x39, 0x62, 0x4F, 0x0C, 0xD6, 0x48, 0x62, 0xE6, 0x0B, 0x54, 0xB8, 0xE2, 0x2D, 0xDB, 0xE9, 0x9C, 0x0F, 0x5F, 0xE8, 0x36, 0xE9, 0x12, 0xB6, 0xF0, 0xBF, 0x26, 0xF8, 0xEC, 0x56, 0x3D, 0x06, 0x0C, 0xC7, 0xA0, 0x0D, 0xF0, 0x60, 0xD9, 0xC6, 0xB7, 0x4B, 0xFE, 0xAF, 0x02, 0x57, 0x1E, 0xED, 0x4F, 0x48, 0xE0, 0x2E, 0x05, 0x0D, 0xAF, 0x45, 0x37, 0x50, 0x06, 0x36, 0x50, 0xA8, 0xCB, 0xD4, 0xD5, 0xD7, 0xE3, 0xE0, 0xC2, 0xDC, 0x50, 0xC5, 0x40, 0x23, 0x2D, 0x1F, 0x30, 0x1A, 0x3D, 0x17, 0xD9, 0xFF, 0x2D, 0xEE, 0xC5, 0xF9, 0x55, 0x18, 0x58, 0xD6, 0xF6, 0x2D, 0x9D, 0xBA, 0x3B, 0x9E, 0x40, 0xED, 0x13, 0xE2, 0x0A, 0x12, 0x5E, 0xCD, 0xD9, 0x0E, 0x44, 0x38, 0xB8, 0xBF, 0xCF, 0xD9, 0xC9, 0x35, 0xEA, 0xEC, 0x3B, 0xB2, 0xFC, 0xA8, 0x3C, 0x4E, 0x52, 0xD5, 0x48, 0xEA, 0xBF, 0xC5, 0xBA, 0xCA, 0xAC, 0x52, 0x35, 0x27, 0x62, 0xEC, 0xD8, 0xF0, 0x03, 0x46, 0xFB, 0x03, 0x08, 0x37, 0xF8, 0x02, 0xD4, 0x50, 0x5F, 0x1A, 0x52, 0xA7, 0xEA, 0xB9, 0xFF, 0x1A, 0x58, 0x17, 0x2B, 0xE9, 0x2E, 0x4A, 0x00, 0x24, 0xD9, 0x09, 0xA2, 0xF4, 0xDF, 0xAF, 0xEA, 0xFE, 0xFD, 0x35, 0x37, 0x35, 0xA3, 0x0D, 0x23, 0x25, 0xAD, 0x93, 0xA6, 0x19, 0xDB, 0x40, 0xF9, 0xFF, 0xFD, 0x10, 0xCD, 0xA8, 0x4A, 0xED, 0x4C, 0xD5, 0xDB, 0xAB, 0x29, 0x2C, 0x20, 0xF0, 0xF5, 0x58, 0xDC, 0xD2, 0x1F, 0x39, 0xF6, 0x46, 0x39, 0x51, 0xA0, 0x1D, 0x09, 0x41, 0x6D, 0xFE, 0xF1, 0xAE, 0x33, 0xCC, 0xB6, 0x0D, 0x08, 0xE6, 0xCA, 0x14, 0x34, 0xDF, 0xEA, 0xD1, 0x54, 0x6C, 0x35, 0x1C, 0x32, 0x06, 0xA3, 0x56, 0xA2, 0x12, 0x0B, 0x58, 0xC0, 0xA5, 0xAD, 0xC5, 0x2E, 0xFC, 0xAE, 0x9E, 0x52, 0x0B, 0xC3, 0xC6, 0x38, 0xBB, 0x3F, 0x08, 0x54, 0xFC, 0x6B, 0x58, 0x36, 0xAA, 0x4C, 0x34, 0xE0, 0xF4, 0xAA, 0xB9, 0xD6, 0x56, 0xE8, 0xD5, 0x23, 0xED, 0xAC, 0x3F, 0xA5, 0x5E, 0xB0, 0x0E, 0x3F, 0x3F, 0xEB, 0xDB, 0x03, 0x30, 0x4E, 0x25, 0xCB, 0x58, 0x4A, 0xAB, 0xEE, 0x05, 0xDA, 0xCC, 0xCD, 0x03, 0x2D, 0xE2, 0x4A, 0x3F, 0xEC, 0xC9, 0xCB, 0x1C, 0x2B, 0x1F, 0xBF, 0xFB, 0x25, 0x25, 0x24, 0x3A, 0x13, 0x1D, 0xA2, 0x41, 0xFD, 0x03, 0x3C, 0xEE, 0x55, 0xCE, 0x9E, 0x05, 0x10, 0xF8, 0x20, 0x4A, 0xCA, 0xF7, 0x9F, 0xC9, 0xEF, 0xF5, 0x1B, 0x1A, 0xE3, 0x2C, 0x37, 0xD3, 0xBA, 0xD3, 0x23, 0x2F, 0x63, 0x0D, 0xF2, 0xFC, 0x3A, 0x47, 0xB7, 0xA3, 0x08, 0xAC, 0xB3, 0xBC, 0x32, 0x30, 0x1E, 0xF5, 0xD4, 0x16, 0xF4, 0x3E, 0x16, 0x0E, 0xC1, 0xBD, 0xEC, 0x61, 0x2E, 0x1E, 0x1D, 0xAC, 0xE3, 0xF5, 0xF1, 0x3E, 0x68, 0xD3, 0xFA, 0xE2, 0xEB, 0xFC, 0xF1, 0x5A, 0xBC, 0x37, 0x1E, 0xA3, 0xBF, 0x28, 0x53, 0x37, 0xC9, 0xF9, 0xD2, 0xD9, 0x2C, 0x2F, 0xD8, 0x27, 0x07, 0xEB, 0xD2, 0xA6, 0xAB, 0xBD, 0x9B, 0xFB, 0x2F, 0x00, 0x16, 0x65, 0x68, 0xCD, 0xBD, 0xE3, 0xD1, 0x30, 0xFC, 0x69, 0x03, 0x1C, 0xBE, 0x6C, 0x5C, 0x59, 0x05, 0xB4, 0xA0, 0x0B, 0xEA, 0xB3, 0xD2, 0x8E, 0x47, 0x5E, 0x0D, 0xAA, 0x57, 0x53, 0x43, 0xF9, 0xDC, 0x90, 0x57, 0x8E, 0x13, 0xFB, 0x31, 0x69, 0x2B, 0x49, 0xFA, 0x48, 0xF2, 0x05, 0x53, 0x13, 0xCD, 0xC8, 0x38, 0x0A, 0xDA, 0x13, 0xD7, 0x55, 0xCF, 0x22, 0x15, 0x65, 0x30, 0xCF, 0x51, 0x54, 0xE7, 0x95, 0x60, 0x11, 0x34, 0x5D, 0xB3, 0xC3, 0x08, 0xFB, 0xD0, 0x07, 0xD7, 0xAB, 0xDB, 0x0A, 0xAD, 0xC2, 0x3C, 0xD1, 0xC1, 0xAF, 0xF5, 0x1C, 0x44, 0xB4, 0x2B, 0xCA, 0x29, 0x12, 0xDE, 0x9B, 0xEF, 0xAC, 0x03, 0xED, 0x39, 0xF3, 0x5A, 0xBC, 0x2F, 0xC7, 0xAA, 0x1D, 0x02, 0xCE, 0x15, 0x38, 0xE9, 0xA8, 0x40, 0xD1, 0xB3, 0x0D, 0x3C, 0x25, 0x75, 0x2E, 0x4A, 0x01, 0x42, 0xA3, 0x38, 0x02, 0xD9, 0xD8, 0x5A, 0xB0, 0xAF, 0x02, 0xE1, 0x65, 0x1A, 0xB1, 0x24, 0xEB, 0x25, 0x3F, 0xFB, 0xEA, 0xB2, 0x20, 0x28, 0x18, 0x31, 0xFD, 0xC4, 0x2D, 0x3C, 0x28, 0xC6, 0xD1, 0xC5, 0xA7, 0xE9, 0x9C, 0x20, 0xBF, 0xB5, 0x15, 0x31, 0x23, 0xA6, 0xAD, 0x3F, 0x55, 0xD6, 0xE8, 0x2A, 0xAB, 0xF4, 0x32, 0x5D, 0x0C, 0xE5, 0x1C, 0x5B, 0x11, 0x3B, 0xD0, 0x2B, 0xA4, 0x32, 0x63, 0x4A, 0x0A, 0xB9, 0x52, 0xDF, 0x27, 0xB4, 0xEE, 0xED, 0xF5, 0xAC, 0x22, 0xE5, 0xEA, 0xEC, 0xA6, 0xDB, 0x07, 0xF2, 0xBF, 0xC8, 0x0B, 0x0E, 0x9E, 0x1E, 0xB6, 0x00, 0x56, 0xEA, 0x31, 0x53, 0xF3, 0xB7, 0xD8, 0xA9, 0x2D, 0x15, 0xF5, 0xA3, 0x9F, 0x11, 0x2D, 0x52, 0x03, 0x1C, 0xAC, 0xB5, 0x10, 0xF7, 0xA5, 0x98, 0x05, 0x1C, 0xC3, 0xD5, 0xDC, 0x3D, 0xF8, 0x08, 0xBA, 0xA5, 0xDB, 0x2A, 0xA9, 0xFA, 0x1B, 0x9A, 0x3F, 0xDC, 0x31, 0x43, 0x53, 0xCD, 0x69, 0xF1, 0x1C, 0x29, 0xC4, 0x3E, 0xFE, 0x68, 0x25, 0x0D, 0x3A, 0x07, 0x58, 0xA9, 0xBD, 0x33, 0x31, 0xC3, 0x04, 0xEC, 0xD4, 0x55, 0x54, 0x3A, 0x27, 0xF2, 0x37, 0xF8, 0x13, 0xB9, 0xED, 0xD0, 0x98, 0x2E, 0xE8, 0x34, 0x2C, 0xDB, 0xDE, 0xCE, 0xE2, 0x22, 0x30, 0x03, 0xD4, 0xE3, 0xAE, 0x02, 0x60, 0xB2, 0xE4, 0x0D, 0xAE, 0x03, 0x07, 0x52, 0xEE, 0x14, 0xB7, 0x68, 0xE0, 0xE6, 0x53, 0x11, 0x49, 0xAF, 0xB2, 0x28, 0xED, 0xF4, 0xF1, 0x0F, 0x2C, 0xED, 0x4A, 0xB9, 0x43, 0x2F, 0x16, 0x14, 0xE1, 0xF1, 0xD1, 0x1C, 0x5D, 0x5F, 0xEF, 0xE0, 0xFB, 0x27, 0xD6, 0x0B, 0x41, 0xEE, 0xCE, 0xE3, 0x61, 0xAB, 0x0F, 0x0C, 0xE4, 0x54, 0xE9, 0x47, 0xE1, 0xDF, 0x02, 0x29, 0xE0, 0x09, 0x57, 0x11, 0x33, 0x1A, 0xB9, 0xBE, 0xF4, 0x1E, 0x9C, 0xF0, 0x45, 0x11, 0xEE, 0xC5, 0xCF, 0x49, 0x0D, 0xE8, 0xC4, 0xE3, 0xF5, 0x14, 0xDE, 0x53, 0xF4, 0x53, 0xC7, 0xC3, 0x9C, 0x94, 0xF4, 0xAF, 0x4E, 0x29, 0xD0, 0x26, 0x2E, 0x8A, 0x48, 0xC6, 0xB8, 0xD7, 0x62, 0xD2, 0xD3, 0xA7, 0x2B, 0x06, 0xBA, 0xCC, 0xB5, 0x0F, 0xBF, 0x46, 0x42, 0xAA, 0xDE, 0x3C, 0xA9, 0x96, 0x63, 0xD8, 0xBF, 0x28, 0x51, 0xDB, 0xDC, 0xA4, 0x26, 0x9E, 0xED, 0x2E, 0x17, 0xBA, 0x4A, 0xBA, 0x05, 0xB2, 0xE2, 0xF8, 0x18, 0x3D, 0xC1, 0xA1, 0x67, 0xC4, 0x43, 0x1C, 0xAA, 0xF8, 0xC7, 0x5D, 0x33, 0xC5, 0xD9, 0x18, 0xD0, 0xA5, 0x16, 0x1E, 0xC1, 0x31, 0x04, 0x51, 0x1A, 0xDE, 0x36, 0xB1, 0x3E, 0xD0, 0xEB, 0xE6, 0x57, 0x0A, 0x39, 0x56, 0xDF, 0xEF, 0xDF, 0xA6, 0xDB, 0x22, 0x1A, 0xE2, 0x16, 0x9B, 0x10, 0x01, 0x1C, 0x2F, 0xAA, 0x5E, 0x46, 0xF3, 0xD2, 0x71, 0x57, 0xB2, 0xC7, 0xC6, 0xE0, 0xC8, 0xAA, 0x1C, 0x90, 0x61, 0x96, 0xF4, 0x2B, 0xCB, 0x51, 0x0D, 0xF8, 0xB4, 0x43, 0xCF, 0x44, 0xB0, 0x90, 0x01, 0x30, 0xCE, 0xE0, 0xD4, 0x07, 0xD4, 0x09, 0xC4, 0x2E, 0x52, 0xFE, 0x18, 0xC2, 0x4D, 0xF3, 0xE5, 0xE1, 0x3C, 0x55, 0x25, 0x30, 0xF8, 0xAC, 0x47, 0x2E, 0xEC, 0xE0, 0x44, 0xD3, 0x49, 0x29, 0x43, 0x52, 0x47, 0x42, 0x1E, 0x44, 0x1D, 0xBE, 0x45, 0x14, 0x02, 0x5D, 0xDA, 0x52, 0xBA, 0x3D, 0xAD, 0x15, 0xEE, 0x51, 0xE9, 0xAA, 0xC9, 0xF5, 0x10, 0x01, 0x07, 0xA3, 0xA2, 0xC9, 0x0B, 0x02, 0x56, 0x45, 0xED, 0xC8, 0x47, 0xBB, 0xC3, 0x44, 0x26, 0x3B, 0xB6, 0x1E, 0x37, 0xDA, 0x3E, 0x06, 0x0E, 0x9D, 0x98, 0xF8, 0xC9, 0xE6, 0xDE, 0xFE, 0x4B, 0xB3, 0x35, 0x27, 0xF7, 0x2B, 0x08, 0xC9, 0xD1, 0x0F, 0xEA, 0x10, 0xB7, 0xA9, 0xA9, 0xE9, 0x4C, 0x42, 0x49, 0xFC, 0x09, 0xD5, 0x37, 0x5D, 0x59, 0x55, 0x9C, 0x03, 0x02, 0x0B, 0x2D, 0xCB, 0xEF, 0x2D, 0x08, 0xCE, 0x4B, 0xA5, 0xF6, 0xAC, 0xBB, 0xAB, 0x9C, 0xD1, 0x2D, 0xEB, 0x05, 0xC8, 0xEE, 0x61, 0x0E, 0x18, 0xB8, 0x2B, 0xCB, 0xD4, 0xCD, 0x0F, 0xE8, 0xD8, 0x24, 0xA7, 0x08, 0xCC, 0xF4, 0xA4, 0x1D, 0xCF, 0x5E, 0x59, 0xEE, 0x19, 0xFF, 0x29, 0xD8, 0xFA, 0x3F, 0xBD, 0x32, 0x37, 0xFA, 0x9A, 0xF1, 0xE9, 0xAB, 0xA1, 0xC0, 0x65, 0x48, 0xB5, 0x03, 0xAB, 0x50, 0xF7, 0xB8, 0x3C, 0xB7, 0xF7, 0x5D, 0xEF, 0x02, 0x3F, 0xEE, 0x9A, 0x0C, 0xE8, 0xCC, 0x25, 0x37, 0xB9, 0xE1, 0xDD, 0xDA, 0x08, 0x4D, 0x00, 0xF0, 0x04, 0x51, 0xEF, 0x4B, 0x05, 0xBB, 0xF8, 0x0E, 0xE5, 0x36, 0x1E, 0x32, 0x3F, 0xAD, 0x0D, 0xAA, 0xBC, 0xDB, 0x13, 0x50, 0x27, 0x94, 0xE1, 0xFF, 0x4F, 0x26, 0x51, 0x35, 0xD1, 0x2A, 0x01, 0xFF, 0xAF, 0x68, 0x4B, 0x3E, 0xD3, 0xC0, 0xF3, 0x46, 0xFD, 0x3E, 0x23, 0x36, 0x02, 0xC2, 0x9C, 0x31, 0x3F, 0x9A, 0x60, 0xC1, 0xD5, 0x31, 0xFC, 0x56, 0x81, 0x5D, 0x41, 0xE4, 0x44, 0xA9, 0x4C, 0x1F, 0xD5, 0xD5, 0xEA, 0xA0, 0xBE, 0xC4, 0x5A, 0xD4, 0xBF, 0xE3, 0x19, 0x61, 0x26, 0x50, 0x24, 0xC7, 0x0C, 0x51, 0x28, 0x54, 0xCF, 0x3D, 0x5C, 0xA0, 0xAA, 0x60, 0x56, 0xF2, 0xBE, 0xD1, 0xB4, 0xFF, 0x0C, 0x37, 0x35, 0x24, 0xB2, 0x4B, 0x46, 0xB9, 0x3A, 0xD0, 0xD1, 0xCC, 0x60, 0x1B, 0x36, 0xA7, 0xE3, 0x31, 0xD3, 0xF9, 0x23, 0x30, 0xB1, 0x43, 0x40, 0xE0, 0x29, 0x50, 0x01, 0x38, 0x47, 0x07, 0x17, 0xDE, 0x22, 0xE7, 0x97, 0x52, 0xB9, 0xBE, 0x2C, 0x39, 0x37, 0x2F, 0x15, 0x0B, 0xDD, 0x4D, 0xF0, 0x39, 0xE9, 0x47, 0x18, 0x29, 0x6E, 0xD4, 0xA8, 0x2F, 0x67, 0x05, 0xC5, 0xDB, 0xA4, 0x00, 0x0E, 0x49, 0xA5, 0xEF, 0xBE, 0x13, 0xFD, 0xAD, 0x00, 0x2B, 0x76, 0x5A, 0x37, 0xC4, 0x0E, 0x01, 0xF3, 0x24, 0x55, 0x01, 0xB8, 0xD3, 0x2D, 0x08, 0xFA, 0x19, 0x1C, 0xB7, 0x2F, 0xD8, 0xBC, 0xC5, 0x0B, 0x5B, 0xF5, 0x49, 0xDE, 0xC7, 0xDC, 0xB7, 0x4E, 0xF7, 0xB2, 0x2C, 0x1A, 0x12, 0xEE, 0xEB, 0x3F, 0xA1, 0x42, 0xF1, 0xD2, 0x13, 0xDF, 0xBD, 0x57, 0xDC, 0x3C, 0xBC, 0x10, 0xE9, 0x2C, 0xF2, 0xB7, 0xDB, 0xEF, 0xEC, 0xF6, 0x04, 0x20, 0x4A, 0x0D, 0x3F, 0xC7, 0xEC, 0xD4, 0x06, 0xE5, 0x3B, 0xB2, 0x28, 0x58, 0x09, 0x2F, 0xC4, 0x9D, 0x5D, 0xDA, 0xE0, 0x47, 0xA7, 0xE8, 0xDF, 0xEF, 0x59, 0x50, 0x61, 0x26, 0x35, 0x19, 0x49, 0x22, 0xA8, 0x58, 0xE0, 0xB6, 0x4F, 0xDF, 0x2F, 0xC3, 0x3D, 0x5A, 0x2C, 0xEC, 0x65, 0xAA, 0xF2, 0x0E, 0xE7, 0x55, 0xB2, 0x1D, 0xB2, 0x0E, 0x6A, 0xE6, 0x0E, 0xFA, 0xFF, 0xFF, 0x00, 0x00, 0x00, 0x09, 0x10, 0x00, 0x00, 0x00, 0x07, 0x00, 0x00, 0x00, 0x14, 0x00, 0x00, 0x00, 0x78, 0x00, 0x00, 0x00, 0x02, 0x00, 0x00, 0x00, 0x10, 0x00, 0x00, 0x00, 0xF4, 0x01, 0x00, 0x00, 0x63, 0x00, 0x00, 0x00, 0x73, 0x65, 0x71, 0x75, 0x65, 0x6E, 0x74, 0x69, 0x61, 0x6C, 0x5F, 0x31, 0x2F, 0x71, 0x75, 0x61, 0x6E, 0x74, 0x5F, 0x64, 0x65, 0x6E, 0x73, 0x65, 0x5F, 0x34, 0x2F, 0x4D, 0x61, 0x74, 0x4D, 0x75, 0x6C, 0x3B, 0x73, 0x65, 0x71, 0x75, 0x65, 0x6E, 0x74, 0x69, 0x61, 0x6C, 0x5F, 0x31, 0x2F, 0x71, 0x75, 0x61, 0x6E, 0x74, 0x5F, 0x64, 0x65, 0x6E, 0x73, 0x65, 0x5F, 0x34, 0x2F, 0x4C, 0x61, 0x73, 0x74, 0x56, 0x61, 0x6C, 0x75, 0x65, 0x51, 0x75, 0x61, 0x6E, 0x74, 0x2F, 0x46, 0x61, 0x6B, 0x65, 0x51, 0x75, 0x61, 0x6E, 0x74, 0x57, 0x69, 0x74, 0x68, 0x4D, 0x69, 0x6E, 0x4D, 0x61, 0x78, 0x56, 0x61, 0x72, 0x73, 0x00, 0x2C, 0xFA, 0xFF, 0xFF, 0x08, 0x00, 0x00, 0x00, 0x0C, 0x00, 0x00, 0x00, 0x01, 0x00, 0x00, 0x00, 0x23, 0x0B, 0x8A, 0x3A, 0x01, 0x00, 0x00, 0x00, 0x00, 0x00, 0x00, 0x00, 0x00, 0x00, 0x00, 0x00, 0x00, 0x00, 0x00, 0x00, 0x00, 0x00, 0x0A, 0x00, 0x0C, 0x00, 0x00, 0x00, 0x04, 0x00, 0x08, 0x00, 0x0A, 0x00, 0x00, 0x00, 0x10, 0x00, 0x00, 0x00, 0x04, 0x00, 0x00, 0x00, 0x01, 0x00, 0x00, 0x00, 0x05, 0x00, 0x00, 0x00, 0x01, 0x00, 0x00, 0x00, 0x00, 0x00, 0x00, 0x00, 0x0C, 0x00, 0x10, 0x00, 0x0B, 0x00, 0x00, 0x00, 0x0C, 0x00, 0x04, 0x00, 0x0C, 0x00, 0x00, 0x00, 0x72, 0x00, 0x00, 0x00, 0x00, 0x00, 0x00, 0x72, 0x01, 0x00, 0x00, 0x00, 0x14, 0x00, 0x1C, 0x00, 0x08, 0x00, 0x07, 0x00, 0x0C, 0x00, 0x10, 0x00, 0x14, 0x00, 0x00, 0x00, 0x00, 0x00, 0x18, 0x00, 0x14, 0x00, 0x00, 0x00, 0x00, 0x00, 0x00, 0x09, 0x14, 0x00, 0x00, 0x00, 0x06, 0x00, 0x00, 0x00, 0x24, 0x00, 0x00, 0x00, 0x28, 0x01, 0x00, 0x00, 0x10, 0x00, 0x00, 0x00, 0x02, 0x00, 0x00, 0x00, 0x01, 0x00, 0x00, 0x00, 0xF4, 0x01, 0x00, 0x00, 0x02, 0x00, 0x00, 0x00, 0xFF, 0xFF, 0xFF, 0xFF, 0xF4, 0x01, 0x00, 0x00, 0x03, 0x01, 0x00, 0x00, 0x73, 0x65, 0x71, 0x75, 0x65, 0x6E, 0x74, 0x69, 0x61, 0x6C, 0x5F, 0x31, 0x2F, 0x71, 0x75, 0x61, 0x6E, 0x74, 0x69, 0x7A, 0x65, 0x5F, 0x6C, 0x61, 0x79, 0x65, 0x72, 0x2F, 0x41, 0x6C, 0x6C, 0x56, 0x61, 0x6C, 0x75, 0x65, 0x73, 0x51, 0x75, 0x61, 0x6E, 0x74, 0x69, 0x7A, 0x65, 0x2F, 0x46, 0x61, 0x6B, 0x65, 0x51, 0x75, 0x61, 0x6E, 0x74, 0x57, 0x69, 0x74, 0x68, 0x4D, 0x69, 0x6E, 0x4D, 0x61, 0x78, 0x56, 0x61, 0x72, 0x73, 0x3B, 0x73, 0x65, 0x71, 0x75, 0x65, 0x6E, 0x74, 0x69, 0x61, 0x6C, 0x5F, 0x31, 0x2F, 0x71, 0x75, 0x61, 0x6E, 0x74, 0x69, 0x7A, 0x65, 0x5F, 0x6C, 0x61, 0x79, 0x65, 0x72, 0x2F, 0x41, 0x6C, 0x6C, 0x56, 0x61, 0x6C, 0x75, 0x65, 0x73, 0x51, 0x75, 0x61, 0x6E, 0x74, 0x69, 0x7A, 0x65, 0x2F, 0x46, 0x61, 0x6B, 0x65, 0x51, 0x75, 0x61, 0x6E, 0x74, 0x57, 0x69, 0x74, 0x68, 0x4D, 0x69, 0x6E, 0x4D, 0x61, 0x78, 0x56, 0x61, 0x72, 0x73, 0x2F, 0x52, 0x65, 0x61, 0x64, 0x56, 0x61, 0x72, 0x69, 0x61, 0x62, 0x6C, 0x65, 0x4F, 0x70, 0x2F, 0x72, 0x65, 0x73, 0x6F, 0x75, 0x72, 0x63, 0x65, 0x3B, 0x73, 0x65, 0x71, 0x75, 0x65, 0x6E, 0x74, 0x69, 0x61, 0x6C, 0x5F, 0x31, 0x2F, 0x71, 0x75, 0x61, 0x6E, 0x74, 0x69, 0x7A, 0x65, 0x5F, 0x6C, 0x61, 0x79, 0x65, 0x72, 0x2F, 0x41, 0x6C, 0x6C, 0x56, 0x61, 0x6C, 0x75, 0x65, 0x73, 0x51, 0x75, 0x61, 0x6E, 0x74, 0x69, 0x7A, 0x65, 0x2F, 0x46, 0x61, 0x6B, 0x65, 0x51, 0x75, 0x61, 0x6E, 0x74, 0x57, 0x69, 0x74, 0x68, 0x4D, 0x69, 0x6E, 0x4D, 0x61, 0x78, 0x56, 0x61, 0x72, 0x73, 0x2F, 0x52, 0x65, 0x61, 0x64, 0x56, 0x61, 0x72, 0x69, 0x61, 0x62, 0x6C, 0x65, 0x4F, 0x70, 0x5F, 0x31, 0x2F, 0x72, 0x65, 0x73, 0x6F, 0x75, 0x72, 0x63, 0x65, 0x00, 0xE4, 0xFB, 0xFF, 0xFF, 0x08, 0x00, 0x00, 0x00, 0x0C, 0x00, 0x00, 0x00, 0x01, 0x00, 0x00, 0x00, 0xC1, 0x2B, 0x7A, 0x43, 0x01, 0x00, 0x00, 0x00, 0xFF, 0xFF, 0xFF, 0xFF, 0xFF, 0xFF, 0xFF, 0xFF, 0x00, 0x00, 0x00, 0x00, 0xCA, 0xFC, 0xFF, 0xFF, 0x04, 0x00, 0x00, 0x00, 0x08, 0x00, 0x00, 0x00, 0xC0, 0xFF, 0xFF, 0xFF, 0x48, 0x00, 0x00, 0x00, 0x8A, 0xFC, 0xFF, 0xFF, 0x00, 0x00, 0x00, 0x02, 0x10, 0x00, 0x00, 0x00, 0x05, 0x00, 0x00, 0x00, 0x10, 0x00, 0x00, 0x00, 0x4C, 0x00, 0x00, 0x00, 0x01, 0x00, 0x00, 0x00, 0x02, 0x00, 0x00, 0x00, 0x3A, 0x00, 0x00, 0x00, 0x73, 0x65, 0x71, 0x75, 0x65, 0x6E, 0x74, 0x69, 0x61, 0x6C, 0x5F, 0x31, 0x2F, 0x71, 0x75, 0x61, 0x6E, 0x74, 0x5F, 0x64, 0x65, 0x6E, 0x73, 0x65, 0x5F, 0x37, 0x2F, 0x42, 0x69, 0x61, 0x73, 0x41, 0x64, 0x64, 0x2F, 0x52, 0x65, 0x61, 0x64, 0x56, 0x61, 0x72, 0x69, 0x61, 0x62, 0x6C, 0x65, 0x4F, 0x70, 0x2F, 0x72, 0x65, 0x73, 0x6F, 0x75, 0x72, 0x63, 0x65, 0x00, 0x00, 0x7C, 0xFC, 0xFF, 0xFF, 0x08, 0x00, 0x00, 0x00, 0x0C, 0x00, 0x00, 0x00, 0x01, 0x00, 0x00, 0x00, 0x17, 0xC2, 0xF8, 0x3A, 0x01, 0x00, 0x00, 0x00, 0x00, 0x00, 0x00, 0x00, 0x00, 0x00, 0x00, 0x00, 0x00, 0x00, 0x00, 0x00, 0x62, 0xFD, 0xFF, 0xFF, 0x04, 0x00, 0x00, 0x00, 0x00, 0x01, 0x00, 0x00, 0xF6, 0xFF, 0xFF, 0xFF, 0x0C, 0x00, 0x00, 0x00, 0x11, 0x00, 0x00, 0x00, 0x07, 0x00, 0x00, 0x00, 0x0F, 0x00, 0x00, 0x00, 0xF4, 0xFF, 0xFF, 0xFF, 0xF3, 0xFF, 0xFF, 0xFF, 0xF3, 0xFF, 0xFF, 0xFF, 0xF3, 0xFF, 0xFF, 0xFF, 0x0B, 0x00, 0x00, 0x00, 0xF6, 0xFF, 0xFF, 0xFF, 0xF8, 0xFF, 0xFF, 0xFF, 0x0B, 0x00, 0x00, 0x00, 0xF8, 0xFF, 0xFF, 0xFF, 0xFA, 0xFF, 0xFF, 0xFF, 0xFB, 0xFF, 0xFF, 0xFF, 0xF0, 0xFF, 0xFF, 0xFF, 0x08, 0x00, 0x00, 0x00, 0xF4, 0xFF, 0xFF, 0xFF, 0x06, 0x00, 0x00, 0x00, 0x08, 0x00, 0x00, 0x00, 0xF1, 0xFF, 0xFF, 0xFF, 0x0B, 0x00, 0x00, 0x00, 0xF3, 0xFF, 0xFF, 0xFF, 0xF3, 0xFF, 0xFF, 0xFF, 0xF5, 0xFF, 0xFF, 0xFF, 0xFC, 0xFF, 0xFF, 0xFF, 0x0C, 0x00, 0x00, 0x00, 0x0E, 0x00, 0x00, 0x00, 0xF3, 0xFF, 0xFF, 0xFF, 0x00, 0x00, 0x00, 0x00, 0xF9, 0xFF, 0xFF, 0xFF, 0xF3, 0xFF, 0xFF, 0xFF, 0xF6, 0xFF, 0xFF, 0xFF, 0x0C, 0x00, 0x00, 0x00, 0x0E, 0x00, 0x00, 0x00, 0x0E, 0x00, 0x00, 0x00, 0xF1, 0xFF, 0xFF, 0xFF, 0x09, 0x00, 0x00, 0x00, 0x0A, 0x00, 0x00, 0x00, 0xF5, 0xFF, 0xFF, 0xFF, 0xFD, 0xFF, 0xFF, 0xFF, 0x0A, 0x00, 0x00, 0x00, 0xFD, 0xFF, 0xFF, 0xFF, 0xF5, 0xFF, 0xFF, 0xFF, 0x04, 0x00, 0x00, 0x00, 0xF4, 0xFF, 0xFF, 0xFF, 0x0E, 0x00, 0x00, 0x00, 0xF9, 0xFF, 0xFF, 0xFF, 0x05, 0x00, 0x00, 0x00, 0xF1, 0xFF, 0xFF, 0xFF, 0x03, 0x00, 0x00, 0x00, 0xF4, 0xFF, 0xFF, 0xFF, 0x06, 0x00, 0x00, 0x00, 0xF3, 0xFF, 0xFF, 0xFF, 0xF4, 0xFF, 0xFF, 0xFF, 0x0F, 0x00, 0x00, 0x00, 0x0D, 0x00, 0x00, 0x00, 0x11, 0x00, 0x00, 0x00, 0xFF, 0xFF, 0xFF, 0xFF, 0x0D, 0x00, 0x00, 0x00, 0x04, 0x00, 0x00, 0x00, 0x0A, 0x00, 0x00, 0x00, 0xFD, 0xFF, 0xFF, 0xFF, 0x1A, 0xFE, 0xFF, 0xFF, 0x00, 0x00, 0x00, 0x02, 0x10, 0x00, 0x00, 0x00, 0x04, 0x00, 0x00, 0x00, 0x10, 0x00, 0x00, 0x00, 0x4C, 0x00, 0x00, 0x00, 0x01, 0x00, 0x00, 0x00, 0x40, 0x00, 0x00, 0x00, 0x3A, 0x00, 0x00, 0x00, 0x73, 0x65, 0x71, 0x75, 0x65, 0x6E, 0x74, 0x69, 0x61, 0x6C, 0x5F, 0x31, 0x2F, 0x71, 0x75, 0x61, 0x6E, 0x74, 0x5F, 0x64, 0x65, 0x6E, 0x73, 0x65, 0x5F, 0x36, 0x2F, 0x42, 0x69, 0x61, 0x73, 0x41, 0x64, 0x64, 0x2F, 0x52, 0x65, 0x61, 0x64, 0x56, 0x61, 0x72, 0x69, 0x61, 0x62, 0x6C, 0x65, 0x4F, 0x70, 0x2F, 0x72, 0x65, 0x73, 0x6F, 0x75, 0x72, 0x63, 0x65, 0x00, 0x00, 0x0C, 0xFE, 0xFF, 0xFF, 0x08, 0x00, 0x00, 0x00, 0x0C, 0x00, 0x00, 0x00, 0x01, 0x00, 0x00, 0x00, 0xB6, 0x2E, 0x13, 0x3C, 0x01, 0x00, 0x00, 0x00, 0x00, 0x00, 0x00, 0x00, 0x00, 0x00, 0x00, 0x00, 0x00, 0x00, 0x00, 0x00, 0xF2, 0xFE, 0xFF, 0xFF, 0x04, 0x00, 0x00, 0x00, 0x80, 0x00, 0x00, 0x00, 0x00, 0x00, 0x00, 0x00, 0xFF, 0xFF, 0xFF, 0xFF, 0xFF, 0xFF, 0xFF, 0xFF, 0xFF, 0xFF, 0xFF, 0xFF, 0x01, 0x00, 0x00, 0x00, 0xFF, 0xFF, 0xFF, 0xFF, 0x02, 0x00, 0x00, 0x00, 0x00, 0x00, 0x00, 0x00, 0x01, 0x00, 0x00, 0x00, 0xFE, 0xFF, 0xFF, 0xFF, 0x00, 0x00, 0x00, 0x00, 0x00, 0x00, 0x00, 0x00, 0x00, 0x00, 0x00, 0x00, 0xFF, 0xFF, 0xFF, 0xFF, 0x00, 0x00, 0x00, 0x00, 0x01, 0x00, 0x00, 0x00, 0x00, 0x00, 0x00, 0x00, 0xFF, 0xFF, 0xFF, 0xFF, 0xFF, 0xFF, 0xFF, 0xFF, 0x00, 0x00, 0x00, 0x00, 0x00, 0x00, 0x00, 0x00, 0xFF, 0xFF, 0xFF, 0xFF, 0x00, 0x00, 0x00, 0x00, 0xFE, 0xFF, 0xFF, 0xFF, 0xFF, 0xFF, 0xFF, 0xFF, 0xFF, 0xFF, 0xFF, 0xFF, 0x01, 0x00, 0x00, 0x00, 0x02, 0x00, 0x00, 0x00, 0xFF, 0xFF, 0xFF, 0xFF, 0xFF, 0xFF, 0xFF, 0xFF, 0x00, 0x00, 0x00, 0x00, 0x01, 0x00, 0x00, 0x00, 0x2A, 0xFF, 0xFF, 0xFF, 0x00, 0x00, 0x00, 0x02, 0x10, 0x00, 0x00, 0x00, 0x03, 0x00, 0x00, 0x00, 0x10, 0x00, 0x00, 0x00, 0x4C, 0x00, 0x00, 0x00, 0x01, 0x00, 0x00, 0x00, 0x20, 0x00, 0x00, 0x00, 0x3A, 0x00, 0x00, 0x00, 0x73, 0x65, 0x71, 0x75, 0x65, 0x6E, 0x74, 0x69, 0x61, 0x6C, 0x5F, 0x31, 0x2F, 0x71, 0x75, 0x61, 0x6E, 0x74, 0x5F, 0x64, 0x65, 0x6E, 0x73, 0x65, 0x5F, 0x35, 0x2F, 0x42, 0x69, 0x61, 0x73, 0x41, 0x64, 0x64, 0x2F, 0x52, 0x65, 0x61, 0x64, 0x56, 0x61, 0x72, 0x69, 0x61, 0x62, 0x6C, 0x65, 0x4F, 0x70, 0x2F, 0x72, 0x65, 0x73, 0x6F, 0x75, 0x72, 0x63, 0x65, 0x00, 0x00, 0x1C, 0xFF, 0xFF, 0xFF, 0x08, 0x00, 0x00, 0x00, 0x0C, 0x00, 0x00, 0x00, 0x01, 0x00, 0x00, 0x00, 0xB5, 0xA7, 0x66, 0x3D, 0x01, 0x00, 0x00, 0x00, 0x00, 0x00, 0x00, 0x00, 0x00, 0x00, 0x00, 0x00, 0x00, 0x00, 0x06, 0x00, 0x08, 0x00, 0x04, 0x00, 0x06, 0x00, 0x00, 0x00, 0x04, 0x00, 0x00, 0x00, 0x40, 0x00, 0x00, 0x00, 0x00, 0x00, 0x00, 0x00, 0x00, 0x00, 0x00, 0x00, 0x00, 0x00, 0x00, 0x00, 0x00, 0x00, 0x00, 0x00, 0x00, 0x00, 0x00, 0x00, 0x00, 0x00, 0x00, 0x00, 0x00, 0x00, 0x00, 0x00, 0x00, 0x00, 0x00, 0x00, 0x00, 0x00, 0x00, 0x00, 0x00, 0x00, 0x00, 0x00, 0x00, 0x00, 0x00, 0x00, 0x00, 0x00, 0x00, 0x00, 0x00, 0x00, 0x00, 0x00, 0x00, 0x00, 0x00, 0x00, 0x00, 0x00, 0x00, 0x00, 0x00, 0x00, 0x00, 0x00, 0x00, 0x00, 0x0E, 0x00, 0x18, 0x00, 0x08, 0x00, 0x07, 0x00, 0x0C, 0x00, 0x10, 0x00, 0x14, 0x00, 0x0E, 0x00, 0x00, 0x00, 0x00, 0x00, 0x00, 0x02, 0x10, 0x00, 0x00, 0x00, 0x02, 0x00, 0x00, 0x00, 0x10, 0x00, 0x00, 0x00, 0x58, 0x00, 0x00, 0x00, 0x01, 0x00, 0x00, 0x00, 0x10, 0x00, 0x00, 0x00, 0x3A, 0x00, 0x00, 0x00, 0x73, 0x65, 0x71, 0x75, 0x65, 0x6E, 0x74, 0x69, 0x61, 0x6C, 0x5F, 0x31, 0x2F, 0x71, 0x75, 0x61, 0x6E, 0x74, 0x5F, 0x64, 0x65, 0x6E, 0x73, 0x65, 0x5F, 0x34, 0x2F, 0x42, 0x69, 0x61, 0x73, 0x41, 0x64, 0x64, 0x2F, 0x52, 0x65, 0x61, 0x64, 0x56, 0x61, 0x72, 0x69, 0x61, 0x62, 0x6C, 0x65, 0x4F, 0x70, 0x2F, 0x72, 0x65, 0x73, 0x6F, 0x75, 0x72, 0x63, 0x65, 0x00, 0x00, 0x0C, 0x00, 0x0C, 0x00, 0x00, 0x00, 0x00, 0x00, 0x04, 0x00, 0x08, 0x00, 0x0C, 0x00, 0x00, 0x00, 0x08, 0x00, 0x00, 0x00, 0x0C, 0x00, 0x00, 0x00, 0x01, 0x00, 0x00, 0x00, 0x79, 0xE6, 0x86, 0x3E, 0x01, 0x00, 0x00, 0x00, 0x00, 0x00, 0x00, 0x00, 0x00, 0x00, 0x00, 0x00, 0x00, 0x00, 0x00, 0x00, 0x14, 0x00, 0x18, 0x00, 0x04, 0x00, 0x00, 0x00, 0x08, 0x00, 0x0C, 0x00, 0x10, 0x00, 0x00, 0x00, 0x00, 0x00, 0x14, 0x00, 0x14, 0x00, 0x00, 0x00, 0x14, 0x00, 0x00, 0x00, 0x01, 0x00, 0x00, 0x00, 0x24, 0x00, 0x00, 0x00, 0x34, 0x00, 0x00, 0x00, 0x10, 0x00, 0x00, 0x00, 0x02, 0x00, 0x00, 0x00, 0x01, 0x00, 0x00, 0x00, 0xF4, 0x01, 0x00, 0x00, 0x02, 0x00, 0x00, 0x00, 0xFF, 0xFF, 0xFF, 0xFF, 0xF4, 0x01, 0x00, 0x00, 0x0D, 0x00, 0x00, 0x00, 0x64, 0x65, 0x6E, 0x73, 0x65, 0x5F, 0x34, 0x5F, 0x69, 0x6E, 0x70, 0x75, 0x74, 0x00, 0x00, 0x00, 0xFC, 0xFF, 0xFF, 0xFF, 0x04, 0x00, 0x04, 0x00, 0x04, 0x00, 0x00, 0x00
};
unsigned int model_tflite_len = 14800;
