
// ADDED LINES START
constexpr char* processing_method = "rms";
constexpr double expected_duration = 1.0;
constexpr int sample_rate = 16000;
constexpr int window_size_samples = 1024;
constexpr int window_stride_samples = 960;

const char* RESPONSES[] = {"no", "yes"};
unsigned short NUM_RESPONSES = 2;

// ADDED LINES END

alignas(8) const unsigned char model_tflite[] = {
0x20, 0x00, 0x00, 0x00, 0x54, 0x46, 0x4C, 0x33, 0x00, 0x00, 0x00, 0x00, 0x14, 0x00, 0x20, 0x00, 0x04, 0x00, 0x08, 0x00, 0x0C, 0x00, 0x10, 0x00, 0x14, 0x00, 0x00, 0x00, 0x18, 0x00, 0x1C, 0x00, 0x14, 0x00, 0x00, 0x00, 0x03, 0x00, 0x00, 0x00, 0x18, 0x00, 0x00, 0x00, 0x34, 0x00, 0x00, 0x00, 0xF8, 0x00, 0x00, 0x00, 0x34, 0x00, 0x00, 0x00, 0xA0, 0x00, 0x00, 0x00, 0x98, 0x00, 0x00, 0x00, 0x07, 0x00, 0x00, 0x00, 0x1C, 0x2F, 0x00, 0x00, 0x24, 0x28, 0x00, 0x00, 0x20, 0x27, 0x00, 0x00, 0xB0, 0x07, 0x00, 0x00, 0xD4, 0x04, 0x00, 0x00, 0x64, 0x02, 0x00, 0x00, 0xDC, 0x01, 0x00, 0x00, 0x01, 0x00, 0x00, 0x00, 0xE8, 0x00, 0x00, 0x00, 0x1A, 0x00, 0x00, 0x00, 0xA0, 0x38, 0x00, 0x00, 0x9C, 0x38, 0x00, 0x00, 0xC0, 0x37, 0x00, 0x00, 0xDC, 0x34, 0x00, 0x00, 0x0C, 0x33, 0x00, 0x00, 0xC0, 0x31, 0x00, 0x00, 0x08, 0x31, 0x00, 0x00, 0x6C, 0x30, 0x00, 0x00, 0x80, 0x38, 0x00, 0x00, 0xF8, 0x28, 0x00, 0x00, 0x78, 0x38, 0x00, 0x00, 0x74, 0x38, 0x00, 0x00, 0x74, 0x20, 0x00, 0x00, 0x6C, 0x38, 0x00, 0x00, 0x68, 0x38, 0x00, 0x00, 0x08, 0x0A, 0x00, 0x00, 0x60, 0x38, 0x00, 0x00, 0x5C, 0x38, 0x00, 0x00, 0x58, 0x38, 0x00, 0x00, 0x20, 0x05, 0x00, 0x00, 0x50, 0x38, 0x00, 0x00, 0x64, 0x03, 0x00, 0x00, 0x48, 0x38, 0x00, 0x00, 0x44, 0x38, 0x00, 0x00, 0x40, 0x38, 0x00, 0x00, 0x3C, 0x00, 0x00, 0x00, 0x00, 0x00, 0x00, 0x00, 0x01, 0x00, 0x00, 0x00, 0x0C, 0x00, 0x00, 0x00, 0x08, 0x00, 0x0C, 0x00, 0x04, 0x00, 0x08, 0x00, 0x08, 0x00, 0x00, 0x00, 0x08, 0x00, 0x00, 0x00, 0x19, 0x00, 0x00, 0x00, 0x13, 0x00, 0x00, 0x00, 0x6D, 0x69, 0x6E, 0x5F, 0x72, 0x75, 0x6E, 0x74, 0x69, 0x6D, 0x65, 0x5F, 0x76, 0x65, 0x72, 0x73, 0x69, 0x6F, 0x6E, 0x00, 0xDE, 0xC8, 0xFF, 0xFF, 0x04, 0x00, 0x00, 0x00, 0x10, 0x00, 0x00, 0x00, 0x31, 0x2E, 0x31, 0x34, 0x2E, 0x30, 0x00, 0x00, 0x00, 0x00, 0x00, 0x00, 0x00, 0x00, 0x00, 0x00, 0x0F, 0x00, 0x00, 0x00, 0x4D, 0x4C, 0x49, 0x52, 0x20, 0x43, 0x6F, 0x6E, 0x76, 0x65, 0x72, 0x74, 0x65, 0x64, 0x2E, 0x00, 0x00, 0x00, 0x0E, 0x00, 0x18, 0x00, 0x04, 0x00, 0x08, 0x00, 0x0C, 0x00, 0x10, 0x00, 0x14, 0x00, 0x0E, 0x00, 0x00, 0x00, 0x14, 0x00, 0x00, 0x00, 0x74, 0x00, 0x00, 0x00, 0x78, 0x00, 0x00, 0x00, 0x7C, 0x00, 0x00, 0x00, 0xAC, 0x00, 0x00, 0x00, 0x18, 0x00, 0x00, 0x00, 0x50, 0x37, 0x00, 0x00, 0xEC, 0x36, 0x00, 0x00, 0x70, 0x34, 0x00, 0x00, 0x60, 0x32, 0x00, 0x00, 0xF4, 0x30, 0x00, 0x00, 0x44, 0x30, 0x00, 0x00, 0x88, 0x2F, 0x00, 0x00, 0x00, 0x2E, 0x00, 0x00, 0x8C, 0x2C, 0x00, 0x00, 0xF0, 0x26, 0x00, 0x00, 0xEC, 0x25, 0x00, 0x00, 0x08, 0x24, 0x00, 0x00, 0x6C, 0x1E, 0x00, 0x00, 0x90, 0x1D, 0x00, 0x00, 0x1C, 0x1B, 0x00, 0x00, 0x00, 0x08, 0x00, 0x00, 0x24, 0x07, 0x00, 0x00, 0x64, 0x06, 0x00, 0x00, 0x74, 0x05, 0x00, 0x00, 0x84, 0x03, 0x00, 0x00, 0x8C, 0x02, 0x00, 0x00, 0xC4, 0x01, 0x00, 0x00, 0x0C, 0x01, 0x00, 0x00, 0x84, 0x00, 0x00, 0x00, 0x01, 0x00, 0x00, 0x00, 0x00, 0x00, 0x00, 0x00, 0x01, 0x00, 0x00, 0x00, 0x17, 0x00, 0x00, 0x00, 0x0C, 0x00, 0x00, 0x00, 0x5C, 0x2D, 0x00, 0x00, 0x40, 0x26, 0x00, 0x00, 0x3C, 0x25, 0x00, 0x00, 0xDC, 0x1D, 0x00, 0x00, 0x04, 0x1D, 0x00, 0x00, 0x74, 0x07, 0x00, 0x00, 0x9C, 0x06, 0x00, 0x00, 0xE4, 0x05, 0x00, 0x00, 0xF8, 0x02, 0x00, 0x00, 0x4C, 0x01, 0x00, 0x00, 0x88, 0x00, 0x00, 0x00, 0x10, 0x00, 0x00, 0x00, 0x04, 0x00, 0x00, 0x00, 0x6D, 0x61, 0x69, 0x6E, 0x00, 0x00, 0x00, 0x00, 0x46, 0xFA, 0xFF, 0xFF, 0x06, 0x00, 0x00, 0x00, 0x10, 0x00, 0x00, 0x00, 0x04, 0x00, 0x00, 0x00, 0x01, 0x00, 0x00, 0x00, 0x17, 0x00, 0x00, 0x00, 0x01, 0x00, 0x00, 0x00, 0x16, 0x00, 0x00, 0x00, 0xE4, 0xD2, 0xFF, 0xFF, 0x06, 0x00, 0x00, 0x00, 0x00, 0x00, 0x00, 0x06, 0x02, 0x00, 0x00, 0x00, 0xA4, 0xC9, 0xFF, 0xFF, 0x14, 0x00, 0x00, 0x00, 0x18, 0x00, 0x00, 0x00, 0x24, 0x00, 0x00, 0x00, 0x30, 0x00, 0x00, 0x00, 0x10, 0x00, 0x00, 0x00, 0x02, 0x00, 0x00, 0x00, 0x01, 0x00, 0x00, 0x00, 0x02, 0x00, 0x00, 0x00, 0x02, 0x00, 0x00, 0x00, 0xFF, 0xFF, 0xFF, 0xFF, 0x02, 0x00, 0x00, 0x00, 0x08, 0x00, 0x00, 0x00, 0x49, 0x64, 0x65, 0x6E, 0x74, 0x69, 0x74, 0x79, 0x00, 0x00, 0x00, 0x00, 0x80, 0xC9, 0xFF, 0xFF, 0x7A, 0xDA, 0xFF, 0xFF, 0x00, 0x00, 0x00, 0x09, 0x05, 0x00, 0x00, 0x00, 0x1C, 0x00, 0x00, 0x00, 0x10, 0x00, 0x00, 0x00, 0x04, 0x00, 0x00, 0x00, 0x76, 0xCA, 0xFF, 0xFF, 0x00, 0x00, 0x80, 0x3F, 0x01, 0x00, 0x00, 0x00, 0x16, 0x00, 0x00, 0x00, 0x01, 0x00, 0x00, 0x00, 0x15, 0x00, 0x00, 0x00, 0x68, 0xD3, 0xFF, 0xFF, 0x19, 0x00, 0x00, 0x00, 0x00, 0x00, 0x00, 0x19, 0x02, 0x00, 0x00, 0x00, 0x5C, 0xD3, 0xFF, 0xFF, 0x00, 0x00, 0x00, 0x09, 0x14, 0x00, 0x00, 0x00, 0x17, 0x00, 0x00, 0x00, 0x24, 0x00, 0x00, 0x00, 0x48, 0x00, 0x00, 0x00, 0x10, 0x00, 0x00, 0x00, 0x02, 0x00, 0x00, 0x00, 0x01, 0x00, 0x00, 0x00, 0x02, 0x00, 0x00, 0x00, 0x02, 0x00, 0x00, 0x00, 0xFF, 0xFF, 0xFF, 0xFF, 0x02, 0x00, 0x00, 0x00, 0x22, 0x00, 0x00, 0x00, 0x73, 0x65, 0x71, 0x75, 0x65, 0x6E, 0x74, 0x69, 0x61, 0x6C, 0x5F, 0x31, 0x2F, 0x71, 0x75, 0x61, 0x6E, 0x74, 0x5F, 0x64, 0x65, 0x6E, 0x73, 0x65, 0x5F, 0x33, 0x2F, 0x53, 0x6F, 0x66, 0x74, 0x6D, 0x61, 0x78, 0x00, 0x00, 0xA0, 0xCC, 0xFF, 0xFF, 0x08, 0x00, 0x00, 0x00, 0x0C, 0x00, 0x00, 0x00, 0x01, 0x00, 0x00, 0x00, 0x00, 0x00, 0x80, 0x3B, 0x01, 0x00, 0x00, 0x00, 0x80, 0xFF, 0xFF, 0xFF, 0xFF, 0xFF, 0xFF, 0xFF, 0x00, 0x00, 0x00, 0x00, 0x3A, 0xDB, 0xFF, 0xFF, 0x00, 0x00, 0x00, 0x08, 0x04, 0x00, 0x00, 0x00, 0x18, 0x00, 0x00, 0x00, 0x0C, 0x00, 0x00, 0x00, 0x04, 0x00, 0x00, 0x00, 0x5C, 0xCA, 0xFF, 0xFF, 0x01, 0x00, 0x00, 0x00, 0x15, 0x00, 0x00, 0x00, 0x03, 0x00, 0x00, 0x00, 0x13, 0x00, 0x00, 0x00, 0x14, 0x00, 0x00, 0x00, 0x06, 0x00, 0x00, 0x00, 0x10, 0xD4, 0xFF, 0xFF, 0x00, 0x00, 0x00, 0x09, 0x14, 0x00, 0x00, 0x00, 0x16, 0x00, 0x00, 0x00, 0x24, 0x00, 0x00, 0x00, 0x6C, 0x00, 0x00, 0x00, 0x10, 0x00, 0x00, 0x00, 0x02, 0x00, 0x00, 0x00, 0x01, 0x00, 0x00, 0x00, 0x02, 0x00, 0x00, 0x00, 0x02, 0x00, 0x00, 0x00, 0xFF, 0xFF, 0xFF, 0xFF, 0x02, 0x00, 0x00, 0x00, 0x44, 0x00, 0x00, 0x00, 0x73, 0x65, 0x71, 0x75, 0x65, 0x6E, 0x74, 0x69, 0x61, 0x6C, 0x5F, 0x31, 0x2F, 0x71, 0x75, 0x61, 0x6E, 0x74, 0x5F, 0x64, 0x65, 0x6E, 0x73, 0x65, 0x5F, 0x33, 0x2F, 0x4D, 0x61, 0x74, 0x4D, 0x75, 0x6C, 0x3B, 0x73, 0x65, 0x71, 0x75, 0x65, 0x6E, 0x74, 0x69, 0x61, 0x6C, 0x5F, 0x31, 0x2F, 0x71, 0x75, 0x61, 0x6E, 0x74, 0x5F, 0x64, 0x65, 0x6E, 0x73, 0x65, 0x5F, 0x33, 0x2F, 0x42, 0x69, 0x61, 0x73, 0x41, 0x64, 0x64, 0x00, 0x00, 0x00, 0x00, 0x78, 0xCD, 0xFF, 0xFF, 0x08, 0x00, 0x00, 0x00, 0x0C, 0x00, 0x00, 0x00, 0x01, 0x00, 0x00, 0x00, 0xB2, 0x46, 0x1B, 0x3D, 0x01, 0x00, 0x00, 0x00, 0xF1, 0xFF, 0xFF, 0xFF, 0xFF, 0xFF, 0xFF, 0xFF, 0x00, 0x00, 0x00, 0x00, 0xF6, 0xCB, 0xFF, 0xFF, 0x04, 0x00, 0x00, 0x00, 0x14, 0x00, 0x00, 0x00, 0x6D, 0xC0, 0xDF, 0xF6, 0xED, 0xC3, 0x32, 0x07, 0x09, 0xE4, 0xB0, 0x36, 0x4A, 0x7F, 0xD7, 0xA7, 0xDF, 0x9A, 0xBA, 0xB6, 0xFA, 0xCB, 0xFF, 0xFF, 0x00, 0x00, 0x00, 0x09, 0x10, 0x00, 0x00, 0x00, 0x15, 0x00, 0x00, 0x00, 0x14, 0x00, 0x00, 0x00, 0x78, 0x00, 0x00, 0x00, 0x02, 0x00, 0x00, 0x00, 0x02, 0x00, 0x00, 0x00, 0x0A, 0x00, 0x00, 0x00, 0x63, 0x00, 0x00, 0x00, 0x73, 0x65, 0x71, 0x75, 0x65, 0x6E, 0x74, 0x69, 0x61, 0x6C, 0x5F, 0x31, 0x2F, 0x71, 0x75, 0x61, 0x6E, 0x74, 0x5F, 0x64, 0x65, 0x6E, 0x73, 0x65, 0x5F, 0x33, 0x2F, 0x4D, 0x61, 0x74, 0x4D, 0x75, 0x6C, 0x3B, 0x73, 0x65, 0x71, 0x75, 0x65, 0x6E, 0x74, 0x69, 0x61, 0x6C, 0x5F, 0x31, 0x2F, 0x71, 0x75, 0x61, 0x6E, 0x74, 0x5F, 0x64, 0x65, 0x6E, 0x73, 0x65, 0x5F, 0x33, 0x2F, 0x4C, 0x61, 0x73, 0x74, 0x56, 0x61, 0x6C, 0x75, 0x65, 0x51, 0x75, 0x61, 0x6E, 0x74, 0x2F, 0x46, 0x61, 0x6B, 0x65, 0x51, 0x75, 0x61, 0x6E, 0x74, 0x57, 0x69, 0x74, 0x68, 0x4D, 0x69, 0x6E, 0x4D, 0x61, 0x78, 0x56, 0x61, 0x72, 0x73, 0x00, 0x48, 0xCE, 0xFF, 0xFF, 0x08, 0x00, 0x00, 0x00, 0x0C, 0x00, 0x00, 0x00, 0x01, 0x00, 0x00, 0x00, 0x7D, 0x06, 0xAC, 0x3B, 0x01, 0x00, 0x00, 0x00, 0x00, 0x00, 0x00, 0x00, 0x00, 0x00, 0x00, 0x00, 0x00, 0x00, 0x00, 0x00, 0xE2, 0xDC, 0xFF, 0xFF, 0x00, 0x00, 0x00, 0x08, 0x04, 0x00, 0x00, 0x00, 0x18, 0x00, 0x00, 0x00, 0x0C, 0x00, 0x00, 0x00, 0x04, 0x00, 0x00, 0x00, 0x04, 0xCC, 0xFF, 0xFF, 0x01, 0x00, 0x00, 0x00, 0x13, 0x00, 0x00, 0x00, 0x03, 0x00, 0x00, 0x00, 0x11, 0x00, 0x00, 0x00, 0x12, 0x00, 0x00, 0x00, 0x05, 0x00, 0x00, 0x00, 0xD4, 0xD5, 0xFF, 0xFF, 0x09, 0x00, 0x00, 0x00, 0x00, 0x00, 0x00, 0x09, 0x04, 0x00, 0x00, 0x00, 0xC8, 0xD5, 0xFF, 0xFF, 0x00, 0x00, 0x00, 0x09, 0x14, 0x00, 0x00, 0x00, 0x14, 0x00, 0x00, 0x00, 0x24, 0x00, 0x00, 0x00, 0x6C, 0x00, 0x00, 0x00, 0x10, 0x00, 0x00, 0x00, 0x02, 0x00, 0x00, 0x00, 0x01, 0x00, 0x00, 0x00, 0x0A, 0x00, 0x00, 0x00, 0x02, 0x00, 0x00, 0x00, 0xFF, 0xFF, 0xFF, 0xFF, 0x0A, 0x00, 0x00, 0x00, 0x44, 0x00, 0x00, 0x00, 0x73, 0x65, 0x71, 0x75, 0x65, 0x6E, 0x74, 0x69, 0x61, 0x6C, 0x5F, 0x31, 0x2F, 0x71, 0x75, 0x61, 0x6E, 0x74, 0x5F, 0x64, 0x65, 0x6E, 0x73, 0x65, 0x5F, 0x32, 0x2F, 0x4D, 0x61, 0x74, 0x4D, 0x75, 0x6C, 0x3B, 0x73, 0x65, 0x71, 0x75, 0x65, 0x6E, 0x74, 0x69, 0x61, 0x6C, 0x5F, 0x31, 0x2F, 0x71, 0x75, 0x61, 0x6E, 0x74, 0x5F, 0x64, 0x65, 0x6E, 0x73, 0x65, 0x5F, 0x32, 0x2F, 0x42, 0x69, 0x61, 0x73, 0x41, 0x64, 0x64, 0x00, 0x00, 0x00, 0x00, 0x30, 0xCF, 0xFF, 0xFF, 0x08, 0x00, 0x00, 0x00, 0x0C, 0x00, 0x00, 0x00, 0x01, 0x00, 0x00, 0x00, 0xA5, 0x1D, 0xB3, 0x3C, 0x01, 0x00, 0x00, 0x00, 0x10, 0x00, 0x00, 0x00, 0x00, 0x00, 0x00, 0x00, 0xAA, 0xCD, 0xFF, 0xFF, 0x04, 0x00, 0x00, 0x00, 0x40, 0x01, 0x00, 0x00, 0x34, 0x19, 0xC6, 0xCE, 0x29, 0x16, 0xEE, 0x3A, 0xC5, 0x3C, 0xDB, 0x1D, 0x2A, 0x34, 0xF8, 0xB4, 0x15, 0xF0, 0x2B, 0x15, 0xDC, 0xA9, 0xEF, 0xED, 0x17, 0xD8, 0xC4, 0x2E, 0x0F, 0xA5, 0xEA, 0x31, 0xED, 0xEE, 0x5D, 0x46, 0x17, 0x0E, 0x14, 0x0A, 0xB8, 0xC6, 0x4E, 0xD0, 0xE8, 0x1B, 0x14, 0x5E, 0x4F, 0xC1, 0xD6, 0x1E, 0x51, 0xF1, 0xB9, 0x2F, 0x9B, 0xFD, 0x33, 0x28, 0xE3, 0x5F, 0x07, 0xFD, 0x48, 0xDE, 0x4E, 0xEC, 0xB7, 0x43, 0xFD, 0x21, 0xF8, 0xD1, 0x3B, 0xC6, 0xB1, 0xBF, 0x1B, 0x1B, 0x3A, 0xFE, 0xC6, 0xC4, 0x1C, 0x2B, 0x38, 0xC3, 0xDA, 0xD1, 0x56, 0xE0, 0x31, 0x05, 0xD7, 0xBA, 0x20, 0x49, 0x4F, 0xD7, 0x4D, 0x23, 0x15, 0x26, 0xBD, 0xDC, 0x34, 0xDC, 0x21, 0xDB, 0xC5, 0x2E, 0x2D, 0x0B, 0x33, 0xE8, 0x1E, 0x02, 0xF5, 0x0A, 0xB9, 0x0B, 0xB7, 0x26, 0x17, 0x3F, 0xDB, 0x2B, 0xE9, 0xEC, 0x25, 0xBC, 0x24, 0xE9, 0xD6, 0x24, 0xF3, 0xED, 0xFC, 0x54, 0x09, 0xB3, 0x52, 0x0C, 0xF0, 0xD3, 0xC9, 0xC4, 0xB6, 0x07, 0x22, 0xD4, 0x50, 0x40, 0x22, 0x10, 0xF4, 0xD6, 0xC8, 0x2A, 0xEC, 0xBA, 0x27, 0x44, 0xF0, 0xCB, 0xDE, 0xD9, 0x31, 0xFD, 0x84, 0x1C, 0x37, 0x30, 0x2E, 0x89, 0xCD, 0xBA, 0x6C, 0x22, 0x2D, 0x0F, 0x30, 0xBC, 0xE2, 0xE5, 0xA9, 0x40, 0x54, 0x9F, 0xE2, 0xB1, 0xBD, 0xEA, 0x2F, 0xD8, 0xC1, 0x28, 0x09, 0xF7, 0xF0, 0x10, 0xD8, 0x48, 0xE2, 0xF0, 0x21, 0x14, 0xE1, 0x37, 0x0C, 0xC6, 0x1C, 0xA7, 0xBE, 0xD8, 0x6F, 0x1D, 0x20, 0xAA, 0xBD, 0x35, 0x26, 0xCE, 0xBA, 0xBA, 0xD5, 0xD0, 0xCD, 0xCF, 0x17, 0x45, 0x16, 0xC4, 0x92, 0x08, 0xED, 0x11, 0xEC, 0x0A, 0x2F, 0x2A, 0x52, 0xD5, 0xE0, 0xEA, 0x21, 0x31, 0x30, 0x4B, 0x35, 0x43, 0xEF, 0x19, 0x16, 0x1B, 0xBE, 0x94, 0xF9, 0xAA, 0x0D, 0xF8, 0xDB, 0x21, 0x06, 0x54, 0xD4, 0x4A, 0x4A, 0x22, 0xFA, 0x21, 0xDF, 0x4A, 0x43, 0xE3, 0xC3, 0xBE, 0xDA, 0x37, 0xDB, 0x21, 0x2F, 0x07, 0x1C, 0x01, 0xAA, 0x4F, 0xAA, 0xA6, 0xA1, 0xC7, 0xF8, 0x0F, 0x47, 0x37, 0xEE, 0x0F, 0xBC, 0x7F, 0xDB, 0x04, 0x0D, 0x1F, 0xE9, 0xE5, 0x2C, 0xAC, 0xE5, 0xC0, 0xB4, 0x41, 0x35, 0x32, 0xC2, 0xC8, 0x40, 0xC6, 0x47, 0x24, 0xDA, 0xCE, 0xFF, 0xFF, 0x00, 0x00, 0x00, 0x09, 0x10, 0x00, 0x00, 0x00, 0x13, 0x00, 0x00, 0x00, 0x14, 0x00, 0x00, 0x00, 0x78, 0x00, 0x00, 0x00, 0x02, 0x00, 0x00, 0x00, 0x0A, 0x00, 0x00, 0x00, 0x20, 0x00, 0x00, 0x00, 0x63, 0x00, 0x00, 0x00, 0x73, 0x65, 0x71, 0x75, 0x65, 0x6E, 0x74, 0x69, 0x61, 0x6C, 0x5F, 0x31, 0x2F, 0x71, 0x75, 0x61, 0x6E, 0x74, 0x5F, 0x64, 0x65, 0x6E, 0x73, 0x65, 0x5F, 0x32, 0x2F, 0x4D, 0x61, 0x74, 0x4D, 0x75, 0x6C, 0x3B, 0x73, 0x65, 0x71, 0x75, 0x65, 0x6E, 0x74, 0x69, 0x61, 0x6C, 0x5F, 0x31, 0x2F, 0x71, 0x75, 0x61, 0x6E, 0x74, 0x5F, 0x64, 0x65, 0x6E, 0x73, 0x65, 0x5F, 0x32, 0x2F, 0x4C, 0x61, 0x73, 0x74, 0x56, 0x61, 0x6C, 0x75, 0x65, 0x51, 0x75, 0x61, 0x6E, 0x74, 0x2F, 0x46, 0x61, 0x6B, 0x65, 0x51, 0x75, 0x61, 0x6E, 0x74, 0x57, 0x69, 0x74, 0x68, 0x4D, 0x69, 0x6E, 0x4D, 0x61, 0x78, 0x56, 0x61, 0x72, 0x73, 0x00, 0x28, 0xD1, 0xFF, 0xFF, 0x08, 0x00, 0x00, 0x00, 0x0C, 0x00, 0x00, 0x00, 0x01, 0x00, 0x00, 0x00, 0xE9, 0xA2, 0x88, 0x3B, 0x01, 0x00, 0x00, 0x00, 0x00, 0x00, 0x00, 0x00, 0x00, 0x00, 0x00, 0x00, 0x00, 0x00, 0x0A, 0x00, 0x10, 0x00, 0x04, 0x00, 0x08, 0x00, 0x0C, 0x00, 0x0A, 0x00, 0x00, 0x00, 0x03, 0x00, 0x00, 0x00, 0x10, 0x00, 0x00, 0x00, 0x04, 0x00, 0x00, 0x00, 0x01, 0x00, 0x00, 0x00, 0x11, 0x00, 0x00, 0x00, 0x02, 0x00, 0x00, 0x00, 0x10, 0x00, 0x00, 0x00, 0x01, 0x00, 0x00, 0x00, 0xAC, 0xD8, 0xFF, 0xFF, 0x16, 0x00, 0x00, 0x00, 0x00, 0x00, 0x00, 0x16, 0x01, 0x00, 0x00, 0x00, 0xA0, 0xD8, 0xFF, 0xFF, 0x00, 0x00, 0x00, 0x09, 0x14, 0x00, 0x00, 0x00, 0x12, 0x00, 0x00, 0x00, 0x24, 0x00, 0x00, 0x00, 0x4C, 0x00, 0x00, 0x00, 0x10, 0x00, 0x00, 0x00, 0x02, 0x00, 0x00, 0x00, 0x01, 0x00, 0x00, 0x00, 0x20, 0x00, 0x00, 0x00, 0x02, 0x00, 0x00, 0x00, 0xFF, 0xFF, 0xFF, 0xFF, 0x20, 0x00, 0x00, 0x00, 0x24, 0x00, 0x00, 0x00, 0x73, 0x65, 0x71, 0x75, 0x65, 0x6E, 0x74, 0x69, 0x61, 0x6C, 0x5F, 0x31, 0x2F, 0x71, 0x75, 0x61, 0x6E, 0x74, 0x5F, 0x66, 0x6C, 0x61, 0x74, 0x74, 0x65, 0x6E, 0x5F, 0x31, 0x2F, 0x52, 0x65, 0x73, 0x68, 0x61, 0x70, 0x65, 0x00, 0x00, 0x00, 0x00, 0xE8, 0xD1, 0xFF, 0xFF, 0x08, 0x00, 0x00, 0x00, 0x0C, 0x00, 0x00, 0x00, 0x01, 0x00, 0x00, 0x00, 0xDC, 0x31, 0x7C, 0x3C, 0x01, 0x00, 0x00, 0x00, 0x93, 0xFF, 0xFF, 0xFF, 0xFF, 0xFF, 0xFF, 0xFF, 0x7E, 0xE0, 0xFF, 0xFF, 0x00, 0x00, 0x00, 0x05, 0x02, 0x00, 0x00, 0x00, 0x28, 0x00, 0x00, 0x00, 0x1C, 0x00, 0x00, 0x00, 0x04, 0x00, 0x00, 0x00, 0x6E, 0xE1, 0xFF, 0xFF, 0x03, 0x00, 0x00, 0x00, 0x03, 0x00, 0x00, 0x00, 0x02, 0x00, 0x00, 0x00, 0x02, 0x00, 0x00, 0x00, 0x01, 0x00, 0x00, 0x00, 0x10, 0x00, 0x00, 0x00, 0x01, 0x00, 0x00, 0x00, 0x0F, 0x00, 0x00, 0x00, 0x5C, 0xD9, 0xFF, 0xFF, 0x00, 0x00, 0x00, 0x09, 0x14, 0x00, 0x00, 0x00, 0x11, 0x00, 0x00, 0x00, 0x34, 0x00, 0x00, 0x00, 0x60, 0x00, 0x00, 0x00, 0x18, 0x00, 0x00, 0x00, 0x04, 0x00, 0x00, 0x00, 0x01, 0x00, 0x00, 0x00, 0x01, 0x00, 0x00, 0x00, 0x01, 0x00, 0x00, 0x00, 0x20, 0x00, 0x00, 0x00, 0x04, 0x00, 0x00, 0x00, 0xFF, 0xFF, 0xFF, 0xFF, 0x01, 0x00, 0x00, 0x00, 0x01, 0x00, 0x00, 0x00, 0x20, 0x00, 0x00, 0x00, 0x2A, 0x00, 0x00, 0x00, 0x73, 0x65, 0x71, 0x75, 0x65, 0x6E, 0x74, 0x69, 0x61, 0x6C, 0x5F, 0x31, 0x2F, 0x71, 0x75, 0x61, 0x6E, 0x74, 0x5F, 0x6D, 0x61, 0x78, 0x5F, 0x70, 0x6F, 0x6F, 0x6C, 0x69, 0x6E, 0x67, 0x32, 0x64, 0x5F, 0x35, 0x2F, 0x4D, 0x61, 0x78, 0x50, 0x6F, 0x6F, 0x6C, 0x00, 0x00, 0xB8, 0xD2, 0xFF, 0xFF, 0x08, 0x00, 0x00, 0x00, 0x0C, 0x00, 0x00, 0x00, 0x01, 0x00, 0x00, 0x00, 0xDC, 0x31, 0x7C, 0x3C, 0x01, 0x00, 0x00, 0x00, 0x93, 0xFF, 0xFF, 0xFF, 0xFF, 0xFF, 0xFF, 0xFF, 0x00, 0x00, 0x00, 0x00, 0x52, 0xE1, 0xFF, 0xFF, 0x00, 0x00, 0x00, 0x01, 0x01, 0x00, 0x00, 0x00, 0x24, 0x00, 0x00, 0x00, 0x18, 0x00, 0x00, 0x00, 0x04, 0x00, 0x00, 0x00, 0x44, 0xE1, 0xFF, 0xFF, 0x01, 0x00, 0x00, 0x00, 0x01, 0x00, 0x00, 0x00, 0x00, 0x00, 0x00, 0x01, 0x01, 0x00, 0x00, 0x00, 0x0F, 0x00, 0x00, 0x00, 0x03, 0x00, 0x00, 0x00, 0x0D, 0x00, 0x00, 0x00, 0x0E, 0x00, 0x00, 0x00, 0x02, 0x00, 0x00, 0x00, 0x34, 0xDA, 0xFF, 0xFF, 0x00, 0x00, 0x00, 0x09, 0x14, 0x00, 0x00, 0x00, 0x10, 0x00, 0x00, 0x00, 0x34, 0x00, 0x00, 0x00, 0xD8, 0x00, 0x00, 0x00, 0x18, 0x00, 0x00, 0x00, 0x04, 0x00, 0x00, 0x00, 0x01, 0x00, 0x00, 0x00, 0x01, 0x00, 0x00, 0x00, 0x01, 0x00, 0x00, 0x00, 0x20, 0x00, 0x00, 0x00, 0x04, 0x00, 0x00, 0x00, 0xFF, 0xFF, 0xFF, 0xFF, 0x01, 0x00, 0x00, 0x00, 0x01, 0x00, 0x00, 0x00, 0x20, 0x00, 0x00, 0x00, 0xA3, 0x00, 0x00, 0x00, 0x73, 0x65, 0x71, 0x75, 0x65, 0x6E, 0x74, 0x69, 0x61, 0x6C, 0x5F, 0x31, 0x2F, 0x71, 0x75, 0x61, 0x6E, 0x74, 0x5F, 0x63, 0x6F, 0x6E, 0x76, 0x32, 0x64, 0x5F, 0x35, 0x2F, 0x52, 0x65, 0x6C, 0x75, 0x3B, 0x73, 0x65, 0x71, 0x75, 0x65, 0x6E, 0x74, 0x69, 0x61, 0x6C, 0x5F, 0x31, 0x2F, 0x71, 0x75, 0x61, 0x6E, 0x74, 0x5F, 0x63, 0x6F, 0x6E, 0x76, 0x32, 0x64, 0x5F, 0x35, 0x2F, 0x42, 0x69, 0x61, 0x73, 0x41, 0x64, 0x64, 0x3B, 0x73, 0x65, 0x71, 0x75, 0x65, 0x6E, 0x74, 0x69, 0x61, 0x6C, 0x5F, 0x31, 0x2F, 0x71, 0x75, 0x61, 0x6E, 0x74, 0x5F, 0x63, 0x6F, 0x6E, 0x76, 0x32, 0x64, 0x5F, 0x35, 0x2F, 0x43, 0x6F, 0x6E, 0x76, 0x32, 0x44, 0x3B, 0x73, 0x65, 0x71, 0x75, 0x65, 0x6E, 0x74, 0x69, 0x61, 0x6C, 0x5F, 0x31, 0x2F, 0x71, 0x75, 0x61, 0x6E, 0x74, 0x5F, 0x63, 0x6F, 0x6E, 0x76, 0x32, 0x64, 0x5F, 0x35, 0x2F, 0x42, 0x69, 0x61, 0x73, 0x41, 0x64, 0x64, 0x2F, 0x52, 0x65, 0x61, 0x64, 0x56, 0x61, 0x72, 0x69, 0x61, 0x62, 0x6C, 0x65, 0x4F, 0x70, 0x2F, 0x72, 0x65, 0x73, 0x6F, 0x75, 0x72, 0x63, 0x65, 0x00, 0x08, 0xD4, 0xFF, 0xFF, 0x08, 0x00, 0x00, 0x00, 0x0C, 0x00, 0x00, 0x00, 0x01, 0x00, 0x00, 0x00, 0xDC, 0x31, 0x7C, 0x3C, 0x01, 0x00, 0x00, 0x00, 0x93, 0xFF, 0xFF, 0xFF, 0xFF, 0xFF, 0xFF, 0xFF, 0x82, 0xD2, 0xFF, 0xFF, 0x04, 0x00, 0x00, 0x00, 0x00, 0x12, 0x00, 0x00, 0x42, 0x0D, 0xF3, 0xD5, 0x37, 0xD2, 0xEE, 0x0C, 0xC6, 0xDF, 0xD3, 0x2C, 0xBC, 0xD8, 0x44, 0xF0, 0x1E, 0x1C, 0xFE, 0x31, 0x06, 0xB7, 0x36, 0xFC, 0x0B, 0x4B, 0x42, 0xE4, 0x39, 0x46, 0x37, 0x13, 0xC9, 0x16, 0xBF, 0xD7, 0xFC, 0x03, 0x05, 0xCC, 0x07, 0xFE, 0xB8, 0x0B, 0x08, 0xED, 0x2B, 0x20, 0x37, 0xD9, 0x4E, 0x23, 0x25, 0x3B, 0x1F, 0x3A, 0xED, 0x05, 0x1E, 0x2A, 0xEA, 0x17, 0xE7, 0xBB, 0xD3, 0x27, 0xF8, 0x38, 0xE7, 0xB9, 0x46, 0xF5, 0xF0, 0xEA, 0xD5, 0xFA, 0x81, 0x08, 0xFF, 0xF6, 0x20, 0x4B, 0xD2, 0x1A, 0x40, 0xC7, 0x1A, 0x4C, 0x09, 0x20, 0x16, 0x42, 0x25, 0x07, 0xB1, 0xE1, 0x0A, 0x0C, 0x00, 0xC9, 0xB7, 0x00, 0xBF, 0x3D, 0xEC, 0xE3, 0xD2, 0x47, 0xBB, 0x21, 0xF2, 0x43, 0x2D, 0xBA, 0x4F, 0x18, 0xBF, 0xB4, 0xBE, 0x36, 0xFF, 0xD1, 0xBE, 0x4E, 0xBB, 0x2B, 0x43, 0x38, 0x16, 0x28, 0xF8, 0xB5, 0x25, 0x21, 0x1E, 0xE3, 0x20, 0x38, 0x37, 0x33, 0x40, 0xFA, 0xD9, 0x4C, 0xD1, 0x0C, 0xB3, 0x33, 0x11, 0x4F, 0x34, 0xF2, 0x09, 0xE6, 0xEE, 0x37, 0x22, 0xAF, 0xB9, 0xC3, 0x29, 0x52, 0xAC, 0xFA, 0x4B, 0xC0, 0xDC, 0x13, 0x56, 0xD0, 0x23, 0xFA, 0x17, 0x57, 0xD5, 0x50, 0x4C, 0xBB, 0xEA, 0xB0, 0xF7, 0xDA, 0xB1, 0x17, 0xB2, 0x15, 0xD3, 0x0C, 0x45, 0x2D, 0xF7, 0xAA, 0xEE, 0xDE, 0x4A, 0x27, 0xBD, 0xCF, 0xF6, 0x53, 0x18, 0x16, 0x37, 0xFD, 0x25, 0x47, 0x11, 0x1F, 0x17, 0xB4, 0xEA, 0x3F, 0xDE, 0x81, 0xD8, 0xBA, 0x1D, 0x0D, 0x48, 0xF0, 0xCE, 0xDD, 0x0E, 0x93, 0xB7, 0x31, 0x31, 0x44, 0x1D, 0xAC, 0x51, 0x17, 0xDA, 0xCF, 0xE4, 0xEA, 0x08, 0xDE, 0x51, 0x12, 0xEC, 0x23, 0x4E, 0x16, 0xEB, 0x25, 0xF0, 0x2A, 0x1A, 0xDB, 0x40, 0xF6, 0xC7, 0x4E, 0x1D, 0xBF, 0x37, 0xFE, 0x38, 0xC7, 0x50, 0x26, 0xA8, 0xF8, 0x0C, 0x49, 0x1A, 0x03, 0xAD, 0x54, 0xE2, 0x44, 0xDF, 0xFD, 0x4A, 0xA7, 0xB2, 0xBD, 0x1B, 0x28, 0x44, 0xE9, 0x14, 0x24, 0x19, 0xE0, 0xBF, 0xEB, 0x1B, 0xF6, 0x44, 0xBD, 0xB1, 0x23, 0x2F, 0xE1, 0xFD, 0x32, 0xE9, 0x1D, 0x12, 0x29, 0xF4, 0x13, 0x44, 0x36, 0x0B, 0x07, 0x1C, 0x50, 0xE5, 0xB3, 0xC5, 0x26, 0xE2, 0x4E, 0xE4, 0x3F, 0xEA, 0x41, 0xD3, 0xB0, 0xFF, 0x2D, 0x0E, 0x02, 0x42, 0x3A, 0x20, 0xDE, 0xD7, 0xB7, 0xD7, 0xE2, 0x13, 0xED, 0x13, 0xFF, 0xE4, 0x1E, 0xC3, 0xD4, 0xC7, 0xD3, 0x24, 0x26, 0x2A, 0x27, 0x49, 0xBD, 0x1C, 0x4C, 0x41, 0x3D, 0x20, 0x00, 0x81, 0xBF, 0x05, 0xA9, 0x35, 0xDA, 0x25, 0x32, 0xB4, 0xA1, 0xF2, 0xC9, 0x1B, 0x07, 0x2E, 0x02, 0xF5, 0xE6, 0x1E, 0x1E, 0xB1, 0xE4, 0x4C, 0xFE, 0x07, 0xE6, 0xB6, 0xB2, 0x32, 0x2C, 0xCA, 0x15, 0x28, 0x06, 0xE2, 0x1C, 0x32, 0xC8, 0xEC, 0x16, 0x27, 0x32, 0xED, 0xE6, 0xCF, 0x48, 0x4A, 0x45, 0x4C, 0x47, 0x01, 0x4A, 0x1A, 0xBF, 0xD8, 0xE1, 0x46, 0x32, 0x38, 0xC3, 0x22, 0xC0, 0x27, 0x44, 0xD0, 0x1D, 0xD9, 0xEC, 0xF7, 0x0F, 0x08, 0xF0, 0xFD, 0xF9, 0x48, 0xD2, 0xF6, 0xB1, 0xAC, 0xBE, 0x2D, 0x4F, 0x41, 0x23, 0x4F, 0x5A, 0x40, 0x52, 0xA8, 0xAE, 0x1C, 0xB5, 0x46, 0xAF, 0xBA, 0x16, 0x58, 0x11, 0xD6, 0xCB, 0xD7, 0xD2, 0x4A, 0xCA, 0x0C, 0x33, 0xD1, 0x0A, 0x12, 0x49, 0xD9, 0x19, 0x16, 0x03, 0xCF, 0x4F, 0xE0, 0xBE, 0xA9, 0xEA, 0xE5, 0xF8, 0xC7, 0xA4, 0xBC, 0xB2, 0x0D, 0x0E, 0x5B, 0x2B, 0xC0, 0x4E, 0x46, 0x12, 0xC4, 0xD7, 0x12, 0xA5, 0x24, 0x49, 0xA9, 0x93, 0xBF, 0xF4, 0x28, 0x10, 0x71, 0xCB, 0x60, 0x26, 0x8F, 0x02, 0x81, 0x08, 0xBA, 0x37, 0xBF, 0x0C, 0xE0, 0x15, 0xC4, 0xD8, 0x3A, 0xF3, 0x09, 0x1B, 0x54, 0xAC, 0xB4, 0xDA, 0x20, 0xC1, 0x44, 0xC1, 0x4A, 0xDD, 0xBF, 0x1F, 0x37, 0xD3, 0x3C, 0xC6, 0x31, 0x34, 0xD2, 0xEA, 0x02, 0x34, 0x24, 0x32, 0x43, 0x0A, 0xC5, 0xC1, 0x56, 0xFD, 0xD4, 0x46, 0xE2, 0x38, 0x18, 0x31, 0x3D, 0xF5, 0x28, 0xAB, 0xC7, 0x47, 0xC2, 0xBD, 0x0F, 0x18, 0xBB, 0xF3, 0xF1, 0xE3, 0xE1, 0x5B, 0x4F, 0x53, 0x07, 0xC5, 0xB9, 0xBE, 0xD3, 0x3D, 0xA1, 0xC5, 0x0A, 0x3A, 0x26, 0xDB, 0xA9, 0x0A, 0xAB, 0x1F, 0xDC, 0xB7, 0x48, 0x34, 0x15, 0x17, 0x1E, 0x00, 0xEC, 0xD5, 0xD9, 0xF9, 0xC2, 0x29, 0xB9, 0x1D, 0xE8, 0xBE, 0xCD, 0xBC, 0xD5, 0x31, 0x27, 0x56, 0x26, 0xE7, 0x5F, 0x19, 0xE8, 0xFD, 0xDB, 0xD9, 0x10, 0x2E, 0xA9, 0x46, 0x09, 0x35, 0x1A, 0x58, 0x52, 0x25, 0x05, 0xF8, 0xC7, 0x2D, 0x06, 0xB1, 0xC3, 0xF8, 0xA7, 0xE1, 0x95, 0x2E, 0x23, 0xB3, 0x8E, 0x81, 0x08, 0xBD, 0xB1, 0xDC, 0xA6, 0xF4, 0xA6, 0x5C, 0xCD, 0xEC, 0x4D, 0x4A, 0xFC, 0xB3, 0x14, 0x5E, 0xE7, 0xCE, 0xBE, 0xF3, 0x3B, 0x58, 0x06, 0xB3, 0xE4, 0xB6, 0x21, 0xA5, 0x2E, 0x1C, 0x3F, 0x0C, 0x3C, 0x1F, 0x38, 0xDA, 0x47, 0xD7, 0xA0, 0x1B, 0x4D, 0xE1, 0xDD, 0xB3, 0xB3, 0xC3, 0xA2, 0x33, 0x4E, 0xCA, 0x18, 0xD5, 0x34, 0xA4, 0xD4, 0xEF, 0x5C, 0xE9, 0xD2, 0x2E, 0xBA, 0x5B, 0xA9, 0xFE, 0xEC, 0x25, 0xDB, 0xD1, 0x13, 0xF8, 0xB4, 0x20, 0x4C, 0xD1, 0xDD, 0xF3, 0xEF, 0x50, 0xCD, 0x26, 0x14, 0x42, 0x19, 0xC0, 0xC6, 0x23, 0x10, 0xC1, 0x38, 0x2E, 0x3B, 0x2D, 0x1A, 0xCD, 0x50, 0xF7, 0xB3, 0xFF, 0xDC, 0xD6, 0x20, 0xDC, 0x0E, 0x02, 0xD8, 0xBE, 0xF0, 0xE4, 0xFA, 0x4D, 0x1C, 0xB3, 0xE6, 0x45, 0xC4, 0x2C, 0x2B, 0x04, 0x12, 0xEF, 0xFF, 0xBC, 0x4B, 0xCB, 0xD9, 0x1B, 0x32, 0x24, 0xB3, 0xBE, 0xC7, 0x1F, 0x16, 0x28, 0x05, 0xD7, 0xAE, 0xE1, 0x27, 0x35, 0x2E, 0x81, 0x28, 0xB0, 0x12, 0xEF, 0x16, 0x58, 0xA2, 0x4C, 0xB2, 0xC1, 0xFA, 0x0D, 0xBA, 0x50, 0x2B, 0xC8, 0x0C, 0x4D, 0xEF, 0xBF, 0xE8, 0x0C, 0xDE, 0x1E, 0xDD, 0x44, 0x48, 0x00, 0xB2, 0x17, 0x4D, 0x4E, 0xCF, 0x05, 0xB4, 0xB1, 0x35, 0x39, 0x27, 0xE2, 0xD0, 0x0C, 0xE6, 0xF2, 0xF6, 0xC3, 0xD6, 0xCD, 0xBA, 0x1C, 0x4C, 0x19, 0xBB, 0x3B, 0xD2, 0xE9, 0xB2, 0xD5, 0x40, 0xB2, 0x15, 0xEF, 0x50, 0xE5, 0x42, 0x12, 0x49, 0x0D, 0xD6, 0xF1, 0xFB, 0xCB, 0x25, 0x09, 0x2C, 0x3E, 0x03, 0x2C, 0xE7, 0x1F, 0x27, 0x46, 0x5A, 0xCB, 0x0F, 0x17, 0xA2, 0x17, 0x54, 0x9B, 0x61, 0xA4, 0xAA, 0xA4, 0x4D, 0xF5, 0xDB, 0x99, 0x5C, 0x26, 0x5C, 0xE8, 0x08, 0xD4, 0xE4, 0x27, 0xDC, 0x5F, 0x48, 0xAE, 0xA0, 0x09, 0x40, 0x10, 0xEB, 0xA2, 0x27, 0x51, 0x61, 0xEB, 0x3A, 0x34, 0x29, 0x35, 0x23, 0x09, 0x61, 0x01, 0x13, 0xE2, 0xAB, 0xC9, 0xE8, 0x51, 0xCC, 0x64, 0x0C, 0x14, 0xC8, 0x28, 0x11, 0x4A, 0x81, 0xC2, 0x43, 0x04, 0x1B, 0xDF, 0x65, 0xBD, 0x91, 0x29, 0x28, 0x56, 0xD9, 0x4C, 0xCF, 0x19, 0x5E, 0xAC, 0xAD, 0x3E, 0xF7, 0xEF, 0xC4, 0x4D, 0x56, 0x63, 0xBE, 0x5D, 0x59, 0xCC, 0x5A, 0xC8, 0xA7, 0x52, 0x51, 0xF5, 0x4E, 0x63, 0x2A, 0x51, 0x07, 0x42, 0xA8, 0x4F, 0xFB, 0x9A, 0x2C, 0x1E, 0xAE, 0x0D, 0xD1, 0xF6, 0xF3, 0xDE, 0x17, 0xAA, 0x1C, 0xCB, 0x30, 0xE7, 0x29, 0xE4, 0x98, 0x24, 0xEE, 0x2F, 0xE1, 0x40, 0x1E, 0xFF, 0x56, 0xF0, 0xA6, 0x68, 0x17, 0x1F, 0x11, 0xDC, 0x15, 0x40, 0xCB, 0xBF, 0x18, 0x0B, 0xC6, 0x2F, 0xEC, 0xCD, 0xFC, 0xF0, 0xD0, 0x0C, 0xC8, 0x24, 0x12, 0xE1, 0xD0, 0xC5, 0xF1, 0xFE, 0x0A, 0x24, 0xE1, 0xDD, 0x03, 0xFD, 0x1A, 0x1C, 0xCB, 0xF8, 0x2F, 0xFA, 0xFB, 0x20, 0x41, 0x11, 0xEC, 0xD9, 0xDF, 0xC7, 0xEF, 0xF6, 0x14, 0x3D, 0x18, 0xC5, 0x40, 0x12, 0x1B, 0xE6, 0x3C, 0xE6, 0xF8, 0xC1, 0xC9, 0x3D, 0x15, 0x0E, 0x27, 0xAB, 0xD4, 0xFB, 0x18, 0xD7, 0x07, 0xDD, 0xF2, 0x26, 0xC8, 0x81, 0x0B, 0xCB, 0xC6, 0x36, 0x18, 0xF7, 0x34, 0xFA, 0x23, 0x3F, 0xE1, 0x10, 0xDD, 0xC8, 0x2A, 0xF4, 0xFE, 0xF1, 0xD2, 0x1B, 0xFD, 0xE0, 0x33, 0xCA, 0xF5, 0xFF, 0x10, 0x32, 0x0C, 0xCB, 0x31, 0xC9, 0xF6, 0x32, 0xF9, 0x35, 0x02, 0x3F, 0x3F, 0xE4, 0x02, 0x13, 0xD2, 0xF7, 0x2A, 0xE9, 0x1E, 0xD6, 0x0E, 0x05, 0xED, 0x3E, 0x13, 0xCF, 0x10, 0xEF, 0x07, 0x3E, 0xF0, 0x02, 0x3F, 0xBF, 0x40, 0x06, 0xE3, 0xDC, 0xDA, 0x1E, 0xC9, 0x31, 0x10, 0xE0, 0x4B, 0xB3, 0xD5, 0x54, 0xCD, 0xDD, 0x4A, 0x06, 0x5D, 0x03, 0x9C, 0x31, 0x48, 0x97, 0x96, 0x03, 0xDF, 0xF8, 0xDF, 0xCD, 0x1B, 0xDF, 0x0A, 0x4E, 0xB0, 0x5D, 0xFD, 0xB8, 0x5E, 0x34, 0xDA, 0xF5, 0x4B, 0x09, 0x62, 0x40, 0xC8, 0xBD, 0x12, 0x24, 0x1C, 0xE1, 0x6A, 0x25, 0xE2, 0x2B, 0x2E, 0xB0, 0x00, 0x37, 0xE8, 0xF1, 0x9C, 0xBF, 0xE6, 0xEB, 0xB3, 0x14, 0xF1, 0x1F, 0xA8, 0x40, 0x19, 0x5C, 0x0F, 0xF3, 0xD1, 0x81, 0xE2, 0x4B, 0x23, 0xFE, 0xEF, 0x2D, 0xDA, 0x2F, 0xD2, 0xC8, 0x53, 0xD5, 0x5B, 0xB0, 0x55, 0xAA, 0x05, 0x4C, 0x07, 0x10, 0x07, 0xC4, 0xCE, 0x3B, 0x94, 0x4E, 0xD4, 0x32, 0xFB, 0xE4, 0xF1, 0x5A, 0xFE, 0x2B, 0x0A, 0x6D, 0xA3, 0x33, 0x09, 0x52, 0x66, 0x09, 0xCD, 0xCE, 0xFF, 0xA3, 0x15, 0x4C, 0x6E, 0xA1, 0x5A, 0xEA, 0xF3, 0x02, 0x36, 0xF6, 0x5F, 0x11, 0x49, 0x5F, 0x2B, 0x4E, 0xFE, 0xE1, 0xEF, 0x6F, 0x97, 0x39, 0xED, 0x22, 0xBA, 0x5A, 0x5A, 0xA1, 0xEA, 0x1A, 0x5E, 0xAB, 0x59, 0xED, 0x4F, 0x11, 0x46, 0x01, 0x56, 0x1C, 0x0B, 0xAC, 0xED, 0xF3, 0xEB, 0xCF, 0x0D, 0xA4, 0xFF, 0xAB, 0xEA, 0xB9, 0xEF, 0x38, 0x3A, 0xBA, 0x47, 0x08, 0xC6, 0x08, 0xF6, 0xA6, 0xD1, 0x13, 0xEB, 0xE2, 0xC5, 0x5C, 0x24, 0xC1, 0xF8, 0xF3, 0x44, 0x51, 0x19, 0xC8, 0x04, 0xCB, 0xEF, 0x37, 0x31, 0xE5, 0x21, 0xA7, 0x56, 0xA3, 0xDF, 0xB9, 0x52, 0x08, 0x4E, 0x08, 0x01, 0x23, 0xEE, 0x7F, 0xDD, 0xE7, 0x1C, 0x43, 0x8F, 0x38, 0x56, 0x1E, 0x89, 0xB4, 0x17, 0xFF, 0x44, 0xF4, 0x58, 0x3C, 0xCB, 0xCF, 0x09, 0x5B, 0x05, 0x51, 0xA7, 0x55, 0xB2, 0x02, 0x33, 0xE3, 0x01, 0xC2, 0xC1, 0x46, 0xAC, 0xDE, 0x05, 0x23, 0xEC, 0x4B, 0xB1, 0x48, 0xCD, 0xA3, 0xEA, 0xDC, 0xB2, 0x2E, 0xBA, 0x02, 0x58, 0x61, 0xD1, 0xA9, 0x4D, 0x37, 0xF3, 0xB5, 0x31, 0xBE, 0xF5, 0x60, 0x10, 0xF2, 0xD2, 0x54, 0x42, 0x31, 0x20, 0xDA, 0x38, 0xD9, 0x5C, 0xFA, 0x4B, 0xF5, 0xB4, 0xC8, 0x30, 0xFE, 0x16, 0x1E, 0x24, 0x1E, 0x50, 0xF9, 0xCD, 0x15, 0xCB, 0x18, 0xD4, 0x49, 0x04, 0x55, 0xCA, 0x4F, 0x1F, 0xEB, 0xB6, 0xEF, 0x1F, 0x5B, 0xCC, 0x34, 0x0E, 0xC8, 0x0E, 0xC1, 0x4C, 0x3D, 0x43, 0xFF, 0xE2, 0x31, 0xCD, 0xA8, 0xD0, 0x2C, 0xCD, 0x30, 0x13, 0xDF, 0x1E, 0x10, 0x39, 0x04, 0xF9, 0x05, 0xBB, 0xCE, 0xF9, 0x25, 0xBF, 0xBA, 0x27, 0x16, 0x54, 0xC3, 0xA9, 0xF5, 0xF8, 0xAD, 0x10, 0x34, 0x8F, 0xC0, 0x58, 0xBF, 0x7F, 0x14, 0xD0, 0x39, 0xA5, 0x81, 0x0C, 0x54, 0xFF, 0xFB, 0x29, 0x42, 0xB6, 0x39, 0xB9, 0xC4, 0x22, 0xCE, 0xAF, 0xF0, 0x36, 0xEA, 0x21, 0x3A, 0xDA, 0xBD, 0x34, 0x54, 0x35, 0xDF, 0xCF, 0x38, 0xBC, 0x14, 0x44, 0xF0, 0xC4, 0xA6, 0xA7, 0xBD, 0xCC, 0x2E, 0x41, 0x1A, 0xC9, 0x13, 0x16, 0x59, 0x48, 0x3D, 0xB5, 0x30, 0x38, 0x53, 0x05, 0xFE, 0xB2, 0xE2, 0xE2, 0xC3, 0x5B, 0xAA, 0x5C, 0x2E, 0xA5, 0x55, 0x3F, 0x03, 0xEE, 0xAF, 0x15, 0xFF, 0xCC, 0x26, 0x0B, 0x00, 0xDB, 0xDA, 0x11, 0xE5, 0xBD, 0xD0, 0xEE, 0x02, 0x45, 0xE4, 0xEA, 0x3A, 0x3A, 0x43, 0xE6, 0x3E, 0xF5, 0x2B, 0xD9, 0xDF, 0xF5, 0xE4, 0x41, 0xDD, 0x17, 0x3D, 0x0C, 0x2A, 0xD7, 0xE4, 0xC8, 0x1B, 0x02, 0x06, 0x35, 0xBC, 0x44, 0xEE, 0x11, 0x1A, 0xF2, 0x35, 0x3F, 0xD5, 0xED, 0xE1, 0x2B, 0xE9, 0x2D, 0xF4, 0xD1, 0xFF, 0xCA, 0xD1, 0xFD, 0xC4, 0x3F, 0xC2, 0x01, 0xFE, 0x9B, 0x26, 0x10, 0x9C, 0x59, 0xF6, 0xC9, 0xE6, 0x81, 0x10, 0x04, 0xA5, 0x24, 0x01, 0x02, 0xDF, 0x0D, 0x27, 0x16, 0x25, 0xDC, 0x34, 0xC1, 0x3B, 0xE2, 0x01, 0x06, 0xBE, 0xCB, 0xF5, 0x0D, 0x25, 0xC7, 0x45, 0x3F, 0xC6, 0x2D, 0xD9, 0xFA, 0x33, 0xEA, 0xBC, 0xF6, 0x3B, 0x31, 0xF7, 0xF7, 0x27, 0x37, 0xC5, 0x36, 0x32, 0xF1, 0x1B, 0xE2, 0x0E, 0x1D, 0xE4, 0x41, 0x3C, 0xC8, 0x1C, 0x2C, 0xBB, 0xBE, 0xE3, 0x0F, 0x05, 0x06, 0xDC, 0x3C, 0x11, 0x1A, 0xE0, 0x18, 0x15, 0xC5, 0x2B, 0x2D, 0x24, 0xEF, 0x24, 0xB3, 0xCB, 0x3E, 0xCC, 0x1C, 0xFE, 0xCF, 0x4F, 0x42, 0xD5, 0xD3, 0x0C, 0x1E, 0xCF, 0xE8, 0x24, 0xB0, 0xCE, 0xDE, 0xF7, 0xCD, 0x56, 0x2D, 0xE1, 0xBF, 0x3B, 0x32, 0xF8, 0xB1, 0x38, 0xDB, 0x37, 0xCD, 0xDB, 0x1B, 0xE5, 0xB9, 0x13, 0xDA, 0xD2, 0xB7, 0xC9, 0x3E, 0xF6, 0xF0, 0xA9, 0xCC, 0x32, 0xC5, 0xAB, 0x2B, 0xFC, 0xC7, 0xBD, 0x22, 0xED, 0xE9, 0x2A, 0x28, 0xF9, 0xE3, 0xA8, 0xCA, 0xA4, 0xA2, 0x1C, 0xEB, 0x1B, 0xB7, 0xE1, 0x0B, 0xE8, 0xFB, 0x1C, 0x81, 0xC8, 0xF9, 0xFA, 0x23, 0xB9, 0x37, 0xBC, 0x0E, 0x1C, 0x3D, 0x44, 0xC8, 0xFF, 0x1B, 0x04, 0x24, 0xEC, 0x16, 0x04, 0x26, 0x34, 0xFF, 0x16, 0xDE, 0x51, 0xBA, 0x3D, 0x07, 0xC7, 0x40, 0x4A, 0xED, 0x17, 0x27, 0x4D, 0xC6, 0xB9, 0x2B, 0xB5, 0x05, 0xB2, 0x59, 0x0B, 0xE4, 0xFD, 0x1B, 0xEF, 0xFC, 0xFA, 0x55, 0xC0, 0x09, 0x00, 0xE5, 0x58, 0xD8, 0xB9, 0x2D, 0x01, 0x34, 0xEA, 0xD7, 0x08, 0x1D, 0x09, 0xFC, 0xE4, 0x1E, 0xCB, 0x1F, 0xCD, 0x18, 0xFF, 0x13, 0xEB, 0x13, 0xF7, 0xDC, 0x4F, 0xAB, 0x2F, 0x46, 0x07, 0xC5, 0x14, 0x13, 0x18, 0xD8, 0x01, 0xCF, 0x54, 0xCF, 0x0C, 0x41, 0x44, 0xF1, 0xEC, 0x38, 0x48, 0x36, 0xD4, 0x06, 0x41, 0xB2, 0xD1, 0xF4, 0x21, 0xFF, 0x05, 0x06, 0x2C, 0x2E, 0xC5, 0xC9, 0x1A, 0xE3, 0xC8, 0x42, 0x41, 0xFA, 0xD4, 0xBA, 0xF9, 0xF1, 0xED, 0xB1, 0xB1, 0xFB, 0xE5, 0xF4, 0x07, 0x01, 0x2C, 0xCB, 0xAF, 0x05, 0x2E, 0x94, 0x7F, 0xAD, 0x1E, 0xC4, 0xB9, 0xEF, 0x41, 0x10, 0x89, 0x43, 0xEE, 0x42, 0xF5, 0xD2, 0xE1, 0x1B, 0x18, 0xCB, 0x44, 0xEE, 0xAF, 0x13, 0x01, 0x03, 0xBE, 0x0B, 0x33, 0x04, 0x0C, 0x1B, 0x4D, 0xBB, 0x40, 0x32, 0x46, 0x3A, 0xD0, 0x52, 0x31, 0xC2, 0x4F, 0x12, 0xD1, 0xC5, 0x2B, 0xE6, 0x29, 0x1F, 0xD8, 0xC5, 0x31, 0xDE, 0xE9, 0xBA, 0x2C, 0x08, 0x30, 0x55, 0xFE, 0xAC, 0x08, 0xAD, 0xB6, 0xB0, 0x51, 0xDB, 0x2E, 0x46, 0x2A, 0x4F, 0xBA, 0x0C, 0xFB, 0xD7, 0x17, 0xE3, 0x3C, 0x49, 0x5F, 0xDF, 0x41, 0xF8, 0x4A, 0xF6, 0xE2, 0x38, 0x3F, 0x5A, 0x47, 0x28, 0x37, 0x48, 0x03, 0xFB, 0xCD, 0xFC, 0x02, 0x4C, 0xED, 0x12, 0xFD, 0xBB, 0x2D, 0xF3, 0x4B, 0x20, 0x4E, 0xA5, 0xBB, 0x4C, 0xA4, 0xAF, 0xF5, 0x58, 0x4C, 0xA1, 0xB3, 0xD0, 0xD6, 0x03, 0xFE, 0xA5, 0x2D, 0xEC, 0x5B, 0xBE, 0xF7, 0xB2, 0x37, 0xF7, 0xC8, 0x52, 0xA8, 0xBB, 0xF9, 0x59, 0x43, 0x5C, 0x14, 0x34, 0x42, 0x12, 0x05, 0x86, 0x79, 0x7F, 0x04, 0xC9, 0x41, 0xD7, 0xFA, 0xB3, 0xB2, 0xD8, 0xC5, 0x1F, 0x37, 0x10, 0xEE, 0x9C, 0x9D, 0x3A, 0x58, 0xB4, 0x48, 0xD7, 0xAC, 0x44, 0xBB, 0xFA, 0x17, 0x07, 0xA0, 0xB4, 0xBA, 0x42, 0x15, 0xA4, 0xB3, 0x12, 0x58, 0x5E, 0x2F, 0xFE, 0x11, 0x5B, 0x2D, 0x4E, 0x25, 0x5F, 0xD3, 0x10, 0x5C, 0xDC, 0x06, 0xB6, 0x41, 0xC2, 0x0E, 0xCF, 0x11, 0xD3, 0xE1, 0xA1, 0x08, 0xF7, 0xF1, 0xD3, 0x03, 0xC8, 0x15, 0x57, 0x9D, 0xE6, 0x2A, 0xA4, 0x59, 0x26, 0x51, 0x0A, 0xB9, 0xC7, 0x25, 0xCD, 0xAD, 0x09, 0xD3, 0x0A, 0x53, 0x45, 0x04, 0x55, 0xFC, 0x00, 0x14, 0xB9, 0x4C, 0x14, 0xDD, 0xDA, 0x58, 0xEA, 0x16, 0xB4, 0xAF, 0xD3, 0x47, 0xDF, 0x16, 0xEA, 0xC6, 0xE1, 0xBB, 0x4F, 0xD0, 0xC7, 0xEA, 0xF7, 0xD7, 0x27, 0xBA, 0xED, 0xDF, 0xBC, 0x0F, 0xE4, 0x1C, 0xA6, 0xF0, 0xBD, 0x4E, 0x1E, 0xCA, 0xCB, 0x37, 0xD4, 0xD5, 0xA8, 0x49, 0x03, 0xD0, 0x23, 0x88, 0xED, 0xDC, 0xF0, 0x39, 0xD1, 0xEE, 0x1A, 0x91, 0x1F, 0xDB, 0xD8, 0x81, 0x26, 0x35, 0xFA, 0x4A, 0x44, 0xC3, 0x22, 0x5D, 0x37, 0x33, 0x0D, 0x22, 0x20, 0xE5, 0xF7, 0x50, 0x3C, 0xEC, 0xE6, 0x3E, 0x16, 0xAD, 0xC8, 0x4D, 0x03, 0xAE, 0xB8, 0xB4, 0x17, 0x5B, 0x46, 0x1B, 0xC5, 0x06, 0x58, 0x43, 0xD3, 0x00, 0xBB, 0x1B, 0x40, 0xD6, 0x4F, 0xED, 0x1B, 0xE0, 0x29, 0xC3, 0xB8, 0x5B, 0xC9, 0xAA, 0x03, 0xAD, 0x44, 0xD4, 0x15, 0xE0, 0xF9, 0x4D, 0xE5, 0xB7, 0x3C, 0x1B, 0x31, 0xAF, 0xC4, 0xF2, 0xE8, 0x06, 0xF0, 0xEC, 0xC9, 0xC5, 0x0D, 0x2B, 0x43, 0xE7, 0x0A, 0xB0, 0x11, 0xEF, 0x13, 0xB4, 0xBC, 0x22, 0x0A, 0xCA, 0xB5, 0xB1, 0x13, 0xFC, 0x32, 0x3F, 0x1A, 0xF8, 0x09, 0x09, 0x4E, 0xD8, 0xBA, 0x3C, 0xF6, 0xED, 0xDB, 0x39, 0x4A, 0xBE, 0xF2, 0x2C, 0x3E, 0xF6, 0xD9, 0x24, 0xB6, 0xB0, 0xB6, 0x40, 0x05, 0x10, 0x09, 0xD1, 0xDD, 0xBB, 0xC1, 0x02, 0x36, 0x50, 0x20, 0x2F, 0x46, 0xCD, 0x2A, 0x56, 0xF7, 0xD1, 0x81, 0xA0, 0x1B, 0x33, 0xE6, 0xDE, 0xF3, 0xE1, 0xF9, 0x4E, 0xB3, 0xE1, 0xD7, 0xB3, 0xDB, 0x19, 0x38, 0xDA, 0xBB, 0xEA, 0xFD, 0xB4, 0xB5, 0x02, 0x50, 0x1C, 0x3F, 0x13, 0xEA, 0x27, 0x25, 0xC9, 0x32, 0x06, 0xB6, 0xD9, 0xDB, 0xE4, 0xBD, 0x28, 0xF5, 0xCA, 0x01, 0x00, 0xF3, 0xCC, 0x48, 0xBA, 0xD1, 0x06, 0xF2, 0x08, 0x1B, 0xFE, 0xFA, 0x3D, 0xB4, 0x15, 0xD6, 0xD7, 0xD3, 0xD3, 0xDE, 0xC7, 0x3F, 0xF2, 0x06, 0x46, 0xCC, 0x03, 0xC2, 0xEA, 0x04, 0x2A, 0x88, 0x2C, 0xE9, 0xB6, 0x9D, 0xFA, 0xFA, 0xBC, 0x01, 0x60, 0xEE, 0xD2, 0xC8, 0x73, 0xE9, 0xAB, 0x69, 0x0B, 0x6C, 0xA7, 0x5F, 0x4D, 0x55, 0x14, 0x15, 0x5C, 0x60, 0x9A, 0x64, 0xE1, 0x4C, 0x8C, 0x82, 0x35, 0x9E, 0x77, 0x24, 0xB2, 0xCF, 0xD5, 0x52, 0xC1, 0x7F, 0x29, 0x47, 0x51, 0x53, 0x1E, 0x46, 0x7B, 0x4C, 0xFC, 0x3B, 0x32, 0xC0, 0x21, 0x5F, 0x14, 0x04, 0xDB, 0x55, 0x2A, 0x4E, 0xB5, 0xE0, 0x8B, 0x41, 0x19, 0x8F, 0xFF, 0x02, 0xD1, 0xA5, 0x20, 0x38, 0xC3, 0x07, 0x46, 0xD5, 0x1E, 0x23, 0x1A, 0xC7, 0x32, 0x71, 0x7A, 0x37, 0xBB, 0x46, 0xEA, 0xEE, 0x13, 0xEE, 0xC5, 0x6F, 0x68, 0x1E, 0x22, 0x76, 0xA3, 0x25, 0xE2, 0x61, 0x5B, 0x5A, 0x08, 0x22, 0xB2, 0xA7, 0x7F, 0x7A, 0x09, 0xE9, 0x23, 0x5F, 0x9A, 0x51, 0x52, 0xC1, 0x42, 0x35, 0x47, 0x2F, 0x94, 0xC0, 0x82, 0xD7, 0x79, 0xCA, 0x8D, 0x25, 0x9E, 0x10, 0xFF, 0xBF, 0x33, 0x73, 0x81, 0x78, 0x00, 0xFD, 0x40, 0x49, 0xAD, 0x14, 0xE3, 0xF0, 0xFA, 0xFE, 0x23, 0x39, 0xD5, 0xF3, 0x22, 0x09, 0xEF, 0x0D, 0xD1, 0x28, 0x2E, 0x2F, 0xC8, 0x3A, 0xED, 0xD2, 0xF5, 0x2A, 0x09, 0x39, 0xC6, 0x2D, 0x39, 0x07, 0x05, 0x24, 0xE1, 0xED, 0xDF, 0xD0, 0xE9, 0x2B, 0xD2, 0xE7, 0xE2, 0x09, 0x1C, 0xC9, 0x31, 0xEB, 0xCD, 0x27, 0xD8, 0x18, 0x16, 0xEF, 0xFB, 0x05, 0x19, 0xE8, 0x13, 0xCB, 0xF6, 0xCD, 0xFB, 0x06, 0x24, 0x2C, 0x04, 0x12, 0x30, 0xD6, 0x12, 0x06, 0xFE, 0xA3, 0x2B, 0x0C, 0xE7, 0x81, 0xD5, 0x05, 0x28, 0xE5, 0xDC, 0xE9, 0xED, 0x00, 0xE6, 0x22, 0xE9, 0x0B, 0x2F, 0xD9, 0xFF, 0xE1, 0xE7, 0x04, 0x0A, 0x03, 0x2D, 0xE7, 0xDB, 0x0F, 0x0B, 0x37, 0xCB, 0x17, 0x2E, 0xE2, 0x01, 0x0B, 0xD4, 0xE6, 0x33, 0xDE, 0x23, 0xC7, 0x18, 0xE8, 0xF0, 0x1A, 0x1B, 0x1A, 0x22, 0x26, 0x25, 0xFC, 0xDE, 0xE8, 0x23, 0x11, 0xEF, 0xCD, 0xE6, 0xCF, 0xF8, 0x19, 0x20, 0x28, 0xE8, 0xC7, 0xD9, 0x17, 0x39, 0xFD, 0xDD, 0x0E, 0xCD, 0x55, 0xA1, 0x7F, 0xAB, 0xEE, 0x23, 0x65, 0x93, 0x1B, 0x66, 0x20, 0x06, 0xB9, 0x79, 0xDD, 0x72, 0xBB, 0xA9, 0x52, 0x71, 0x1E, 0xC5, 0x6D, 0x7F, 0xCC, 0xF9, 0x22, 0x96, 0xB7, 0x39, 0xA4, 0xFF, 0x50, 0x24, 0xDA, 0xAA, 0x55, 0xEB, 0xFF, 0xB0, 0xE3, 0x09, 0x7D, 0x7B, 0xD8, 0xD8, 0xF9, 0x5A, 0x1F, 0xE0, 0x10, 0x90, 0xDD, 0x9F, 0x8B, 0x3A, 0x0B, 0x41, 0x69, 0x49, 0xDA, 0x6B, 0x07, 0x23, 0x0F, 0xD8, 0x40, 0x1D, 0xC7, 0xBA, 0x13, 0x62, 0x2C, 0x91, 0xE9, 0x69, 0xAA, 0x9E, 0x0F, 0x4E, 0x71, 0x5B, 0xFB, 0xDB, 0xB6, 0xF2, 0x94, 0x42, 0x39, 0x58, 0xF8, 0xFA, 0x27, 0x12, 0xF2, 0x24, 0xAC, 0x6F, 0xCD, 0xF6, 0x76, 0x50, 0x0D, 0xBD, 0xE1, 0xB9, 0xB1, 0xED, 0x20, 0x95, 0xD6, 0xE4, 0x21, 0xFE, 0x04, 0xFD, 0x42, 0x9A, 0x52, 0x2F, 0x17, 0x8D, 0x49, 0x5A, 0xB7, 0x9D, 0xF8, 0x61, 0x97, 0xEC, 0xE7, 0xCC, 0x78, 0x61, 0x05, 0x69, 0x91, 0xB5, 0xE7, 0x42, 0x20, 0x93, 0x05, 0xBE, 0xBF, 0x01, 0xDB, 0x34, 0x44, 0xEB, 0x16, 0xE9, 0xDB, 0xE3, 0xE5, 0xC2, 0x18, 0x3D, 0x13, 0x0F, 0xF0, 0xEF, 0x0C, 0x27, 0x06, 0xDC, 0xD8, 0xC4, 0xF4, 0x07, 0x2C, 0xE8, 0xDD, 0x22, 0x14, 0xD5, 0xE2, 0x26, 0xE0, 0x26, 0xEF, 0xDD, 0x34, 0x3B, 0xDA, 0x0D, 0xEF, 0x31, 0xFC, 0x25, 0xDD, 0xF0, 0xD4, 0x36, 0xEA, 0x11, 0x22, 0xD0, 0xC8, 0xD0, 0xC6, 0x2D, 0xC5, 0xC9, 0x35, 0x0B, 0x02, 0x22, 0x34, 0x81, 0xA8, 0xF8, 0xFE, 0x89, 0xE9, 0xB9, 0xD0, 0xB7, 0x4C, 0xD5, 0x0E, 0xFF, 0x0A, 0xB3, 0xCD, 0xDF, 0x30, 0x06, 0xBC, 0x3D, 0xE4, 0xC5, 0xC5, 0xCD, 0x3A, 0x3B, 0x32, 0x3F, 0x39, 0xD1, 0x32, 0xC6, 0xC3, 0x24, 0xEA, 0xF8, 0xC8, 0x2A, 0xF4, 0x43, 0xC7, 0xDE, 0x32, 0xFF, 0xE8, 0xC4, 0xDF, 0xF1, 0xF9, 0x0C, 0x2B, 0x3A, 0xC3, 0xF6, 0xF8, 0x42, 0x1A, 0x42, 0x33, 0xF7, 0xF6, 0x27, 0x2B, 0x2C, 0xF1, 0xCB, 0xEB, 0xD9, 0xEE, 0xE9, 0x1E, 0x08, 0x3B, 0x3D, 0x26, 0xCA, 0x1F, 0xD5, 0x33, 0xFD, 0xFB, 0xFE, 0x1A, 0xEA, 0x08, 0x0B, 0x30, 0x35, 0xDB, 0x16, 0xC7, 0xF4, 0xF7, 0x34, 0xF7, 0xD4, 0x0B, 0x23, 0x2B, 0x32, 0xC1, 0xC7, 0x0F, 0xCC, 0x03, 0xC7, 0x1B, 0xF9, 0x3E, 0xC8, 0x17, 0x21, 0xD3, 0x29, 0xCA, 0xC1, 0xFB, 0x24, 0xCF, 0xD8, 0xEE, 0x18, 0xCF, 0x00, 0xDF, 0xD9, 0xE5, 0xFE, 0xD2, 0x2B, 0x17, 0x37, 0x0C, 0xDD, 0xC6, 0x12, 0xC5, 0xEF, 0xDA, 0x1F, 0xCA, 0x10, 0x36, 0x81, 0xA8, 0x17, 0xC7, 0xE8, 0xE9, 0xA5, 0xD9, 0x0C, 0x58, 0xCF, 0x16, 0xE1, 0xD6, 0x05, 0xD5, 0xE4, 0xFB, 0x1F, 0xE7, 0x15, 0xC1, 0xD6, 0x28, 0xFE, 0xDA, 0xD3, 0xF1, 0x01, 0xFA, 0x3F, 0x3F, 0xF0, 0x03, 0x3A, 0x3B, 0x23, 0x12, 0xC6, 0xD7, 0x04, 0x09, 0x2C, 0xC7, 0x18, 0x27, 0x03, 0x10, 0x07, 0x27, 0xC1, 0xF2, 0x04, 0x3E, 0xF7, 0x26, 0x35, 0xD6, 0xED, 0xE2, 0x05, 0xFD, 0xD9, 0xE0, 0x11, 0x0B, 0x25, 0x2F, 0xFC, 0xC8, 0x08, 0xFE, 0x08, 0x30, 0xC9, 0x20, 0x2A, 0x30, 0xC9, 0xDF, 0x3E, 0x07, 0x3E, 0x72, 0x5E, 0xCF, 0xB9, 0x36, 0xCF, 0x85, 0xD6, 0xCF, 0x55, 0xE9, 0xE2, 0xC3, 0x19, 0x09, 0x39, 0x2C, 0xFC, 0xCB, 0x5C, 0x05, 0x98, 0xAD, 0xC4, 0xB4, 0x98, 0x47, 0x04, 0xE0, 0x40, 0xE9, 0x5A, 0xC0, 0xBA, 0x66, 0x42, 0xF2, 0x12, 0x72, 0xDB, 0x46, 0xC0, 0x6F, 0x10, 0x89, 0xAC, 0x34, 0xCA, 0x29, 0xB8, 0xEA, 0x6A, 0x64, 0xC8, 0xEC, 0xEE, 0xA4, 0x0A, 0x91, 0xD5, 0xCE, 0x0A, 0x44, 0xBD, 0x81, 0x89, 0x11, 0x45, 0x1C, 0x9E, 0xDA, 0x50, 0x09, 0x8D, 0xDE, 0x1E, 0xA3, 0xB2, 0x7B, 0x58, 0x6B, 0x08, 0x78, 0x0B, 0xF8, 0x87, 0x1D, 0x1B, 0xD3, 0x6F, 0x13, 0x9D, 0x1F, 0xCE, 0xC2, 0x6E, 0x09, 0xCE, 0x01, 0xC5, 0xEE, 0x08, 0xB2, 0x9E, 0x29, 0xA0, 0x94, 0xE3, 0x27, 0xEF, 0x2D, 0xC3, 0x72, 0x71, 0x57, 0x03, 0x07, 0xD1, 0x6F, 0xF6, 0x86, 0x8D, 0x4E, 0xB5, 0x23, 0x8B, 0x41, 0xB1, 0x29, 0xEE, 0x12, 0xCB, 0x15, 0x68, 0x15, 0xD3, 0xF4, 0x32, 0xEA, 0x04, 0x59, 0xBB, 0x0F, 0xA9, 0xCE, 0x4E, 0xE8, 0xC7, 0xC5, 0xC1, 0xA1, 0x13, 0x3B, 0x49, 0xB1, 0xA4, 0xCC, 0x51, 0x42, 0xDF, 0x1F, 0xC6, 0xA9, 0x25, 0xAC, 0x04, 0xC7, 0xD6, 0xE2, 0xD3, 0xE4, 0xDD, 0xBC, 0x09, 0x49, 0xC7, 0x23, 0xF9, 0x1A, 0x60, 0xB3, 0x50, 0xE2, 0x29, 0x36, 0x03, 0xD4, 0xC2, 0xA5, 0xC6, 0x04, 0x9A, 0x04, 0xDB, 0xE0, 0xBB, 0x43, 0xEE, 0x37, 0x48, 0xEC, 0x4B, 0xC6, 0xDA, 0xD5, 0xBF, 0xCD, 0x9F, 0x12, 0x46, 0xEF, 0x39, 0x32, 0xEE, 0xF3, 0x30, 0x5A, 0xE1, 0x81, 0xBE, 0x9E, 0x38, 0xAF, 0x5D, 0x46, 0xF7, 0x64, 0xB1, 0x37, 0xC8, 0x45, 0xC5, 0x21, 0xD4, 0xF4, 0xDE, 0xB6, 0x35, 0xA3, 0xC6, 0xEE, 0x0D, 0x06, 0x58, 0xC8, 0xBC, 0x04, 0xDC, 0xEF, 0x4B, 0x1B, 0xEA, 0xF2, 0x4F, 0xEF, 0xF3, 0x00, 0x03, 0x2C, 0x08, 0xBA, 0xEC, 0x2B, 0xB3, 0x37, 0x66, 0x32, 0x1C, 0xA5, 0x5C, 0xAD, 0x59, 0xEB, 0xFA, 0xF3, 0x57, 0xD0, 0x5C, 0x35, 0x28, 0x07, 0x37, 0xCE, 0xDE, 0x33, 0x1F, 0xC9, 0xCD, 0x1E, 0xE6, 0x25, 0x17, 0xDA, 0x1B, 0xD5, 0x26, 0x25, 0x12, 0x30, 0xDE, 0xEE, 0xD4, 0x09, 0xD7, 0xE6, 0xCF, 0x06, 0xD6, 0xF9, 0xEA, 0xDB, 0xEF, 0xEC, 0x1B, 0xE1, 0xF2, 0xEF, 0x24, 0xDB, 0x32, 0xCD, 0x2D, 0xFE, 0x00, 0xF4, 0x38, 0x2B, 0x07, 0x10, 0x1C, 0xDD, 0x24, 0xDB, 0x05, 0xEB, 0xF5, 0xD9, 0xD5, 0x18, 0x22, 0xE9, 0x22, 0x13, 0x29, 0x2B, 0x25, 0xE2, 0xDE, 0xA3, 0x24, 0xDB, 0x0E, 0xF1, 0x0E, 0x81, 0x68, 0xD8, 0xB2, 0xA8, 0xB6, 0x08, 0xC1, 0xED, 0xCC, 0x37, 0xCD, 0x37, 0xE1, 0x04, 0x09, 0xDC, 0x33, 0xF9, 0x1C, 0x0B, 0xF7, 0xF9, 0xF5, 0xD1, 0xFC, 0xEF, 0xE8, 0xD5, 0xCB, 0xE0, 0x2D, 0x37, 0xF0, 0xDC, 0xF3, 0x37, 0xEF, 0x0D, 0xD7, 0x08, 0xD9, 0xDE, 0xE5, 0x14, 0xCE, 0xE7, 0x23, 0x17, 0x14, 0xE4, 0xF9, 0x29, 0xF8, 0xF6, 0xE6, 0xEB, 0x34, 0xF7, 0xDE, 0xE4, 0xF3, 0x1B, 0xD7, 0x14, 0x34, 0xFC, 0x1C, 0xEE, 0xEF, 0xD0, 0xEF, 0xEF, 0xE1, 0x2D, 0x2F, 0x08, 0xE0, 0x62, 0x46, 0x61, 0x65, 0xDB, 0x22, 0x44, 0xA8, 0x43, 0xF8, 0x39, 0xB8, 0xBB, 0xBD, 0x53, 0x40, 0x5B, 0xC9, 0xC5, 0xB1, 0x23, 0xBD, 0x43, 0xA8, 0x48, 0xFC, 0x37, 0xCF, 0x55, 0xDC, 0x60, 0x22, 0x5F, 0xE1, 0xBA, 0x9E, 0x59, 0xDB, 0x47, 0xE0, 0xBC, 0xC4, 0x96, 0x38, 0x95, 0x1D, 0x66, 0xE0, 0x13, 0xD7, 0xD6, 0x64, 0xF2, 0x05, 0x1E, 0x30, 0x9A, 0xE5, 0xA4, 0xF8, 0xE1, 0x81, 0xBB, 0x0D, 0x15, 0x84, 0xE9, 0x02, 0x46, 0x29, 0x98, 0x1D, 0xA6, 0x10, 0x07, 0xCD, 0xDD, 0x22, 0xC1, 0x3B, 0x30, 0xF1, 0xA7, 0xE5, 0xF9, 0xAD, 0xC5, 0x34, 0xBF, 0x18, 0xEF, 0xEA, 0x19, 0xDF, 0x2A, 0x9C, 0xF7, 0xFF, 0xE5, 0xA6, 0x07, 0x9D, 0x9D, 0xA7, 0x1A, 0x07, 0x64, 0xEB, 0xEC, 0xCA, 0x4E, 0x33, 0xFD, 0xFB, 0xA6, 0x3E, 0xAD, 0xA8, 0x10, 0x5E, 0x29, 0x5C, 0x54, 0xED, 0x3C, 0xEB, 0x09, 0x48, 0x16, 0xFC, 0xE6, 0x4C, 0xDC, 0xDE, 0x31, 0x20, 0x9F, 0xF6, 0xA4, 0xEB, 0xD5, 0x11, 0xE8, 0x2F, 0xFE, 0xC8, 0x3F, 0x52, 0xC5, 0x9E, 0x11, 0x6A, 0x52, 0x92, 0xA4, 0x20, 0x3C, 0xC5, 0x45, 0x45, 0xE8, 0x26, 0x5E, 0x61, 0x11, 0xBB, 0xAD, 0xF8, 0x19, 0x3A, 0xCF, 0xCA, 0x99, 0xB9, 0x68, 0xA5, 0xB3, 0x0F, 0xA0, 0xE0, 0x4D, 0x9B, 0xAD, 0xC1, 0x50, 0xBE, 0x33, 0x08, 0xA6, 0x00, 0x4A, 0x3C, 0x64, 0x60, 0x58, 0x05, 0x9B, 0xDA, 0x02, 0x41, 0xEE, 0x3A, 0xB4, 0xD1, 0xC9, 0x02, 0x07, 0x09, 0x04, 0x31, 0x3D, 0xD4, 0x0A, 0xBF, 0xA9, 0x11, 0x81, 0xA7, 0xF1, 0xF5, 0xBC, 0x3D, 0x3B, 0x24, 0xC9, 0x93, 0xE6, 0x44, 0x27, 0xAB, 0xB9, 0xA6, 0xE4, 0xE8, 0x5A, 0x5C, 0x73, 0x22, 0x3D, 0xA9, 0x5E, 0xA8, 0xF4, 0x02, 0xBC, 0xBE, 0x2F, 0x3E, 0xC3, 0x50, 0x2E, 0xC0, 0x69, 0xA1, 0x72, 0x94, 0x93, 0x34, 0x32, 0x1B, 0x2D, 0xB4, 0x9B, 0x45, 0x44, 0x59, 0x62, 0x20, 0x68, 0x62, 0xFE, 0x12, 0x42, 0xED, 0xD0, 0xC3, 0x0F, 0x38, 0x14, 0x2B, 0xDF, 0xE7, 0xD5, 0x9B, 0x64, 0x46, 0x63, 0xAB, 0x34, 0x41, 0x4A, 0x3D, 0x4A, 0x54, 0xA7, 0x01, 0x03, 0xD0, 0x08, 0xD0, 0xE4, 0x32, 0x01, 0x2B, 0xEF, 0xF1, 0x54, 0x2E, 0x8D, 0xF2, 0x48, 0x17, 0x77, 0x1E, 0x55, 0x6D, 0x50, 0x30, 0xF8, 0xF3, 0xB3, 0x67, 0xA6, 0x07, 0xFE, 0xDD, 0xB2, 0x6D, 0x2D, 0x12, 0x26, 0x1B, 0x64, 0x65, 0xAA, 0x20, 0x0A, 0x68, 0x06, 0xA0, 0xE3, 0x02, 0xFE, 0xC1, 0x1C, 0xDE, 0x10, 0x1E, 0xE4, 0x81, 0xBC, 0x19, 0xE4, 0xE8, 0xB5, 0xA3, 0xEC, 0x3A, 0xF8, 0xB8, 0xB0, 0x06, 0xF7, 0x1F, 0xC0, 0x0E, 0x36, 0xA4, 0x8A, 0xC7, 0xC1, 0x4D, 0x30, 0x2D, 0x6C, 0x50, 0xC3, 0x50, 0x24, 0xE3, 0xBD, 0xF9, 0xD5, 0xD7, 0xBA, 0xBD, 0xC0, 0x61, 0x10, 0xA1, 0x74, 0x10, 0x9E, 0xC7, 0x52, 0xC4, 0xEE, 0x9E, 0xE4, 0x68, 0x41, 0x52, 0xEF, 0xB1, 0xE1, 0x22, 0xDF, 0x8D, 0x6E, 0x90, 0xF3, 0x9E, 0x8B, 0xD5, 0xB8, 0x42, 0xBA, 0xA0, 0x00, 0xFA, 0xF8, 0x6B, 0x62, 0xD9, 0x18, 0x70, 0x98, 0x57, 0xC9, 0x31, 0x58, 0x34, 0xCE, 0xBA, 0xDA, 0x29, 0x45, 0x17, 0xD3, 0x27, 0xB4, 0xB5, 0xA2, 0xFD, 0x8F, 0xC5, 0x1A, 0xD0, 0x83, 0x7F, 0xDE, 0x61, 0x8B, 0x6B, 0xAB, 0x7C, 0xD8, 0x35, 0x56, 0x23, 0x48, 0x7F, 0x79, 0x36, 0x61, 0x83, 0x41, 0x0A, 0x90, 0xBC, 0xFE, 0x40, 0xA2, 0x45, 0x45, 0x6A, 0xDE, 0xA6, 0x1E, 0xB5, 0x7D, 0xE6, 0x1C, 0xEA, 0x75, 0x83, 0x33, 0x07, 0xD4, 0x7F, 0xDF, 0xCB, 0xC8, 0xB7, 0x27, 0x99, 0x81, 0x04, 0x8C, 0x76, 0xAF, 0xAA, 0x84, 0x1E, 0xE4, 0xE8, 0x93, 0xA5, 0xD1, 0x3B, 0xE9, 0x60, 0xBE, 0x02, 0x20, 0x9D, 0x2E, 0x8F, 0xB2, 0x07, 0x77, 0x47, 0x58, 0x3D, 0x90, 0xC4, 0x33, 0x91, 0x3B, 0xDF, 0x64, 0x22, 0x24, 0xF2, 0x5E, 0xA8, 0xE7, 0x72, 0xA3, 0x02, 0x08, 0x1B, 0xB7, 0x8C, 0x2C, 0x16, 0xD9, 0xB7, 0x6B, 0x91, 0x6E, 0x3A, 0x2B, 0x5E, 0x18, 0xE4, 0x43, 0xC2, 0xEC, 0x07, 0xA0, 0x38, 0x60, 0xED, 0x37, 0x77, 0xA4, 0x9C, 0x45, 0x16, 0x11, 0x94, 0x51, 0x40, 0x15, 0xCE, 0x54, 0x40, 0xCD, 0xED, 0xDB, 0xDF, 0xDF, 0xF4, 0x04, 0xC9, 0x40, 0xE2, 0x3B, 0x47, 0x06, 0xD3, 0xF3, 0xCA, 0xC6, 0xBF, 0xC8, 0x2A, 0x53, 0x3D, 0x46, 0xBC, 0xB0, 0x1A, 0x2A, 0xDA, 0xE7, 0xC0, 0xFC, 0x28, 0x38, 0x40, 0x40, 0x35, 0xD3, 0xEA, 0x13, 0xC7, 0x3B, 0xDF, 0x1F, 0x06, 0xD5, 0x05, 0x32, 0xF0, 0x1C, 0xCB, 0xC1, 0xE7, 0x17, 0xB1, 0xFB, 0xB9, 0x4E, 0x30, 0xBE, 0xC8, 0x44, 0x01, 0x45, 0x67, 0xBF, 0x01, 0xE0, 0x72, 0xEA, 0x81, 0xD9, 0xA0, 0xBC, 0x40, 0x4E, 0x54, 0xD5, 0xD6, 0x4E, 0xD8, 0x41, 0xFE, 0x1C, 0xFC, 0x03, 0x48, 0xC0, 0x40, 0xD6, 0x4F, 0xC9, 0xEF, 0xC7, 0x0F, 0x15, 0x43, 0x17, 0x48, 0xC3, 0x13, 0xC8, 0xD2, 0xEB, 0xAE, 0xE2, 0xCE, 0x01, 0xC7, 0xC0, 0x46, 0x0A, 0xD3, 0x06, 0xB3, 0x0C, 0x27, 0xC3, 0xEF, 0x33, 0xEA, 0x24, 0x3C, 0x48, 0x06, 0x4C, 0x18, 0x08, 0x48, 0x12, 0xDB, 0xCA, 0x46, 0x37, 0xD4, 0x29, 0x4D, 0x39, 0xCD, 0xB2, 0x3B, 0x93, 0xE5, 0xA7, 0xFE, 0x97, 0x5A, 0x65, 0x30, 0xC5, 0xA4, 0x5A, 0xF5, 0xA1, 0x54, 0x3D, 0x31, 0x44, 0xBB, 0x2C, 0x64, 0x56, 0x21, 0x22, 0x2B, 0x13, 0x68, 0xB6, 0xA8, 0xB2, 0x36, 0x4D, 0x38, 0x23, 0xF8, 0xE6, 0xF7, 0x4D, 0x60, 0xEA, 0x32, 0xB0, 0xCE, 0xF7, 0xB8, 0x14, 0xCE, 0x0F, 0xDD, 0x2E, 0xFB, 0xBE, 0x15, 0x13, 0x14, 0xF7, 0xE5, 0x95, 0xB8, 0xA3, 0x6C, 0x15, 0x64, 0x3D, 0x4C, 0xE1, 0xC3, 0xEC, 0xD0, 0x3F, 0xC8, 0x99, 0x26, 0xB9, 0x81, 0xC0, 0x48, 0xFC, 0x9D, 0x45, 0xA7, 0xB9, 0x16, 0x2C, 0x28, 0x12, 0xED, 0x56, 0x39, 0x3C, 0x20, 0x69, 0xF5, 0x1B, 0xE4, 0x34, 0x1C, 0xD3, 0x55, 0xD9, 0xB5, 0xE8, 0x44, 0x95, 0xF2, 0x46, 0x59, 0x6D, 0xF7, 0x97, 0x17, 0xA1, 0xC5, 0x4D, 0x4F, 0x44, 0xCE, 0x9C, 0x07, 0x4E, 0x1F, 0xA7, 0x98, 0xBD, 0x96, 0xA0, 0xF5, 0xCD, 0xC3, 0xD7, 0x36, 0x00, 0xDA, 0x5D, 0xFA, 0x3A, 0x05, 0x1E, 0x9B, 0xBF, 0x2F, 0x17, 0x0A, 0x7C, 0x00, 0x09, 0xF5, 0x85, 0xB8, 0x37, 0x4C, 0xBE, 0x0F, 0xC6, 0xCC, 0x48, 0x97, 0xBB, 0xAE, 0x74, 0x15, 0x5E, 0x8E, 0xA2, 0xC6, 0x23, 0x4A, 0xDA, 0x83, 0xAD, 0xCB, 0x36, 0x2C, 0x85, 0xCF, 0x54, 0x83, 0xBF, 0x40, 0x00, 0x42, 0x6E, 0x90, 0x2C, 0x15, 0x14, 0x95, 0x91, 0x61, 0x9A, 0xF9, 0xC9, 0x55, 0x02, 0x68, 0xE4, 0x9B, 0xD2, 0x90, 0x21, 0x42, 0x2E, 0x8B, 0xF3, 0x9C, 0x15, 0x70, 0xF2, 0x03, 0x4B, 0xBB, 0x20, 0x41, 0xF0, 0x8C, 0x0E, 0x47, 0x9C, 0x2F, 0xC0, 0x22, 0xB4, 0xCA, 0xAA, 0x76, 0xA5, 0xD3, 0xEE, 0x89, 0x42, 0x7D, 0x0C, 0x66, 0x85, 0xD9, 0xDC, 0x33, 0x75, 0x98, 0x37, 0x7A, 0xB9, 0x42, 0x6F, 0xA4, 0x8C, 0xFF, 0x8E, 0x21, 0xF1, 0xC2, 0x21, 0x7D, 0x34, 0x94, 0x78, 0xB4, 0x28, 0xA9, 0xBC, 0xA2, 0x4A, 0x7C, 0x37, 0xF9, 0xD1, 0x3D, 0x7F, 0x3B, 0x8A, 0x36, 0xBC, 0x25, 0xB4, 0xDE, 0xF5, 0xA8, 0x42, 0xC4, 0xCA, 0xD0, 0x38, 0xBE, 0x44, 0xDC, 0xA9, 0x0C, 0x72, 0xE4, 0xFF, 0xFF, 0x00, 0x00, 0x00, 0x09, 0x10, 0x00, 0x00, 0x00, 0x0F, 0x00, 0x00, 0x00, 0x1C, 0x00, 0x00, 0x00, 0x8C, 0x00, 0x00, 0x00, 0x04, 0x00, 0x00, 0x00, 0x20, 0x00, 0x00, 0x00, 0x03, 0x00, 0x00, 0x00, 0x03, 0x00, 0x00, 0x00, 0x10, 0x00, 0x00, 0x00, 0x6F, 0x00, 0x00, 0x00, 0x73, 0x65, 0x71, 0x75, 0x65, 0x6E, 0x74, 0x69, 0x61, 0x6C, 0x5F, 0x31, 0x2F, 0x71, 0x75, 0x61, 0x6E, 0x74, 0x5F, 0x63, 0x6F, 0x6E, 0x76, 0x32, 0x64, 0x5F, 0x35, 0x2F, 0x43, 0x6F, 0x6E, 0x76, 0x32, 0x44, 0x3B, 0x73, 0x65, 0x71, 0x75, 0x65, 0x6E, 0x74, 0x69, 0x61, 0x6C, 0x5F, 0x31, 0x2F, 0x71, 0x75, 0x61, 0x6E, 0x74, 0x5F, 0x63, 0x6F, 0x6E, 0x76, 0x32, 0x64, 0x5F, 0x35, 0x2F, 0x4C, 0x61, 0x73, 0x74, 0x56, 0x61, 0x6C, 0x75, 0x65, 0x51, 0x75, 0x61, 0x6E, 0x74, 0x2F, 0x46, 0x61, 0x6B, 0x65, 0x51, 0x75, 0x61, 0x6E, 0x74, 0x57, 0x69, 0x74, 0x68, 0x4D, 0x69, 0x6E, 0x4D, 0x61, 0x78, 0x56, 0x61, 0x72, 0x73, 0x50, 0x65, 0x72, 0x43, 0x68, 0x61, 0x6E, 0x6E, 0x65, 0x6C, 0x00, 0xD4, 0xE6, 0xFF, 0xFF, 0x08, 0x00, 0x00, 0x00, 0x88, 0x00, 0x00, 0x00, 0x20, 0x00, 0x00, 0x00, 0x06, 0x93, 0xC0, 0x3A, 0x5A, 0xC0, 0xAD, 0x3A, 0xEF, 0x6A, 0xBE, 0x3A, 0x70, 0x5E, 0xA6, 0x3A, 0x3A, 0x13, 0xA1, 0x3A, 0xE0, 0xE4, 0xBF, 0x3A, 0x49, 0xE5, 0x92, 0x3A, 0x7A, 0x9B, 0xE5, 0x3A, 0x2D, 0x6A, 0x8B, 0x3A, 0x2F, 0xE2, 0x9E, 0x3A, 0x76, 0xCD, 0xA6, 0x3A, 0x48, 0x8F, 0xDE, 0x3A, 0xF0, 0x47, 0xAD, 0x3A, 0x2D, 0x07, 0xB5, 0x3A, 0x96, 0xD9, 0x99, 0x3A, 0x73, 0x23, 0xA6, 0x3A, 0xE1, 0xCA, 0xBB, 0x3A, 0xC7, 0xD6, 0x72, 0x3A, 0xAE, 0xE5, 0x01, 0x3B, 0x86, 0x3E, 0x70, 0x3A, 0x90, 0x4F, 0xE3, 0x3A, 0xF2, 0x59, 0xF3, 0x3A, 0xDD, 0x81, 0x7B, 0x3A, 0x13, 0x58, 0x96, 0x3A, 0x04, 0x53, 0x09, 0x3B, 0xFB, 0x5B, 0x90, 0x3A, 0xC8, 0xDD, 0x84, 0x3A, 0xAD, 0xB8, 0x81, 0x3A, 0x94, 0x36, 0x71, 0x3A, 0xC6, 0x44, 0xB5, 0x3A, 0x81, 0x98, 0x8A, 0x3A, 0x48, 0x8F, 0x71, 0x3A, 0x20, 0x00, 0x00, 0x00, 0x00, 0x00, 0x00, 0x00, 0x00, 0x00, 0x00, 0x00, 0x00, 0x00, 0x00, 0x00, 0x00, 0x00, 0x00, 0x00, 0x00, 0x00, 0x00, 0x00, 0x00, 0x00, 0x00, 0x00, 0x00, 0x00, 0x00, 0x00, 0x00, 0x00, 0x00, 0x00, 0x00, 0x00, 0x00, 0x00, 0x00, 0x00, 0x00, 0x00, 0x00, 0x00, 0x00, 0x00, 0x00, 0x00, 0x00, 0x00, 0x00, 0x00, 0x00, 0x00, 0x00, 0x00, 0x00, 0x00, 0x00, 0x00, 0x00, 0x00, 0x00, 0x00, 0x00, 0x00, 0x00, 0x00, 0x00, 0x00, 0x00, 0x00, 0x00, 0x00, 0x00, 0x00, 0x00, 0x00, 0x00, 0x00, 0x00, 0x00, 0x00, 0x00, 0x00, 0x00, 0x00, 0x00, 0x00, 0x00, 0x00, 0x00, 0x00, 0x00, 0x00, 0x00, 0x00, 0x00, 0x00, 0x00, 0x00, 0x00, 0x00, 0x00, 0x00, 0x00, 0x00, 0x00, 0x00, 0x00, 0x00, 0x00, 0x00, 0x00, 0x00, 0x00, 0x00, 0x00, 0x00, 0x00, 0x00, 0x00, 0x00, 0x00, 0x00, 0x00, 0x00, 0x00, 0x00, 0x00, 0x00, 0x00, 0x00, 0x00, 0x00, 0x00, 0x00, 0x00, 0x00, 0x00, 0x00, 0x00, 0x00, 0x00, 0x00, 0x00, 0x00, 0x00, 0x00, 0x00, 0x00, 0x00, 0x00, 0x00, 0x00, 0x00, 0x00, 0x00, 0x00, 0x00, 0x00, 0x00, 0x00, 0x00, 0x00, 0x00, 0x00, 0x00, 0x00, 0x00, 0x00, 0x00, 0x00, 0x00, 0x00, 0x00, 0x00, 0x00, 0x00, 0x00, 0x00, 0x00, 0x00, 0x00, 0x00, 0x00, 0x00, 0x00, 0x00, 0x00, 0x00, 0x00, 0x00, 0x00, 0x00, 0x00, 0x00, 0x00, 0x00, 0x00, 0x00, 0x00, 0x00, 0x00, 0x00, 0x00, 0x00, 0x00, 0x00, 0x00, 0x00, 0x00, 0x00, 0x00, 0x00, 0x00, 0x00, 0x00, 0x00, 0x00, 0x00, 0x00, 0x00, 0x00, 0x00, 0x00, 0x00, 0x00, 0x00, 0x00, 0x00, 0x00, 0x00, 0x00, 0x00, 0x00, 0x00, 0x00, 0x00, 0x00, 0x00, 0x00, 0x00, 0x00, 0x00, 0x00, 0x00, 0x00, 0x00, 0x00, 0x00, 0x00, 0x00, 0x00, 0x00, 0x00, 0x00, 0x00, 0xDE, 0xF6, 0xFF, 0xFF, 0x00, 0x00, 0x00, 0x05, 0x02, 0x00, 0x00, 0x00, 0x28, 0x00, 0x00, 0x00, 0x1C, 0x00, 0x00, 0x00, 0x04, 0x00, 0x00, 0x00, 0xCE, 0xF7, 0xFF, 0xFF, 0x03, 0x00, 0x00, 0x00, 0x03, 0x00, 0x00, 0x00, 0x02, 0x00, 0x00, 0x00, 0x02, 0x00, 0x00, 0x00, 0x01, 0x00, 0x00, 0x00, 0x0D, 0x00, 0x00, 0x00, 0x01, 0x00, 0x00, 0x00, 0x0C, 0x00, 0x00, 0x00, 0xBC, 0xEF, 0xFF, 0xFF, 0x00, 0x00, 0x00, 0x09, 0x14, 0x00, 0x00, 0x00, 0x0E, 0x00, 0x00, 0x00, 0x34, 0x00, 0x00, 0x00, 0x60, 0x00, 0x00, 0x00, 0x18, 0x00, 0x00, 0x00, 0x04, 0x00, 0x00, 0x00, 0x01, 0x00, 0x00, 0x00, 0x01, 0x00, 0x00, 0x00, 0x01, 0x00, 0x00, 0x00, 0x10, 0x00, 0x00, 0x00, 0x04, 0x00, 0x00, 0x00, 0xFF, 0xFF, 0xFF, 0xFF, 0x01, 0x00, 0x00, 0x00, 0x01, 0x00, 0x00, 0x00, 0x10, 0x00, 0x00, 0x00, 0x2A, 0x00, 0x00, 0x00, 0x73, 0x65, 0x71, 0x75, 0x65, 0x6E, 0x74, 0x69, 0x61, 0x6C, 0x5F, 0x31, 0x2F, 0x71, 0x75, 0x61, 0x6E, 0x74, 0x5F, 0x6D, 0x61, 0x78, 0x5F, 0x70, 0x6F, 0x6F, 0x6C, 0x69, 0x6E, 0x67, 0x32, 0x64, 0x5F, 0x34, 0x2F, 0x4D, 0x61, 0x78, 0x50, 0x6F, 0x6F, 0x6C, 0x00, 0x00, 0x18, 0xE9, 0xFF, 0xFF, 0x08, 0x00, 0x00, 0x00, 0x0C, 0x00, 0x00, 0x00, 0x01, 0x00, 0x00, 0x00, 0x80, 0x84, 0x0A, 0x3E, 0x01, 0x00, 0x00, 0x00, 0x82, 0xFF, 0xFF, 0xFF, 0xFF, 0xFF, 0xFF, 0xFF, 0x00, 0x00, 0x00, 0x00, 0xB2, 0xF7, 0xFF, 0xFF, 0x00, 0x00, 0x00, 0x01, 0x01, 0x00, 0x00, 0x00, 0x24, 0x00, 0x00, 0x00, 0x18, 0x00, 0x00, 0x00, 0x04, 0x00, 0x00, 0x00, 0xA4, 0xF7, 0xFF, 0xFF, 0x01, 0x00, 0x00, 0x00, 0x01, 0x00, 0x00, 0x00, 0x00, 0x00, 0x00, 0x01, 0x01, 0x00, 0x00, 0x00, 0x0C, 0x00, 0x00, 0x00, 0x03, 0x00, 0x00, 0x00, 0x0A, 0x00, 0x00, 0x00, 0x0B, 0x00, 0x00, 0x00, 0x03, 0x00, 0x00, 0x00, 0x94, 0xF0, 0xFF, 0xFF, 0x00, 0x00, 0x00, 0x09, 0x14, 0x00, 0x00, 0x00, 0x0D, 0x00, 0x00, 0x00, 0x34, 0x00, 0x00, 0x00, 0xD8, 0x00, 0x00, 0x00, 0x18, 0x00, 0x00, 0x00, 0x04, 0x00, 0x00, 0x00, 0x01, 0x00, 0x00, 0x00, 0x01, 0x00, 0x00, 0x00, 0x01, 0x00, 0x00, 0x00, 0x10, 0x00, 0x00, 0x00, 0x04, 0x00, 0x00, 0x00, 0xFF, 0xFF, 0xFF, 0xFF, 0x01, 0x00, 0x00, 0x00, 0x01, 0x00, 0x00, 0x00, 0x10, 0x00, 0x00, 0x00, 0xA3, 0x00, 0x00, 0x00, 0x73, 0x65, 0x71, 0x75, 0x65, 0x6E, 0x74, 0x69, 0x61, 0x6C, 0x5F, 0x31, 0x2F, 0x71, 0x75, 0x61, 0x6E, 0x74, 0x5F, 0x63, 0x6F, 0x6E, 0x76, 0x32, 0x64, 0x5F, 0x34, 0x2F, 0x52, 0x65, 0x6C, 0x75, 0x3B, 0x73, 0x65, 0x71, 0x75, 0x65, 0x6E, 0x74, 0x69, 0x61, 0x6C, 0x5F, 0x31, 0x2F, 0x71, 0x75, 0x61, 0x6E, 0x74, 0x5F, 0x63, 0x6F, 0x6E, 0x76, 0x32, 0x64, 0x5F, 0x34, 0x2F, 0x42, 0x69, 0x61, 0x73, 0x41, 0x64, 0x64, 0x3B, 0x73, 0x65, 0x71, 0x75, 0x65, 0x6E, 0x74, 0x69, 0x61, 0x6C, 0x5F, 0x31, 0x2F, 0x71, 0x75, 0x61, 0x6E, 0x74, 0x5F, 0x63, 0x6F, 0x6E, 0x76, 0x32, 0x64, 0x5F, 0x34, 0x2F, 0x43, 0x6F, 0x6E, 0x76, 0x32, 0x44, 0x3B, 0x73, 0x65, 0x71, 0x75, 0x65, 0x6E, 0x74, 0x69, 0x61, 0x6C, 0x5F, 0x31, 0x2F, 0x71, 0x75, 0x61, 0x6E, 0x74, 0x5F, 0x63, 0x6F, 0x6E, 0x76, 0x32, 0x64, 0x5F, 0x34, 0x2F, 0x42, 0x69, 0x61, 0x73, 0x41, 0x64, 0x64, 0x2F, 0x52, 0x65, 0x61, 0x64, 0x56, 0x61, 0x72, 0x69, 0x61, 0x62, 0x6C, 0x65, 0x4F, 0x70, 0x2F, 0x72, 0x65, 0x73, 0x6F, 0x75, 0x72, 0x63, 0x65, 0x00, 0x68, 0xEA, 0xFF, 0xFF, 0x08, 0x00, 0x00, 0x00, 0x0C, 0x00, 0x00, 0x00, 0x01, 0x00, 0x00, 0x00, 0x80, 0x84, 0x0A, 0x3E, 0x01, 0x00, 0x00, 0x00, 0x82, 0xFF, 0xFF, 0xFF, 0xFF, 0xFF, 0xFF, 0xFF, 0xE2, 0xE8, 0xFF, 0xFF, 0x04, 0x00, 0x00, 0x00, 0x80, 0x04, 0x00, 0x00, 0x48, 0x9D, 0xDD, 0x20, 0x99, 0xCD, 0x0A, 0xE7, 0xE9, 0x3D, 0x9F, 0x21, 0x4A, 0x9D, 0x07, 0xBD, 0x2E, 0x08, 0x2C, 0x12, 0xB0, 0x6A, 0x58, 0x10, 0xA5, 0x00, 0xD4, 0x6E, 0x9A, 0xC6, 0x60, 0x6C, 0x81, 0xAB, 0x30, 0xBD, 0xE6, 0x20, 0x22, 0x36, 0x05, 0x11, 0xCB, 0x6A, 0x68, 0x2E, 0x99, 0x57, 0xFF, 0xDD, 0x69, 0xED, 0xF5, 0x05, 0xFE, 0xC7, 0xC6, 0xAA, 0x17, 0x38, 0xDB, 0x2E, 0x58, 0x9E, 0xA1, 0xBB, 0xD9, 0x3A, 0x0A, 0xF2, 0x22, 0xE4, 0x0B, 0xD6, 0xEA, 0x06, 0x03, 0xBF, 0xC4, 0x93, 0x28, 0xCA, 0x1E, 0x7F, 0x83, 0x03, 0xA9, 0x9C, 0x76, 0x95, 0x41, 0x14, 0x95, 0xB3, 0xE1, 0xE8, 0xD3, 0x25, 0x50, 0xB8, 0x68, 0x84, 0x4F, 0x41, 0x47, 0x62, 0xBE, 0xF8, 0xA5, 0x1E, 0xB3, 0xD6, 0xA0, 0xFA, 0x18, 0x57, 0x57, 0xDB, 0xBF, 0xA6, 0xEC, 0x5E, 0x98, 0xD5, 0x5F, 0x7B, 0x7D, 0xAA, 0xE0, 0xB4, 0x65, 0x37, 0x62, 0x12, 0x4F, 0x1C, 0x30, 0xD5, 0x00, 0x76, 0xA8, 0x73, 0xFF, 0xD2, 0x04, 0xF8, 0x9C, 0x58, 0x57, 0x35, 0xC0, 0x19, 0xB1, 0x84, 0x10, 0x95, 0xCD, 0x35, 0x50, 0x9D, 0xC5, 0xE9, 0x1C, 0xF8, 0x41, 0x2C, 0xB1, 0x9A, 0xFF, 0x20, 0x18, 0x76, 0xB9, 0xA0, 0xC1, 0x91, 0x1F, 0xD8, 0xE3, 0x44, 0x2A, 0xED, 0xE6, 0x24, 0x85, 0x7F, 0x81, 0xDF, 0x81, 0x73, 0xE9, 0xD2, 0xA0, 0x83, 0x65, 0xB9, 0xD3, 0x6D, 0xD6, 0x85, 0x2F, 0xD3, 0xF6, 0xFF, 0x1D, 0xAF, 0x71, 0x1A, 0x06, 0x77, 0xE0, 0xD5, 0x0C, 0xDA, 0xB9, 0xB6, 0xBB, 0x4F, 0x01, 0x4D, 0xC9, 0xB2, 0xC9, 0x0E, 0xA9, 0x2F, 0xEF, 0x61, 0xA8, 0x92, 0x5F, 0xF7, 0xE3, 0x67, 0x55, 0x72, 0x05, 0xE7, 0xEE, 0x92, 0xFE, 0x84, 0x42, 0x6C, 0x01, 0xEF, 0xF0, 0x5E, 0x58, 0x93, 0x0A, 0xF4, 0x81, 0xE7, 0x1F, 0x53, 0x0D, 0xD2, 0x04, 0x56, 0x9C, 0x4A, 0x54, 0x24, 0x76, 0x52, 0x6B, 0xF8, 0x8B, 0x79, 0x45, 0xF5, 0xC3, 0xD0, 0x85, 0x11, 0x2E, 0x57, 0x16, 0x37, 0x42, 0xBC, 0xA1, 0xEE, 0xF0, 0xB8, 0x6A, 0xBA, 0xD5, 0x01, 0xD8, 0x17, 0xEC, 0xDC, 0x0A, 0x2C, 0x33, 0x0F, 0x2B, 0xF0, 0xEC, 0xF0, 0x16, 0xF9, 0xF2, 0xE6, 0xF8, 0x14, 0xDD, 0x2B, 0xEF, 0xE1, 0xF6, 0xDC, 0x03, 0x03, 0xDD, 0x28, 0xFC, 0xFB, 0x23, 0xCD, 0xE9, 0x24, 0xF0, 0x11, 0x81, 0xE4, 0xCA, 0x20, 0x07, 0xD3, 0x0F, 0xE6, 0xF8, 0xF8, 0xE1, 0x00, 0xCE, 0xCD, 0xD0, 0x24, 0xCD, 0xD1, 0x04, 0xC8, 0xD1, 0x1C, 0x1D, 0xDB, 0xD5, 0x10, 0x0B, 0x22, 0x16, 0x01, 0xFF, 0x31, 0x10, 0xF1, 0x13, 0x38, 0x54, 0xAB, 0x19, 0x4E, 0x0B, 0xB1, 0x12, 0xB6, 0xB4, 0x27, 0xCE, 0x33, 0xD0, 0xAD, 0x47, 0xE2, 0xF2, 0x18, 0x2B, 0xFD, 0xDE, 0x2B, 0xF7, 0xE9, 0xAC, 0x55, 0x3F, 0xC9, 0x3E, 0x41, 0x46, 0xBE, 0xF7, 0x18, 0xAC, 0x26, 0x81, 0xCF, 0xD0, 0xA5, 0xE1, 0xB8, 0xA6, 0xE7, 0x25, 0xAA, 0x2E, 0x5E, 0x5E, 0x2D, 0xE9, 0x45, 0x1D, 0x18, 0xCE, 0xE3, 0x59, 0x29, 0x5D, 0xF4, 0xE9, 0x24, 0x1B, 0x38, 0x4F, 0x02, 0x12, 0xA5, 0x15, 0xC5, 0xD4, 0xC4, 0x15, 0x95, 0x02, 0x9E, 0x2C, 0x99, 0xB9, 0x0B, 0xFA, 0xBA, 0x9C, 0x5E, 0x51, 0xB7, 0x54, 0x64, 0x6B, 0xE6, 0xA2, 0xC4, 0x3D, 0x96, 0xFC, 0x37, 0x36, 0x12, 0x9B, 0x40, 0x3B, 0x98, 0x81, 0x0B, 0x5E, 0x56, 0xF7, 0x75, 0x9C, 0xE2, 0x35, 0x3D, 0xDB, 0x64, 0xDE, 0x57, 0x5E, 0xB6, 0x39, 0xB3, 0x3F, 0x4C, 0x27, 0x09, 0x54, 0xB0, 0x6C, 0x9A, 0xFC, 0xA9, 0xAA, 0x1E, 0xBA, 0xAC, 0xCC, 0x4F, 0x95, 0x3E, 0x4E, 0x23, 0x60, 0xE9, 0xE6, 0x66, 0xA0, 0x60, 0x21, 0xED, 0xB2, 0x74, 0xB5, 0x7F, 0xB7, 0xA5, 0x5D, 0x87, 0x21, 0x47, 0xF4, 0x73, 0x86, 0xDE, 0x6A, 0xC2, 0x65, 0x02, 0xD3, 0xA8, 0x25, 0xFD, 0x5A, 0xE3, 0xF0, 0x08, 0xAA, 0x90, 0xBB, 0x09, 0x23, 0x94, 0xAE, 0xB8, 0xAE, 0x4A, 0x91, 0xE1, 0x15, 0x70, 0xF6, 0x78, 0x71, 0xEA, 0x24, 0x88, 0x44, 0xBC, 0xB2, 0xDF, 0x04, 0x0F, 0xD3, 0x9C, 0x41, 0x7E, 0x6A, 0xDB, 0x24, 0xB9, 0xF9, 0x5C, 0x96, 0x94, 0xDA, 0x93, 0xB1, 0xCD, 0x83, 0x21, 0x86, 0xFD, 0x23, 0x84, 0x19, 0xAD, 0x50, 0x10, 0x20, 0xD0, 0xA4, 0xB2, 0xE8, 0x3C, 0x89, 0xE1, 0xF4, 0x36, 0x85, 0x85, 0x69, 0xFC, 0x0F, 0x69, 0xA7, 0xCD, 0x82, 0xCA, 0x91, 0xB7, 0x6B, 0x3B, 0xE4, 0x09, 0xC7, 0xBD, 0x06, 0x29, 0x89, 0x55, 0x8F, 0x88, 0x66, 0x71, 0x59, 0xB1, 0x5E, 0x18, 0x24, 0x6D, 0xC5, 0xED, 0x0F, 0x01, 0x60, 0x3A, 0x00, 0xE6, 0xA1, 0x9A, 0x81, 0x08, 0x69, 0x23, 0xA4, 0xED, 0x5A, 0x8B, 0xCD, 0x29, 0xB0, 0x0F, 0x38, 0xFE, 0xEE, 0xBD, 0xBB, 0xBD, 0x07, 0x29, 0x59, 0x52, 0xFF, 0x0E, 0xB6, 0xF1, 0xA9, 0xBD, 0x45, 0x0C, 0x2B, 0xA9, 0x08, 0xD2, 0x18, 0x0F, 0x27, 0xE9, 0xCC, 0x39, 0x0B, 0xA3, 0x81, 0xB3, 0xB9, 0x47, 0x0A, 0x1B, 0xA8, 0xAD, 0x1D, 0xC5, 0x0A, 0xE2, 0xED, 0xE8, 0xB1, 0xED, 0xD7, 0xD4, 0x02, 0xC3, 0x48, 0x4B, 0xE6, 0x3A, 0xEE, 0xE7, 0x5B, 0x3A, 0x55, 0x56, 0x0A, 0xAA, 0xBB, 0x5B, 0x1F, 0x1F, 0xF7, 0xE1, 0x24, 0xD9, 0xCA, 0x39, 0x06, 0x1E, 0xA5, 0xD5, 0xC6, 0x33, 0x28, 0xA3, 0x26, 0xD6, 0x34, 0xB9, 0xE5, 0x22, 0x5E, 0x1A, 0xFA, 0xF9, 0x0B, 0x34, 0xC2, 0xD4, 0x5A, 0xE2, 0x2A, 0x00, 0xEC, 0x63, 0xAE, 0xA4, 0x3E, 0x81, 0x28, 0x0A, 0xFB, 0x34, 0x00, 0x4E, 0x04, 0xA4, 0xFF, 0xB8, 0x04, 0x2F, 0x10, 0x41, 0xBA, 0xD1, 0xEE, 0x04, 0xF7, 0xED, 0x38, 0xE6, 0xC1, 0xE8, 0x41, 0x5F, 0xC0, 0xAE, 0xCF, 0xC4, 0x46, 0xA7, 0x4E, 0xEF, 0x2F, 0xB5, 0xA1, 0x30, 0x4E, 0xAC, 0xA5, 0x28, 0x55, 0xA6, 0xE0, 0xDD, 0x99, 0x2C, 0xCA, 0x26, 0xAB, 0xC4, 0x2F, 0x56, 0x77, 0x0D, 0xB1, 0x37, 0x3E, 0xC0, 0x06, 0xF5, 0x29, 0xDB, 0x22, 0x5B, 0x64, 0x81, 0xC9, 0x35, 0x68, 0x0E, 0x18, 0xDF, 0x7B, 0x96, 0x75, 0xB9, 0xBD, 0xA5, 0x82, 0x67, 0x14, 0xF6, 0xA3, 0xBF, 0xCF, 0xF6, 0x45, 0x67, 0x0D, 0x1A, 0xCD, 0x72, 0x0F, 0x02, 0xFE, 0x0E, 0x7A, 0x69, 0xDB, 0xC5, 0x96, 0xA6, 0xC8, 0xB7, 0x0B, 0x48, 0x22, 0x05, 0xC5, 0xA3, 0xEF, 0x1C, 0x1B, 0x3F, 0xA5, 0x0D, 0x21, 0xB7, 0x14, 0xE3, 0x39, 0x02, 0xB5, 0xF9, 0x36, 0x0F, 0x42, 0x61, 0x09, 0xE8, 0x9F, 0x29, 0x5E, 0xF0, 0x53, 0x18, 0x34, 0x19, 0x18, 0x1E, 0xAD, 0xC8, 0x81, 0x0E, 0xD1, 0x4F, 0x49, 0xD4, 0x44, 0xAA, 0xB4, 0xDC, 0x35, 0x20, 0x0D, 0x50, 0xD0, 0xD4, 0x47, 0x4B, 0xD7, 0x1D, 0x02, 0xA9, 0xCA, 0xD2, 0x11, 0x1D, 0xEE, 0xB7, 0x28, 0x29, 0x44, 0xB0, 0x52, 0x40, 0x46, 0x32, 0xA6, 0x28, 0xF2, 0x2C, 0x93, 0xDC, 0x4E, 0x0B, 0x1E, 0xAA, 0x9A, 0xF8, 0x59, 0x31, 0x44, 0xB0, 0x2B, 0xFB, 0x25, 0xB8, 0x22, 0x43, 0xFF, 0x6B, 0xDE, 0x30, 0x2A, 0xBE, 0xE2, 0xF9, 0x2D, 0x3D, 0xF0, 0x8A, 0xB9, 0x7E, 0x2C, 0x7F, 0x22, 0xDD, 0x0B, 0x9A, 0x0C, 0x0F, 0x04, 0x20, 0x16, 0x2D, 0x0F, 0xE8, 0xA3, 0xA4, 0xFB, 0x6A, 0x0B, 0x20, 0xFE, 0xD5, 0xDA, 0x2A, 0x9E, 0xC1, 0xCA, 0x12, 0x50, 0x9B, 0x47, 0x0D, 0x49, 0x00, 0x10, 0xFE, 0xC8, 0x1A, 0xFF, 0x47, 0x8A, 0xD1, 0x73, 0x71, 0x09, 0x49, 0x2D, 0x6C, 0x24, 0x3F, 0x28, 0x21, 0x4A, 0x73, 0x0A, 0x88, 0xD2, 0x97, 0x65, 0x1A, 0x30, 0x40, 0xF3, 0x0F, 0xB1, 0xA7, 0x9A, 0xE5, 0xF1, 0x61, 0x3B, 0xE4, 0x1F, 0xCF, 0x2C, 0x17, 0x9E, 0xA0, 0x0C, 0x59, 0xC9, 0x7B, 0xED, 0xD5, 0x5C, 0x30, 0x7A, 0x40, 0xF5, 0x9F, 0x67, 0x68, 0xA0, 0x22, 0x49, 0x36, 0xCF, 0x75, 0x5F, 0x13, 0x30, 0x66, 0x82, 0x97, 0x81, 0xA2, 0x0F, 0x4F, 0x1E, 0xE2, 0xF5, 0x48, 0x52, 0x2E, 0xE0, 0xC3, 0x01, 0xD3, 0xAE, 0x32, 0xD0, 0xD3, 0xCA, 0x55, 0xBC, 0xB4, 0x0B, 0xB3, 0x0A, 0x4B, 0xC3, 0xDD, 0xBC, 0xB6, 0x51, 0xB2, 0xDB, 0xFE, 0xB5, 0xF0, 0xF7, 0xC1, 0x3A, 0xCD, 0x45, 0x22, 0xD4, 0x81, 0x0F, 0xE2, 0x0D, 0x2F, 0x38, 0xFD, 0xF8, 0x3D, 0xC6, 0x48, 0x1D, 0x4A, 0x06, 0x30, 0xCE, 0x13, 0xB3, 0x23, 0x15, 0x39, 0xB0, 0x1C, 0x1B, 0xAC, 0xCE, 0xBB, 0x4E, 0x0C, 0xC2, 0xC6, 0x25, 0xDB, 0x52, 0xED, 0xFF, 0xFF, 0x00, 0x00, 0x00, 0x09, 0x10, 0x00, 0x00, 0x00, 0x0C, 0x00, 0x00, 0x00, 0x1C, 0x00, 0x00, 0x00, 0x8C, 0x00, 0x00, 0x00, 0x04, 0x00, 0x00, 0x00, 0x10, 0x00, 0x00, 0x00, 0x03, 0x00, 0x00, 0x00, 0x03, 0x00, 0x00, 0x00, 0x08, 0x00, 0x00, 0x00, 0x6F, 0x00, 0x00, 0x00, 0x73, 0x65, 0x71, 0x75, 0x65, 0x6E, 0x74, 0x69, 0x61, 0x6C, 0x5F, 0x31, 0x2F, 0x71, 0x75, 0x61, 0x6E, 0x74, 0x5F, 0x63, 0x6F, 0x6E, 0x76, 0x32, 0x64, 0x5F, 0x34, 0x2F, 0x43, 0x6F, 0x6E, 0x76, 0x32, 0x44, 0x3B, 0x73, 0x65, 0x71, 0x75, 0x65, 0x6E, 0x74, 0x69, 0x61, 0x6C, 0x5F, 0x31, 0x2F, 0x71, 0x75, 0x61, 0x6E, 0x74, 0x5F, 0x63, 0x6F, 0x6E, 0x76, 0x32, 0x64, 0x5F, 0x34, 0x2F, 0x4C, 0x61, 0x73, 0x74, 0x56, 0x61, 0x6C, 0x75, 0x65, 0x51, 0x75, 0x61, 0x6E, 0x74, 0x2F, 0x46, 0x61, 0x6B, 0x65, 0x51, 0x75, 0x61, 0x6E, 0x74, 0x57, 0x69, 0x74, 0x68, 0x4D, 0x69, 0x6E, 0x4D, 0x61, 0x78, 0x56, 0x61, 0x72, 0x73, 0x50, 0x65, 0x72, 0x43, 0x68, 0x61, 0x6E, 0x6E, 0x65, 0x6C, 0x00, 0xB4, 0xEF, 0xFF, 0xFF, 0x08, 0x00, 0x00, 0x00, 0x48, 0x00, 0x00, 0x00, 0x10, 0x00, 0x00, 0x00, 0xE0, 0x3C, 0xBF, 0x3A, 0x92, 0xE7, 0xA6, 0x3A, 0x3F, 0xE6, 0xAA, 0x3A, 0xD3, 0x76, 0xAF, 0x3A, 0x67, 0x51, 0x3A, 0x3B, 0x48, 0xA6, 0xE6, 0x3A, 0xA2, 0xEC, 0xC6, 0x3A, 0xD5, 0x8F, 0xAA, 0x3A, 0xD2, 0xB0, 0xAB, 0x3A, 0xEA, 0x66, 0xEB, 0x3A, 0xCD, 0x97, 0xDC, 0x3A, 0xA9, 0x1C, 0xA9, 0x3A, 0xE4, 0x0C, 0xDD, 0x3A, 0x76, 0xA1, 0xC6, 0x3A, 0x43, 0xC1, 0xA8, 0x3A, 0x7C, 0x5B, 0xFD, 0x3A, 0x10, 0x00, 0x00, 0x00, 0x00, 0x00, 0x00, 0x00, 0x00, 0x00, 0x00, 0x00, 0x00, 0x00, 0x00, 0x00, 0x00, 0x00, 0x00, 0x00, 0x00, 0x00, 0x00, 0x00, 0x00, 0x00, 0x00, 0x00, 0x00, 0x00, 0x00, 0x00, 0x00, 0x00, 0x00, 0x00, 0x00, 0x00, 0x00, 0x00, 0x00, 0x00, 0x00, 0x00, 0x00, 0x00, 0x00, 0x00, 0x00, 0x00, 0x00, 0x00, 0x00, 0x00, 0x00, 0x00, 0x00, 0x00, 0x00, 0x00, 0x00, 0x00, 0x00, 0x00, 0x00, 0x00, 0x00, 0x00, 0x00, 0x00, 0x00, 0x00, 0x00, 0x00, 0x00, 0x00, 0x00, 0x00, 0x00, 0x00, 0x00, 0x00, 0x00, 0x00, 0x00, 0x00, 0x00, 0x00, 0x00, 0x00, 0x00, 0x00, 0x00, 0x00, 0x00, 0x00, 0x00, 0x00, 0x00, 0x00, 0x00, 0x00, 0x00, 0x00, 0x00, 0x00, 0x00, 0x00, 0x00, 0x00, 0x00, 0x00, 0x00, 0x00, 0x00, 0x00, 0x00, 0x00, 0x00, 0x00, 0x00, 0x00, 0x00, 0x00, 0x00, 0x00, 0x00, 0x00, 0x00, 0x00, 0x00, 0x00, 0x00, 0x00, 0x0E, 0x00, 0x1A, 0x00, 0x08, 0x00, 0x0C, 0x00, 0x10, 0x00, 0x07, 0x00, 0x14, 0x00, 0x0E, 0x00, 0x00, 0x00, 0x00, 0x00, 0x00, 0x05, 0x02, 0x00, 0x00, 0x00, 0x38, 0x00, 0x00, 0x00, 0x2C, 0x00, 0x00, 0x00, 0x14, 0x00, 0x00, 0x00, 0x00, 0x00, 0x0E, 0x00, 0x14, 0x00, 0x00, 0x00, 0x10, 0x00, 0x0C, 0x00, 0x08, 0x00, 0x04, 0x00, 0x0E, 0x00, 0x00, 0x00, 0x03, 0x00, 0x00, 0x00, 0x03, 0x00, 0x00, 0x00, 0x02, 0x00, 0x00, 0x00, 0x02, 0x00, 0x00, 0x00, 0x01, 0x00, 0x00, 0x00, 0x0A, 0x00, 0x00, 0x00, 0x01, 0x00, 0x00, 0x00, 0x09, 0x00, 0x00, 0x00, 0x18, 0xF8, 0xFF, 0xFF, 0x11, 0x00, 0x00, 0x00, 0x00, 0x00, 0x00, 0x11, 0x02, 0x00, 0x00, 0x00, 0x0C, 0xF8, 0xFF, 0xFF, 0x00, 0x00, 0x00, 0x09, 0x14, 0x00, 0x00, 0x00, 0x0B, 0x00, 0x00, 0x00, 0x34, 0x00, 0x00, 0x00, 0x60, 0x00, 0x00, 0x00, 0x18, 0x00, 0x00, 0x00, 0x04, 0x00, 0x00, 0x00, 0x01, 0x00, 0x00, 0x00, 0x01, 0x00, 0x00, 0x00, 0x01, 0x00, 0x00, 0x00, 0x08, 0x00, 0x00, 0x00, 0x04, 0x00, 0x00, 0x00, 0xFF, 0xFF, 0xFF, 0xFF, 0x01, 0x00, 0x00, 0x00, 0x01, 0x00, 0x00, 0x00, 0x08, 0x00, 0x00, 0x00, 0x2A, 0x00, 0x00, 0x00, 0x73, 0x65, 0x71, 0x75, 0x65, 0x6E, 0x74, 0x69, 0x61, 0x6C, 0x5F, 0x31, 0x2F, 0x71, 0x75, 0x61, 0x6E, 0x74, 0x5F, 0x6D, 0x61, 0x78, 0x5F, 0x70, 0x6F, 0x6F, 0x6C, 0x69, 0x6E, 0x67, 0x32, 0x64, 0x5F, 0x33, 0x2F, 0x4D, 0x61, 0x78, 0x50, 0x6F, 0x6F, 0x6C, 0x00, 0x00, 0x68, 0xF1, 0xFF, 0xFF, 0x08, 0x00, 0x00, 0x00, 0x0C, 0x00, 0x00, 0x00, 0x01, 0x00, 0x00, 0x00, 0x0D, 0x8E, 0x87, 0x3F, 0x01, 0x00, 0x00, 0x00, 0x80, 0xFF, 0xFF, 0xFF, 0xFF, 0xFF, 0xFF, 0xFF, 0x00, 0x00, 0x0E, 0x00, 0x18, 0x00, 0x08, 0x00, 0x0C, 0x00, 0x10, 0x00, 0x07, 0x00, 0x14, 0x00, 0x0E, 0x00, 0x00, 0x00, 0x00, 0x00, 0x00, 0x01, 0x01, 0x00, 0x00, 0x00, 0x30, 0x00, 0x00, 0x00, 0x24, 0x00, 0x00, 0x00, 0x10, 0x00, 0x00, 0x00, 0x0C, 0x00, 0x10, 0x00, 0x00, 0x00, 0x04, 0x00, 0x08, 0x00, 0x0F, 0x00, 0x0C, 0x00, 0x00, 0x00, 0x01, 0x00, 0x00, 0x00, 0x01, 0x00, 0x00, 0x00, 0x00, 0x00, 0x00, 0x01, 0x01, 0x00, 0x00, 0x00, 0x09, 0x00, 0x00, 0x00, 0x03, 0x00, 0x00, 0x00, 0x07, 0x00, 0x00, 0x00, 0x08, 0x00, 0x00, 0x00, 0x04, 0x00, 0x00, 0x00, 0x18, 0xF9, 0xFF, 0xFF, 0x03, 0x00, 0x00, 0x00, 0x00, 0x00, 0x00, 0x03, 0x03, 0x00, 0x00, 0x00, 0x0C, 0xF9, 0xFF, 0xFF, 0x00, 0x00, 0x00, 0x09, 0x14, 0x00, 0x00, 0x00, 0x0A, 0x00, 0x00, 0x00, 0x34, 0x00, 0x00, 0x00, 0xD8, 0x00, 0x00, 0x00, 0x18, 0x00, 0x00, 0x00, 0x04, 0x00, 0x00, 0x00, 0x01, 0x00, 0x00, 0x00, 0x01, 0x00, 0x00, 0x00, 0x01, 0x00, 0x00, 0x00, 0x08, 0x00, 0x00, 0x00, 0x04, 0x00, 0x00, 0x00, 0xFF, 0xFF, 0xFF, 0xFF, 0x01, 0x00, 0x00, 0x00, 0x01, 0x00, 0x00, 0x00, 0x08, 0x00, 0x00, 0x00, 0xA3, 0x00, 0x00, 0x00, 0x73, 0x65, 0x71, 0x75, 0x65, 0x6E, 0x74, 0x69, 0x61, 0x6C, 0x5F, 0x31, 0x2F, 0x71, 0x75, 0x61, 0x6E, 0x74, 0x5F, 0x63, 0x6F, 0x6E, 0x76, 0x32, 0x64, 0x5F, 0x33, 0x2F, 0x52, 0x65, 0x6C, 0x75, 0x3B, 0x73, 0x65, 0x71, 0x75, 0x65, 0x6E, 0x74, 0x69, 0x61, 0x6C, 0x5F, 0x31, 0x2F, 0x71, 0x75, 0x61, 0x6E, 0x74, 0x5F, 0x63, 0x6F, 0x6E, 0x76, 0x32, 0x64, 0x5F, 0x33, 0x2F, 0x42, 0x69, 0x61, 0x73, 0x41, 0x64, 0x64, 0x3B, 0x73, 0x65, 0x71, 0x75, 0x65, 0x6E, 0x74, 0x69, 0x61, 0x6C, 0x5F, 0x31, 0x2F, 0x71, 0x75, 0x61, 0x6E, 0x74, 0x5F, 0x63, 0x6F, 0x6E, 0x76, 0x32, 0x64, 0x5F, 0x33, 0x2F, 0x43, 0x6F, 0x6E, 0x76, 0x32, 0x44, 0x3B, 0x73, 0x65, 0x71, 0x75, 0x65, 0x6E, 0x74, 0x69, 0x61, 0x6C, 0x5F, 0x31, 0x2F, 0x71, 0x75, 0x61, 0x6E, 0x74, 0x5F, 0x63, 0x6F, 0x6E, 0x76, 0x32, 0x64, 0x5F, 0x33, 0x2F, 0x42, 0x69, 0x61, 0x73, 0x41, 0x64, 0x64, 0x2F, 0x52, 0x65, 0x61, 0x64, 0x56, 0x61, 0x72, 0x69, 0x61, 0x62, 0x6C, 0x65, 0x4F, 0x70, 0x2F, 0x72, 0x65, 0x73, 0x6F, 0x75, 0x72, 0x63, 0x65, 0x00, 0xE0, 0xF2, 0xFF, 0xFF, 0x08, 0x00, 0x00, 0x00, 0x0C, 0x00, 0x00, 0x00, 0x01, 0x00, 0x00, 0x00, 0x0D, 0x8E, 0x87, 0x3F, 0x01, 0x00, 0x00, 0x00, 0x80, 0xFF, 0xFF, 0xFF, 0xFF, 0xFF, 0xFF, 0xFF, 0x5A, 0xF1, 0xFF, 0xFF, 0x04, 0x00, 0x00, 0x00, 0x80, 0x04, 0x00, 0x00, 0xDF, 0xD3, 0xDB, 0xD2, 0xCF, 0x01, 0xE5, 0x1F, 0xE5, 0xF7, 0xF6, 0x29, 0xD9, 0xD7, 0x07, 0xE6, 0x15, 0x33, 0xCE, 0x12, 0x2D, 0x21, 0x0C, 0xE0, 0x06, 0xED, 0x2C, 0xFE, 0xF9, 0xE0, 0xF6, 0x26, 0xEC, 0xFD, 0x2D, 0x0B, 0xF4, 0xF5, 0xDB, 0xEC, 0x29, 0x1D, 0xFA, 0xD0, 0xED, 0x0F, 0xCC, 0x17, 0x0B, 0x0F, 0x29, 0xE2, 0x29, 0xE6, 0x28, 0x1C, 0xE9, 0xEE, 0x2A, 0xCB, 0x07, 0x29, 0x26, 0xD5, 0xEF, 0x34, 0x12, 0x0B, 0xF2, 0x08, 0x22, 0xFE, 0x0E, 0x0A, 0xB1, 0x81, 0xAF, 0xA8, 0x1D, 0x08, 0xF0, 0xD3, 0xE6, 0x21, 0xE0, 0xD8, 0x2E, 0xD2, 0xF8, 0xFD, 0xE0, 0xEE, 0xDB, 0xF5, 0xDB, 0xE7, 0x0D, 0x2D, 0xDC, 0xD1, 0xCB, 0x32, 0xD4, 0xF1, 0xF2, 0xE0, 0x26, 0xED, 0xF6, 0xF1, 0x05, 0xE2, 0x05, 0x25, 0xFF, 0xE4, 0xE5, 0xCD, 0xE9, 0x0F, 0x33, 0x11, 0x10, 0xFA, 0xE3, 0xF7, 0x14, 0xD9, 0xCC, 0x02, 0x31, 0x28, 0x14, 0x0B, 0x34, 0x06, 0xDC, 0xEE, 0xD4, 0x2C, 0x31, 0x1D, 0x30, 0x27, 0x4A, 0x50, 0x98, 0x45, 0x5B, 0x48, 0x11, 0x54, 0xD0, 0xA2, 0x31, 0x02, 0x28, 0xE2, 0x3E, 0x00, 0x00, 0x0A, 0x34, 0xCF, 0x19, 0x67, 0x37, 0x3B, 0x64, 0x48, 0xEF, 0x2F, 0xAC, 0xD9, 0x2B, 0x9B, 0xCE, 0xD8, 0x14, 0x5E, 0xE6, 0xBB, 0x4A, 0xBC, 0xAC, 0xB4, 0xCC, 0xF5, 0x36, 0x21, 0xD1, 0xA3, 0x30, 0x26, 0x3E, 0xCE, 0xAD, 0x39, 0x21, 0x46, 0xE3, 0x1A, 0x56, 0x50, 0x28, 0x04, 0x07, 0x4D, 0xC9, 0x42, 0xD4, 0x06, 0x24, 0x30, 0xF7, 0xE5, 0xDF, 0x7E, 0x7F, 0xDF, 0xC9, 0x94, 0xE2, 0x86, 0xDC, 0x30, 0x13, 0xEB, 0x3C, 0xAD, 0xB1, 0x20, 0x99, 0x09, 0xD9, 0xA7, 0x31, 0xE8, 0x9C, 0x17, 0x55, 0xD9, 0x26, 0xD7, 0xA4, 0x4C, 0x2A, 0x2D, 0xDD, 0xD5, 0x9D, 0x3E, 0x2B, 0x52, 0xEE, 0x15, 0x54, 0x25, 0xB9, 0x2A, 0x4B, 0xCF, 0xAA, 0x42, 0xBC, 0xE0, 0xC4, 0xEB, 0xCD, 0xAB, 0xE4, 0x49, 0x08, 0xD8, 0x9E, 0x46, 0x20, 0x10, 0xC3, 0xF1, 0xAF, 0xAB, 0x4E, 0x10, 0x2C, 0xC7, 0xE4, 0x06, 0xEE, 0xFB, 0x4B, 0x3A, 0xC2, 0xC5, 0xB4, 0x2A, 0x16, 0x75, 0x19, 0x58, 0x7A, 0x92, 0xB3, 0x0A, 0x89, 0xDB, 0x76, 0x55, 0x81, 0xF3, 0xD0, 0x7B, 0x1B, 0x81, 0x11, 0xEE, 0x13, 0x1D, 0xE3, 0x6E, 0x0D, 0x6B, 0x5B, 0x14, 0x70, 0xB5, 0xDB, 0x7B, 0x03, 0x3B, 0x8D, 0x0B, 0x9A, 0xC4, 0xA0, 0x40, 0x18, 0x1B, 0x88, 0x04, 0x16, 0x1B, 0x33, 0x86, 0xE6, 0xF0, 0xB6, 0xF7, 0x12, 0xDA, 0x14, 0x4F, 0xDD, 0x04, 0x53, 0xDE, 0xA6, 0x1A, 0x66, 0xEB, 0xAE, 0xEB, 0x4E, 0x1C, 0xB5, 0xB3, 0x0A, 0x0F, 0x13, 0x8B, 0xF7, 0xA4, 0x8D, 0xB7, 0xBE, 0x2B, 0xBE, 0x54, 0x65, 0x51, 0xF3, 0x13, 0xC8, 0x34, 0x7C, 0x16, 0xC8, 0xA8, 0x57, 0x02, 0x2D, 0xFE, 0x0B, 0x49, 0xF4, 0x0C, 0xDE, 0x9F, 0x5A, 0xA8, 0x84, 0xF3, 0x05, 0xF8, 0x1B, 0x44, 0x6F, 0xD5, 0x1C, 0xC5, 0x54, 0xE4, 0x57, 0x95, 0x35, 0x6F, 0xD6, 0xBD, 0x90, 0xF5, 0x34, 0x2A, 0xAA, 0x2F, 0x53, 0x6E, 0x55, 0x09, 0x07, 0x86, 0x24, 0xFE, 0x13, 0x3F, 0x5D, 0x4B, 0x05, 0x85, 0xFF, 0x75, 0xC2, 0xCE, 0xC8, 0xA8, 0x67, 0x6B, 0xE1, 0xD3, 0x2C, 0x3D, 0xD5, 0x58, 0x8E, 0x93, 0x6E, 0x4F, 0xCC, 0xD8, 0xAC, 0x0C, 0x50, 0x1F, 0x04, 0xBF, 0xDC, 0x7F, 0x23, 0xDA, 0xC0, 0xFC, 0x86, 0x16, 0x29, 0xD3, 0xDE, 0xE5, 0x43, 0x1B, 0x65, 0xD8, 0xD1, 0x4D, 0xD1, 0xAF, 0xA2, 0xE6, 0xC2, 0x6B, 0x38, 0x68, 0x39, 0xC7, 0x59, 0x0B, 0xDC, 0x13, 0xDB, 0x7B, 0xD9, 0xDF, 0x4F, 0x5F, 0x0D, 0x99, 0xB3, 0xA7, 0xE9, 0x1A, 0x5A, 0x95, 0xB0, 0xDE, 0x7A, 0x9D, 0x94, 0xE6, 0xEF, 0x1D, 0x4E, 0x71, 0xE1, 0xE4, 0xC4, 0x7D, 0x9D, 0x49, 0x53, 0x91, 0xD8, 0x3E, 0x00, 0x5F, 0x60, 0x6E, 0x79, 0xC3, 0xA7, 0xA4, 0x72, 0xEB, 0x3F, 0xCC, 0x21, 0xD5, 0xF2, 0x93, 0xE5, 0x5F, 0x20, 0xD8, 0x07, 0x69, 0x0C, 0x40, 0x8A, 0x64, 0xA0, 0x5E, 0xCE, 0x0A, 0x07, 0xE5, 0x4C, 0x09, 0x95, 0x83, 0x21, 0xF3, 0x72, 0x8B, 0x15, 0x22, 0xEA, 0x25, 0x78, 0x66, 0x1A, 0xBF, 0x1F, 0x56, 0x2C, 0x55, 0x31, 0x5F, 0x0B, 0x53, 0x07, 0xC2, 0xC5, 0x16, 0xEC, 0x2D, 0x03, 0xA7, 0xCC, 0x0F, 0x58, 0x58, 0xC9, 0x39, 0x23, 0xFB, 0xE8, 0x3C, 0xC7, 0xD4, 0xA6, 0x51, 0xE7, 0x04, 0xD2, 0x40, 0xF9, 0x06, 0xD9, 0x38, 0xA3, 0x50, 0xD9, 0x17, 0x12, 0x42, 0x31, 0x16, 0xA2, 0x5E, 0xE9, 0xC3, 0x3F, 0xE6, 0x58, 0x09, 0x4B, 0xEA, 0xC9, 0x2B, 0xCA, 0x4F, 0x25, 0x0C, 0x37, 0xDD, 0x2A, 0x6D, 0x0D, 0x81, 0xF6, 0xEE, 0x36, 0xE9, 0x01, 0x0C, 0xA5, 0x49, 0xB9, 0x35, 0xE8, 0xB8, 0x2B, 0x5D, 0x54, 0x5C, 0x49, 0xBB, 0x50, 0x5F, 0x99, 0x9B, 0x0F, 0xE1, 0x24, 0x4C, 0xFD, 0x0C, 0x03, 0x38, 0xEB, 0xFB, 0x9D, 0xA6, 0x19, 0xFE, 0xCD, 0x13, 0xA7, 0xFF, 0x00, 0x1F, 0x43, 0xF4, 0xB6, 0x43, 0x1A, 0x9C, 0x62, 0xE3, 0xA6, 0x1E, 0x2E, 0x43, 0xBC, 0x12, 0xD8, 0x30, 0x02, 0xBF, 0x5F, 0x60, 0xCA, 0xBD, 0x1E, 0xD2, 0xA0, 0x36, 0x0B, 0xE6, 0xFF, 0x0E, 0x3B, 0xB7, 0xE8, 0x08, 0xD9, 0xD0, 0x14, 0xB5, 0x30, 0x3E, 0x40, 0x2A, 0x10, 0xFD, 0x3A, 0x17, 0xE5, 0x39, 0xC4, 0x26, 0xE2, 0xC5, 0x4A, 0xD8, 0xBD, 0xBD, 0x41, 0x0D, 0xCE, 0xBF, 0x3A, 0xE1, 0x3A, 0xE1, 0x2F, 0xBD, 0x26, 0x22, 0x1E, 0xCB, 0x27, 0xE5, 0x11, 0xB7, 0x0F, 0x12, 0xDB, 0xF2, 0x2F, 0xC5, 0xBE, 0x0D, 0x37, 0x23, 0x36, 0x18, 0xF9, 0x43, 0xF5, 0xF5, 0xCE, 0xE5, 0xB6, 0x1A, 0xC4, 0x36, 0xE8, 0x02, 0xAD, 0xD1, 0x0E, 0xB9, 0xD3, 0x4A, 0xC2, 0xAD, 0x81, 0xCC, 0x4C, 0xD8, 0x05, 0x21, 0x2D, 0xF1, 0xE2, 0xFA, 0x17, 0xC1, 0x22, 0xE1, 0x2E, 0xE7, 0xF6, 0xD8, 0xB6, 0x2D, 0xF2, 0x10, 0xEE, 0x2D, 0xFE, 0xE9, 0x47, 0x0A, 0x39, 0x1D, 0x29, 0xB4, 0x2B, 0xFA, 0xE9, 0xE2, 0x4B, 0xE3, 0x51, 0xEE, 0x19, 0xCB, 0x26, 0x43, 0xDE, 0xEF, 0x33, 0x35, 0x4E, 0xFD, 0x0F, 0x1D, 0x34, 0x31, 0x3D, 0x2E, 0xCE, 0xEE, 0xAF, 0x25, 0xF3, 0xE8, 0xC4, 0xEE, 0x1A, 0x3D, 0x37, 0xDB, 0xF9, 0x11, 0x44, 0xD7, 0xE6, 0xC0, 0xD3, 0xDA, 0xA1, 0x11, 0xB2, 0xE7, 0x4D, 0xF4, 0xD2, 0x2A, 0x31, 0x3D, 0x58, 0xF2, 0x38, 0x57, 0xB9, 0xD6, 0xA9, 0xE0, 0xE8, 0xF4, 0xF0, 0xC5, 0x5A, 0xF1, 0x49, 0x50, 0xC4, 0xF3, 0xD4, 0x1E, 0x43, 0x13, 0x44, 0x26, 0x24, 0xD0, 0xDE, 0x63, 0xAF, 0x5E, 0x47, 0xAA, 0xD4, 0x5F, 0xCD, 0xE7, 0x9A, 0x28, 0x2F, 0x09, 0x0E, 0xEF, 0xF4, 0xA3, 0xC5, 0x53, 0xAF, 0x40, 0xA5, 0x7F, 0xF2, 0x34, 0xCC, 0xC4, 0xB5, 0x14, 0x02, 0x56, 0x00, 0x87, 0xEA, 0x09, 0x28, 0x3A, 0x08, 0xEA, 0x1C, 0x27, 0xD6, 0xDB, 0x29, 0x38, 0xF1, 0x5B, 0x50, 0xF3, 0x37, 0xF8, 0xAC, 0xD1, 0x55, 0x9D, 0x0A, 0xEB, 0xFE, 0x2E, 0xEE, 0x40, 0xD7, 0x34, 0xAA, 0x17, 0xE0, 0x2E, 0x23, 0x0D, 0xB0, 0x4C, 0x5E, 0xD1, 0xA7, 0x9A, 0x12, 0x9F, 0xF8, 0xFE, 0x5C, 0xDD, 0xF8, 0xF9, 0xC7, 0x64, 0x1A, 0x2A, 0xC2, 0xDB, 0x54, 0x63, 0xC1, 0xB1, 0xA0, 0xF4, 0xAE, 0x4F, 0xDD, 0x02, 0x0D, 0xF3, 0xC5, 0x16, 0x00, 0x37, 0xDD, 0xFD, 0x24, 0xBF, 0xF9, 0xFC, 0x22, 0x23, 0xC8, 0x2B, 0x0A, 0x26, 0x06, 0xDD, 0xCF, 0x14, 0x05, 0xEE, 0x07, 0xF8, 0x40, 0xBD, 0x19, 0x33, 0xED, 0xC8, 0xD5, 0x36, 0xD8, 0xC4, 0xD7, 0x23, 0x14, 0x22, 0x03, 0xEF, 0x07, 0x1F, 0xFD, 0x1B, 0x19, 0x14, 0xDC, 0xE3, 0xEB, 0xFD, 0xE0, 0xE2, 0xCC, 0xDB, 0x22, 0x2D, 0x15, 0xD9, 0xE0, 0xC7, 0x16, 0x1A, 0x05, 0x40, 0x17, 0x5E, 0xE2, 0xFF, 0xC5, 0x01, 0xEE, 0x35, 0x0B, 0x0C, 0x08, 0x18, 0x1E, 0xAF, 0xD8, 0x81, 0x30, 0xE5, 0x2E, 0xCE, 0x13, 0xCE, 0x11, 0xF4, 0xEC, 0xF3, 0x29, 0xC0, 0x15, 0xD9, 0xEE, 0xF7, 0xCF, 0x0B, 0xD2, 0xCD, 0xC0, 0x21, 0xFA, 0xEB, 0xDE, 0x16, 0x21, 0x22, 0xDA, 0x09, 0xEA, 0x26, 0xF1, 0xFC, 0x01, 0x2B, 0x3E, 0xFA, 0x27, 0x0F, 0xFF, 0xC5, 0x3A, 0x40, 0x3E, 0xC1, 0xCD, 0xFF, 0xE4, 0xE8, 0x29, 0xC9, 0x0E, 0xEA, 0x25, 0x3D, 0x2C, 0x28, 0x03, 0xFF, 0x20, 0xED, 0xC1, 0x11, 0xCA, 0xF5, 0xFF, 0xFF, 0x00, 0x00, 0x00, 0x09, 0x10, 0x00, 0x00, 0x00, 0x09, 0x00, 0x00, 0x00, 0x1C, 0x00, 0x00, 0x00, 0x8C, 0x00, 0x00, 0x00, 0x04, 0x00, 0x00, 0x00, 0x08, 0x00, 0x00, 0x00, 0x03, 0x00, 0x00, 0x00, 0x03, 0x00, 0x00, 0x00, 0x10, 0x00, 0x00, 0x00, 0x6F, 0x00, 0x00, 0x00, 0x73, 0x65, 0x71, 0x75, 0x65, 0x6E, 0x74, 0x69, 0x61, 0x6C, 0x5F, 0x31, 0x2F, 0x71, 0x75, 0x61, 0x6E, 0x74, 0x5F, 0x63, 0x6F, 0x6E, 0x76, 0x32, 0x64, 0x5F, 0x33, 0x2F, 0x43, 0x6F, 0x6E, 0x76, 0x32, 0x44, 0x3B, 0x73, 0x65, 0x71, 0x75, 0x65, 0x6E, 0x74, 0x69, 0x61, 0x6C, 0x5F, 0x31, 0x2F, 0x71, 0x75, 0x61, 0x6E, 0x74, 0x5F, 0x63, 0x6F, 0x6E, 0x76, 0x32, 0x64, 0x5F, 0x33, 0x2F, 0x4C, 0x61, 0x73, 0x74, 0x56, 0x61, 0x6C, 0x75, 0x65, 0x51, 0x75, 0x61, 0x6E, 0x74, 0x2F, 0x46, 0x61, 0x6B, 0x65, 0x51, 0x75, 0x61, 0x6E, 0x74, 0x57, 0x69, 0x74, 0x68, 0x4D, 0x69, 0x6E, 0x4D, 0x61, 0x78, 0x56, 0x61, 0x72, 0x73, 0x50, 0x65, 0x72, 0x43, 0x68, 0x61, 0x6E, 0x6E, 0x65, 0x6C, 0x00, 0x2C, 0xF8, 0xFF, 0xFF, 0x08, 0x00, 0x00, 0x00, 0x28, 0x00, 0x00, 0x00, 0x08, 0x00, 0x00, 0x00, 0xC2, 0x8A, 0x4D, 0x3B, 0xD5, 0x16, 0xD1, 0x3A, 0x9E, 0x81, 0xAA, 0x3A, 0xAE, 0x01, 0xAB, 0x3A, 0x3B, 0x2C, 0xD4, 0x3A, 0xC5, 0x6E, 0x07, 0x3B, 0xD2, 0x4E, 0xD6, 0x3A, 0x10, 0xDD, 0x21, 0x3B, 0x08, 0x00, 0x00, 0x00, 0x00, 0x00, 0x00, 0x00, 0x00, 0x00, 0x00, 0x00, 0x00, 0x00, 0x00, 0x00, 0x00, 0x00, 0x00, 0x00, 0x00, 0x00, 0x00, 0x00, 0x00, 0x00, 0x00, 0x00, 0x00, 0x00, 0x00, 0x00, 0x00, 0x00, 0x00, 0x00, 0x00, 0x00, 0x00, 0x00, 0x00, 0x00, 0x00, 0x00, 0x00, 0x00, 0x00, 0x00, 0x00, 0x00, 0x00, 0x00, 0x00, 0x00, 0x00, 0x00, 0x00, 0x00, 0x00, 0x00, 0x00, 0x00, 0x00, 0x00, 0x00, 0x00, 0x00, 0x00, 0x00, 0x00, 0x00, 0x00, 0x00, 0x00, 0x0A, 0x00, 0x0C, 0x00, 0x00, 0x00, 0x04, 0x00, 0x08, 0x00, 0x0A, 0x00, 0x00, 0x00, 0x10, 0x00, 0x00, 0x00, 0x04, 0x00, 0x00, 0x00, 0x01, 0x00, 0x00, 0x00, 0x07, 0x00, 0x00, 0x00, 0x01, 0x00, 0x00, 0x00, 0x00, 0x00, 0x00, 0x00, 0x0C, 0x00, 0x10, 0x00, 0x0B, 0x00, 0x00, 0x00, 0x0C, 0x00, 0x04, 0x00, 0x0C, 0x00, 0x00, 0x00, 0x72, 0x00, 0x00, 0x00, 0x00, 0x00, 0x00, 0x72, 0x01, 0x00, 0x00, 0x00, 0x14, 0x00, 0x1C, 0x00, 0x08, 0x00, 0x07, 0x00, 0x0C, 0x00, 0x10, 0x00, 0x14, 0x00, 0x00, 0x00, 0x00, 0x00, 0x18, 0x00, 0x14, 0x00, 0x00, 0x00, 0x00, 0x00, 0x00, 0x09, 0x14, 0x00, 0x00, 0x00, 0x08, 0x00, 0x00, 0x00, 0x34, 0x00, 0x00, 0x00, 0x38, 0x01, 0x00, 0x00, 0x18, 0x00, 0x00, 0x00, 0x04, 0x00, 0x00, 0x00, 0x01, 0x00, 0x00, 0x00, 0x01, 0x00, 0x00, 0x00, 0x01, 0x00, 0x00, 0x00, 0x10, 0x00, 0x00, 0x00, 0x04, 0x00, 0x00, 0x00, 0xFF, 0xFF, 0xFF, 0xFF, 0x01, 0x00, 0x00, 0x00, 0x01, 0x00, 0x00, 0x00, 0x10, 0x00, 0x00, 0x00, 0x03, 0x01, 0x00, 0x00, 0x73, 0x65, 0x71, 0x75, 0x65, 0x6E, 0x74, 0x69, 0x61, 0x6C, 0x5F, 0x31, 0x2F, 0x71, 0x75, 0x61, 0x6E, 0x74, 0x69, 0x7A, 0x65, 0x5F, 0x6C, 0x61, 0x79, 0x65, 0x72, 0x2F, 0x41, 0x6C, 0x6C, 0x56, 0x61, 0x6C, 0x75, 0x65, 0x73, 0x51, 0x75, 0x61, 0x6E, 0x74, 0x69, 0x7A, 0x65, 0x2F, 0x46, 0x61, 0x6B, 0x65, 0x51, 0x75, 0x61, 0x6E, 0x74, 0x57, 0x69, 0x74, 0x68, 0x4D, 0x69, 0x6E, 0x4D, 0x61, 0x78, 0x56, 0x61, 0x72, 0x73, 0x3B, 0x73, 0x65, 0x71, 0x75, 0x65, 0x6E, 0x74, 0x69, 0x61, 0x6C, 0x5F, 0x31, 0x2F, 0x71, 0x75, 0x61, 0x6E, 0x74, 0x69, 0x7A, 0x65, 0x5F, 0x6C, 0x61, 0x79, 0x65, 0x72, 0x2F, 0x41, 0x6C, 0x6C, 0x56, 0x61, 0x6C, 0x75, 0x65, 0x73, 0x51, 0x75, 0x61, 0x6E, 0x74, 0x69, 0x7A, 0x65, 0x2F, 0x46, 0x61, 0x6B, 0x65, 0x51, 0x75, 0x61, 0x6E, 0x74, 0x57, 0x69, 0x74, 0x68, 0x4D, 0x69, 0x6E, 0x4D, 0x61, 0x78, 0x56, 0x61, 0x72, 0x73, 0x2F, 0x52, 0x65, 0x61, 0x64, 0x56, 0x61, 0x72, 0x69, 0x61, 0x62, 0x6C, 0x65, 0x4F, 0x70, 0x2F, 0x72, 0x65, 0x73, 0x6F, 0x75, 0x72, 0x63, 0x65, 0x3B, 0x73, 0x65, 0x71, 0x75, 0x65, 0x6E, 0x74, 0x69, 0x61, 0x6C, 0x5F, 0x31, 0x2F, 0x71, 0x75, 0x61, 0x6E, 0x74, 0x69, 0x7A, 0x65, 0x5F, 0x6C, 0x61, 0x79, 0x65, 0x72, 0x2F, 0x41, 0x6C, 0x6C, 0x56, 0x61, 0x6C, 0x75, 0x65, 0x73, 0x51, 0x75, 0x61, 0x6E, 0x74, 0x69, 0x7A, 0x65, 0x2F, 0x46, 0x61, 0x6B, 0x65, 0x51, 0x75, 0x61, 0x6E, 0x74, 0x57, 0x69, 0x74, 0x68, 0x4D, 0x69, 0x6E, 0x4D, 0x61, 0x78, 0x56, 0x61, 0x72, 0x73, 0x2F, 0x52, 0x65, 0x61, 0x64, 0x56, 0x61, 0x72, 0x69, 0x61, 0x62, 0x6C, 0x65, 0x4F, 0x70, 0x5F, 0x31, 0x2F, 0x72, 0x65, 0x73, 0x6F, 0x75, 0x72, 0x63, 0x65, 0x00, 0x48, 0xFA, 0xFF, 0xFF, 0x08, 0x00, 0x00, 0x00, 0x0C, 0x00, 0x00, 0x00, 0x01, 0x00, 0x00, 0x00, 0x13, 0x5D, 0x37, 0x41, 0x01, 0x00, 0x00, 0x00, 0x80, 0xFF, 0xFF, 0xFF, 0xFF, 0xFF, 0xFF, 0xFF, 0x00, 0x00, 0x00, 0x00, 0xC6, 0xF8, 0xFF, 0xFF, 0x04, 0x00, 0x00, 0x00, 0x08, 0x00, 0x00, 0x00, 0x68, 0x00, 0x00, 0x00, 0x97, 0xFF, 0xFF, 0xFF, 0xBE, 0xF8, 0xFF, 0xFF, 0x00, 0x00, 0x00, 0x02, 0x10, 0x00, 0x00, 0x00, 0x07, 0x00, 0x00, 0x00, 0x10, 0x00, 0x00, 0x00, 0x4C, 0x00, 0x00, 0x00, 0x01, 0x00, 0x00, 0x00, 0x02, 0x00, 0x00, 0x00, 0x3A, 0x00, 0x00, 0x00, 0x73, 0x65, 0x71, 0x75, 0x65, 0x6E, 0x74, 0x69, 0x61, 0x6C, 0x5F, 0x31, 0x2F, 0x71, 0x75, 0x61, 0x6E, 0x74, 0x5F, 0x64, 0x65, 0x6E, 0x73, 0x65, 0x5F, 0x33, 0x2F, 0x42, 0x69, 0x61, 0x73, 0x41, 0x64, 0x64, 0x2F, 0x52, 0x65, 0x61, 0x64, 0x56, 0x61, 0x72, 0x69, 0x61, 0x62, 0x6C, 0x65, 0x4F, 0x70, 0x2F, 0x72, 0x65, 0x73, 0x6F, 0x75, 0x72, 0x63, 0x65, 0x00, 0x00, 0xE0, 0xFA, 0xFF, 0xFF, 0x08, 0x00, 0x00, 0x00, 0x0C, 0x00, 0x00, 0x00, 0x01, 0x00, 0x00, 0x00, 0xEA, 0xB8, 0xF0, 0x38, 0x01, 0x00, 0x00, 0x00, 0x00, 0x00, 0x00, 0x00, 0x00, 0x00, 0x00, 0x00, 0x00, 0x00, 0x00, 0x00, 0x5E, 0xF9, 0xFF, 0xFF, 0x04, 0x00, 0x00, 0x00, 0x28, 0x00, 0x00, 0x00, 0xBE, 0xFF, 0xFF, 0xFF, 0x2A, 0x00, 0x00, 0x00, 0x73, 0x02, 0x00, 0x00, 0x8A, 0x00, 0x00, 0x00, 0x75, 0xFE, 0xFF, 0xFF, 0xB8, 0x00, 0x00, 0x00, 0x63, 0xFE, 0xFF, 0xFF, 0x28, 0x04, 0x00, 0x00, 0xA9, 0x02, 0x00, 0x00, 0xD0, 0x03, 0x00, 0x00, 0x76, 0xF9, 0xFF, 0xFF, 0x00, 0x00, 0x00, 0x02, 0x10, 0x00, 0x00, 0x00, 0x06, 0x00, 0x00, 0x00, 0x10, 0x00, 0x00, 0x00, 0x4C, 0x00, 0x00, 0x00, 0x01, 0x00, 0x00, 0x00, 0x0A, 0x00, 0x00, 0x00, 0x3A, 0x00, 0x00, 0x00, 0x73, 0x65, 0x71, 0x75, 0x65, 0x6E, 0x74, 0x69, 0x61, 0x6C, 0x5F, 0x31, 0x2F, 0x71, 0x75, 0x61, 0x6E, 0x74, 0x5F, 0x64, 0x65, 0x6E, 0x73, 0x65, 0x5F, 0x32, 0x2F, 0x42, 0x69, 0x61, 0x73, 0x41, 0x64, 0x64, 0x2F, 0x52, 0x65, 0x61, 0x64, 0x56, 0x61, 0x72, 0x69, 0x61, 0x62, 0x6C, 0x65, 0x4F, 0x70, 0x2F, 0x72, 0x65, 0x73, 0x6F, 0x75, 0x72, 0x63, 0x65, 0x00, 0x00, 0x98, 0xFB, 0xFF, 0xFF, 0x08, 0x00, 0x00, 0x00, 0x0C, 0x00, 0x00, 0x00, 0x01, 0x00, 0x00, 0x00, 0xFA, 0x9A, 0x86, 0x38, 0x01, 0x00, 0x00, 0x00, 0x00, 0x00, 0x00, 0x00, 0x00, 0x00, 0x00, 0x00, 0x12, 0xFA, 0xFF, 0xFF, 0x04, 0x00, 0x00, 0x00, 0x20, 0x00, 0x00, 0x00, 0xFF, 0xFF, 0xFF, 0xFF, 0xFB, 0xFF, 0xFF, 0xFF, 0x02, 0x00, 0x00, 0x00, 0x1A, 0x00, 0x00, 0x00, 0x0A, 0x00, 0x00, 0x00, 0xFF, 0xFF, 0xFF, 0xFF, 0x10, 0x00, 0x00, 0x00, 0x08, 0x00, 0x00, 0x00, 0x22, 0xFA, 0xFF, 0xFF, 0x00, 0x00, 0x00, 0x02, 0x10, 0x00, 0x00, 0x00, 0x05, 0x00, 0x00, 0x00, 0x10, 0x00, 0x00, 0x00, 0x94, 0x00, 0x00, 0x00, 0x01, 0x00, 0x00, 0x00, 0x08, 0x00, 0x00, 0x00, 0x82, 0x00, 0x00, 0x00, 0x73, 0x65, 0x71, 0x75, 0x65, 0x6E, 0x74, 0x69, 0x61, 0x6C, 0x5F, 0x31, 0x2F, 0x71, 0x75, 0x61, 0x6E, 0x74, 0x5F, 0x63, 0x6F, 0x6E, 0x76, 0x32, 0x64, 0x5F, 0x33, 0x2F, 0x42, 0x69, 0x61, 0x73, 0x41, 0x64, 0x64, 0x3B, 0x73, 0x65, 0x71, 0x75, 0x65, 0x6E, 0x74, 0x69, 0x61, 0x6C, 0x5F, 0x31, 0x2F, 0x71, 0x75, 0x61, 0x6E, 0x74, 0x5F, 0x63, 0x6F, 0x6E, 0x76, 0x32, 0x64, 0x5F, 0x33, 0x2F, 0x43, 0x6F, 0x6E, 0x76, 0x32, 0x44, 0x3B, 0x73, 0x65, 0x71, 0x75, 0x65, 0x6E, 0x74, 0x69, 0x61, 0x6C, 0x5F, 0x31, 0x2F, 0x71, 0x75, 0x61, 0x6E, 0x74, 0x5F, 0x63, 0x6F, 0x6E, 0x76, 0x32, 0x64, 0x5F, 0x33, 0x2F, 0x42, 0x69, 0x61, 0x73, 0x41, 0x64, 0x64, 0x2F, 0x52, 0x65, 0x61, 0x64, 0x56, 0x61, 0x72, 0x69, 0x61, 0x62, 0x6C, 0x65, 0x4F, 0x70, 0x2F, 0x72, 0x65, 0x73, 0x6F, 0x75, 0x72, 0x63, 0x65, 0x00, 0x00, 0x8C, 0xFC, 0xFF, 0xFF, 0x08, 0x00, 0x00, 0x00, 0x28, 0x00, 0x00, 0x00, 0x08, 0x00, 0x00, 0x00, 0xEB, 0x38, 0x13, 0x3D, 0x57, 0xC3, 0x95, 0x3C, 0x4C, 0x41, 0x74, 0x3C, 0xC0, 0xF8, 0x74, 0x3C, 0xC2, 0xF8, 0x97, 0x3C, 0xD8, 0x02, 0xC2, 0x3C, 0x42, 0x80, 0x99, 0x3C, 0xC0, 0xDF, 0xE7, 0x3C, 0x08, 0x00, 0x00, 0x00, 0x00, 0x00, 0x00, 0x00, 0x00, 0x00, 0x00, 0x00, 0x00, 0x00, 0x00, 0x00, 0x00, 0x00, 0x00, 0x00, 0x00, 0x00, 0x00, 0x00, 0x00, 0x00, 0x00, 0x00, 0x00, 0x00, 0x00, 0x00, 0x00, 0x00, 0x00, 0x00, 0x00, 0x00, 0x00, 0x00, 0x00, 0x00, 0x00, 0x00, 0x00, 0x00, 0x00, 0x00, 0x00, 0x00, 0x00, 0x00, 0x00, 0x00, 0x00, 0x00, 0x00, 0x00, 0x00, 0x00, 0x00, 0x00, 0x00, 0x00, 0x00, 0x00, 0x00, 0x00, 0x5A, 0xFB, 0xFF, 0xFF, 0x04, 0x00, 0x00, 0x00, 0x40, 0x00, 0x00, 0x00, 0x6F, 0x00, 0x00, 0x00, 0x71, 0x01, 0x00, 0x00, 0x83, 0xFF, 0xFF, 0xFF, 0x04, 0x00, 0x00, 0x00, 0x5C, 0x00, 0x00, 0x00, 0x93, 0x00, 0x00, 0x00, 0xEF, 0xFF, 0xFF, 0xFF, 0xA0, 0x00, 0x00, 0x00, 0xF9, 0xFF, 0xFF, 0xFF, 0xDA, 0xFF, 0xFF, 0xFF, 0x12, 0x00, 0x00, 0x00, 0xFC, 0xFF, 0xFF, 0xFF, 0x8F, 0x00, 0x00, 0x00, 0xA4, 0xFF, 0xFF, 0xFF, 0xCB, 0xFF, 0xFF, 0xFF, 0x00, 0x00, 0x00, 0x00, 0x8A, 0xFB, 0xFF, 0xFF, 0x00, 0x00, 0x00, 0x02, 0x10, 0x00, 0x00, 0x00, 0x04, 0x00, 0x00, 0x00, 0x10, 0x00, 0x00, 0x00, 0x94, 0x00, 0x00, 0x00, 0x01, 0x00, 0x00, 0x00, 0x10, 0x00, 0x00, 0x00, 0x82, 0x00, 0x00, 0x00, 0x73, 0x65, 0x71, 0x75, 0x65, 0x6E, 0x74, 0x69, 0x61, 0x6C, 0x5F, 0x31, 0x2F, 0x71, 0x75, 0x61, 0x6E, 0x74, 0x5F, 0x63, 0x6F, 0x6E, 0x76, 0x32, 0x64, 0x5F, 0x34, 0x2F, 0x42, 0x69, 0x61, 0x73, 0x41, 0x64, 0x64, 0x3B, 0x73, 0x65, 0x71, 0x75, 0x65, 0x6E, 0x74, 0x69, 0x61, 0x6C, 0x5F, 0x31, 0x2F, 0x71, 0x75, 0x61, 0x6E, 0x74, 0x5F, 0x63, 0x6F, 0x6E, 0x76, 0x32, 0x64, 0x5F, 0x34, 0x2F, 0x43, 0x6F, 0x6E, 0x76, 0x32, 0x44, 0x3B, 0x73, 0x65, 0x71, 0x75, 0x65, 0x6E, 0x74, 0x69, 0x61, 0x6C, 0x5F, 0x31, 0x2F, 0x71, 0x75, 0x61, 0x6E, 0x74, 0x5F, 0x63, 0x6F, 0x6E, 0x76, 0x32, 0x64, 0x5F, 0x34, 0x2F, 0x42, 0x69, 0x61, 0x73, 0x41, 0x64, 0x64, 0x2F, 0x52, 0x65, 0x61, 0x64, 0x56, 0x61, 0x72, 0x69, 0x61, 0x62, 0x6C, 0x65, 0x4F, 0x70, 0x2F, 0x72, 0x65, 0x73, 0x6F, 0x75, 0x72, 0x63, 0x65, 0x00, 0x00, 0xF4, 0xFD, 0xFF, 0xFF, 0x08, 0x00, 0x00, 0x00, 0x48, 0x00, 0x00, 0x00, 0x10, 0x00, 0x00, 0x00, 0x6F, 0x86, 0xCA, 0x3A, 0x76, 0xC1, 0xB0, 0x3A, 0x80, 0xFC, 0xB4, 0x3A, 0x0C, 0xD2, 0xB9, 0x3A, 0x9F, 0x50, 0x45, 0x3B, 0x57, 0x43, 0xF4, 0x3A, 0x56, 0xAA, 0xD2, 0x3A, 0xFB, 0xA0, 0xB4, 0x3A, 0x07, 0xD3, 0xB5, 0x3A, 0xC8, 0x4B, 0xF9, 0x3A, 0xE8, 0x9C, 0xE9, 0x3A, 0xE7, 0x17, 0xB3, 0x3A, 0xE9, 0x18, 0xEA, 0x3A, 0xB9, 0x5A, 0xD2, 0x3A, 0x1C, 0xB7, 0xB2, 0x3A, 0xD4, 0x27, 0x06, 0x3B, 0x10, 0x00, 0x00, 0x00, 0x00, 0x00, 0x00, 0x00, 0x00, 0x00, 0x00, 0x00, 0x00, 0x00, 0x00, 0x00, 0x00, 0x00, 0x00, 0x00, 0x00, 0x00, 0x00, 0x00, 0x00, 0x00, 0x00, 0x00, 0x00, 0x00, 0x00, 0x00, 0x00, 0x00, 0x00, 0x00, 0x00, 0x00, 0x00, 0x00, 0x00, 0x00, 0x00, 0x00, 0x00, 0x00, 0x00, 0x00, 0x00, 0x00, 0x00, 0x00, 0x00, 0x00, 0x00, 0x00, 0x00, 0x00, 0x00, 0x00, 0x00, 0x00, 0x00, 0x00, 0x00, 0x00, 0x00, 0x00, 0x00, 0x00, 0x00, 0x00, 0x00, 0x00, 0x00, 0x00, 0x00, 0x00, 0x00, 0x00, 0x00, 0x00, 0x00, 0x00, 0x00, 0x00, 0x00, 0x00, 0x00, 0x00, 0x00, 0x00, 0x00, 0x00, 0x00, 0x00, 0x00, 0x00, 0x00, 0x00, 0x00, 0x00, 0x00, 0x00, 0x00, 0x00, 0x00, 0x00, 0x00, 0x00, 0x00, 0x00, 0x00, 0x00, 0x00, 0x00, 0x00, 0x00, 0x00, 0x00, 0x00, 0x00, 0x00, 0x00, 0x00, 0x00, 0x00, 0x00, 0x00, 0x00, 0x00, 0x00, 0x00, 0x00, 0x00, 0x00, 0x26, 0xFD, 0xFF, 0xFF, 0x04, 0x00, 0x00, 0x00, 0x80, 0x00, 0x00, 0x00, 0xF4, 0x01, 0x00, 0x00, 0x59, 0x03, 0x00, 0x00, 0xA1, 0x02, 0x00, 0x00, 0x4F, 0x02, 0x00, 0x00, 0x86, 0xFF, 0xFF, 0xFF, 0x9D, 0xFF, 0xFF, 0xFF, 0x8A, 0xFD, 0xFF, 0xFF, 0xDD, 0xFE, 0xFF, 0xFF, 0x8C, 0xFF, 0xFF, 0xFF, 0x79, 0x04, 0x00, 0x00, 0xC5, 0x0A, 0x00, 0x00, 0x72, 0x05, 0x00, 0x00, 0xB5, 0xFD, 0xFF, 0xFF, 0x01, 0x04, 0x00, 0x00, 0x13, 0x01, 0x00, 0x00, 0x93, 0x03, 0x00, 0x00, 0x0B, 0x01, 0x00, 0x00, 0xDA, 0xFB, 0xFF, 0xFF, 0x4A, 0x05, 0x00, 0x00, 0x5D, 0x02, 0x00, 0x00, 0xB0, 0x02, 0x00, 0x00, 0x88, 0x02, 0x00, 0x00, 0xAB, 0x01, 0x00, 0x00, 0x25, 0xFE, 0xFF, 0xFF, 0xC9, 0x05, 0x00, 0x00, 0x7E, 0xFC, 0xFF, 0xFF, 0x21, 0x01, 0x00, 0x00, 0xF5, 0xFD, 0xFF, 0xFF, 0x64, 0xFF, 0xFF, 0xFF, 0x4F, 0xFE, 0xFF, 0xFF, 0x80, 0x02, 0x00, 0x00, 0xDE, 0xFD, 0xFF, 0xFF, 0x96, 0xFD, 0xFF, 0xFF, 0x00, 0x00, 0x00, 0x02, 0x10, 0x00, 0x00, 0x00, 0x03, 0x00, 0x00, 0x00, 0x10, 0x00, 0x00, 0x00, 0xA0, 0x00, 0x00, 0x00, 0x01, 0x00, 0x00, 0x00, 0x20, 0x00, 0x00, 0x00, 0x82, 0x00, 0x00, 0x00, 0x73, 0x65, 0x71, 0x75, 0x65, 0x6E, 0x74, 0x69, 0x61, 0x6C, 0x5F, 0x31, 0x2F, 0x71, 0x75, 0x61, 0x6E, 0x74, 0x5F, 0x63, 0x6F, 0x6E, 0x76, 0x32, 0x64, 0x5F, 0x35, 0x2F, 0x42, 0x69, 0x61, 0x73, 0x41, 0x64, 0x64, 0x3B, 0x73, 0x65, 0x71, 0x75, 0x65, 0x6E, 0x74, 0x69, 0x61, 0x6C, 0x5F, 0x31, 0x2F, 0x71, 0x75, 0x61, 0x6E, 0x74, 0x5F, 0x63, 0x6F, 0x6E, 0x76, 0x32, 0x64, 0x5F, 0x35, 0x2F, 0x43, 0x6F, 0x6E, 0x76, 0x32, 0x44, 0x3B, 0x73, 0x65, 0x71, 0x75, 0x65, 0x6E, 0x74, 0x69, 0x61, 0x6C, 0x5F, 0x31, 0x2F, 0x71, 0x75, 0x61, 0x6E, 0x74, 0x5F, 0x63, 0x6F, 0x6E, 0x76, 0x32, 0x64, 0x5F, 0x35, 0x2F, 0x42, 0x69, 0x61, 0x73, 0x41, 0x64, 0x64, 0x2F, 0x52, 0x65, 0x61, 0x64, 0x56, 0x61, 0x72, 0x69, 0x61, 0x62, 0x6C, 0x65, 0x4F, 0x70, 0x2F, 0x72, 0x65, 0x73, 0x6F, 0x75, 0x72, 0x63, 0x65, 0x00, 0x00, 0x0C, 0x00, 0x0C, 0x00, 0x00, 0x00, 0x00, 0x00, 0x04, 0x00, 0x08, 0x00, 0x0C, 0x00, 0x00, 0x00, 0x08, 0x00, 0x00, 0x00, 0x88, 0x00, 0x00, 0x00, 0x20, 0x00, 0x00, 0x00, 0xDB, 0x65, 0x50, 0x39, 0x3D, 0x07, 0x3C, 0x39, 0x67, 0x10, 0x4E, 0x39, 0x09, 0x0A, 0x34, 0x39, 0x78, 0x4F, 0x2E, 0x39, 0x66, 0xA9, 0x4F, 0x39, 0x42, 0xF7, 0x1E, 0x39, 0x4E, 0x79, 0x78, 0x39, 0xCA, 0xDE, 0x16, 0x39, 0x53, 0xF0, 0x2B, 0x39, 0x2E, 0x82, 0x34, 0x39, 0xDC, 0xD8, 0x70, 0x39, 0xEE, 0x84, 0x3B, 0x39, 0x22, 0xE7, 0x43, 0x39, 0xD8, 0x7D, 0x26, 0x39, 0x33, 0xCA, 0x33, 0x39, 0x20, 0x39, 0x4B, 0x39, 0x77, 0x65, 0x03, 0x39, 0x17, 0x92, 0x8C, 0x39, 0x0D, 0xFE, 0x01, 0x39, 0x15, 0xFD, 0x75, 0x39, 0x71, 0xAC, 0x83, 0x39, 0x2E, 0x16, 0x08, 0x39, 0x96, 0xB2, 0x22, 0x39, 0xA8, 0x9B, 0x94, 0x39, 0x9A, 0x38, 0x1C, 0x39, 0xA5, 0xC8, 0x0F, 0x39, 0x63, 0x61, 0x0C, 0x39, 0x45, 0x84, 0x02, 0x39, 0xC9, 0x29, 0x44, 0x39, 0xE3, 0xFB, 0x15, 0x39, 0x43, 0xB4, 0x02, 0x39, 0x20, 0x00, 0x00, 0x00, 0x00, 0x00, 0x00, 0x00, 0x00, 0x00, 0x00, 0x00, 0x00, 0x00, 0x00, 0x00, 0x00, 0x00, 0x00, 0x00, 0x00, 0x00, 0x00, 0x00, 0x00, 0x00, 0x00, 0x00, 0x00, 0x00, 0x00, 0x00, 0x00, 0x00, 0x00, 0x00, 0x00, 0x00, 0x00, 0x00, 0x00, 0x00, 0x00, 0x00, 0x00, 0x00, 0x00, 0x00, 0x00, 0x00, 0x00, 0x00, 0x00, 0x00, 0x00, 0x00, 0x00, 0x00, 0x00, 0x00, 0x00, 0x00, 0x00, 0x00, 0x00, 0x00, 0x00, 0x00, 0x00, 0x00, 0x00, 0x00, 0x00, 0x00, 0x00, 0x00, 0x00, 0x00, 0x00, 0x00, 0x00, 0x00, 0x00, 0x00, 0x00, 0x00, 0x00, 0x00, 0x00, 0x00, 0x00, 0x00, 0x00, 0x00, 0x00, 0x00, 0x00, 0x00, 0x00, 0x00, 0x00, 0x00, 0x00, 0x00, 0x00, 0x00, 0x00, 0x00, 0x00, 0x00, 0x00, 0x00, 0x00, 0x00, 0x00, 0x00, 0x00, 0x00, 0x00, 0x00, 0x00, 0x00, 0x00, 0x00, 0x00, 0x00, 0x00, 0x00, 0x00, 0x00, 0x00, 0x00, 0x00, 0x00, 0x00, 0x00, 0x00, 0x00, 0x00, 0x00, 0x00, 0x00, 0x00, 0x00, 0x00, 0x00, 0x00, 0x00, 0x00, 0x00, 0x00, 0x00, 0x00, 0x00, 0x00, 0x00, 0x00, 0x00, 0x00, 0x00, 0x00, 0x00, 0x00, 0x00, 0x00, 0x00, 0x00, 0x00, 0x00, 0x00, 0x00, 0x00, 0x00, 0x00, 0x00, 0x00, 0x00, 0x00, 0x00, 0x00, 0x00, 0x00, 0x00, 0x00, 0x00, 0x00, 0x00, 0x00, 0x00, 0x00, 0x00, 0x00, 0x00, 0x00, 0x00, 0x00, 0x00, 0x00, 0x00, 0x00, 0x00, 0x00, 0x00, 0x00, 0x00, 0x00, 0x00, 0x00, 0x00, 0x00, 0x00, 0x00, 0x00, 0x00, 0x00, 0x00, 0x00, 0x00, 0x00, 0x00, 0x00, 0x00, 0x00, 0x00, 0x00, 0x00, 0x00, 0x00, 0x00, 0x00, 0x00, 0x00, 0x00, 0x00, 0x00, 0x00, 0x00, 0x00, 0x00, 0x00, 0x00, 0x00, 0x00, 0x00, 0x00, 0x00, 0x00, 0x00, 0x00, 0x00, 0x00, 0x00, 0x00, 0x00, 0x00, 0x00, 0x00, 0x00, 0x00, 0x00, 0x00, 0x00, 0x00, 0x00, 0x00, 0x00, 0x06, 0x00, 0x08, 0x00, 0x04, 0x00, 0x06, 0x00, 0x00, 0x00, 0x04, 0x00, 0x00, 0x00, 0x08, 0x00, 0x00, 0x00, 0xFF, 0xFF, 0xFF, 0xFF, 0x20, 0x00, 0x00, 0x00, 0x00, 0x00, 0x0E, 0x00, 0x18, 0x00, 0x08, 0x00, 0x07, 0x00, 0x0C, 0x00, 0x10, 0x00, 0x14, 0x00, 0x0E, 0x00, 0x00, 0x00, 0x00, 0x00, 0x00, 0x02, 0x10, 0x00, 0x00, 0x00, 0x02, 0x00, 0x00, 0x00, 0x10, 0x00, 0x00, 0x00, 0x34, 0x00, 0x00, 0x00, 0x01, 0x00, 0x00, 0x00, 0x02, 0x00, 0x00, 0x00, 0x22, 0x00, 0x00, 0x00, 0x73, 0x65, 0x71, 0x75, 0x65, 0x6E, 0x74, 0x69, 0x61, 0x6C, 0x5F, 0x31, 0x2F, 0x71, 0x75, 0x61, 0x6E, 0x74, 0x5F, 0x66, 0x6C, 0x61, 0x74, 0x74, 0x65, 0x6E, 0x5F, 0x31, 0x2F, 0x43, 0x6F, 0x6E, 0x73, 0x74, 0x00, 0x00, 0x98, 0xFF, 0xFF, 0xFF, 0x14, 0x00, 0x18, 0x00, 0x04, 0x00, 0x00, 0x00, 0x08, 0x00, 0x0C, 0x00, 0x10, 0x00, 0x00, 0x00, 0x00, 0x00, 0x14, 0x00, 0x14, 0x00, 0x00, 0x00, 0x14, 0x00, 0x00, 0x00, 0x01, 0x00, 0x00, 0x00, 0x34, 0x00, 0x00, 0x00, 0x3C, 0x00, 0x00, 0x00, 0x18, 0x00, 0x00, 0x00, 0x04, 0x00, 0x00, 0x00, 0x01, 0x00, 0x00, 0x00, 0x01, 0x00, 0x00, 0x00, 0x01, 0x00, 0x00, 0x00, 0x10, 0x00, 0x00, 0x00, 0x04, 0x00, 0x00, 0x00, 0xFF, 0xFF, 0xFF, 0xFF, 0x01, 0x00, 0x00, 0x00, 0x01, 0x00, 0x00, 0x00, 0x10, 0x00, 0x00, 0x00, 0x07, 0x00, 0x00, 0x00, 0x69, 0x6E, 0x70, 0x75, 0x74, 0x5F, 0x32, 0x00, 0xFC, 0xFF, 0xFF, 0xFF, 0x04, 0x00, 0x04, 0x00, 0x04, 0x00, 0x00, 0x00
};
unsigned int model_tflite_len = 14608;