
// ADDED LINES START
constexpr char* processing_method = "stft";
constexpr double expected_duration = 1.0;
constexpr int sample_rate = 16000;
constexpr int window_size_samples = 512;
constexpr int window_stride_samples = 480;

const char* RESPONSES[] = {"bed", "forward", "no", "yes"};
unsigned short NUM_RESPONSES = 4;

// ADDED LINES END

alignas(8) const unsigned char model_tflite[] = {
0x20, 0x00, 0x00, 0x00, 0x54, 0x46, 0x4C, 0x33, 0x00, 0x00, 0x00, 0x00, 0x14, 0x00, 0x20, 0x00, 0x04, 0x00, 0x08, 0x00, 0x0C, 0x00, 0x10, 0x00, 0x14, 0x00, 0x00, 0x00, 0x18, 0x00, 0x1C, 0x00, 0x14, 0x00, 0x00, 0x00, 0x03, 0x00, 0x00, 0x00, 0x18, 0x00, 0x00, 0x00, 0x34, 0x00, 0x00, 0x00, 0x08, 0x01, 0x00, 0x00, 0x34, 0x00, 0x00, 0x00, 0xB0, 0x00, 0x00, 0x00, 0xA8, 0x00, 0x00, 0x00, 0x07, 0x00, 0x00, 0x00, 0x38, 0x38, 0x00, 0x00, 0xC4, 0x34, 0x00, 0x00, 0xC0, 0x33, 0x00, 0x00, 0x90, 0x14, 0x00, 0x00, 0x94, 0x05, 0x00, 0x00, 0x8C, 0x02, 0x00, 0x00, 0x04, 0x02, 0x00, 0x00, 0x01, 0x00, 0x00, 0x00, 0xF8, 0x00, 0x00, 0x00, 0x1E, 0x00, 0x00, 0x00, 0x90, 0x3A, 0x00, 0x00, 0x8C, 0x3A, 0x00, 0x00, 0xB0, 0x39, 0x00, 0x00, 0x84, 0x3A, 0x00, 0x00, 0xB8, 0x36, 0x00, 0x00, 0xA8, 0x35, 0x00, 0x00, 0x78, 0x3A, 0x00, 0x00, 0x74, 0x3A, 0x00, 0x00, 0xE4, 0x30, 0x00, 0x00, 0x98, 0x2F, 0x00, 0x00, 0x68, 0x3A, 0x00, 0x00, 0x64, 0x3A, 0x00, 0x00, 0x6C, 0x27, 0x00, 0x00, 0xA0, 0x25, 0x00, 0x00, 0x58, 0x3A, 0x00, 0x00, 0x54, 0x3A, 0x00, 0x00, 0xF4, 0x18, 0x00, 0x00, 0x04, 0x17, 0x00, 0x00, 0x48, 0x3A, 0x00, 0x00, 0x44, 0x3A, 0x00, 0x00, 0x40, 0x3A, 0x00, 0x00, 0x78, 0x06, 0x00, 0x00, 0xD8, 0x05, 0x00, 0x00, 0x34, 0x3A, 0x00, 0x00, 0x1C, 0x04, 0x00, 0x00, 0x7C, 0x03, 0x00, 0x00, 0x28, 0x3A, 0x00, 0x00, 0x24, 0x3A, 0x00, 0x00, 0x20, 0x3A, 0x00, 0x00, 0x3C, 0x00, 0x00, 0x00, 0x00, 0x00, 0x00, 0x00, 0x01, 0x00, 0x00, 0x00, 0x0C, 0x00, 0x00, 0x00, 0x08, 0x00, 0x0C, 0x00, 0x04, 0x00, 0x08, 0x00, 0x08, 0x00, 0x00, 0x00, 0x08, 0x00, 0x00, 0x00, 0x1D, 0x00, 0x00, 0x00, 0x13, 0x00, 0x00, 0x00, 0x6D, 0x69, 0x6E, 0x5F, 0x72, 0x75, 0x6E, 0x74, 0x69, 0x6D, 0x65, 0x5F, 0x76, 0x65, 0x72, 0x73, 0x69, 0x6F, 0x6E, 0x00, 0xFE, 0xC6, 0xFF, 0xFF, 0x04, 0x00, 0x00, 0x00, 0x10, 0x00, 0x00, 0x00, 0x31, 0x2E, 0x31, 0x34, 0x2E, 0x30, 0x00, 0x00, 0x00, 0x00, 0x00, 0x00, 0x00, 0x00, 0x00, 0x00, 0x0F, 0x00, 0x00, 0x00, 0x4D, 0x4C, 0x49, 0x52, 0x20, 0x43, 0x6F, 0x6E, 0x76, 0x65, 0x72, 0x74, 0x65, 0x64, 0x2E, 0x00, 0x00, 0x00, 0x0E, 0x00, 0x18, 0x00, 0x04, 0x00, 0x08, 0x00, 0x0C, 0x00, 0x10, 0x00, 0x14, 0x00, 0x0E, 0x00, 0x00, 0x00, 0x14, 0x00, 0x00, 0x00, 0x84, 0x00, 0x00, 0x00, 0x88, 0x00, 0x00, 0x00, 0x8C, 0x00, 0x00, 0x00, 0xC4, 0x00, 0x00, 0x00, 0x1C, 0x00, 0x00, 0x00, 0x30, 0x39, 0x00, 0x00, 0xCC, 0x38, 0x00, 0x00, 0x20, 0x37, 0x00, 0x00, 0xE0, 0x35, 0x00, 0x00, 0xBC, 0x34, 0x00, 0x00, 0x90, 0x33, 0x00, 0x00, 0x8C, 0x32, 0x00, 0x00, 0x08, 0x31, 0x00, 0x00, 0xBC, 0x2E, 0x00, 0x00, 0x80, 0x2D, 0x00, 0x00, 0xA4, 0x2C, 0x00, 0x00, 0xF0, 0x2A, 0x00, 0x00, 0xE4, 0x24, 0x00, 0x00, 0x88, 0x23, 0x00, 0x00, 0xAC, 0x22, 0x00, 0x00, 0xF8, 0x20, 0x00, 0x00, 0x48, 0x16, 0x00, 0x00, 0xC4, 0x14, 0x00, 0x00, 0xEC, 0x13, 0x00, 0x00, 0x2C, 0x13, 0x00, 0x00, 0x3C, 0x12, 0x00, 0x00, 0xEC, 0x04, 0x00, 0x00, 0x28, 0x04, 0x00, 0x00, 0x30, 0x03, 0x00, 0x00, 0x90, 0x02, 0x00, 0x00, 0xCC, 0x01, 0x00, 0x00, 0x14, 0x01, 0x00, 0x00, 0x8C, 0x00, 0x00, 0x00, 0x01, 0x00, 0x00, 0x00, 0x00, 0x00, 0x00, 0x00, 0x01, 0x00, 0x00, 0x00, 0x1B, 0x00, 0x00, 0x00, 0x0E, 0x00, 0x00, 0x00, 0x58, 0x36, 0x00, 0x00, 0xC0, 0x32, 0x00, 0x00, 0xBC, 0x31, 0x00, 0x00, 0xD4, 0x2C, 0x00, 0x00, 0xFC, 0x2B, 0x00, 0x00, 0xE4, 0x22, 0x00, 0x00, 0x0C, 0x22, 0x00, 0x00, 0x28, 0x14, 0x00, 0x00, 0x54, 0x13, 0x00, 0x00, 0x9C, 0x12, 0x00, 0x00, 0x90, 0x03, 0x00, 0x00, 0x4C, 0x01, 0x00, 0x00, 0x88, 0x00, 0x00, 0x00, 0x10, 0x00, 0x00, 0x00, 0x04, 0x00, 0x00, 0x00, 0x6D, 0x61, 0x69, 0x6E, 0x00, 0x00, 0x00, 0x00, 0x8E, 0xED, 0xFF, 0xFF, 0x06, 0x00, 0x00, 0x00, 0x10, 0x00, 0x00, 0x00, 0x04, 0x00, 0x00, 0x00, 0x01, 0x00, 0x00, 0x00, 0x1B, 0x00, 0x00, 0x00, 0x01, 0x00, 0x00, 0x00, 0x1A, 0x00, 0x00, 0x00, 0xF0, 0xC9, 0xFF, 0xFF, 0x06, 0x00, 0x00, 0x00, 0x00, 0x00, 0x00, 0x06, 0x02, 0x00, 0x00, 0x00, 0xDC, 0xC7, 0xFF, 0xFF, 0x14, 0x00, 0x00, 0x00, 0x1C, 0x00, 0x00, 0x00, 0x24, 0x00, 0x00, 0x00, 0x30, 0x00, 0x00, 0x00, 0x10, 0x00, 0x00, 0x00, 0x02, 0x00, 0x00, 0x00, 0x01, 0x00, 0x00, 0x00, 0x04, 0x00, 0x00, 0x00, 0x02, 0x00, 0x00, 0x00, 0xFF, 0xFF, 0xFF, 0xFF, 0x04, 0x00, 0x00, 0x00, 0x08, 0x00, 0x00, 0x00, 0x49, 0x64, 0x65, 0x6E, 0x74, 0x69, 0x74, 0x79, 0x00, 0x00, 0x00, 0x00, 0xB8, 0xC7, 0xFF, 0xFF, 0x02, 0xCE, 0xFF, 0xFF, 0x00, 0x00, 0x00, 0x09, 0x05, 0x00, 0x00, 0x00, 0x1C, 0x00, 0x00, 0x00, 0x10, 0x00, 0x00, 0x00, 0x04, 0x00, 0x00, 0x00, 0xAE, 0xC8, 0xFF, 0xFF, 0x00, 0x00, 0x80, 0x3F, 0x01, 0x00, 0x00, 0x00, 0x1A, 0x00, 0x00, 0x00, 0x01, 0x00, 0x00, 0x00, 0x19, 0x00, 0x00, 0x00, 0x74, 0xCA, 0xFF, 0xFF, 0x19, 0x00, 0x00, 0x00, 0x00, 0x00, 0x00, 0x19, 0x02, 0x00, 0x00, 0x00, 0x68, 0xCA, 0xFF, 0xFF, 0x00, 0x00, 0x00, 0x09, 0x14, 0x00, 0x00, 0x00, 0x1B, 0x00, 0x00, 0x00, 0x24, 0x00, 0x00, 0x00, 0x48, 0x00, 0x00, 0x00, 0x10, 0x00, 0x00, 0x00, 0x02, 0x00, 0x00, 0x00, 0x01, 0x00, 0x00, 0x00, 0x04, 0x00, 0x00, 0x00, 0x02, 0x00, 0x00, 0x00, 0xFF, 0xFF, 0xFF, 0xFF, 0x04, 0x00, 0x00, 0x00, 0x22, 0x00, 0x00, 0x00, 0x73, 0x65, 0x71, 0x75, 0x65, 0x6E, 0x74, 0x69, 0x61, 0x6C, 0x5F, 0x31, 0x2F, 0x71, 0x75, 0x61, 0x6E, 0x74, 0x5F, 0x64, 0x65, 0x6E, 0x73, 0x65, 0x5F, 0x33, 0x2F, 0x53, 0x6F, 0x66, 0x74, 0x6D, 0x61, 0x78, 0x00, 0x00, 0x64, 0xC9, 0xFF, 0xFF, 0x08, 0x00, 0x00, 0x00, 0x0C, 0x00, 0x00, 0x00, 0x01, 0x00, 0x00, 0x00, 0x00, 0x00, 0x80, 0x3B, 0x01, 0x00, 0x00, 0x00, 0x80, 0xFF, 0xFF, 0xFF, 0xFF, 0xFF, 0xFF, 0xFF, 0x00, 0x00, 0x00, 0x00, 0xC2, 0xCE, 0xFF, 0xFF, 0x00, 0x00, 0x00, 0x08, 0x04, 0x00, 0x00, 0x00, 0x18, 0x00, 0x00, 0x00, 0x0C, 0x00, 0x00, 0x00, 0x04, 0x00, 0x00, 0x00, 0x94, 0xC8, 0xFF, 0xFF, 0x01, 0x00, 0x00, 0x00, 0x19, 0x00, 0x00, 0x00, 0x03, 0x00, 0x00, 0x00, 0x16, 0x00, 0x00, 0x00, 0x17, 0x00, 0x00, 0x00, 0x18, 0x00, 0x00, 0x00, 0x1C, 0xCB, 0xFF, 0xFF, 0x00, 0x00, 0x00, 0x09, 0x14, 0x00, 0x00, 0x00, 0x1A, 0x00, 0x00, 0x00, 0x24, 0x00, 0x00, 0x00, 0x6C, 0x00, 0x00, 0x00, 0x10, 0x00, 0x00, 0x00, 0x02, 0x00, 0x00, 0x00, 0x01, 0x00, 0x00, 0x00, 0x04, 0x00, 0x00, 0x00, 0x02, 0x00, 0x00, 0x00, 0xFF, 0xFF, 0xFF, 0xFF, 0x04, 0x00, 0x00, 0x00, 0x44, 0x00, 0x00, 0x00, 0x73, 0x65, 0x71, 0x75, 0x65, 0x6E, 0x74, 0x69, 0x61, 0x6C, 0x5F, 0x31, 0x2F, 0x71, 0x75, 0x61, 0x6E, 0x74, 0x5F, 0x64, 0x65, 0x6E, 0x73, 0x65, 0x5F, 0x33, 0x2F, 0x4D, 0x61, 0x74, 0x4D, 0x75, 0x6C, 0x3B, 0x73, 0x65, 0x71, 0x75, 0x65, 0x6E, 0x74, 0x69, 0x61, 0x6C, 0x5F, 0x31, 0x2F, 0x71, 0x75, 0x61, 0x6E, 0x74, 0x5F, 0x64, 0x65, 0x6E, 0x73, 0x65, 0x5F, 0x33, 0x2F, 0x42, 0x69, 0x61, 0x73, 0x41, 0x64, 0x64, 0x00, 0x00, 0x00, 0x00, 0x3C, 0xCA, 0xFF, 0xFF, 0x08, 0x00, 0x00, 0x00, 0x0C, 0x00, 0x00, 0x00, 0x01, 0x00, 0x00, 0x00, 0x5F, 0x4C, 0xDE, 0x3D, 0x01, 0x00, 0x00, 0x00, 0xE8, 0xFF, 0xFF, 0xFF, 0xFF, 0xFF, 0xFF, 0xFF, 0x00, 0x00, 0x00, 0x00, 0x2E, 0xCA, 0xFF, 0xFF, 0x04, 0x00, 0x00, 0x00, 0x10, 0x00, 0x00, 0x00, 0x71, 0x00, 0x00, 0x00, 0x7D, 0xFD, 0xFF, 0xFF, 0xC9, 0x02, 0x00, 0x00, 0x8A, 0xFE, 0xFF, 0xFF, 0x2E, 0xCA, 0xFF, 0xFF, 0x00, 0x00, 0x00, 0x02, 0x10, 0x00, 0x00, 0x00, 0x19, 0x00, 0x00, 0x00, 0x10, 0x00, 0x00, 0x00, 0x4C, 0x00, 0x00, 0x00, 0x01, 0x00, 0x00, 0x00, 0x04, 0x00, 0x00, 0x00, 0x3A, 0x00, 0x00, 0x00, 0x73, 0x65, 0x71, 0x75, 0x65, 0x6E, 0x74, 0x69, 0x61, 0x6C, 0x5F, 0x31, 0x2F, 0x71, 0x75, 0x61, 0x6E, 0x74, 0x5F, 0x64, 0x65, 0x6E, 0x73, 0x65, 0x5F, 0x33, 0x2F, 0x42, 0x69, 0x61, 0x73, 0x41, 0x64, 0x64, 0x2F, 0x52, 0x65, 0x61, 0x64, 0x56, 0x61, 0x72, 0x69, 0x61, 0x62, 0x6C, 0x65, 0x4F, 0x70, 0x2F, 0x72, 0x65, 0x73, 0x6F, 0x75, 0x72, 0x63, 0x65, 0x00, 0x00, 0xDC, 0xCA, 0xFF, 0xFF, 0x08, 0x00, 0x00, 0x00, 0x0C, 0x00, 0x00, 0x00, 0x01, 0x00, 0x00, 0x00, 0x47, 0x6C, 0x1B, 0x3A, 0x01, 0x00, 0x00, 0x00, 0x00, 0x00, 0x00, 0x00, 0x00, 0x00, 0x00, 0x00, 0xCA, 0xCA, 0xFF, 0xFF, 0x04, 0x00, 0x00, 0x00, 0x10, 0x00, 0x00, 0x00, 0x9F, 0x07, 0x8C, 0x87, 0xAF, 0x0F, 0x3D, 0x6D, 0x59, 0x8E, 0x61, 0x6F, 0x70, 0x99, 0x6B, 0x81, 0xCA, 0xCA, 0xFF, 0xFF, 0x00, 0x00, 0x00, 0x09, 0x10, 0x00, 0x00, 0x00, 0x18, 0x00, 0x00, 0x00, 0x14, 0x00, 0x00, 0x00, 0x78, 0x00, 0x00, 0x00, 0x02, 0x00, 0x00, 0x00, 0x04, 0x00, 0x00, 0x00, 0x04, 0x00, 0x00, 0x00, 0x63, 0x00, 0x00, 0x00, 0x73, 0x65, 0x71, 0x75, 0x65, 0x6E, 0x74, 0x69, 0x61, 0x6C, 0x5F, 0x31, 0x2F, 0x71, 0x75, 0x61, 0x6E, 0x74, 0x5F, 0x64, 0x65, 0x6E, 0x73, 0x65, 0x5F, 0x33, 0x2F, 0x4D, 0x61, 0x74, 0x4D, 0x75, 0x6C, 0x3B, 0x73, 0x65, 0x71, 0x75, 0x65, 0x6E, 0x74, 0x69, 0x61, 0x6C, 0x5F, 0x31, 0x2F, 0x71, 0x75, 0x61, 0x6E, 0x74, 0x5F, 0x64, 0x65, 0x6E, 0x73, 0x65, 0x5F, 0x33, 0x2F, 0x4C, 0x61, 0x73, 0x74, 0x56, 0x61, 0x6C, 0x75, 0x65, 0x51, 0x75, 0x61, 0x6E, 0x74, 0x2F, 0x46, 0x61, 0x6B, 0x65, 0x51, 0x75, 0x61, 0x6E, 0x74, 0x57, 0x69, 0x74, 0x68, 0x4D, 0x69, 0x6E, 0x4D, 0x61, 0x78, 0x56, 0x61, 0x72, 0x73, 0x00, 0xA4, 0xCB, 0xFF, 0xFF, 0x08, 0x00, 0x00, 0x00, 0x0C, 0x00, 0x00, 0x00, 0x01, 0x00, 0x00, 0x00, 0x42, 0x67, 0xA6, 0x3B, 0x01, 0x00, 0x00, 0x00, 0x00, 0x00, 0x00, 0x00, 0x00, 0x00, 0x00, 0x00, 0x00, 0x00, 0x00, 0x00, 0x02, 0xD1, 0xFF, 0xFF, 0x00, 0x00, 0x00, 0x08, 0x04, 0x00, 0x00, 0x00, 0x18, 0x00, 0x00, 0x00, 0x0C, 0x00, 0x00, 0x00, 0x04, 0x00, 0x00, 0x00, 0xD4, 0xCA, 0xFF, 0xFF, 0x01, 0x00, 0x00, 0x00, 0x16, 0x00, 0x00, 0x00, 0x03, 0x00, 0x00, 0x00, 0x13, 0x00, 0x00, 0x00, 0x14, 0x00, 0x00, 0x00, 0x15, 0x00, 0x00, 0x00, 0x78, 0xCD, 0xFF, 0xFF, 0x09, 0x00, 0x00, 0x00, 0x00, 0x00, 0x00, 0x09, 0x04, 0x00, 0x00, 0x00, 0x6C, 0xCD, 0xFF, 0xFF, 0x00, 0x00, 0x00, 0x09, 0x14, 0x00, 0x00, 0x00, 0x17, 0x00, 0x00, 0x00, 0x24, 0x00, 0x00, 0x00, 0x6C, 0x00, 0x00, 0x00, 0x10, 0x00, 0x00, 0x00, 0x02, 0x00, 0x00, 0x00, 0x01, 0x00, 0x00, 0x00, 0x04, 0x00, 0x00, 0x00, 0x02, 0x00, 0x00, 0x00, 0xFF, 0xFF, 0xFF, 0xFF, 0x04, 0x00, 0x00, 0x00, 0x44, 0x00, 0x00, 0x00, 0x73, 0x65, 0x71, 0x75, 0x65, 0x6E, 0x74, 0x69, 0x61, 0x6C, 0x5F, 0x31, 0x2F, 0x71, 0x75, 0x61, 0x6E, 0x74, 0x5F, 0x64, 0x65, 0x6E, 0x73, 0x65, 0x5F, 0x32, 0x2F, 0x4D, 0x61, 0x74, 0x4D, 0x75, 0x6C, 0x3B, 0x73, 0x65, 0x71, 0x75, 0x65, 0x6E, 0x74, 0x69, 0x61, 0x6C, 0x5F, 0x31, 0x2F, 0x71, 0x75, 0x61, 0x6E, 0x74, 0x5F, 0x64, 0x65, 0x6E, 0x73, 0x65, 0x5F, 0x32, 0x2F, 0x42, 0x69, 0x61, 0x73, 0x41, 0x64, 0x64, 0x00, 0x00, 0x00, 0x00, 0x8C, 0xCC, 0xFF, 0xFF, 0x08, 0x00, 0x00, 0x00, 0x0C, 0x00, 0x00, 0x00, 0x01, 0x00, 0x00, 0x00, 0x82, 0x1B, 0xEF, 0x3D, 0x01, 0x00, 0x00, 0x00, 0x05, 0x00, 0x00, 0x00, 0x00, 0x00, 0x00, 0x00, 0x00, 0x00, 0x00, 0x00, 0x7E, 0xCC, 0xFF, 0xFF, 0x04, 0x00, 0x00, 0x00, 0x10, 0x00, 0x00, 0x00, 0x95, 0xFF, 0xFF, 0xFF, 0x9A, 0xFF, 0xFF, 0xFF, 0x52, 0xFE, 0xFF, 0xFF, 0x3A, 0x00, 0x00, 0x00, 0x7E, 0xCC, 0xFF, 0xFF, 0x00, 0x00, 0x00, 0x02, 0x10, 0x00, 0x00, 0x00, 0x16, 0x00, 0x00, 0x00, 0x10, 0x00, 0x00, 0x00, 0x4C, 0x00, 0x00, 0x00, 0x01, 0x00, 0x00, 0x00, 0x04, 0x00, 0x00, 0x00, 0x3A, 0x00, 0x00, 0x00, 0x73, 0x65, 0x71, 0x75, 0x65, 0x6E, 0x74, 0x69, 0x61, 0x6C, 0x5F, 0x31, 0x2F, 0x71, 0x75, 0x61, 0x6E, 0x74, 0x5F, 0x64, 0x65, 0x6E, 0x73, 0x65, 0x5F, 0x32, 0x2F, 0x42, 0x69, 0x61, 0x73, 0x41, 0x64, 0x64, 0x2F, 0x52, 0x65, 0x61, 0x64, 0x56, 0x61, 0x72, 0x69, 0x61, 0x62, 0x6C, 0x65, 0x4F, 0x70, 0x2F, 0x72, 0x65, 0x73, 0x6F, 0x75, 0x72, 0x63, 0x65, 0x00, 0x00, 0x2C, 0xCD, 0xFF, 0xFF, 0x08, 0x00, 0x00, 0x00, 0x0C, 0x00, 0x00, 0x00, 0x01, 0x00, 0x00, 0x00, 0xC0, 0x36, 0x05, 0x3A, 0x01, 0x00, 0x00, 0x00, 0x00, 0x00, 0x00, 0x00, 0x00, 0x00, 0x00, 0x00, 0x1A, 0xCD, 0xFF, 0xFF, 0x04, 0x00, 0x00, 0x00, 0xC0, 0x0C, 0x00, 0x00, 0x07, 0xFE, 0x10, 0xF2, 0xE9, 0x02, 0x20, 0xE9, 0x15, 0xFF, 0xF2, 0x09, 0xF9, 0xF1, 0xFE, 0xEE, 0x11, 0x0A, 0xE1, 0x1A, 0x13, 0xF9, 0x1C, 0x08, 0xF3, 0xD9, 0x10, 0xD8, 0x0A, 0x01, 0xF8, 0x0A, 0xF8, 0xE4, 0xF6, 0xF0, 0x08, 0xED, 0xF4, 0x28, 0xE8, 0x08, 0x18, 0xEF, 0x23, 0x1D, 0xEA, 0x13, 0xFC, 0xEC, 0x18, 0xD4, 0x30, 0xD8, 0xED, 0xFE, 0x23, 0xE3, 0xF8, 0x1D, 0x15, 0xEF, 0x1B, 0x0A, 0xED, 0xE8, 0x16, 0x0B, 0x13, 0xF0, 0xF4, 0xF8, 0x1E, 0xDE, 0xD9, 0x01, 0x25, 0x39, 0xF4, 0xE6, 0x35, 0xEF, 0xEE, 0x2E, 0xD9, 0xD4, 0x0F, 0x19, 0xF0, 0x32, 0xD5, 0xE1, 0x27, 0x0F, 0xE6, 0x02, 0xF3, 0x27, 0x16, 0x1D, 0x17, 0x0D, 0x15, 0xDE, 0xDE, 0xD7, 0x0F, 0x0C, 0xEA, 0xEE, 0x17, 0xFA, 0xF6, 0xF9, 0x12, 0xF9, 0x33, 0x0B, 0x2A, 0x24, 0x20, 0x1D, 0x1A, 0x19, 0xF9, 0x16, 0xEC, 0xE4, 0x37, 0x14, 0x00, 0xEF, 0xF4, 0xF8, 0x2F, 0xEF, 0x0E, 0xDC, 0x12, 0x22, 0xF0, 0x04, 0xFE, 0x3D, 0x0F, 0x13, 0x16, 0xD6, 0x0F, 0xFF, 0x19, 0xD2, 0xFF, 0x17, 0xF5, 0x2A, 0xDE, 0xED, 0xE4, 0x13, 0x25, 0xFD, 0xE0, 0xEC, 0xEC, 0x2F, 0xD8, 0xCF, 0x32, 0x1E, 0x2A, 0xD3, 0xBE, 0x13, 0x09, 0xFE, 0xFB, 0x23, 0x0B, 0xCC, 0xFC, 0x33, 0xE7, 0x23, 0x19, 0x0E, 0x0A, 0xCE, 0xDC, 0xF7, 0xC3, 0x3D, 0x0C, 0x11, 0x17, 0xFF, 0x1B, 0x03, 0xE8, 0xFA, 0xCE, 0xDB, 0xF3, 0xD2, 0xE5, 0x10, 0xE7, 0x0D, 0xD2, 0xE8, 0x07, 0x22, 0xE9, 0x16, 0xEE, 0x1A, 0x24, 0xE4, 0x25, 0xE9, 0xEA, 0x0F, 0xE9, 0x3B, 0x2C, 0xF7, 0xDE, 0xD8, 0xE4, 0xDD, 0xEF, 0x1C, 0xDA, 0x0B, 0x1B, 0xE3, 0xE5, 0x02, 0x0F, 0x29, 0x37, 0xDC, 0x05, 0x05, 0x2C, 0x5A, 0x24, 0xF5, 0xFF, 0xE8, 0xE2, 0xF9, 0x27, 0x0C, 0xEB, 0x04, 0x13, 0xEB, 0xD3, 0x38, 0xF5, 0xE2, 0x31, 0x21, 0x1D, 0x1B, 0xFE, 0x1B, 0xD5, 0xBE, 0x0A, 0xB5, 0x08, 0x03, 0x02, 0xFC, 0xEF, 0xF0, 0x00, 0x12, 0x1D, 0xEB, 0xFF, 0x15, 0xFC, 0x05, 0xF9, 0xF9, 0x22, 0xF2, 0xFE, 0xEB, 0x21, 0x05, 0xE2, 0x1F, 0x25, 0xF7, 0x09, 0xF2, 0x10, 0xEC, 0xFA, 0x17, 0x1D, 0x14, 0x02, 0xE4, 0xDC, 0x0B, 0x20, 0x12, 0xDE, 0xEF, 0xF0, 0xF6, 0x17, 0x25, 0x01, 0x04, 0xEE, 0x07, 0x23, 0xEE, 0x24, 0x15, 0x0A, 0x35, 0x0A, 0x02, 0x1F, 0xEB, 0x09, 0xFD, 0xED, 0xCB, 0x17, 0x09, 0x3C, 0x1A, 0xD4, 0xF6, 0x21, 0x20, 0x1E, 0xFD, 0xE3, 0x2A, 0x00, 0xD9, 0x0F, 0xF5, 0xF7, 0xF6, 0x09, 0x11, 0xF6, 0xDB, 0x29, 0x2A, 0xF1, 0xE4, 0xF6, 0x23, 0xF2, 0x03, 0xE5, 0xFA, 0x0D, 0xD0, 0x35, 0x07, 0x23, 0x38, 0xF7, 0x13, 0x1B, 0x2C, 0x1F, 0x20, 0x17, 0x12, 0x1A, 0xD5, 0xD6, 0xD3, 0x23, 0xE4, 0xF4, 0x1F, 0xF0, 0xED, 0x0A, 0xF4, 0x11, 0x30, 0xE4, 0x0B, 0xE2, 0xD9, 0x33, 0xCC, 0xE5, 0xEE, 0x0C, 0xFB, 0x01, 0x0E, 0x21, 0xE2, 0x24, 0xD3, 0xDF, 0x25, 0x1B, 0xE9, 0xD8, 0x28, 0xE6, 0x04, 0x19, 0xDD, 0x34, 0xCB, 0x09, 0x18, 0x29, 0x25, 0xE9, 0xFF, 0xFF, 0x19, 0x23, 0xEC, 0x0F, 0x2D, 0x2B, 0xD8, 0xFF, 0x01, 0xE0, 0xF2, 0x13, 0x37, 0x12, 0x15, 0x1C, 0x45, 0x04, 0x13, 0x0D, 0xDC, 0x36, 0x11, 0xDA, 0x13, 0x2C, 0xF4, 0xF6, 0x07, 0xE9, 0x0E, 0x30, 0x04, 0x13, 0xD6, 0xCE, 0x27, 0x15, 0x1A, 0xF6, 0xEE, 0xD4, 0xDF, 0x20, 0x16, 0xCF, 0x11, 0x12, 0x53, 0x0A, 0xFF, 0x09, 0xD1, 0xEA, 0x07, 0x25, 0xE3, 0x1F, 0x16, 0x45, 0x34, 0xEB, 0x28, 0xF8, 0x26, 0x1B, 0x1D, 0x1C, 0xE2, 0xDA, 0x21, 0x2F, 0x26, 0x20, 0xD4, 0xF1, 0xE1, 0xCE, 0x02, 0x3A, 0x61, 0x24, 0x32, 0x1F, 0x31, 0x00, 0x2E, 0x3F, 0x1E, 0x2A, 0xF5, 0x28, 0xD3, 0x0D, 0xD4, 0x17, 0x27, 0x1E, 0x0D, 0xE7, 0xFA, 0x2B, 0x20, 0xF7, 0xEF, 0x32, 0x35, 0x39, 0x01, 0xBE, 0x1E, 0xE9, 0xC5, 0xF3, 0x13, 0xDC, 0xE2, 0x14, 0x07, 0x0A, 0xF5, 0xF5, 0x12, 0xE6, 0xFA, 0x05, 0x17, 0xF9, 0x10, 0xDA, 0xE9, 0xED, 0x00, 0x00, 0xF3, 0xFE, 0xE3, 0x29, 0xEF, 0xF8, 0x0A, 0x00, 0xF5, 0x0B, 0x2B, 0x0E, 0xEB, 0x30, 0x09, 0xCB, 0x0B, 0x27, 0x0B, 0x1D, 0xE7, 0xEC, 0x28, 0xF8, 0x0C, 0xE3, 0xF9, 0xF3, 0x27, 0xCE, 0x1F, 0x00, 0x15, 0x2C, 0x00, 0xF5, 0x13, 0xEB, 0x29, 0x10, 0xF3, 0x18, 0xE2, 0x01, 0xDB, 0x09, 0xED, 0xFD, 0x0D, 0x00, 0xE1, 0x05, 0x1E, 0xFA, 0xD3, 0x11, 0xD8, 0xF5, 0x01, 0x14, 0x0E, 0x08, 0xEA, 0x17, 0x2A, 0x0C, 0x01, 0x13, 0xCE, 0xED, 0xE9, 0xF0, 0xA9, 0xED, 0xC8, 0x08, 0xED, 0xE1, 0x29, 0x08, 0x07, 0xE7, 0x1B, 0x28, 0xE8, 0x01, 0xC9, 0x06, 0xD5, 0xFF, 0xE6, 0x1D, 0x06, 0x21, 0xD9, 0x43, 0x03, 0x09, 0x12, 0x0C, 0x3C, 0xE3, 0x39, 0xDD, 0x0D, 0xD4, 0xC2, 0x23, 0xEC, 0x26, 0x10, 0x2A, 0xE7, 0x0D, 0xFC, 0x0D, 0x0A, 0xFD, 0xF4, 0x11, 0x0D, 0xE6, 0x1F, 0x15, 0x31, 0x1B, 0x09, 0x26, 0x05, 0xE4, 0xDC, 0xE0, 0x01, 0xE9, 0x32, 0xF2, 0xD8, 0xC8, 0xCA, 0x3B, 0xCE, 0xF1, 0xDE, 0x28, 0xDC, 0xF7, 0x0F, 0x38, 0xFC, 0x02, 0xE7, 0x06, 0xE5, 0xE3, 0xEB, 0x32, 0x00, 0x26, 0x2A, 0xBF, 0xD9, 0x16, 0x33, 0xF2, 0x23, 0x34, 0x23, 0xF4, 0x23, 0x1C, 0x26, 0x2E, 0x22, 0x15, 0x31, 0xC5, 0x3B, 0x1F, 0x01, 0x2E, 0x3B, 0x19, 0x25, 0x28, 0xD5, 0x0D, 0x04, 0xFD, 0x43, 0xD6, 0x27, 0x14, 0x1B, 0x2D, 0x25, 0xF2, 0x14, 0x13, 0xF6, 0x2E, 0xC1, 0x23, 0x23, 0x20, 0x24, 0x36, 0xE5, 0xD8, 0x4B, 0xED, 0xFC, 0xF3, 0xF8, 0x33, 0xEE, 0x0A, 0x3B, 0x2C, 0xF7, 0x1B, 0x13, 0xCF, 0x3A, 0xC1, 0x21, 0x04, 0x33, 0x46, 0x1D, 0x1F, 0x17, 0x09, 0xE9, 0x2A, 0xF7, 0x3E, 0xF7, 0xE6, 0x27, 0x48, 0x36, 0x3F, 0x27, 0x3A, 0xEF, 0xEC, 0x19, 0xDC, 0xC5, 0xA9, 0xEF, 0xF1, 0x14, 0xE9, 0xE9, 0x0A, 0xFC, 0x05, 0x1D, 0xE1, 0x03, 0x12, 0xDF, 0x01, 0x08, 0xEB, 0x01, 0x2A, 0x05, 0xE9, 0xE5, 0x00, 0x0E, 0xFB, 0xF2, 0xFF, 0xF3, 0x18, 0xD2, 0x19, 0xEC, 0xF4, 0xEE, 0x04, 0xE6, 0x0E, 0xFE, 0x01, 0x22, 0x23, 0x13, 0x0D, 0xE2, 0x24, 0x0E, 0x0A, 0xEE, 0x18, 0xFE, 0x07, 0x0F, 0x02, 0x1A, 0x26, 0x27, 0xDD, 0xEA, 0x1E, 0x25, 0xFC, 0xD7, 0xCF, 0xF6, 0x1D, 0x1C, 0xEF, 0x15, 0xF9, 0x27, 0xFD, 0xFB, 0xF8, 0xD0, 0xF8, 0x23, 0xEB, 0xD3, 0xF8, 0xDC, 0x05, 0xFA, 0x1F, 0x02, 0xF5, 0x15, 0x27, 0x1B, 0x10, 0xD3, 0xDA, 0x03, 0x17, 0x0F, 0xD7, 0xD8, 0xE9, 0x16, 0x17, 0xD3, 0xCE, 0x10, 0xD3, 0x2A, 0x1C, 0x0C, 0xD8, 0xC5, 0x12, 0xDE, 0xD4, 0x10, 0x00, 0xD6, 0x11, 0x1F, 0x13, 0x08, 0xF2, 0xEE, 0x1D, 0x01, 0xD3, 0x11, 0xF8, 0xCA, 0xE8, 0xF6, 0xEE, 0xEC, 0x0C, 0x22, 0xED, 0x23, 0xF7, 0xEE, 0xF2, 0xFA, 0xE9, 0x0E, 0x19, 0xE3, 0xE1, 0xF0, 0x30, 0x0E, 0x29, 0xEC, 0xE6, 0xFC, 0x04, 0xE8, 0xF3, 0xF5, 0xD0, 0xD9, 0xE3, 0xD8, 0x0E, 0xE2, 0xF0, 0xDB, 0x06, 0x1E, 0x16, 0x24, 0xF7, 0xEE, 0xE6, 0xEC, 0x09, 0x15, 0xE6, 0x08, 0xF3, 0xFE, 0x0B, 0xC7, 0xD8, 0x2F, 0x1F, 0xD6, 0xF8, 0x1E, 0xEE, 0x03, 0xFF, 0x1B, 0x0B, 0x1C, 0x47, 0x07, 0x37, 0xCA, 0x20, 0xEF, 0xF6, 0xDC, 0x32, 0xDE, 0xFA, 0xDB, 0x2A, 0x29, 0xD5, 0x3A, 0xFC, 0xE1, 0x20, 0xE3, 0x34, 0x27, 0xC5, 0x00, 0xEA, 0x14, 0xDC, 0xFD, 0x1F, 0x17, 0xD8, 0xDD, 0xF3, 0xF3, 0xFE, 0xE8, 0xFA, 0x1F, 0xFB, 0xF4, 0xFD, 0x1B, 0x1D, 0x03, 0x00, 0x27, 0x27, 0xFA, 0xF3, 0xCA, 0x2C, 0xE6, 0xF9, 0x22, 0xD4, 0x16, 0xEC, 0xD2, 0xEC, 0x20, 0xD5, 0x22, 0xF3, 0xDB, 0xE3, 0x19, 0x14, 0x0E, 0x03, 0xE7, 0xF1, 0x11, 0x0E, 0xE7, 0xFA, 0x1F, 0x1A, 0x20, 0xFF, 0xF2, 0xE6, 0x11, 0x32, 0x2F, 0x11, 0xE2, 0x15, 0xED, 0xED, 0xED, 0xEB, 0x19, 0x1B, 0xFA, 0xE6, 0xDE, 0xF7, 0x1C, 0x07, 0x19, 0xEC, 0x06, 0x2C, 0xF0, 0x06, 0x0C, 0xD5, 0x22, 0x24, 0xF1, 0xF7, 0xFD, 0x1A, 0x13, 0x0F, 0xDC, 0x10, 0xFF, 0xED, 0x0B, 0x20, 0xFB, 0xC4, 0xFF, 0x07, 0x07, 0xFA, 0x25, 0xEA, 0xF0, 0xE8, 0x02, 0x18, 0x0E, 0x0E, 0x0F, 0x1C, 0xC5, 0xEB, 0xE7, 0xE8, 0x1B, 0xCD, 0x1D, 0xD2, 0xE3, 0x0B, 0x59, 0x34, 0xF0, 0xF4, 0x0E, 0xEF, 0x08, 0xD1, 0xD8, 0x30, 0xDB, 0x24, 0xD9, 0x1F, 0x06, 0xF7, 0xFC, 0xCC, 0xD7, 0xFB, 0xFA, 0x24, 0x35, 0xF2, 0x22, 0xCD, 0xCA, 0x1B, 0x1D, 0xFE, 0xDA, 0x08, 0xE0, 0x2A, 0x0E, 0x0D, 0xF8, 0x0A, 0xF6, 0xC6, 0xD9, 0xD4, 0xF0, 0xFE, 0x2C, 0x17, 0xF3, 0x0D, 0x24, 0x02, 0x24, 0xEA, 0xF4, 0xC8, 0xF4, 0xD7, 0xC5, 0x19, 0xD0, 0x20, 0xD9, 0xE7, 0xDE, 0xE8, 0xE2, 0x25, 0xDD, 0x26, 0xE9, 0xE0, 0xD9, 0x00, 0x0D, 0x0E, 0x10, 0x0B, 0x24, 0xDD, 0x19, 0x2C, 0xF5, 0x06, 0x00, 0xCF, 0x0E, 0xF7, 0x23, 0x07, 0x05, 0x1F, 0x01, 0xDB, 0x01, 0x0D, 0xE2, 0xF7, 0x23, 0xCF, 0xDD, 0xEC, 0x19, 0x03, 0xF4, 0x10, 0xE9, 0x28, 0x0F, 0xF4, 0x2D, 0x2E, 0xD9, 0x0B, 0x19, 0xF8, 0xF8, 0xFD, 0xDB, 0x17, 0xF6, 0xD3, 0x13, 0x26, 0x16, 0xD2, 0xEB, 0x0F, 0xF2, 0xE9, 0xCA, 0xF5, 0x0D, 0xF2, 0xF9, 0xD5, 0xFF, 0x03, 0x13, 0x1E, 0x2D, 0x10, 0x26, 0xE4, 0xEB, 0xF2, 0xC1, 0x25, 0xD8, 0xF9, 0xE4, 0xF3, 0x21, 0x1E, 0x2C, 0x20, 0xD8, 0xDF, 0x0F, 0xDB, 0xD2, 0xE6, 0x06, 0x2D, 0xD2, 0x0C, 0xE5, 0x23, 0xDF, 0x34, 0xE3, 0xF9, 0xE2, 0xE6, 0xD7, 0x10, 0x19, 0x18, 0xB9, 0xCF, 0xF9, 0xBA, 0xEF, 0x22, 0x0C, 0x17, 0x08, 0xF5, 0xDD, 0xD1, 0xD7, 0x05, 0x08, 0x2D, 0xC6, 0x1B, 0xDD, 0xCC, 0x19, 0x32, 0x03, 0x25, 0x1A, 0xD9, 0xCD, 0xDF, 0xE0, 0x3D, 0xE0, 0xEE, 0x2C, 0xDF, 0xFA, 0xCD, 0x04, 0x0B, 0x09, 0xF6, 0x21, 0x0E, 0xE3, 0x21, 0x24, 0x01, 0xF9, 0x03, 0x16, 0xFC, 0x1A, 0xF6, 0xDB, 0x21, 0x0E, 0xF8, 0xF7, 0xFD, 0xD4, 0x14, 0xDC, 0xEF, 0x00, 0xEF, 0x20, 0x1D, 0xFD, 0xF4, 0xD8, 0x43, 0xCD, 0xEB, 0xF5, 0x0E, 0x05, 0x1B, 0x10, 0x0D, 0x0E, 0x0A, 0xF7, 0x0A, 0xFB, 0xDF, 0xE2, 0x48, 0xCF, 0xFB, 0xD3, 0x14, 0x06, 0xEF, 0x1B, 0x28, 0x0B, 0x14, 0x51, 0x22, 0xDE, 0xD2, 0x08, 0xF6, 0xEF, 0xE4, 0x10, 0x1F, 0x31, 0xF9, 0x37, 0xDD, 0x45, 0xDE, 0x2D, 0xF0, 0x0B, 0xEE, 0xD4, 0xDC, 0xFC, 0x10, 0x32, 0xF3, 0xEF, 0x36, 0x10, 0x36, 0x25, 0x1D, 0x11, 0xEF, 0x1A, 0x01, 0x20, 0x39, 0x09, 0x12, 0x2A, 0xF3, 0xF1, 0xF1, 0xF5, 0x20, 0xE6, 0xFD, 0x28, 0xFB, 0xDC, 0x0E, 0xE3, 0x39, 0x2A, 0x06, 0xD4, 0x28, 0xCE, 0x15, 0xC3, 0xEE, 0x0C, 0x14, 0x12, 0xEB, 0x2E, 0x19, 0xFB, 0xEC, 0xE7, 0xF6, 0xFE, 0x2E, 0x19, 0x1A, 0x1A, 0xFB, 0x21, 0x32, 0x21, 0x21, 0x04, 0x25, 0xE8, 0x1E, 0xD6, 0x1F, 0x1C, 0xDA, 0xD3, 0xE0, 0x0C, 0x10, 0xD8, 0x37, 0x48, 0x0E, 0x2B, 0x0D, 0x1B, 0xFD, 0x09, 0xFD, 0xD7, 0xFE, 0x06, 0x01, 0xD4, 0x09, 0x09, 0x11, 0xD6, 0x21, 0xE7, 0x04, 0xDF, 0xE4, 0xE7, 0x13, 0xEF, 0xF3, 0x1E, 0x24, 0x20, 0x0C, 0xD6, 0xF3, 0x0D, 0xC7, 0xCD, 0x2D, 0x27, 0xE0, 0xCE, 0xDB, 0x19, 0xE2, 0xE3, 0x09, 0x15, 0x25, 0xBA, 0x26, 0xD8, 0xD1, 0x0E, 0xF2, 0xD2, 0xC7, 0x38, 0x04, 0x2C, 0xEF, 0xDD, 0xC4, 0xFB, 0xF3, 0xF4, 0x21, 0x06, 0xD8, 0xC4, 0x1A, 0xEE, 0x3D, 0xF6, 0xC7, 0x27, 0xF7, 0x11, 0xF2, 0x18, 0xD6, 0xCB, 0xF6, 0x21, 0xCF, 0xF2, 0x02, 0xF8, 0x1D, 0x07, 0x20, 0x0C, 0x1F, 0xEA, 0xEB, 0xF4, 0x0A, 0xF1, 0x20, 0xE5, 0xD9, 0x21, 0x1F, 0xF9, 0xC5, 0x8E, 0x27, 0xF8, 0x1C, 0x07, 0x1A, 0x1E, 0xEA, 0xA1, 0x11, 0x01, 0x1B, 0xFD, 0xD9, 0x03, 0x24, 0x01, 0xD5, 0x1B, 0x22, 0x05, 0x04, 0x1F, 0x0A, 0xFD, 0xFF, 0xF9, 0x0C, 0xF4, 0x0B, 0xDF, 0xEB, 0x0D, 0xDC, 0xFA, 0xF8, 0xFF, 0xF8, 0xD8, 0x08, 0x0B, 0x04, 0xFA, 0x11, 0x02, 0xDE, 0x22, 0x22, 0x12, 0xE6, 0xE2, 0x22, 0xE5, 0x07, 0xE0, 0x02, 0x00, 0xF6, 0xFE, 0x2A, 0x0F, 0x20, 0x18, 0xF2, 0x23, 0x04, 0x20, 0xFB, 0xD6, 0x09, 0xFF, 0x14, 0xFB, 0xCF, 0xEF, 0x0C, 0xDC, 0xED, 0x14, 0xF6, 0xBA, 0xF2, 0xE5, 0xFA, 0x12, 0xFE, 0xFD, 0xF7, 0xF6, 0x1D, 0xFD, 0x14, 0xE3, 0x00, 0x16, 0xD5, 0xE3, 0xD1, 0xDC, 0x0B, 0x05, 0xDB, 0x2F, 0xFE, 0x19, 0x19, 0x0D, 0xEF, 0x00, 0xD3, 0x1B, 0xED, 0xEF, 0x28, 0xEA, 0x2D, 0xDB, 0xE5, 0x2E, 0x23, 0x05, 0xFA, 0xE4, 0xFE, 0x01, 0x02, 0x04, 0xE4, 0xF1, 0xED, 0x21, 0xD3, 0xFB, 0x00, 0x20, 0xE5, 0x19, 0x05, 0xFF, 0x20, 0xFC, 0xEF, 0x23, 0xF7, 0x15, 0xE7, 0xF5, 0x0B, 0xFA, 0x28, 0x11, 0xFB, 0xF9, 0xE7, 0xF4, 0x24, 0xD0, 0x13, 0xCE, 0xD4, 0xE1, 0xDA, 0xD6, 0xDA, 0x18, 0xF0, 0xD6, 0xEC, 0xD7, 0xFE, 0x1B, 0xF3, 0x1F, 0xDE, 0xED, 0x0C, 0x32, 0xD9, 0x1D, 0x06, 0xCE, 0x2B, 0xFE, 0xE1, 0xF1, 0x14, 0x36, 0x26, 0x0C, 0xFA, 0xDF, 0xF1, 0x30, 0x2F, 0xEC, 0x30, 0xC7, 0x23, 0xD9, 0xD5, 0x26, 0x0B, 0x39, 0x1D, 0xFA, 0xD5, 0xF6, 0xEB, 0xFF, 0x2A, 0xF0, 0x23, 0xDD, 0x05, 0xFA, 0x20, 0x2B, 0xE0, 0xEE, 0x14, 0xDE, 0x27, 0xE5, 0x16, 0x3B, 0xE3, 0xEE, 0x10, 0xE6, 0x24, 0xF7, 0xEA, 0x0D, 0x17, 0x20, 0xFD, 0x3D, 0x08, 0xCF, 0xFE, 0xE8, 0x0D, 0xFA, 0x13, 0xE9, 0x24, 0x1C, 0xC6, 0x4E, 0xF7, 0xEB, 0xDE, 0x2C, 0xF8, 0xD7, 0xEF, 0x22, 0xDE, 0x25, 0x15, 0x2E, 0xFE, 0x1F, 0x15, 0x2C, 0xEA, 0x22, 0xE3, 0xCB, 0xDC, 0xE6, 0x0A, 0x26, 0xD7, 0xF4, 0x29, 0x29, 0xF6, 0x17, 0xC8, 0xF0, 0xB3, 0x0A, 0xF7, 0x11, 0x1E, 0x1A, 0xE8, 0x01, 0xEB, 0xFD, 0xF0, 0x17, 0xF2, 0x21, 0xFC, 0xF0, 0x01, 0xE3, 0xEA, 0xE7, 0x24, 0x13, 0x1A, 0xF4, 0xF8, 0xF5, 0x2D, 0x0D, 0x0F, 0x04, 0x18, 0x1D, 0xFF, 0x08, 0x06, 0xF1, 0xF7, 0x1E, 0xD0, 0x02, 0x26, 0x1F, 0xE8, 0x28, 0xEE, 0x14, 0x18, 0x0F, 0x08, 0xEC, 0xD9, 0xED, 0xE6, 0x18, 0xE9, 0x38, 0x08, 0xE5, 0xD0, 0xCF, 0x2B, 0x0B, 0x17, 0xE8, 0x05, 0x0C, 0xD9, 0x02, 0xFF, 0xF1, 0x25, 0x3E, 0x0E, 0xFA, 0x17, 0x0B, 0xF0, 0xF4, 0x03, 0xD2, 0x1A, 0xDB, 0x27, 0xFD, 0x01, 0xD6, 0xE1, 0xE2, 0x38, 0x24, 0xF6, 0xF0, 0x11, 0xD3, 0x12, 0x2C, 0xEA, 0x17, 0x22, 0x0E, 0x37, 0xE8, 0x1F, 0x02, 0x0C, 0xE4, 0x0D, 0xFF, 0xD1, 0x2C, 0xF7, 0x15, 0xEC, 0x3E, 0xD9, 0xFB, 0xE9, 0x2B, 0x21, 0xD8, 0xFC, 0xD7, 0xF3, 0xDA, 0x1D, 0xEE, 0xD3, 0xF5, 0x09, 0x05, 0x00, 0xDC, 0x01, 0xFD, 0xFA, 0x1E, 0xDB, 0x03, 0x0F, 0x04, 0x22, 0x33, 0x27, 0xDC, 0x00, 0xFD, 0xFB, 0xDE, 0xFC, 0x19, 0x1A, 0xEF, 0x1D, 0xF4, 0x16, 0x23, 0x11, 0xEA, 0x2A, 0xCC, 0xF8, 0x1E, 0x39, 0xDA, 0x2F, 0xE8, 0x12, 0xD0, 0x35, 0x04, 0x06, 0x27, 0xD9, 0x37, 0x06, 0xC7, 0xF1, 0x2C, 0x01, 0xF6, 0x2E, 0x18, 0xFC, 0xDC, 0xDE, 0x21, 0xE1, 0xE9, 0xF3, 0xEC, 0xFE, 0x38, 0x31, 0x2C, 0xD7, 0x1E, 0x36, 0x33, 0x27, 0x30, 0x02, 0x31, 0xD8, 0xED, 0x16, 0xEB, 0xE6, 0xEB, 0x31, 0x01, 0x23, 0xFE, 0x10, 0x2F, 0x27, 0x19, 0xDD, 0x1A, 0x18, 0x35, 0x33, 0x0F, 0xFD, 0x1F, 0xF3, 0x03, 0x3A, 0xF6, 0x27, 0x0B, 0xD5, 0xE2, 0x0D, 0x1F, 0x1F, 0xDE, 0x03, 0xD5, 0xDB, 0x36, 0x48, 0x4F, 0xE8, 0xF0, 0x00, 0xD0, 0x13, 0x06, 0xEA, 0xFF, 0x1E, 0x2F, 0x1B, 0xF3, 0xFA, 0xD8, 0x0B, 0x51, 0x39, 0x32, 0xF5, 0x34, 0x14, 0x1A, 0xD8, 0xF2, 0xFD, 0x27, 0x0D, 0x15, 0xD9, 0x14, 0x1A, 0xD7, 0x00, 0x03, 0x05, 0x16, 0x15, 0xE3, 0xFD, 0xE6, 0xEA, 0xF6, 0x05, 0xEC, 0x10, 0x08, 0x0D, 0x1C, 0xF3, 0x0E, 0xFB, 0xF0, 0x00, 0x0A, 0xEE, 0xDC, 0xE4, 0x1D, 0x06, 0xEB, 0x1B, 0xFA, 0x00, 0x27, 0x25, 0x1C, 0x07, 0x0D, 0xE7, 0x13, 0x37, 0xE8, 0x10, 0xF7, 0xFE, 0xDA, 0x0C, 0xD1, 0xFC, 0x03, 0xE4, 0x0F, 0xE1, 0xD9, 0xE4, 0x46, 0x01, 0x45, 0x10, 0x0E, 0x3A, 0xEE, 0xFC, 0xF4, 0x00, 0xF1, 0xEC, 0xDF, 0x2A, 0xF3, 0xE2, 0x01, 0xF1, 0x15, 0xDF, 0xEC, 0x27, 0xE2, 0x14, 0xAF, 0x28, 0x2F, 0x11, 0x00, 0x05, 0x1C, 0x25, 0x3C, 0xDE, 0x03, 0xC7, 0x1A, 0xCD, 0xE0, 0x25, 0xFE, 0xEE, 0xF6, 0x2A, 0xFF, 0xF8, 0xDB, 0x1D, 0x08, 0x14, 0xE5, 0x18, 0xD2, 0x13, 0xFD, 0xE1, 0x15, 0xC5, 0xD0, 0x2B, 0x11, 0x40, 0x1A, 0xE9, 0x03, 0x25, 0xDC, 0xF6, 0xD8, 0xF9, 0x31, 0x1F, 0xF5, 0xFB, 0xC8, 0x2B, 0xF6, 0x2F, 0x29, 0x06, 0x05, 0xEF, 0x2B, 0xDA, 0x16, 0x25, 0xD4, 0x26, 0x32, 0xFC, 0xEC, 0x00, 0x09, 0x02, 0x1D, 0x00, 0x12, 0x03, 0xFB, 0x0A, 0x24, 0xFA, 0xEE, 0x2F, 0x2D, 0x2A, 0xEC, 0x40, 0xEE, 0xFE, 0x16, 0xEF, 0xF9, 0x04, 0x0C, 0xEF, 0xDE, 0x12, 0xF5, 0x0C, 0xF2, 0xDE, 0xD8, 0xD9, 0x2C, 0x17, 0x25, 0xE7, 0x3F, 0x0F, 0x06, 0x0F, 0x17, 0xDB, 0x09, 0xF0, 0x01, 0x42, 0x1A, 0x12, 0xFF, 0x3E, 0x36, 0x08, 0x24, 0x2C, 0x41, 0xDF, 0xFA, 0x07, 0xFC, 0xFF, 0x01, 0x25, 0xE0, 0x0C, 0x2D, 0xDD, 0xEC, 0xED, 0xE1, 0x12, 0x07, 0x2C, 0x17, 0x37, 0xE0, 0x1F, 0xBC, 0x21, 0xF9, 0xF8, 0x35, 0x1A, 0x34, 0x13, 0x4F, 0x42, 0x20, 0xF7, 0x24, 0x0D, 0x11, 0x17, 0xF2, 0x3C, 0x23, 0xFD, 0xF1, 0x15, 0xEA, 0xC0, 0x32, 0x21, 0xF6, 0x0F, 0xEA, 0x1D, 0xD9, 0x3E, 0xAC, 0x37, 0xF0, 0xD4, 0xFB, 0xF2, 0x25, 0x4C, 0x3C, 0xEA, 0x22, 0x05, 0x2F, 0xE7, 0xE4, 0x3A, 0x8E, 0xAA, 0xD5, 0x2A, 0x16, 0xE7, 0x04, 0xF1, 0xF3, 0x21, 0x02, 0xE9, 0x04, 0xFF, 0xD1, 0x04, 0xFE, 0xFB, 0xFA, 0xE8, 0xF5, 0xFE, 0x0D, 0xFD, 0xFC, 0x01, 0x1B, 0x18, 0xFD, 0xFF, 0x10, 0x00, 0xF8, 0xF7, 0x07, 0xD5, 0x24, 0x1C, 0xD9, 0xEA, 0x09, 0x03, 0x23, 0xD0, 0x01, 0xE4, 0xF0, 0x00, 0x31, 0xFD, 0xEA, 0xE5, 0xFE, 0x0C, 0xC7, 0xFF, 0x20, 0xEB, 0xD2, 0x0D, 0x1F, 0x03, 0x14, 0xE7, 0x0B, 0xE0, 0x24, 0x0A, 0xF8, 0xDE, 0xF4, 0xC5, 0xF8, 0x1D, 0x09, 0x0F, 0x03, 0xFA, 0x17, 0x0B, 0xED, 0xDF, 0xFF, 0x03, 0xF7, 0x28, 0x2C, 0x26, 0xF3, 0xD6, 0xED, 0xD6, 0x05, 0x04, 0x04, 0xF8, 0xED, 0x27, 0x33, 0xEB, 0xEF, 0xDC, 0xEB, 0x02, 0xE4, 0x28, 0xE5, 0x0E, 0x1E, 0x04, 0x2A, 0xEE, 0xF1, 0xF2, 0x31, 0x2C, 0x00, 0xEA, 0xDC, 0x06, 0x08, 0xE8, 0xF6, 0x23, 0xFA, 0xEE, 0xF8, 0x00, 0x18, 0x01, 0x0B, 0x08, 0x28, 0xD6, 0xE5, 0xE8, 0xDF, 0xEA, 0x22, 0x12, 0x1A, 0x0D, 0x14, 0x16, 0x0E, 0xBC, 0x20, 0xDF, 0x13, 0xEF, 0xE8, 0xD7, 0x19, 0xDF, 0x0F, 0xDE, 0x27, 0xF3, 0x13, 0xF8, 0xDA, 0x2A, 0x08, 0x27, 0x0E, 0x0E, 0x08, 0xF9, 0xED, 0xD3, 0x17, 0x12, 0x25, 0x01, 0x0C, 0x1A, 0x07, 0x2C, 0xE5, 0xE7, 0xE0, 0x21, 0x19, 0xF4, 0x09, 0xF6, 0xF5, 0xDA, 0x05, 0x1A, 0xF8, 0xF3, 0xE8, 0x1E, 0xE3, 0x1F, 0xDE, 0x28, 0xDA, 0x19, 0xC2, 0xCC, 0xFC, 0xF4, 0x0B, 0xD7, 0xEA, 0x19, 0xD3, 0x0E, 0xC9, 0xDB, 0x11, 0xF8, 0x17, 0x2B, 0x19, 0x1F, 0xFC, 0xF3, 0x11, 0x01, 0x1B, 0x14, 0xDC, 0x48, 0xFB, 0x03, 0xF8, 0x06, 0xE2, 0xD0, 0xE3, 0xFB, 0x2C, 0xE9, 0x08, 0xDF, 0x2F, 0xEB, 0xE4, 0x15, 0xE6, 0x08, 0xEC, 0xFC, 0xFC, 0xF7, 0x26, 0x0F, 0xF3, 0x03, 0xEE, 0x2C, 0x1D, 0xE3, 0xF0, 0xF9, 0x29, 0x08, 0xFA, 0xD3, 0x1E, 0xD1, 0x33, 0xE4, 0xFB, 0xD9, 0xFF, 0xDE, 0xD2, 0x2A, 0x31, 0xD4, 0xFA, 0x0C, 0xFB, 0xE1, 0x1D, 0x09, 0xF8, 0x00, 0xEB, 0x12, 0x18, 0x0A, 0x26, 0xF1, 0x08, 0x09, 0x1B, 0x01, 0xEF, 0xF2, 0xE1, 0x27, 0x01, 0x04, 0x06, 0xE9, 0x0D, 0x0B, 0xE4, 0x0F, 0xEA, 0x05, 0xEB, 0xEB, 0x08, 0xE1, 0x08, 0x19, 0xF8, 0x24, 0x09, 0xED, 0x34, 0x14, 0x00, 0x1F, 0x13, 0x2C, 0xFC, 0xDE, 0x07, 0x2D, 0x18, 0xE6, 0x31, 0xE7, 0x30, 0xD8, 0x0E, 0x13, 0x06, 0x02, 0x10, 0xCD, 0xE9, 0x21, 0x03, 0x2E, 0xD9, 0x0F, 0x04, 0xD0, 0x1B, 0x22, 0xF1, 0xDE, 0x1A, 0xF6, 0xF6, 0xCA, 0x16, 0xEC, 0xE3, 0x18, 0xF4, 0xD3, 0xD6, 0x09, 0x07, 0x05, 0x25, 0x12, 0xEC, 0xF4, 0xF7, 0xF0, 0x36, 0x22, 0x03, 0xF6, 0xFF, 0x28, 0x13, 0x25, 0x06, 0x26, 0x0E, 0x18, 0xF1, 0x1A, 0xCB, 0x0B, 0xFC, 0xFB, 0xF0, 0xC6, 0xF3, 0xCB, 0x20, 0x31, 0xE7, 0x24, 0xFE, 0x02, 0xE3, 0xEA, 0x09, 0x0A, 0xE5, 0xFA, 0x05, 0x04, 0x11, 0xF1, 0xFA, 0x07, 0xE8, 0x29, 0xEA, 0x23, 0x2C, 0xFB, 0xF8, 0x0E, 0x19, 0x0B, 0x12, 0x01, 0xC8, 0xF0, 0xE2, 0x0C, 0xEE, 0xD7, 0xED, 0xBA, 0xF2, 0xF5, 0xEB, 0xDD, 0xD2, 0x23, 0x0E, 0x11, 0xEE, 0xFF, 0xF3, 0x14, 0x17, 0xCB, 0xD7, 0x0C, 0x06, 0xDA, 0xE0, 0xBC, 0xD5, 0xEB, 0xC4, 0xDC, 0xDD, 0x19, 0xD8, 0xD8, 0x15, 0x16, 0x2F, 0x0C, 0x0B, 0x05, 0xC5, 0xCA, 0xF4, 0x02, 0xDF, 0xF9, 0x10, 0x0D, 0xDC, 0xE7, 0x2F, 0x0C, 0xF6, 0xDD, 0x10, 0xDE, 0xBC, 0x0F, 0xB9, 0x00, 0x0C, 0x2C, 0xEE, 0xC0, 0x1A, 0x0F, 0xE0, 0xF1, 0xD6, 0x0F, 0x02, 0x09, 0x0B, 0xF6, 0xE0, 0x06, 0x1C, 0xE3, 0xE2, 0xDA, 0xC6, 0x04, 0xE7, 0x0B, 0x17, 0x11, 0x2C, 0x04, 0xF6, 0xB1, 0xCA, 0xCB, 0xDE, 0x07, 0xE3, 0x0E, 0xF5, 0x04, 0x02, 0xED, 0x01, 0xFA, 0xC8, 0x0A, 0x44, 0xDF, 0x29, 0xE9, 0x12, 0x45, 0x17, 0xF1, 0x1C, 0x25, 0xDB, 0xD5, 0x0B, 0xF3, 0xF0, 0x21, 0x1E, 0xF4, 0x7F, 0x01, 0x00, 0xF1, 0xDF, 0x23, 0x08, 0xFB, 0x0A, 0x04, 0xEC, 0xEF, 0x13, 0x1B, 0xED, 0x01, 0xDE, 0xDA, 0x1B, 0x14, 0xF3, 0x21, 0xF3, 0x01, 0x25, 0xE7, 0xF3, 0xF7, 0x36, 0xF3, 0x20, 0x0D, 0x0A, 0x22, 0x2B, 0xD8, 0x41, 0xBF, 0x22, 0x1B, 0x20, 0xDA, 0xFB, 0xD9, 0xDF, 0xF8, 0x2E, 0x13, 0x17, 0xF8, 0xFB, 0xF0, 0x03, 0x33, 0xF9, 0x29, 0x11, 0x1A, 0x18, 0x3E, 0xE6, 0xF4, 0x0F, 0xF6, 0x13, 0x10, 0xD6, 0x64, 0x0A, 0x22, 0x24, 0xF2, 0xDF, 0xD5, 0x0C, 0x1F, 0xF5, 0xDD, 0x03, 0xE0, 0x35, 0xDD, 0xDF, 0x38, 0x12, 0x21, 0xF4, 0x15, 0xCA, 0x18, 0xF7, 0xF9, 0x09, 0x0C, 0x23, 0xFB, 0x0D, 0xFA, 0xCF, 0xF9, 0xEF, 0x15, 0x40, 0x29, 0xDB, 0x25, 0xD4, 0x2C, 0xE0, 0xE6, 0xC4, 0xF0, 0x2C, 0xDB, 0xE9, 0xD6, 0x27, 0xF8, 0x2C, 0xEE, 0xED, 0x0C, 0x0F, 0x21, 0xEB, 0xDE, 0x04, 0xFF, 0xED, 0x25, 0xBF, 0x12, 0x0B, 0x03, 0x49, 0x00, 0xD6, 0x17, 0xCA, 0xDC, 0xC3, 0x02, 0x35, 0xEC, 0xCD, 0x0F, 0x1B, 0xE6, 0xE0, 0xD2, 0xFB, 0xE2, 0xC8, 0x23, 0x0F, 0xF2, 0xC0, 0xD4, 0x28, 0x30, 0xD8, 0xEF, 0xC5, 0xDB, 0xDA, 0x22, 0xDD, 0xFF, 0x11, 0x0A, 0x14, 0xFF, 0x0C, 0xEF, 0xC6, 0xE8, 0xFC, 0xEB, 0xE4, 0x12, 0xBC, 0x3F, 0x06, 0x0A, 0xBA, 0xF6, 0xF4, 0x13, 0xD6, 0xE1, 0x28, 0x07, 0xEA, 0xEF, 0x06, 0x07, 0x0E, 0x14, 0xDA, 0x19, 0xD7, 0xF0, 0x04, 0xE5, 0xD4, 0x10, 0xE4, 0x25, 0x14, 0xE2, 0xFA, 0x25, 0xDB, 0x05, 0x02, 0x07, 0xE7, 0x1F, 0x0E, 0xF5, 0xC2, 0xC7, 0xF3, 0x94, 0xD6, 0xD4, 0x13, 0xD3, 0xF3, 0xD5, 0xA6, 0xFB, 0xCD, 0x1B, 0x25, 0xB6, 0xDD, 0xDB, 0x16, 0x19, 0xD0, 0x00, 0xDC, 0x11, 0xF7, 0x05, 0xD5, 0xFF, 0xE6, 0x04, 0xDA, 0xCE, 0xE4, 0x13, 0x4F, 0x1C, 0x1F, 0xB0, 0xF5, 0x05, 0x21, 0x0F, 0x40, 0x00, 0xDD, 0xEC, 0x0C, 0xCF, 0x0A, 0x30, 0x28, 0xFF, 0xE9, 0xCA, 0xD9, 0xFF, 0xFF, 0x00, 0x00, 0x00, 0x09, 0x10, 0x00, 0x00, 0x00, 0x15, 0x00, 0x00, 0x00, 0x14, 0x00, 0x00, 0x00, 0x78, 0x00, 0x00, 0x00, 0x02, 0x00, 0x00, 0x00, 0x04, 0x00, 0x00, 0x00, 0x30, 0x03, 0x00, 0x00, 0x63, 0x00, 0x00, 0x00, 0x73, 0x65, 0x71, 0x75, 0x65, 0x6E, 0x74, 0x69, 0x61, 0x6C, 0x5F, 0x31, 0x2F, 0x71, 0x75, 0x61, 0x6E, 0x74, 0x5F, 0x64, 0x65, 0x6E, 0x73, 0x65, 0x5F, 0x32, 0x2F, 0x4D, 0x61, 0x74, 0x4D, 0x75, 0x6C, 0x3B, 0x73, 0x65, 0x71, 0x75, 0x65, 0x6E, 0x74, 0x69, 0x61, 0x6C, 0x5F, 0x31, 0x2F, 0x71, 0x75, 0x61, 0x6E, 0x74, 0x5F, 0x64, 0x65, 0x6E, 0x73, 0x65, 0x5F, 0x32, 0x2F, 0x4C, 0x61, 0x73, 0x74, 0x56, 0x61, 0x6C, 0x75, 0x65, 0x51, 0x75, 0x61, 0x6E, 0x74, 0x2F, 0x46, 0x61, 0x6B, 0x65, 0x51, 0x75, 0x61, 0x6E, 0x74, 0x57, 0x69, 0x74, 0x68, 0x4D, 0x69, 0x6E, 0x4D, 0x61, 0x78, 0x56, 0x61, 0x72, 0x73, 0x00, 0xA4, 0xDA, 0xFF, 0xFF, 0x08, 0x00, 0x00, 0x00, 0x0C, 0x00, 0x00, 0x00, 0x01, 0x00, 0x00, 0x00, 0x26, 0xBB, 0xD7, 0x3A, 0x01, 0x00, 0x00, 0x00, 0x00, 0x00, 0x00, 0x00, 0x00, 0x00, 0x00, 0x00, 0x00, 0x00, 0x0A, 0x00, 0x10, 0x00, 0x04, 0x00, 0x08, 0x00, 0x0C, 0x00, 0x0A, 0x00, 0x00, 0x00, 0x03, 0x00, 0x00, 0x00, 0x10, 0x00, 0x00, 0x00, 0x04, 0x00, 0x00, 0x00, 0x01, 0x00, 0x00, 0x00, 0x13, 0x00, 0x00, 0x00, 0x02, 0x00, 0x00, 0x00, 0x12, 0x00, 0x00, 0x00, 0x01, 0x00, 0x00, 0x00, 0x70, 0xDC, 0xFF, 0xFF, 0x16, 0x00, 0x00, 0x00, 0x00, 0x00, 0x00, 0x16, 0x01, 0x00, 0x00, 0x00, 0x64, 0xDC, 0xFF, 0xFF, 0x00, 0x00, 0x00, 0x09, 0x14, 0x00, 0x00, 0x00, 0x14, 0x00, 0x00, 0x00, 0x24, 0x00, 0x00, 0x00, 0x4C, 0x00, 0x00, 0x00, 0x10, 0x00, 0x00, 0x00, 0x02, 0x00, 0x00, 0x00, 0x01, 0x00, 0x00, 0x00, 0x30, 0x03, 0x00, 0x00, 0x02, 0x00, 0x00, 0x00, 0xFF, 0xFF, 0xFF, 0xFF, 0x30, 0x03, 0x00, 0x00, 0x24, 0x00, 0x00, 0x00, 0x73, 0x65, 0x71, 0x75, 0x65, 0x6E, 0x74, 0x69, 0x61, 0x6C, 0x5F, 0x31, 0x2F, 0x71, 0x75, 0x61, 0x6E, 0x74, 0x5F, 0x66, 0x6C, 0x61, 0x74, 0x74, 0x65, 0x6E, 0x5F, 0x31, 0x2F, 0x52, 0x65, 0x73, 0x68, 0x61, 0x70, 0x65, 0x00, 0x00, 0x00, 0x00, 0x64, 0xDB, 0xFF, 0xFF, 0x08, 0x00, 0x00, 0x00, 0x0C, 0x00, 0x00, 0x00, 0x01, 0x00, 0x00, 0x00, 0x77, 0x14, 0x9E, 0x3E, 0x01, 0x00, 0x00, 0x00, 0x87, 0xFF, 0xFF, 0xFF, 0xFF, 0xFF, 0xFF, 0xFF, 0xBE, 0xE0, 0xFF, 0xFF, 0x00, 0x00, 0x00, 0x05, 0x02, 0x00, 0x00, 0x00, 0x28, 0x00, 0x00, 0x00, 0x1C, 0x00, 0x00, 0x00, 0x04, 0x00, 0x00, 0x00, 0xAE, 0xE1, 0xFF, 0xFF, 0x02, 0x00, 0x00, 0x00, 0x02, 0x00, 0x00, 0x00, 0x02, 0x00, 0x00, 0x00, 0x02, 0x00, 0x00, 0x00, 0x01, 0x00, 0x00, 0x00, 0x12, 0x00, 0x00, 0x00, 0x01, 0x00, 0x00, 0x00, 0x11, 0x00, 0x00, 0x00, 0x20, 0xDD, 0xFF, 0xFF, 0x00, 0x00, 0x00, 0x09, 0x14, 0x00, 0x00, 0x00, 0x13, 0x00, 0x00, 0x00, 0x34, 0x00, 0x00, 0x00, 0x60, 0x00, 0x00, 0x00, 0x18, 0x00, 0x00, 0x00, 0x04, 0x00, 0x00, 0x00, 0x01, 0x00, 0x00, 0x00, 0x03, 0x00, 0x00, 0x00, 0x11, 0x00, 0x00, 0x00, 0x10, 0x00, 0x00, 0x00, 0x04, 0x00, 0x00, 0x00, 0xFF, 0xFF, 0xFF, 0xFF, 0x03, 0x00, 0x00, 0x00, 0x11, 0x00, 0x00, 0x00, 0x10, 0x00, 0x00, 0x00, 0x2A, 0x00, 0x00, 0x00, 0x73, 0x65, 0x71, 0x75, 0x65, 0x6E, 0x74, 0x69, 0x61, 0x6C, 0x5F, 0x31, 0x2F, 0x71, 0x75, 0x61, 0x6E, 0x74, 0x5F, 0x6D, 0x61, 0x78, 0x5F, 0x70, 0x6F, 0x6F, 0x6C, 0x69, 0x6E, 0x67, 0x32, 0x64, 0x5F, 0x37, 0x2F, 0x4D, 0x61, 0x78, 0x50, 0x6F, 0x6F, 0x6C, 0x00, 0x00, 0x34, 0xDC, 0xFF, 0xFF, 0x08, 0x00, 0x00, 0x00, 0x0C, 0x00, 0x00, 0x00, 0x01, 0x00, 0x00, 0x00, 0x77, 0x14, 0x9E, 0x3E, 0x01, 0x00, 0x00, 0x00, 0x87, 0xFF, 0xFF, 0xFF, 0xFF, 0xFF, 0xFF, 0xFF, 0x8E, 0xE1, 0xFF, 0xFF, 0x00, 0x00, 0x00, 0x01, 0x01, 0x00, 0x00, 0x00, 0x24, 0x00, 0x00, 0x00, 0x18, 0x00, 0x00, 0x00, 0x04, 0x00, 0x00, 0x00, 0x80, 0xE1, 0xFF, 0xFF, 0x01, 0x00, 0x00, 0x00, 0x01, 0x00, 0x00, 0x00, 0x00, 0x00, 0x00, 0x01, 0x01, 0x00, 0x00, 0x00, 0x11, 0x00, 0x00, 0x00, 0x03, 0x00, 0x00, 0x00, 0x0E, 0x00, 0x00, 0x00, 0x0F, 0x00, 0x00, 0x00, 0x10, 0x00, 0x00, 0x00, 0xF4, 0xDD, 0xFF, 0xFF, 0x00, 0x00, 0x00, 0x09, 0x14, 0x00, 0x00, 0x00, 0x12, 0x00, 0x00, 0x00, 0x34, 0x00, 0x00, 0x00, 0xFC, 0x00, 0x00, 0x00, 0x18, 0x00, 0x00, 0x00, 0x04, 0x00, 0x00, 0x00, 0x01, 0x00, 0x00, 0x00, 0x05, 0x00, 0x00, 0x00, 0x21, 0x00, 0x00, 0x00, 0x10, 0x00, 0x00, 0x00, 0x04, 0x00, 0x00, 0x00, 0xFF, 0xFF, 0xFF, 0xFF, 0x05, 0x00, 0x00, 0x00, 0x21, 0x00, 0x00, 0x00, 0x10, 0x00, 0x00, 0x00, 0xC6, 0x00, 0x00, 0x00, 0x73, 0x65, 0x71, 0x75, 0x65, 0x6E, 0x74, 0x69, 0x61, 0x6C, 0x5F, 0x31, 0x2F, 0x71, 0x75, 0x61, 0x6E, 0x74, 0x5F, 0x63, 0x6F, 0x6E, 0x76, 0x32, 0x64, 0x5F, 0x37, 0x2F, 0x52, 0x65, 0x6C, 0x75, 0x3B, 0x73, 0x65, 0x71, 0x75, 0x65, 0x6E, 0x74, 0x69, 0x61, 0x6C, 0x5F, 0x31, 0x2F, 0x71, 0x75, 0x61, 0x6E, 0x74, 0x5F, 0x63, 0x6F, 0x6E, 0x76, 0x32, 0x64, 0x5F, 0x37, 0x2F, 0x42, 0x69, 0x61, 0x73, 0x41, 0x64, 0x64, 0x3B, 0x73, 0x65, 0x71, 0x75, 0x65, 0x6E, 0x74, 0x69, 0x61, 0x6C, 0x5F, 0x31, 0x2F, 0x71, 0x75, 0x61, 0x6E, 0x74, 0x5F, 0x63, 0x6F, 0x6E, 0x76, 0x32, 0x64, 0x5F, 0x36, 0x2F, 0x43, 0x6F, 0x6E, 0x76, 0x32, 0x44, 0x3B, 0x73, 0x65, 0x71, 0x75, 0x65, 0x6E, 0x74, 0x69, 0x61, 0x6C, 0x5F, 0x31, 0x2F, 0x71, 0x75, 0x61, 0x6E, 0x74, 0x5F, 0x63, 0x6F, 0x6E, 0x76, 0x32, 0x64, 0x5F, 0x37, 0x2F, 0x43, 0x6F, 0x6E, 0x76, 0x32, 0x44, 0x3B, 0x73, 0x65, 0x71, 0x75, 0x65, 0x6E, 0x74, 0x69, 0x61, 0x6C, 0x5F, 0x31, 0x2F, 0x71, 0x75, 0x61, 0x6E, 0x74, 0x5F, 0x63, 0x6F, 0x6E, 0x76, 0x32, 0x64, 0x5F, 0x37, 0x2F, 0x42, 0x69, 0x61, 0x73, 0x41, 0x64, 0x64, 0x2F, 0x52, 0x65, 0x61, 0x64, 0x56, 0x61, 0x72, 0x69, 0x61, 0x62, 0x6C, 0x65, 0x4F, 0x70, 0x2F, 0x72, 0x65, 0x73, 0x6F, 0x75, 0x72, 0x63, 0x65, 0x00, 0x00, 0xA4, 0xDD, 0xFF, 0xFF, 0x08, 0x00, 0x00, 0x00, 0x0C, 0x00, 0x00, 0x00, 0x01, 0x00, 0x00, 0x00, 0x77, 0x14, 0x9E, 0x3E, 0x01, 0x00, 0x00, 0x00, 0x87, 0xFF, 0xFF, 0xFF, 0xFF, 0xFF, 0xFF, 0xFF, 0x00, 0x00, 0x00, 0x00, 0x96, 0xDD, 0xFF, 0xFF, 0x04, 0x00, 0x00, 0x00, 0x40, 0x00, 0x00, 0x00, 0xF2, 0xFF, 0xFF, 0xFF, 0xFA, 0xFF, 0xFF, 0xFF, 0x12, 0x00, 0x00, 0x00, 0xDA, 0xFF, 0xFF, 0xFF, 0xE9, 0xFF, 0xFF, 0xFF, 0x0B, 0x00, 0x00, 0x00, 0x45, 0x00, 0x00, 0x00, 0x0E, 0x00, 0x00, 0x00, 0xED, 0xFF, 0xFF, 0xFF, 0xD3, 0xFF, 0xFF, 0xFF, 0xF2, 0xFF, 0xFF, 0xFF, 0x0B, 0x00, 0x00, 0x00, 0xF9, 0xFF, 0xFF, 0xFF, 0x18, 0x00, 0x00, 0x00, 0xF6, 0xFF, 0xFF, 0xFF, 0xFD, 0xFF, 0xFF, 0xFF, 0xC6, 0xDD, 0xFF, 0xFF, 0x00, 0x00, 0x00, 0x02, 0x10, 0x00, 0x00, 0x00, 0x11, 0x00, 0x00, 0x00, 0x10, 0x00, 0x00, 0x00, 0xB8, 0x00, 0x00, 0x00, 0x01, 0x00, 0x00, 0x00, 0x10, 0x00, 0x00, 0x00, 0xA5, 0x00, 0x00, 0x00, 0x73, 0x65, 0x71, 0x75, 0x65, 0x6E, 0x74, 0x69, 0x61, 0x6C, 0x5F, 0x31, 0x2F, 0x71, 0x75, 0x61, 0x6E, 0x74, 0x5F, 0x63, 0x6F, 0x6E, 0x76, 0x32, 0x64, 0x5F, 0x37, 0x2F, 0x42, 0x69, 0x61, 0x73, 0x41, 0x64, 0x64, 0x3B, 0x73, 0x65, 0x71, 0x75, 0x65, 0x6E, 0x74, 0x69, 0x61, 0x6C, 0x5F, 0x31, 0x2F, 0x71, 0x75, 0x61, 0x6E, 0x74, 0x5F, 0x63, 0x6F, 0x6E, 0x76, 0x32, 0x64, 0x5F, 0x36, 0x2F, 0x43, 0x6F, 0x6E, 0x76, 0x32, 0x44, 0x3B, 0x73, 0x65, 0x71, 0x75, 0x65, 0x6E, 0x74, 0x69, 0x61, 0x6C, 0x5F, 0x31, 0x2F, 0x71, 0x75, 0x61, 0x6E, 0x74, 0x5F, 0x63, 0x6F, 0x6E, 0x76, 0x32, 0x64, 0x5F, 0x37, 0x2F, 0x43, 0x6F, 0x6E, 0x76, 0x32, 0x44, 0x3B, 0x73, 0x65, 0x71, 0x75, 0x65, 0x6E, 0x74, 0x69, 0x61, 0x6C, 0x5F, 0x31, 0x2F, 0x71, 0x75, 0x61, 0x6E, 0x74, 0x5F, 0x63, 0x6F, 0x6E, 0x76, 0x32, 0x64, 0x5F, 0x37, 0x2F, 0x42, 0x69, 0x61, 0x73, 0x41, 0x64, 0x64, 0x2F, 0x52, 0x65, 0x61, 0x64, 0x56, 0x61, 0x72, 0x69, 0x61, 0x62, 0x6C, 0x65, 0x4F, 0x70, 0x2F, 0x72, 0x65, 0x73, 0x6F, 0x75, 0x72, 0x63, 0x65, 0x00, 0x00, 0x00, 0xE0, 0xDE, 0xFF, 0xFF, 0x08, 0x00, 0x00, 0x00, 0x48, 0x00, 0x00, 0x00, 0x10, 0x00, 0x00, 0x00, 0xF7, 0xB5, 0x3F, 0x3B, 0x60, 0xBC, 0x42, 0x3B, 0x9D, 0xB2, 0x64, 0x3B, 0x08, 0x36, 0x47, 0x3B, 0x41, 0xF5, 0x4E, 0x3B, 0x6F, 0x6D, 0x58, 0x3B, 0x80, 0xB0, 0x3D, 0x3B, 0x47, 0xDE, 0x2C, 0x3B, 0x8E, 0x9C, 0x64, 0x3B, 0xAA, 0x66, 0x35, 0x3B, 0x12, 0xFF, 0x3F, 0x3B, 0xB3, 0x59, 0x49, 0x3B, 0x92, 0x9E, 0x3B, 0x3B, 0x8B, 0xE8, 0x4B, 0x3B, 0x0A, 0xA8, 0x40, 0x3B, 0x1B, 0xBD, 0x6A, 0x3B, 0x10, 0x00, 0x00, 0x00, 0x00, 0x00, 0x00, 0x00, 0x00, 0x00, 0x00, 0x00, 0x00, 0x00, 0x00, 0x00, 0x00, 0x00, 0x00, 0x00, 0x00, 0x00, 0x00, 0x00, 0x00, 0x00, 0x00, 0x00, 0x00, 0x00, 0x00, 0x00, 0x00, 0x00, 0x00, 0x00, 0x00, 0x00, 0x00, 0x00, 0x00, 0x00, 0x00, 0x00, 0x00, 0x00, 0x00, 0x00, 0x00, 0x00, 0x00, 0x00, 0x00, 0x00, 0x00, 0x00, 0x00, 0x00, 0x00, 0x00, 0x00, 0x00, 0x00, 0x00, 0x00, 0x00, 0x00, 0x00, 0x00, 0x00, 0x00, 0x00, 0x00, 0x00, 0x00, 0x00, 0x00, 0x00, 0x00, 0x00, 0x00, 0x00, 0x00, 0x00, 0x00, 0x00, 0x00, 0x00, 0x00, 0x00, 0x00, 0x00, 0x00, 0x00, 0x00, 0x00, 0x00, 0x00, 0x00, 0x00, 0x00, 0x00, 0x00, 0x00, 0x00, 0x00, 0x00, 0x00, 0x00, 0x00, 0x00, 0x00, 0x00, 0x00, 0x00, 0x00, 0x00, 0x00, 0x00, 0x00, 0x00, 0x00, 0x00, 0x00, 0x00, 0x00, 0x00, 0x00, 0x00, 0x00, 0x00, 0x00, 0x82, 0xDF, 0xFF, 0xFF, 0x04, 0x00, 0x00, 0x00, 0x00, 0x09, 0x00, 0x00, 0x2F, 0xA3, 0x97, 0x07, 0x29, 0xBB, 0x23, 0xE8, 0x82, 0xB8, 0x2F, 0xCA, 0x85, 0xA8, 0xFF, 0x33, 0x32, 0x53, 0x18, 0x2B, 0xC3, 0xA4, 0xFD, 0x01, 0xC2, 0x33, 0x25, 0x19, 0xF3, 0x8E, 0x24, 0x99, 0xEF, 0xB1, 0x12, 0xF4, 0xFC, 0x03, 0xE1, 0xDC, 0x2E, 0xA7, 0x36, 0xC9, 0xFF, 0xD1, 0xF2, 0xB7, 0x2F, 0x48, 0x48, 0x17, 0xA0, 0x20, 0xCF, 0x0A, 0xE8, 0x3C, 0x14, 0x27, 0xF8, 0x39, 0x1F, 0x1F, 0xA5, 0xC9, 0x10, 0xAE, 0x86, 0xC0, 0x3C, 0x52, 0xBA, 0x1E, 0x20, 0xD1, 0xF1, 0xDC, 0x5C, 0xA6, 0x56, 0x2D, 0x35, 0xD2, 0x0A, 0x90, 0x1E, 0x14, 0x06, 0x11, 0xD9, 0x23, 0xF0, 0x84, 0x59, 0xF3, 0xF5, 0xC5, 0x9B, 0x41, 0x10, 0xD4, 0xEB, 0x5F, 0xF0, 0x03, 0xF3, 0xCF, 0x3C, 0x38, 0xE9, 0xE1, 0x26, 0xA4, 0x0D, 0xD4, 0xAE, 0x58, 0x97, 0x10, 0x00, 0x87, 0xE5, 0xB9, 0xF9, 0x85, 0x70, 0xB1, 0xFC, 0x85, 0xEF, 0xCD, 0x0A, 0x26, 0xE7, 0x81, 0x01, 0x93, 0x3F, 0x07, 0xB8, 0x03, 0xA5, 0xDF, 0xC2, 0xE6, 0x0D, 0x44, 0x16, 0xF9, 0x39, 0xE5, 0x02, 0x2B, 0xD0, 0x15, 0x20, 0xD8, 0xD7, 0xEE, 0xB2, 0x4F, 0x1E, 0xBB, 0x0A, 0xC4, 0xA7, 0xD5, 0x28, 0x81, 0x1B, 0x3B, 0x1B, 0x13, 0x2D, 0xD3, 0xCF, 0x57, 0x34, 0x0D, 0xB6, 0xB2, 0x3C, 0xAA, 0xD8, 0x47, 0x00, 0x94, 0x08, 0xBF, 0xFA, 0xBF, 0x4D, 0x43, 0x9A, 0x4F, 0x05, 0x35, 0x26, 0xDF, 0xD3, 0x46, 0x0E, 0x46, 0xEF, 0x19, 0x1F, 0xE0, 0x36, 0xA2, 0x11, 0x3A, 0xF7, 0xFD, 0x27, 0xDE, 0x01, 0xD9, 0xD0, 0x0E, 0x39, 0x3B, 0x3D, 0x0D, 0xE4, 0xDB, 0x06, 0xE6, 0xEA, 0x33, 0xBC, 0xDD, 0x30, 0x61, 0x9F, 0x38, 0x3A, 0xBF, 0x30, 0x00, 0x43, 0x03, 0xB9, 0x08, 0xC8, 0xCA, 0xCF, 0x5A, 0x0B, 0xD6, 0x3A, 0xB9, 0xF7, 0x2D, 0x4F, 0xBE, 0xEF, 0xF7, 0x4A, 0xE9, 0x32, 0x28, 0x33, 0x9C, 0xEA, 0xE0, 0x39, 0xFF, 0xD3, 0xC8, 0x69, 0xDB, 0xD3, 0x55, 0xC8, 0x21, 0x10, 0xCE, 0x19, 0xF6, 0xE0, 0x3B, 0xA4, 0xC8, 0x28, 0x3B, 0x2D, 0x01, 0xDC, 0x5B, 0x0C, 0xD2, 0x4D, 0x1D, 0x2D, 0xA0, 0xD9, 0xCF, 0x29, 0x9F, 0xD1, 0xB4, 0xC7, 0xFE, 0xBF, 0x58, 0xCB, 0x8E, 0xCE, 0xD4, 0x2D, 0x10, 0x2C, 0x27, 0x40, 0xB5, 0xE9, 0x0E, 0x42, 0xEE, 0xF7, 0xDF, 0xA4, 0xF3, 0x98, 0xA7, 0xEA, 0x01, 0xA0, 0xF6, 0xC4, 0xDE, 0xCE, 0x25, 0xC0, 0xBB, 0x33, 0xBC, 0x41, 0xDD, 0xEC, 0x38, 0x19, 0x3F, 0xFF, 0x2E, 0xFB, 0x11, 0xB0, 0xC2, 0x4A, 0x8E, 0x87, 0x1A, 0x9C, 0x33, 0x2A, 0xC9, 0xAC, 0x48, 0xE9, 0xFE, 0x2C, 0x53, 0xE4, 0x02, 0x7F, 0xBE, 0xFF, 0x1C, 0x34, 0xB0, 0x21, 0xD2, 0xCD, 0x11, 0x5B, 0x23, 0xAB, 0x9D, 0x1C, 0x25, 0xD0, 0x16, 0xA0, 0xAB, 0x5B, 0xC9, 0x05, 0xAC, 0xC1, 0xBD, 0x0F, 0xF0, 0xD5, 0xCE, 0xFB, 0x2C, 0x1B, 0xB9, 0x10, 0x52, 0xF1, 0x3D, 0x0F, 0x8F, 0xCF, 0x19, 0xBB, 0x00, 0xE6, 0xA5, 0xD4, 0xAA, 0xC9, 0xB5, 0xDC, 0x22, 0x27, 0xFE, 0x0D, 0xC1, 0xF8, 0x51, 0xCF, 0x9A, 0xB2, 0xA6, 0x96, 0xAB, 0xD9, 0x25, 0xFF, 0xD3, 0x0F, 0x0E, 0xD4, 0xD5, 0x08, 0x9D, 0xBA, 0xEC, 0x34, 0xF8, 0x0A, 0x2D, 0x21, 0x19, 0xC7, 0x18, 0xE6, 0xFE, 0xE4, 0x51, 0x10, 0x10, 0xD1, 0x00, 0xF2, 0xC8, 0x11, 0x12, 0xA9, 0x29, 0x1B, 0x18, 0x49, 0xED, 0x33, 0x33, 0x0D, 0x56, 0xF6, 0xD9, 0x0A, 0x57, 0x14, 0x4B, 0x27, 0xC6, 0xE4, 0x9F, 0xFD, 0x13, 0xBC, 0x0A, 0x2E, 0xB7, 0x39, 0x3D, 0x22, 0xBB, 0xD5, 0xF8, 0xBB, 0xB0, 0x9B, 0xFB, 0x2C, 0xF2, 0xD5, 0x52, 0x0C, 0xB3, 0xC7, 0x45, 0xCC, 0xA8, 0xF0, 0xCB, 0xDA, 0x07, 0x5B, 0x2C, 0xF0, 0x37, 0x3A, 0x5E, 0xEA, 0xAB, 0x92, 0xE3, 0xE6, 0xEA, 0xA4, 0x51, 0xFB, 0xF9, 0xDA, 0x38, 0x3E, 0x81, 0x3B, 0xEF, 0xBE, 0x26, 0x03, 0x0F, 0xFF, 0xD5, 0x82, 0xF6, 0x97, 0x09, 0xF2, 0xBD, 0xDF, 0xE5, 0xF3, 0x4C, 0xF5, 0x85, 0x8E, 0x65, 0x51, 0x0C, 0xF6, 0x47, 0x1D, 0xF5, 0xE1, 0x0E, 0xA2, 0xD4, 0xA0, 0xA0, 0xBF, 0x63, 0xC9, 0xD2, 0x19, 0x17, 0xE2, 0x19, 0xDB, 0x0B, 0x39, 0xDF, 0x3F, 0xF2, 0xCA, 0xC4, 0x12, 0xAE, 0x1C, 0x99, 0xEA, 0xAB, 0x10, 0xFA, 0xC1, 0xB7, 0xFB, 0x27, 0x57, 0xAE, 0x86, 0xF1, 0xCB, 0xA5, 0x31, 0xFB, 0xC4, 0xD3, 0xBC, 0x86, 0x92, 0x96, 0xD1, 0x08, 0x22, 0xEC, 0x2C, 0xC0, 0xBF, 0x3B, 0x41, 0x9E, 0x40, 0x4E, 0x3A, 0xE4, 0x06, 0xBD, 0x8A, 0x32, 0x3A, 0x8F, 0xC4, 0x22, 0x9B, 0x88, 0x3E, 0x37, 0x9E, 0x2C, 0x14, 0x15, 0xA0, 0x20, 0x2A, 0x0B, 0x0F, 0x12, 0x8E, 0x1F, 0x97, 0xB1, 0x52, 0x2E, 0x8A, 0xE8, 0xDD, 0xD2, 0xC8, 0xCF, 0xEA, 0x02, 0x23, 0x81, 0x42, 0xA3, 0xB5, 0x5E, 0x1E, 0xC6, 0xE5, 0xDF, 0x96, 0x13, 0xC9, 0xF8, 0x8C, 0x04, 0x3D, 0x13, 0xA3, 0x65, 0x30, 0xDF, 0xA4, 0xF9, 0xC5, 0xE7, 0xEC, 0x1C, 0x08, 0x07, 0xE5, 0xC5, 0xD8, 0xB6, 0x12, 0x4B, 0x29, 0x40, 0xE9, 0x04, 0xEB, 0x33, 0x2C, 0xDA, 0x96, 0xBF, 0xEB, 0xF5, 0xB6, 0xCE, 0xA7, 0x23, 0xB1, 0x19, 0x32, 0xAA, 0x91, 0x1E, 0x29, 0x00, 0xFD, 0x24, 0x5D, 0xA5, 0xC9, 0xDA, 0xB3, 0x01, 0xF5, 0xC9, 0x2E, 0x28, 0xA2, 0xA0, 0xB0, 0xD0, 0xD4, 0x5D, 0x46, 0x14, 0x33, 0x29, 0x04, 0x26, 0xFB, 0x45, 0xF5, 0xA4, 0x0A, 0xB2, 0x15, 0xDF, 0x09, 0x2F, 0xDB, 0x58, 0xAB, 0xFF, 0x21, 0xB6, 0x1C, 0x04, 0xAA, 0xF4, 0xFF, 0xA4, 0xE2, 0x18, 0xC4, 0xAC, 0xBC, 0x10, 0xB7, 0x47, 0x27, 0xE6, 0xFF, 0x32, 0xDA, 0x16, 0x47, 0x04, 0x4D, 0x05, 0xCE, 0xBF, 0x44, 0xA3, 0x13, 0x4C, 0xFA, 0xE3, 0x5E, 0x45, 0xE9, 0x1D, 0xB7, 0x13, 0xD7, 0x15, 0x22, 0x53, 0xFB, 0x50, 0xB3, 0xDC, 0xA9, 0xAF, 0xE1, 0xDB, 0xFE, 0x32, 0x07, 0xCC, 0xE7, 0xEF, 0xF7, 0xCE, 0xCF, 0xAE, 0xC0, 0x62, 0x52, 0xF2, 0x24, 0xCF, 0xE9, 0xBF, 0xE8, 0x42, 0xEE, 0x01, 0xB4, 0xF8, 0x10, 0xC5, 0xD4, 0xDA, 0x50, 0x2E, 0xD6, 0xA8, 0x0C, 0xA4, 0x10, 0xE4, 0xA0, 0x17, 0x38, 0xB3, 0x81, 0x27, 0xD3, 0x19, 0xD0, 0x47, 0x0F, 0x2F, 0x34, 0xB6, 0x0E, 0xB5, 0xC9, 0xF3, 0xAE, 0xBB, 0x81, 0xE7, 0x33, 0x42, 0xF5, 0x39, 0x04, 0x30, 0x4C, 0xA1, 0x8D, 0x3B, 0x01, 0xA3, 0xC9, 0xE2, 0xC4, 0x11, 0xAD, 0xAC, 0x29, 0xDC, 0x08, 0x06, 0xAF, 0xA8, 0x1E, 0x1E, 0x3C, 0xEC, 0x30, 0x4C, 0xE8, 0x65, 0xD4, 0xD3, 0x20, 0x0A, 0xCE, 0x38, 0x35, 0x0E, 0x91, 0xE0, 0xDE, 0x1E, 0x0B, 0x38, 0x92, 0xF0, 0xDB, 0x27, 0xD3, 0x49, 0x2B, 0xC5, 0xA3, 0xE5, 0xC7, 0x37, 0xE5, 0x12, 0xB6, 0xE9, 0x1C, 0x42, 0xCD, 0x9D, 0x03, 0xC8, 0x0E, 0x50, 0x98, 0x3E, 0x05, 0xE5, 0xEE, 0x83, 0x33, 0xF0, 0x40, 0x53, 0x9E, 0xFE, 0xA3, 0x23, 0xAB, 0xA9, 0x9E, 0x11, 0x8F, 0x1F, 0xC7, 0xC4, 0x55, 0xA9, 0xE0, 0x20, 0x29, 0xD5, 0x31, 0x3B, 0x24, 0xCC, 0x3A, 0xDF, 0xF9, 0xC4, 0x33, 0xB2, 0x9C, 0xC0, 0x1B, 0x95, 0x23, 0xEB, 0x57, 0xAC, 0x20, 0x86, 0xA6, 0x22, 0xED, 0x4F, 0x00, 0xB2, 0x35, 0x1B, 0xC9, 0xF9, 0x2B, 0xD5, 0xA0, 0x1F, 0xE7, 0x05, 0x22, 0x42, 0x1B, 0x93, 0x9A, 0xD4, 0x90, 0xEB, 0x02, 0xA7, 0x10, 0x4C, 0xB3, 0xEC, 0xDC, 0xB0, 0x84, 0x8F, 0xCD, 0xF9, 0x2E, 0x21, 0x25, 0xF3, 0xDC, 0x60, 0xEF, 0x89, 0xC9, 0x04, 0xE7, 0x01, 0x9C, 0xF4, 0xDD, 0x3F, 0xD1, 0x3D, 0x9D, 0x5F, 0x13, 0xFA, 0xFF, 0xF8, 0x3E, 0x32, 0xAF, 0x63, 0x13, 0xE2, 0x20, 0x2A, 0x10, 0xC8, 0x59, 0x03, 0x86, 0x2C, 0x18, 0x59, 0xB7, 0xD0, 0xBC, 0xE0, 0x2E, 0xC8, 0xE3, 0x00, 0xFB, 0xCA, 0xC9, 0x29, 0x91, 0xD8, 0x97, 0x85, 0xF4, 0x0C, 0x2D, 0x2E, 0xEA, 0xCA, 0x0A, 0x88, 0xDE, 0x25, 0x2E, 0xA6, 0xE4, 0x79, 0x50, 0xBA, 0x13, 0x38, 0xC6, 0x03, 0xB4, 0xDA, 0xD7, 0x0F, 0xF9, 0x3D, 0x50, 0x81, 0xDE, 0xBB, 0x4C, 0x13, 0x9A, 0x36, 0x87, 0x00, 0x7B, 0xE9, 0x43, 0xE4, 0x29, 0x2E, 0x54, 0x22, 0xEE, 0x99, 0x58, 0xC4, 0xF8, 0x3D, 0x11, 0xE0, 0x08, 0xEB, 0xE6, 0x24, 0xAE, 0xBC, 0xC6, 0x56, 0x41, 0xB3, 0x4B, 0xB7, 0x0E, 0x49, 0xFB, 0x9F, 0xF5, 0x20, 0xBA, 0xFD, 0x3E, 0xEB, 0xF0, 0x1B, 0x07, 0xB2, 0x04, 0xFA, 0xFA, 0x1C, 0x08, 0x06, 0x49, 0x55, 0xA3, 0x48, 0x31, 0xF9, 0x1A, 0x15, 0xAB, 0x3B, 0x2E, 0xE9, 0xC7, 0x4C, 0xDA, 0x41, 0xA8, 0x07, 0x36, 0xFF, 0xAC, 0x23, 0xEA, 0xF0, 0x9C, 0x2D, 0xD3, 0x01, 0xBE, 0x34, 0x1F, 0xAF, 0x38, 0xCF, 0xEE, 0x3C, 0x1A, 0xD1, 0xE5, 0xFD, 0x01, 0xDA, 0xDC, 0xBD, 0xA2, 0xDE, 0x11, 0x2D, 0xAD, 0x4D, 0xFB, 0x0E, 0xCC, 0x09, 0x3B, 0x07, 0x35, 0xB3, 0x2C, 0x1B, 0xCA, 0x8D, 0xEE, 0xE1, 0xFF, 0xF6, 0x23, 0x9D, 0xF5, 0x39, 0xFA, 0xFB, 0xD6, 0xD7, 0x26, 0xE7, 0xE0, 0x4B, 0x2B, 0x30, 0x0E, 0xFE, 0x47, 0xE4, 0x1E, 0x97, 0xAB, 0x33, 0x05, 0x50, 0xB6, 0xE9, 0x2B, 0xDC, 0x06, 0x3F, 0x16, 0x12, 0x48, 0x3E, 0x81, 0x0A, 0x24, 0x34, 0x3A, 0xA4, 0x3E, 0x39, 0xC5, 0x25, 0x03, 0xCF, 0xD5, 0x31, 0x28, 0x34, 0xB5, 0xE6, 0xF8, 0x26, 0xF2, 0x9E, 0xB7, 0xFB, 0x0A, 0x92, 0xB6, 0xD2, 0x04, 0x33, 0xCB, 0xBC, 0x8F, 0xF4, 0x46, 0x1C, 0xF0, 0x5D, 0xE4, 0x92, 0xAC, 0x2A, 0x2D, 0x23, 0xF0, 0x72, 0x9D, 0x48, 0xA9, 0x01, 0x3A, 0x2A, 0x9C, 0x4B, 0xD9, 0xE1, 0x5B, 0x81, 0xF0, 0x5D, 0x26, 0xF6, 0xE8, 0x43, 0xA2, 0xA7, 0x46, 0xCB, 0xEE, 0xA0, 0x12, 0x2F, 0x27, 0x92, 0xE9, 0x23, 0x3B, 0xA7, 0x39, 0x42, 0x37, 0xD7, 0x3E, 0x19, 0xC3, 0xDF, 0x2E, 0x5A, 0x1E, 0xF8, 0x18, 0x5F, 0x1D, 0xD2, 0xE4, 0xE8, 0xD6, 0xCB, 0xF1, 0x23, 0x17, 0x8A, 0xEB, 0xFA, 0xB3, 0xD0, 0x26, 0xB6, 0xED, 0x33, 0x9E, 0x43, 0x40, 0x21, 0xD0, 0xB3, 0xC7, 0xCA, 0x8E, 0x8F, 0xFE, 0x33, 0xC1, 0xDD, 0x53, 0xF4, 0xD4, 0x5B, 0xB0, 0x8B, 0x49, 0xB4, 0xB0, 0x85, 0xAC, 0x06, 0xF6, 0x11, 0xAF, 0x25, 0x94, 0x7F, 0x3E, 0xEA, 0xBF, 0x20, 0xE6, 0x31, 0x20, 0x1D, 0x1A, 0x9D, 0xF4, 0xDC, 0xF2, 0xCC, 0xE1, 0x4E, 0xE4, 0xA4, 0x44, 0x00, 0x59, 0x84, 0xE3, 0x88, 0xBF, 0xD9, 0x42, 0x77, 0xF3, 0xEB, 0xAC, 0x05, 0xFD, 0x9D, 0xA0, 0xCA, 0x0E, 0x55, 0xCC, 0xD4, 0x39, 0xE8, 0x27, 0x58, 0x1C, 0xE3, 0xD6, 0xF9, 0x1D, 0x16, 0x46, 0xF8, 0xAF, 0x01, 0x95, 0x66, 0xA5, 0x22, 0xF3, 0xB1, 0x94, 0xC9, 0x5E, 0x07, 0xB5, 0xE6, 0x9E, 0x14, 0xAD, 0x51, 0x1C, 0xE4, 0x07, 0x2D, 0x3E, 0x72, 0x88, 0x1B, 0x37, 0x40, 0xB8, 0x53, 0xAE, 0xFC, 0xEA, 0xD2, 0x0E, 0x07, 0xA5, 0x2E, 0x2D, 0xD7, 0xFD, 0x29, 0x29, 0xCD, 0xDA, 0xFC, 0x06, 0xCC, 0xC8, 0xF4, 0x08, 0x99, 0xD8, 0x2D, 0x09, 0x0F, 0xB1, 0xB2, 0xE1, 0x38, 0x4B, 0x9C, 0x0F, 0xDE, 0x3E, 0x8B, 0x37, 0x53, 0xAB, 0x3B, 0x16, 0x15, 0x13, 0x26, 0xD5, 0x5B, 0x42, 0x6A, 0xED, 0x5C, 0x1A, 0xF8, 0x29, 0x9B, 0x04, 0x18, 0x1C, 0x55, 0x1D, 0x4C, 0xA0, 0xFA, 0xF6, 0x54, 0x32, 0x0B, 0xDF, 0xE4, 0x05, 0x70, 0xE5, 0x93, 0x2C, 0x48, 0xB8, 0x19, 0xC1, 0x04, 0xF9, 0x51, 0xEE, 0x2F, 0xC8, 0xA8, 0x81, 0x49, 0xB8, 0x1D, 0xE6, 0x55, 0x32, 0x98, 0xB5, 0xF5, 0x07, 0xC5, 0xBA, 0x0F, 0x13, 0x40, 0x17, 0x52, 0x08, 0xC4, 0xE5, 0x13, 0xB7, 0x25, 0x40, 0x13, 0xF7, 0x36, 0x86, 0x37, 0xD0, 0x10, 0xA9, 0x50, 0x09, 0x22, 0x3D, 0x33, 0x44, 0x4F, 0xBC, 0xCB, 0xBB, 0x2F, 0xCB, 0xBD, 0x06, 0xC8, 0x30, 0xC2, 0x09, 0x09, 0xD6, 0xED, 0xEE, 0x31, 0xBC, 0x1A, 0x36, 0x34, 0x8F, 0xA6, 0x81, 0x61, 0x03, 0x0D, 0x3F, 0xF1, 0xFB, 0x44, 0x14, 0x3B, 0xBE, 0x19, 0x45, 0x33, 0xE4, 0x2C, 0x3B, 0x2D, 0xFC, 0x00, 0xD7, 0x13, 0xA4, 0x19, 0xC6, 0x1C, 0x9C, 0x10, 0xC6, 0x8F, 0xEE, 0x8E, 0x37, 0xFB, 0xE5, 0x44, 0xA3, 0x02, 0x13, 0xEA, 0x95, 0x9B, 0xD3, 0x2D, 0x04, 0x0D, 0xBA, 0x42, 0x58, 0x3C, 0x1E, 0xD1, 0x15, 0xDB, 0xAD, 0xDB, 0x8B, 0x38, 0x84, 0x91, 0x21, 0x59, 0xCC, 0x93, 0xA7, 0xE9, 0xA2, 0x21, 0x98, 0x3E, 0xDC, 0x23, 0x35, 0x24, 0xB7, 0x2D, 0x13, 0x2F, 0xFF, 0xC0, 0xB5, 0xED, 0x23, 0xB0, 0xBA, 0xB5, 0x20, 0x11, 0x30, 0x4D, 0x2A, 0xB3, 0xC0, 0x45, 0x9D, 0x22, 0x24, 0xEB, 0x28, 0xCD, 0xAE, 0xFB, 0xEB, 0x2F, 0x16, 0xB3, 0xFD, 0x34, 0x3B, 0xFA, 0x4C, 0x20, 0x42, 0xC4, 0x02, 0x54, 0x02, 0xD4, 0x21, 0x48, 0x51, 0x69, 0x46, 0xFE, 0xA1, 0x2A, 0xB8, 0x01, 0x1E, 0x5A, 0x55, 0xD9, 0x19, 0xD5, 0x1B, 0x29, 0xDA, 0x5C, 0xE3, 0x3E, 0xCB, 0x52, 0x3B, 0x00, 0xA9, 0xF6, 0x46, 0xA5, 0xD7, 0xD5, 0xFB, 0x3E, 0x8D, 0x5F, 0xC7, 0x26, 0x1B, 0xFF, 0xAB, 0xF9, 0xE8, 0xB9, 0xE1, 0x61, 0xEC, 0xE2, 0xEB, 0xB8, 0x4B, 0x9E, 0xAF, 0x31, 0x0D, 0xB8, 0xE7, 0x9D, 0x28, 0x90, 0x27, 0x02, 0xFA, 0xB9, 0x56, 0xDA, 0xBE, 0xEB, 0xA6, 0xF6, 0x8A, 0xD2, 0x99, 0x1E, 0x10, 0x34, 0x2A, 0x1E, 0x65, 0xEA, 0x88, 0xA8, 0xD1, 0xF6, 0xBA, 0xD1, 0x8A, 0x4F, 0xFE, 0xA0, 0xD4, 0x92, 0xE7, 0xEC, 0x81, 0xAB, 0x01, 0xC5, 0x32, 0x8C, 0xFC, 0xBB, 0xDB, 0x28, 0x2F, 0xD0, 0x4D, 0x1A, 0xA0, 0x30, 0xEC, 0x17, 0xF1, 0x56, 0x97, 0x33, 0x9E, 0xA5, 0x43, 0xDE, 0x9F, 0xC0, 0x02, 0xFB, 0x35, 0x0D, 0x3C, 0xB3, 0xCF, 0x31, 0xB4, 0xEC, 0x32, 0x8C, 0xBD, 0xFC, 0xEF, 0xF9, 0x2C, 0xC3, 0x02, 0x38, 0x93, 0x0F, 0xDA, 0x02, 0xD8, 0xDE, 0xF0, 0x8D, 0x30, 0xE6, 0xBF, 0x44, 0x0A, 0x4C, 0x2A, 0xC1, 0xCB, 0xA6, 0x14, 0xF5, 0xF5, 0xFE, 0x31, 0xB4, 0xC8, 0xC1, 0x41, 0xF4, 0xEF, 0xB7, 0xB4, 0xC7, 0x4B, 0x55, 0x05, 0xFC, 0xCD, 0x43, 0xFA, 0x02, 0xE2, 0x9E, 0xC5, 0x96, 0xE6, 0x40, 0xAA, 0xD7, 0xA7, 0xE1, 0x42, 0xD3, 0xF2, 0x2E, 0x30, 0x13, 0x09, 0x44, 0x92, 0x3F, 0xF8, 0x12, 0xA9, 0x23, 0x21, 0xB5, 0xB2, 0xC7, 0x1E, 0x1B, 0xAC, 0xDC, 0xE3, 0x54, 0xFE, 0xEF, 0xB5, 0xF8, 0xC6, 0x30, 0x07, 0xC9, 0x04, 0xAE, 0x30, 0x18, 0x22, 0x1F, 0x20, 0xC5, 0xEE, 0x16, 0x22, 0xE6, 0xF8, 0x93, 0x13, 0x03, 0x37, 0x88, 0x4A, 0xB8, 0xFA, 0xFD, 0xF1, 0x81, 0x94, 0x16, 0xA2, 0xC8, 0x01, 0xFE, 0x9E, 0xED, 0x47, 0x9F, 0x1C, 0xCA, 0x40, 0xC5, 0x11, 0x6A, 0x2E, 0x99, 0xD0, 0xA0, 0x04, 0xDF, 0x25, 0xEE, 0xC9, 0xDB, 0xEB, 0xC3, 0xEA, 0x14, 0xCD, 0xE8, 0x08, 0xD7, 0xC6, 0xF0, 0x2D, 0x13, 0xD9, 0x4F, 0xC7, 0x3C, 0x13, 0xC9, 0xF3, 0x9C, 0x1D, 0xC4, 0xFD, 0xF8, 0xC2, 0xD9, 0x75, 0x92, 0x47, 0x29, 0xBA, 0x3A, 0xF5, 0xB2, 0x30, 0x0E, 0xF0, 0xEE, 0x2D, 0xC2, 0xBE, 0x2A, 0x2C, 0xB2, 0xE7, 0x94, 0x0B, 0xC8, 0xC1, 0xEC, 0x41, 0x15, 0xA9, 0x1A, 0x35, 0xCA, 0x8E, 0x27, 0xBF, 0xC3, 0xB3, 0xFD, 0x03, 0x6B, 0x14, 0x3D, 0xDA, 0x99, 0xF2, 0xFD, 0xFC, 0x46, 0x5A, 0x22, 0x02, 0x82, 0x32, 0x24, 0x00, 0x36, 0xE9, 0xEC, 0x18, 0xBE, 0xF3, 0xAC, 0x20, 0x34, 0x07, 0xE0, 0x81, 0x09, 0x5B, 0xC7, 0xC0, 0x97, 0xF1, 0x56, 0x07, 0xF8, 0xA0, 0xD9, 0xCF, 0x27, 0xC9, 0x0C, 0xDC, 0x10, 0x5E, 0x46, 0x47, 0x3A, 0xAD, 0x34, 0x94, 0xB2, 0x0C, 0xF7, 0x0F, 0xF5, 0x07, 0xFD, 0x26, 0xC1, 0xAE, 0x39, 0xA2, 0x7A, 0x29, 0x2B, 0x06, 0xCE, 0x33, 0x13, 0x35, 0x43, 0x79, 0x32, 0xAB, 0xC3, 0xD6, 0x4E, 0x37, 0xAD, 0xD2, 0x35, 0x43, 0x20, 0x29, 0xB5, 0xB3, 0x13, 0xB5, 0xC4, 0x81, 0x0F, 0x12, 0x30, 0xFA, 0xFD, 0xCC, 0x38, 0xE3, 0x03, 0xC0, 0x1E, 0x33, 0x97, 0x11, 0xF6, 0xB5, 0xA8, 0xF6, 0x22, 0x32, 0x09, 0xC1, 0x0B, 0xBD, 0x34, 0x35, 0xD0, 0xE6, 0xB4, 0x31, 0xB3, 0xCE, 0xEE, 0x27, 0x4E, 0x1D, 0x2F, 0x06, 0xC1, 0x00, 0xB1, 0x02, 0xDF, 0xAD, 0x37, 0x0C, 0xAD, 0x26, 0x21, 0xE6, 0xD7, 0x33, 0xE1, 0xCC, 0x18, 0xE2, 0x2B, 0x51, 0xFB, 0xB0, 0xC9, 0x4A, 0xA0, 0xE7, 0xB0, 0x56, 0x2F, 0x21, 0xF2, 0x3C, 0x35, 0x1E, 0x04, 0xDD, 0xCE, 0xD8, 0x25, 0xB0, 0x34, 0x1D, 0x01, 0x33, 0x2B, 0x19, 0x25, 0xE3, 0xF9, 0x6B, 0xEA, 0x53, 0xC6, 0x1A, 0x2B, 0xBE, 0x1A, 0x02, 0x2B, 0xEB, 0x0C, 0x10, 0xF9, 0xBD, 0xFC, 0x24, 0xC6, 0x49, 0x25, 0xD8, 0xBF, 0xCC, 0xDA, 0xE9, 0xBB, 0xD5, 0xB8, 0xD8, 0x39, 0x1C, 0xE0, 0x32, 0x4A, 0x43, 0xBE, 0xED, 0xBB, 0xD1, 0x20, 0x72, 0xE8, 0xFF, 0xFF, 0x00, 0x00, 0x00, 0x09, 0x10, 0x00, 0x00, 0x00, 0x10, 0x00, 0x00, 0x00, 0x1C, 0x00, 0x00, 0x00, 0x8C, 0x00, 0x00, 0x00, 0x04, 0x00, 0x00, 0x00, 0x10, 0x00, 0x00, 0x00, 0x03, 0x00, 0x00, 0x00, 0x03, 0x00, 0x00, 0x00, 0x10, 0x00, 0x00, 0x00, 0x6F, 0x00, 0x00, 0x00, 0x73, 0x65, 0x71, 0x75, 0x65, 0x6E, 0x74, 0x69, 0x61, 0x6C, 0x5F, 0x31, 0x2F, 0x71, 0x75, 0x61, 0x6E, 0x74, 0x5F, 0x63, 0x6F, 0x6E, 0x76, 0x32, 0x64, 0x5F, 0x37, 0x2F, 0x43, 0x6F, 0x6E, 0x76, 0x32, 0x44, 0x3B, 0x73, 0x65, 0x71, 0x75, 0x65, 0x6E, 0x74, 0x69, 0x61, 0x6C, 0x5F, 0x31, 0x2F, 0x71, 0x75, 0x61, 0x6E, 0x74, 0x5F, 0x63, 0x6F, 0x6E, 0x76, 0x32, 0x64, 0x5F, 0x37, 0x2F, 0x4C, 0x61, 0x73, 0x74, 0x56, 0x61, 0x6C, 0x75, 0x65, 0x51, 0x75, 0x61, 0x6E, 0x74, 0x2F, 0x46, 0x61, 0x6B, 0x65, 0x51, 0x75, 0x61, 0x6E, 0x74, 0x57, 0x69, 0x74, 0x68, 0x4D, 0x69, 0x6E, 0x4D, 0x61, 0x78, 0x56, 0x61, 0x72, 0x73, 0x50, 0x65, 0x72, 0x43, 0x68, 0x61, 0x6E, 0x6E, 0x65, 0x6C, 0x00, 0x60, 0xE9, 0xFF, 0xFF, 0x08, 0x00, 0x00, 0x00, 0x48, 0x00, 0x00, 0x00, 0x10, 0x00, 0x00, 0x00, 0xA1, 0x95, 0xA3, 0x3A, 0x6D, 0x2A, 0xA6, 0x3A, 0x1D, 0x25, 0xC3, 0x3A, 0x00, 0xFC, 0xA9, 0x3A, 0x43, 0x98, 0xB0, 0x3A, 0xC9, 0xAC, 0xB8, 0x3A, 0x15, 0xDC, 0xA1, 0x3A, 0xA3, 0x81, 0x93, 0x3A, 0x4B, 0x12, 0xC3, 0x3A, 0x8C, 0xC9, 0x9A, 0x3A, 0x03, 0xD4, 0xA3, 0x3A, 0x52, 0xCF, 0xAB, 0x3A, 0xE7, 0x17, 0xA0, 0x3A, 0x16, 0xFE, 0xAD, 0x3A, 0x30, 0x64, 0xA4, 0x3A, 0xB7, 0x4C, 0xC8, 0x3A, 0x10, 0x00, 0x00, 0x00, 0x00, 0x00, 0x00, 0x00, 0x00, 0x00, 0x00, 0x00, 0x00, 0x00, 0x00, 0x00, 0x00, 0x00, 0x00, 0x00, 0x00, 0x00, 0x00, 0x00, 0x00, 0x00, 0x00, 0x00, 0x00, 0x00, 0x00, 0x00, 0x00, 0x00, 0x00, 0x00, 0x00, 0x00, 0x00, 0x00, 0x00, 0x00, 0x00, 0x00, 0x00, 0x00, 0x00, 0x00, 0x00, 0x00, 0x00, 0x00, 0x00, 0x00, 0x00, 0x00, 0x00, 0x00, 0x00, 0x00, 0x00, 0x00, 0x00, 0x00, 0x00, 0x00, 0x00, 0x00, 0x00, 0x00, 0x00, 0x00, 0x00, 0x00, 0x00, 0x00, 0x00, 0x00, 0x00, 0x00, 0x00, 0x00, 0x00, 0x00, 0x00, 0x00, 0x00, 0x00, 0x00, 0x00, 0x00, 0x00, 0x00, 0x00, 0x00, 0x00, 0x00, 0x00, 0x00, 0x00, 0x00, 0x00, 0x00, 0x00, 0x00, 0x00, 0x00, 0x00, 0x00, 0x00, 0x00, 0x00, 0x00, 0x00, 0x00, 0x00, 0x00, 0x00, 0x00, 0x00, 0x00, 0x00, 0x00, 0x00, 0x00, 0x00, 0x00, 0x00, 0x00, 0x00, 0x00, 0x00, 0x6E, 0xEF, 0xFF, 0xFF, 0x00, 0x00, 0x00, 0x05, 0x02, 0x00, 0x00, 0x00, 0x28, 0x00, 0x00, 0x00, 0x1C, 0x00, 0x00, 0x00, 0x04, 0x00, 0x00, 0x00, 0x5E, 0xF0, 0xFF, 0xFF, 0x02, 0x00, 0x00, 0x00, 0x02, 0x00, 0x00, 0x00, 0x02, 0x00, 0x00, 0x00, 0x02, 0x00, 0x00, 0x00, 0x01, 0x00, 0x00, 0x00, 0x0E, 0x00, 0x00, 0x00, 0x01, 0x00, 0x00, 0x00, 0x0D, 0x00, 0x00, 0x00, 0xD0, 0xEB, 0xFF, 0xFF, 0x00, 0x00, 0x00, 0x09, 0x14, 0x00, 0x00, 0x00, 0x0F, 0x00, 0x00, 0x00, 0x34, 0x00, 0x00, 0x00, 0x60, 0x00, 0x00, 0x00, 0x18, 0x00, 0x00, 0x00, 0x04, 0x00, 0x00, 0x00, 0x01, 0x00, 0x00, 0x00, 0x05, 0x00, 0x00, 0x00, 0x21, 0x00, 0x00, 0x00, 0x10, 0x00, 0x00, 0x00, 0x04, 0x00, 0x00, 0x00, 0xFF, 0xFF, 0xFF, 0xFF, 0x05, 0x00, 0x00, 0x00, 0x21, 0x00, 0x00, 0x00, 0x10, 0x00, 0x00, 0x00, 0x2A, 0x00, 0x00, 0x00, 0x73, 0x65, 0x71, 0x75, 0x65, 0x6E, 0x74, 0x69, 0x61, 0x6C, 0x5F, 0x31, 0x2F, 0x71, 0x75, 0x61, 0x6E, 0x74, 0x5F, 0x6D, 0x61, 0x78, 0x5F, 0x70, 0x6F, 0x6F, 0x6C, 0x69, 0x6E, 0x67, 0x32, 0x64, 0x5F, 0x36, 0x2F, 0x4D, 0x61, 0x78, 0x50, 0x6F, 0x6F, 0x6C, 0x00, 0x00, 0xE4, 0xEA, 0xFF, 0xFF, 0x08, 0x00, 0x00, 0x00, 0x0C, 0x00, 0x00, 0x00, 0x01, 0x00, 0x00, 0x00, 0x0C, 0x02, 0x16, 0x40, 0x01, 0x00, 0x00, 0x00, 0x81, 0xFF, 0xFF, 0xFF, 0xFF, 0xFF, 0xFF, 0xFF, 0x00, 0x00, 0x00, 0x00, 0x42, 0xF0, 0xFF, 0xFF, 0x00, 0x00, 0x00, 0x01, 0x01, 0x00, 0x00, 0x00, 0x24, 0x00, 0x00, 0x00, 0x18, 0x00, 0x00, 0x00, 0x04, 0x00, 0x00, 0x00, 0x34, 0xF0, 0xFF, 0xFF, 0x01, 0x00, 0x00, 0x00, 0x01, 0x00, 0x00, 0x00, 0x00, 0x00, 0x00, 0x01, 0x01, 0x00, 0x00, 0x00, 0x0D, 0x00, 0x00, 0x00, 0x03, 0x00, 0x00, 0x00, 0x0A, 0x00, 0x00, 0x00, 0x0B, 0x00, 0x00, 0x00, 0x0C, 0x00, 0x00, 0x00, 0xA8, 0xEC, 0xFF, 0xFF, 0x00, 0x00, 0x00, 0x09, 0x14, 0x00, 0x00, 0x00, 0x0E, 0x00, 0x00, 0x00, 0x34, 0x00, 0x00, 0x00, 0xD8, 0x00, 0x00, 0x00, 0x18, 0x00, 0x00, 0x00, 0x04, 0x00, 0x00, 0x00, 0x01, 0x00, 0x00, 0x00, 0x09, 0x00, 0x00, 0x00, 0x41, 0x00, 0x00, 0x00, 0x10, 0x00, 0x00, 0x00, 0x04, 0x00, 0x00, 0x00, 0xFF, 0xFF, 0xFF, 0xFF, 0x09, 0x00, 0x00, 0x00, 0x41, 0x00, 0x00, 0x00, 0x10, 0x00, 0x00, 0x00, 0xA3, 0x00, 0x00, 0x00, 0x73, 0x65, 0x71, 0x75, 0x65, 0x6E, 0x74, 0x69, 0x61, 0x6C, 0x5F, 0x31, 0x2F, 0x71, 0x75, 0x61, 0x6E, 0x74, 0x5F, 0x63, 0x6F, 0x6E, 0x76, 0x32, 0x64, 0x5F, 0x36, 0x2F, 0x52, 0x65, 0x6C, 0x75, 0x3B, 0x73, 0x65, 0x71, 0x75, 0x65, 0x6E, 0x74, 0x69, 0x61, 0x6C, 0x5F, 0x31, 0x2F, 0x71, 0x75, 0x61, 0x6E, 0x74, 0x5F, 0x63, 0x6F, 0x6E, 0x76, 0x32, 0x64, 0x5F, 0x36, 0x2F, 0x42, 0x69, 0x61, 0x73, 0x41, 0x64, 0x64, 0x3B, 0x73, 0x65, 0x71, 0x75, 0x65, 0x6E, 0x74, 0x69, 0x61, 0x6C, 0x5F, 0x31, 0x2F, 0x71, 0x75, 0x61, 0x6E, 0x74, 0x5F, 0x63, 0x6F, 0x6E, 0x76, 0x32, 0x64, 0x5F, 0x36, 0x2F, 0x43, 0x6F, 0x6E, 0x76, 0x32, 0x44, 0x3B, 0x73, 0x65, 0x71, 0x75, 0x65, 0x6E, 0x74, 0x69, 0x61, 0x6C, 0x5F, 0x31, 0x2F, 0x71, 0x75, 0x61, 0x6E, 0x74, 0x5F, 0x63, 0x6F, 0x6E, 0x76, 0x32, 0x64, 0x5F, 0x36, 0x2F, 0x42, 0x69, 0x61, 0x73, 0x41, 0x64, 0x64, 0x2F, 0x52, 0x65, 0x61, 0x64, 0x56, 0x61, 0x72, 0x69, 0x61, 0x62, 0x6C, 0x65, 0x4F, 0x70, 0x2F, 0x72, 0x65, 0x73, 0x6F, 0x75, 0x72, 0x63, 0x65, 0x00, 0x34, 0xEC, 0xFF, 0xFF, 0x08, 0x00, 0x00, 0x00, 0x0C, 0x00, 0x00, 0x00, 0x01, 0x00, 0x00, 0x00, 0x0C, 0x02, 0x16, 0x40, 0x01, 0x00, 0x00, 0x00, 0x81, 0xFF, 0xFF, 0xFF, 0xFF, 0xFF, 0xFF, 0xFF, 0x22, 0xEC, 0xFF, 0xFF, 0x04, 0x00, 0x00, 0x00, 0x40, 0x00, 0x00, 0x00, 0xFA, 0xFF, 0xFF, 0xFF, 0x02, 0x00, 0x00, 0x00, 0xFF, 0xFF, 0xFF, 0xFF, 0xFE, 0xFF, 0xFF, 0xFF, 0xFF, 0xFF, 0xFF, 0xFF, 0xFA, 0xFF, 0xFF, 0xFF, 0xF8, 0xFF, 0xFF, 0xFF, 0xFE, 0xFF, 0xFF, 0xFF, 0x00, 0x00, 0x00, 0x00, 0x00, 0x00, 0x00, 0x00, 0x00, 0x00, 0x00, 0x00, 0xFD, 0xFF, 0xFF, 0xFF, 0x04, 0x00, 0x00, 0x00, 0xF7, 0xFF, 0xFF, 0xFF, 0xF9, 0xFF, 0xFF, 0xFF, 0x01, 0x00, 0x00, 0x00, 0x52, 0xEC, 0xFF, 0xFF, 0x00, 0x00, 0x00, 0x02, 0x10, 0x00, 0x00, 0x00, 0x0D, 0x00, 0x00, 0x00, 0x10, 0x00, 0x00, 0x00, 0x94, 0x00, 0x00, 0x00, 0x01, 0x00, 0x00, 0x00, 0x10, 0x00, 0x00, 0x00, 0x82, 0x00, 0x00, 0x00, 0x73, 0x65, 0x71, 0x75, 0x65, 0x6E, 0x74, 0x69, 0x61, 0x6C, 0x5F, 0x31, 0x2F, 0x71, 0x75, 0x61, 0x6E, 0x74, 0x5F, 0x63, 0x6F, 0x6E, 0x76, 0x32, 0x64, 0x5F, 0x36, 0x2F, 0x42, 0x69, 0x61, 0x73, 0x41, 0x64, 0x64, 0x3B, 0x73, 0x65, 0x71, 0x75, 0x65, 0x6E, 0x74, 0x69, 0x61, 0x6C, 0x5F, 0x31, 0x2F, 0x71, 0x75, 0x61, 0x6E, 0x74, 0x5F, 0x63, 0x6F, 0x6E, 0x76, 0x32, 0x64, 0x5F, 0x36, 0x2F, 0x43, 0x6F, 0x6E, 0x76, 0x32, 0x44, 0x3B, 0x73, 0x65, 0x71, 0x75, 0x65, 0x6E, 0x74, 0x69, 0x61, 0x6C, 0x5F, 0x31, 0x2F, 0x71, 0x75, 0x61, 0x6E, 0x74, 0x5F, 0x63, 0x6F, 0x6E, 0x76, 0x32, 0x64, 0x5F, 0x36, 0x2F, 0x42, 0x69, 0x61, 0x73, 0x41, 0x64, 0x64, 0x2F, 0x52, 0x65, 0x61, 0x64, 0x56, 0x61, 0x72, 0x69, 0x61, 0x62, 0x6C, 0x65, 0x4F, 0x70, 0x2F, 0x72, 0x65, 0x73, 0x6F, 0x75, 0x72, 0x63, 0x65, 0x00, 0x00, 0x48, 0xED, 0xFF, 0xFF, 0x08, 0x00, 0x00, 0x00, 0x48, 0x00, 0x00, 0x00, 0x10, 0x00, 0x00, 0x00, 0x54, 0xCA, 0x0F, 0x3D, 0x72, 0xDD, 0x18, 0x3D, 0xA0, 0x2D, 0x0E, 0x3D, 0x79, 0xED, 0xED, 0x3C, 0x6B, 0x35, 0xDA, 0x3C, 0x24, 0xEE, 0xF6, 0x3C, 0x9A, 0x89, 0xFC, 0x3C, 0x5C, 0xEE, 0x19, 0x3D, 0x72, 0x5E, 0xFA, 0x3C, 0x7C, 0xDB, 0xFD, 0x3C, 0x86, 0x9B, 0x03, 0x3D, 0x03, 0x2F, 0x08, 0x3D, 0x72, 0x01, 0xD2, 0x3C, 0x3F, 0x18, 0xEA, 0x3C, 0xF1, 0xE4, 0x06, 0x3D, 0xF8, 0x48, 0xF7, 0x3C, 0x10, 0x00, 0x00, 0x00, 0x00, 0x00, 0x00, 0x00, 0x00, 0x00, 0x00, 0x00, 0x00, 0x00, 0x00, 0x00, 0x00, 0x00, 0x00, 0x00, 0x00, 0x00, 0x00, 0x00, 0x00, 0x00, 0x00, 0x00, 0x00, 0x00, 0x00, 0x00, 0x00, 0x00, 0x00, 0x00, 0x00, 0x00, 0x00, 0x00, 0x00, 0x00, 0x00, 0x00, 0x00, 0x00, 0x00, 0x00, 0x00, 0x00, 0x00, 0x00, 0x00, 0x00, 0x00, 0x00, 0x00, 0x00, 0x00, 0x00, 0x00, 0x00, 0x00, 0x00, 0x00, 0x00, 0x00, 0x00, 0x00, 0x00, 0x00, 0x00, 0x00, 0x00, 0x00, 0x00, 0x00, 0x00, 0x00, 0x00, 0x00, 0x00, 0x00, 0x00, 0x00, 0x00, 0x00, 0x00, 0x00, 0x00, 0x00, 0x00, 0x00, 0x00, 0x00, 0x00, 0x00, 0x00, 0x00, 0x00, 0x00, 0x00, 0x00, 0x00, 0x00, 0x00, 0x00, 0x00, 0x00, 0x00, 0x00, 0x00, 0x00, 0x00, 0x00, 0x00, 0x00, 0x00, 0x00, 0x00, 0x00, 0x00, 0x00, 0x00, 0x00, 0x00, 0x00, 0x00, 0x00, 0x00, 0x00, 0x00, 0xEA, 0xED, 0xFF, 0xFF, 0x04, 0x00, 0x00, 0x00, 0x80, 0x04, 0x00, 0x00, 0xCD, 0x20, 0xDC, 0xB1, 0xDA, 0xA2, 0xCB, 0x1E, 0xC0, 0xB4, 0xAB, 0xF1, 0xFB, 0x36, 0xFC, 0xB7, 0x91, 0xFC, 0xDF, 0x33, 0xDA, 0x14, 0xDB, 0x81, 0xD8, 0x3A, 0x10, 0x30, 0xB8, 0xF0, 0x4D, 0x23, 0x17, 0xB7, 0x1D, 0x06, 0xAF, 0xBA, 0xFE, 0x3A, 0xC7, 0xC1, 0x37, 0xE7, 0x40, 0xFE, 0xF6, 0x21, 0xF7, 0x94, 0x1C, 0xDE, 0x3C, 0x47, 0xD1, 0x13, 0xA0, 0x01, 0xF8, 0x4A, 0xB1, 0x0A, 0xCA, 0x26, 0x2A, 0xD5, 0x3E, 0xF8, 0x27, 0xC7, 0x36, 0xD2, 0x47, 0xFD, 0xD2, 0xE3, 0x3F, 0x1E, 0xD5, 0xD8, 0xEF, 0xDA, 0x2B, 0x10, 0x30, 0xDE, 0x10, 0x5A, 0x05, 0xD4, 0xBC, 0x1F, 0x0D, 0xF4, 0xB8, 0xDB, 0xD1, 0xF5, 0xA7, 0x20, 0xA7, 0x44, 0xC9, 0xE0, 0x93, 0x8F, 0x95, 0x2B, 0xB3, 0xAB, 0x17, 0x2F, 0x00, 0x1E, 0xF7, 0x9D, 0xB5, 0xF7, 0x22, 0xC5, 0x36, 0xC6, 0xD8, 0x13, 0xEA, 0x3B, 0x0D, 0xDA, 0xCB, 0x81, 0x47, 0xDC, 0xBB, 0xE5, 0xB8, 0x49, 0xD4, 0xD0, 0xA4, 0x05, 0x32, 0xD2, 0xF5, 0x2E, 0xC5, 0xBB, 0xAF, 0xD7, 0x20, 0xCB, 0xA5, 0x9C, 0xAE, 0xB4, 0x03, 0xC3, 0xF0, 0x9E, 0xEF, 0x3D, 0x44, 0x23, 0x2B, 0x08, 0x1E, 0x3E, 0xCC, 0xBA, 0xC7, 0xB0, 0x1B, 0xEC, 0x8D, 0xD9, 0xE1, 0xD9, 0x24, 0xF4, 0xCB, 0xE1, 0xEE, 0x1A, 0x10, 0x09, 0xB6, 0x17, 0xDA, 0xE9, 0xF0, 0x13, 0xF0, 0xFA, 0xD9, 0xFC, 0xE2, 0x24, 0x1D, 0xBF, 0xB1, 0x1C, 0x49, 0xDD, 0xEE, 0xCF, 0x1B, 0xC5, 0xF8, 0x91, 0x22, 0x81, 0x36, 0x1C, 0x1B, 0xEF, 0x33, 0xDA, 0xB5, 0xDB, 0xCD, 0xFE, 0x2A, 0xC0, 0x05, 0x1A, 0xA8, 0x13, 0xCA, 0x03, 0x10, 0x83, 0x11, 0x08, 0x84, 0xCD, 0x4E, 0xF8, 0x34, 0xD2, 0xF2, 0x12, 0x0A, 0xFC, 0xBF, 0x1D, 0x0D, 0x19, 0xC5, 0xFF, 0x8D, 0xDB, 0xE5, 0x35, 0x34, 0x81, 0xE5, 0x06, 0x3C, 0xEF, 0xFB, 0x39, 0xCF, 0x9C, 0x1F, 0x09, 0xE6, 0x19, 0xBC, 0xE5, 0x69, 0xC9, 0xE6, 0xD6, 0xCB, 0x24, 0xE5, 0x2C, 0x09, 0xC5, 0x2A, 0xEA, 0x0C, 0xA1, 0xCE, 0x2C, 0x17, 0x0E, 0x61, 0xDC, 0x40, 0x0D, 0x29, 0xF2, 0xF9, 0x12, 0x81, 0x8B, 0x5E, 0xD4, 0xC6, 0xFD, 0x41, 0xFF, 0x4B, 0x05, 0x1A, 0x8B, 0x8D, 0x8A, 0x68, 0x5F, 0xB1, 0xA5, 0xB7, 0xAC, 0xE0, 0xFC, 0x28, 0xA9, 0x07, 0x52, 0xF5, 0xAA, 0x06, 0xC1, 0x0D, 0x9A, 0x1F, 0xC7, 0x66, 0xC7, 0x36, 0xA9, 0x0C, 0x55, 0x2A, 0xFE, 0xDC, 0x2F, 0xAE, 0x28, 0x4A, 0x59, 0x04, 0xFC, 0xB0, 0xB5, 0x2F, 0x5F, 0x09, 0xD0, 0x11, 0x8A, 0x33, 0xAB, 0x22, 0xCF, 0xC1, 0x54, 0x3D, 0x19, 0xAE, 0x35, 0xBE, 0xC2, 0x26, 0x02, 0x0C, 0xA3, 0xB9, 0xD4, 0xB7, 0x02, 0xAE, 0xE6, 0xAF, 0x88, 0xCB, 0x9D, 0x8B, 0x51, 0x29, 0xFE, 0xAA, 0x8B, 0xA0, 0xEB, 0xB9, 0xA3, 0xD6, 0x97, 0x2E, 0x0F, 0xEA, 0xFF, 0xFE, 0x39, 0x07, 0x81, 0x13, 0xF0, 0x0A, 0xE2, 0xF2, 0x29, 0xC7, 0x19, 0xB9, 0x0A, 0x30, 0xA1, 0x1F, 0xCD, 0x01, 0x25, 0xCC, 0x44, 0x4C, 0xA2, 0xEF, 0x45, 0x33, 0xFA, 0x9E, 0xD7, 0xAF, 0xB3, 0xC4, 0x8C, 0xD4, 0xB7, 0x46, 0x92, 0x08, 0xD3, 0xBE, 0xDA, 0x38, 0x36, 0x2A, 0xC4, 0x45, 0xF7, 0xBA, 0x3F, 0x0B, 0x01, 0x07, 0x92, 0x90, 0x27, 0x00, 0x0D, 0x05, 0xBC, 0x47, 0x13, 0xDE, 0xDE, 0xE2, 0x1A, 0xDE, 0x30, 0xD0, 0x81, 0xBA, 0xCF, 0x00, 0x2A, 0xB6, 0x1A, 0xF4, 0x3C, 0x96, 0xE7, 0xB6, 0x29, 0xEB, 0x19, 0xEA, 0xE9, 0x1A, 0x15, 0x0E, 0x2E, 0x2A, 0x9C, 0x22, 0x22, 0xAD, 0x10, 0xFA, 0x28, 0xF6, 0x40, 0x0D, 0xC6, 0x23, 0x15, 0x1D, 0x2F, 0x1A, 0xB1, 0x39, 0x11, 0x1F, 0x0A, 0xDC, 0x03, 0x02, 0xCF, 0xB5, 0xA1, 0xD2, 0xEB, 0x37, 0x13, 0x23, 0x99, 0x36, 0x37, 0xAF, 0x8D, 0xBE, 0x02, 0xF6, 0xCE, 0x3E, 0x1D, 0x18, 0xF5, 0xD6, 0x09, 0xE6, 0xB0, 0x15, 0xCE, 0x3E, 0x1E, 0x13, 0x2B, 0xA8, 0xB1, 0xC6, 0xDE, 0x1B, 0x98, 0x9F, 0x1B, 0x0B, 0xB1, 0x12, 0x39, 0x98, 0xCB, 0xE8, 0xD7, 0xE4, 0xD3, 0x03, 0x45, 0xA4, 0x81, 0x34, 0x26, 0x2A, 0xFA, 0x33, 0x34, 0x0D, 0xEA, 0x0C, 0x07, 0xAD, 0xEE, 0x16, 0x35, 0xCC, 0xFA, 0x3A, 0xE4, 0x44, 0x33, 0xD8, 0x93, 0xFF, 0xC3, 0xC2, 0xB7, 0x25, 0xFD, 0x50, 0xDE, 0xDD, 0xA9, 0x9B, 0x99, 0x01, 0x21, 0xC3, 0xAD, 0xE1, 0xEB, 0xF7, 0xC3, 0x25, 0x9B, 0x28, 0x0B, 0x9B, 0x2D, 0x38, 0x03, 0x32, 0xB9, 0x98, 0x43, 0x27, 0x92, 0x24, 0xD0, 0x23, 0x34, 0xD6, 0x99, 0x13, 0xED, 0xCA, 0x36, 0xF2, 0xF5, 0xB0, 0x9D, 0x38, 0x8D, 0x59, 0x8C, 0xE4, 0xA3, 0x0B, 0xCD, 0x9E, 0x05, 0xB6, 0x81, 0x2F, 0x57, 0x19, 0x13, 0xD7, 0x93, 0x95, 0x3B, 0x2D, 0xCB, 0x31, 0x0A, 0x0E, 0xC4, 0x26, 0x23, 0xD6, 0xA6, 0xAA, 0x52, 0x0A, 0x3B, 0x36, 0x3E, 0x14, 0x94, 0xC2, 0x1A, 0x91, 0x9E, 0x81, 0x8A, 0xF1, 0x42, 0xA8, 0x12, 0xB8, 0x0F, 0x37, 0x0A, 0xD4, 0xF7, 0xC3, 0x95, 0x2B, 0xF2, 0x1F, 0x38, 0xA7, 0x53, 0x49, 0xF5, 0x9D, 0x94, 0x14, 0x5A, 0xF9, 0x0E, 0x9E, 0xE2, 0x3B, 0xAD, 0x03, 0xE2, 0xFD, 0xD2, 0xFC, 0xB2, 0xBF, 0x23, 0x2E, 0x40, 0xC2, 0x15, 0x1E, 0x81, 0xD7, 0xFE, 0xAA, 0xF9, 0xEE, 0x11, 0xE5, 0xA1, 0xA9, 0x07, 0x81, 0x81, 0x2D, 0xB3, 0x06, 0x8E, 0xBC, 0x0C, 0x16, 0xF1, 0x09, 0xDF, 0x0D, 0xF1, 0xF8, 0x07, 0x28, 0x24, 0xEB, 0x29, 0xA5, 0xD9, 0x88, 0xE1, 0xEA, 0xB4, 0x06, 0xB6, 0xD7, 0x8A, 0x9D, 0x03, 0x2C, 0xE6, 0x51, 0xA2, 0x39, 0x1F, 0x10, 0x46, 0x14, 0x1E, 0x0A, 0xC3, 0x87, 0xA0, 0xF5, 0xBE, 0xE1, 0xC5, 0xCA, 0x3A, 0x2A, 0x4E, 0x1A, 0xBE, 0x2E, 0x48, 0x23, 0xD8, 0x9E, 0x9A, 0xB6, 0x1B, 0xE1, 0x3C, 0xFA, 0x0D, 0xED, 0x9D, 0x31, 0xC9, 0xFC, 0x01, 0x81, 0x87, 0x3A, 0xCE, 0x41, 0xA9, 0x4C, 0xAB, 0xE4, 0xB3, 0x21, 0xBA, 0xF3, 0x92, 0x21, 0x40, 0xDE, 0x4F, 0xAD, 0x99, 0xFD, 0xEC, 0xCF, 0x48, 0x3E, 0x18, 0x1D, 0xF1, 0x43, 0xA3, 0xF4, 0xC6, 0x1A, 0xB9, 0x27, 0xF5, 0x02, 0xFA, 0x4D, 0x83, 0x07, 0xB1, 0xA5, 0x36, 0x14, 0xDA, 0xBD, 0xBF, 0x32, 0x23, 0xBA, 0xD7, 0xA7, 0xBD, 0x55, 0xF4, 0x88, 0xC3, 0x4B, 0x23, 0x35, 0x26, 0xA7, 0x03, 0xF1, 0xFC, 0xE4, 0x2F, 0x2E, 0xFB, 0x3C, 0x44, 0xF1, 0xF2, 0xC3, 0x47, 0xAF, 0x30, 0xEC, 0xF5, 0xC2, 0x22, 0x0C, 0xF2, 0xB5, 0x3D, 0x47, 0x83, 0xE8, 0x51, 0x07, 0xFF, 0x35, 0xFE, 0xCB, 0x95, 0x1C, 0x3B, 0xD6, 0xE1, 0x46, 0x20, 0x02, 0x81, 0x9C, 0x46, 0x28, 0x0D, 0xD2, 0xDE, 0xB5, 0x2B, 0x17, 0x43, 0x69, 0x4F, 0xFC, 0x23, 0x56, 0xFB, 0xCE, 0x44, 0xAC, 0xB3, 0x4B, 0xB7, 0x16, 0x30, 0xFB, 0xC7, 0x06, 0xF8, 0x18, 0x8B, 0xD4, 0x90, 0xD8, 0xC4, 0xDC, 0x43, 0x0A, 0xE0, 0x91, 0x19, 0xD6, 0x01, 0x3A, 0xA5, 0x0A, 0x86, 0x9D, 0x81, 0x44, 0xB0, 0xA2, 0x0B, 0xA8, 0x27, 0x09, 0x39, 0x51, 0x03, 0x21, 0xE8, 0xA4, 0x30, 0xCB, 0xF9, 0xFF, 0x96, 0x1E, 0x04, 0x0F, 0xDD, 0xDF, 0x2E, 0x00, 0xF1, 0x65, 0xEF, 0xA2, 0xC3, 0x04, 0x49, 0xAE, 0x03, 0xE0, 0xFC, 0xC6, 0x2A, 0xFE, 0xEE, 0x15, 0x36, 0x50, 0xB2, 0xB2, 0xEB, 0xAD, 0xE7, 0x07, 0x48, 0x4E, 0x09, 0xA1, 0xE1, 0x00, 0xB0, 0x81, 0x92, 0xDC, 0x32, 0xF8, 0xF0, 0xF9, 0xC8, 0x18, 0xBD, 0x36, 0x3B, 0x9D, 0x17, 0xD8, 0x44, 0x83, 0xBC, 0xF2, 0xD5, 0xC3, 0xCE, 0x94, 0xD4, 0x8C, 0x27, 0xD3, 0xCA, 0xBF, 0xAB, 0xA0, 0x9D, 0x2E, 0xAE, 0x8D, 0xB7, 0x11, 0xE0, 0xBB, 0x5D, 0xB5, 0x21, 0x4B, 0xE2, 0x29, 0x29, 0x20, 0xF8, 0x21, 0xA8, 0x09, 0x31, 0xF7, 0xDF, 0xA6, 0x99, 0x06, 0x13, 0xC6, 0xC5, 0xAE, 0x8D, 0x0F, 0xD2, 0xD4, 0xB0, 0xF7, 0x24, 0x32, 0xA5, 0x9F, 0xFA, 0x2A, 0x31, 0x53, 0xCF, 0x1A, 0x20, 0x00, 0x99, 0x9D, 0xF9, 0xAB, 0x37, 0x1C, 0x26, 0x81, 0xF1, 0x03, 0x15, 0x40, 0xFB, 0x27, 0x24, 0x95, 0xD0, 0xBE, 0xEA, 0x8F, 0x29, 0x0C, 0x29, 0xE2, 0xCA, 0x30, 0x9B, 0xEE, 0x2F, 0xEB, 0xB9, 0x33, 0x13, 0xA4, 0x4E, 0x97, 0x1A, 0xDE, 0xFA, 0xCE, 0xBC, 0xEA, 0xF8, 0xAF, 0x67, 0x9E, 0xD1, 0x9B, 0xD8, 0x49, 0x9E, 0xDA, 0xF0, 0x5A, 0xD9, 0x4B, 0xB5, 0xC4, 0x2F, 0xF0, 0xBB, 0x5A, 0xF2, 0xFF, 0xFF, 0x00, 0x00, 0x00, 0x09, 0x10, 0x00, 0x00, 0x00, 0x0C, 0x00, 0x00, 0x00, 0x1C, 0x00, 0x00, 0x00, 0x8C, 0x00, 0x00, 0x00, 0x04, 0x00, 0x00, 0x00, 0x10, 0x00, 0x00, 0x00, 0x03, 0x00, 0x00, 0x00, 0x03, 0x00, 0x00, 0x00, 0x08, 0x00, 0x00, 0x00, 0x6F, 0x00, 0x00, 0x00, 0x73, 0x65, 0x71, 0x75, 0x65, 0x6E, 0x74, 0x69, 0x61, 0x6C, 0x5F, 0x31, 0x2F, 0x71, 0x75, 0x61, 0x6E, 0x74, 0x5F, 0x63, 0x6F, 0x6E, 0x76, 0x32, 0x64, 0x5F, 0x36, 0x2F, 0x43, 0x6F, 0x6E, 0x76, 0x32, 0x44, 0x3B, 0x73, 0x65, 0x71, 0x75, 0x65, 0x6E, 0x74, 0x69, 0x61, 0x6C, 0x5F, 0x31, 0x2F, 0x71, 0x75, 0x61, 0x6E, 0x74, 0x5F, 0x63, 0x6F, 0x6E, 0x76, 0x32, 0x64, 0x5F, 0x36, 0x2F, 0x4C, 0x61, 0x73, 0x74, 0x56, 0x61, 0x6C, 0x75, 0x65, 0x51, 0x75, 0x61, 0x6E, 0x74, 0x2F, 0x46, 0x61, 0x6B, 0x65, 0x51, 0x75, 0x61, 0x6E, 0x74, 0x57, 0x69, 0x74, 0x68, 0x4D, 0x69, 0x6E, 0x4D, 0x61, 0x78, 0x56, 0x61, 0x72, 0x73, 0x50, 0x65, 0x72, 0x43, 0x68, 0x61, 0x6E, 0x6E, 0x65, 0x6C, 0x00, 0x48, 0xF3, 0xFF, 0xFF, 0x08, 0x00, 0x00, 0x00, 0x48, 0x00, 0x00, 0x00, 0x10, 0x00, 0x00, 0x00, 0x6F, 0x3F, 0xDB, 0x3A, 0xA9, 0x15, 0xE9, 0x3A, 0x27, 0xCA, 0xD8, 0x3A, 0x97, 0x64, 0xB5, 0x3A, 0x05, 0x5C, 0xA6, 0x3A, 0xA3, 0x41, 0xBC, 0x3A, 0x04, 0x88, 0xC0, 0x3A, 0xCB, 0xB5, 0xEA, 0x3A, 0xC6, 0xE0, 0xBE, 0x3A, 0x9D, 0x89, 0xC1, 0x3A, 0xF6, 0xAB, 0xC8, 0x3A, 0x37, 0xA6, 0xCF, 0x3A, 0x07, 0x1B, 0xA0, 0x3A, 0x84, 0x78, 0xB2, 0x3A, 0xEF, 0xAE, 0xCD, 0x3A, 0xE3, 0x86, 0xBC, 0x3A, 0x10, 0x00, 0x00, 0x00, 0x00, 0x00, 0x00, 0x00, 0x00, 0x00, 0x00, 0x00, 0x00, 0x00, 0x00, 0x00, 0x00, 0x00, 0x00, 0x00, 0x00, 0x00, 0x00, 0x00, 0x00, 0x00, 0x00, 0x00, 0x00, 0x00, 0x00, 0x00, 0x00, 0x00, 0x00, 0x00, 0x00, 0x00, 0x00, 0x00, 0x00, 0x00, 0x00, 0x00, 0x00, 0x00, 0x00, 0x00, 0x00, 0x00, 0x00, 0x00, 0x00, 0x00, 0x00, 0x00, 0x00, 0x00, 0x00, 0x00, 0x00, 0x00, 0x00, 0x00, 0x00, 0x00, 0x00, 0x00, 0x00, 0x00, 0x00, 0x00, 0x00, 0x00, 0x00, 0x00, 0x00, 0x00, 0x00, 0x00, 0x00, 0x00, 0x00, 0x00, 0x00, 0x00, 0x00, 0x00, 0x00, 0x00, 0x00, 0x00, 0x00, 0x00, 0x00, 0x00, 0x00, 0x00, 0x00, 0x00, 0x00, 0x00, 0x00, 0x00, 0x00, 0x00, 0x00, 0x00, 0x00, 0x00, 0x00, 0x00, 0x00, 0x00, 0x00, 0x00, 0x00, 0x00, 0x00, 0x00, 0x00, 0x00, 0x00, 0x00, 0x00, 0x00, 0x00, 0x00, 0x00, 0x00, 0x00, 0x00, 0x56, 0xF9, 0xFF, 0xFF, 0x00, 0x00, 0x00, 0x05, 0x02, 0x00, 0x00, 0x00, 0x28, 0x00, 0x00, 0x00, 0x1C, 0x00, 0x00, 0x00, 0x04, 0x00, 0x00, 0x00, 0x46, 0xFA, 0xFF, 0xFF, 0x02, 0x00, 0x00, 0x00, 0x02, 0x00, 0x00, 0x00, 0x02, 0x00, 0x00, 0x00, 0x02, 0x00, 0x00, 0x00, 0x01, 0x00, 0x00, 0x00, 0x0A, 0x00, 0x00, 0x00, 0x01, 0x00, 0x00, 0x00, 0x09, 0x00, 0x00, 0x00, 0xB8, 0xF5, 0xFF, 0xFF, 0x00, 0x00, 0x00, 0x09, 0x14, 0x00, 0x00, 0x00, 0x0B, 0x00, 0x00, 0x00, 0x34, 0x00, 0x00, 0x00, 0x60, 0x00, 0x00, 0x00, 0x18, 0x00, 0x00, 0x00, 0x04, 0x00, 0x00, 0x00, 0x01, 0x00, 0x00, 0x00, 0x09, 0x00, 0x00, 0x00, 0x41, 0x00, 0x00, 0x00, 0x08, 0x00, 0x00, 0x00, 0x04, 0x00, 0x00, 0x00, 0xFF, 0xFF, 0xFF, 0xFF, 0x09, 0x00, 0x00, 0x00, 0x41, 0x00, 0x00, 0x00, 0x08, 0x00, 0x00, 0x00, 0x2A, 0x00, 0x00, 0x00, 0x73, 0x65, 0x71, 0x75, 0x65, 0x6E, 0x74, 0x69, 0x61, 0x6C, 0x5F, 0x31, 0x2F, 0x71, 0x75, 0x61, 0x6E, 0x74, 0x5F, 0x6D, 0x61, 0x78, 0x5F, 0x70, 0x6F, 0x6F, 0x6C, 0x69, 0x6E, 0x67, 0x32, 0x64, 0x5F, 0x35, 0x2F, 0x4D, 0x61, 0x78, 0x50, 0x6F, 0x6F, 0x6C, 0x00, 0x00, 0xCC, 0xF4, 0xFF, 0xFF, 0x08, 0x00, 0x00, 0x00, 0x0C, 0x00, 0x00, 0x00, 0x01, 0x00, 0x00, 0x00, 0xCC, 0xE4, 0xA7, 0x41, 0x01, 0x00, 0x00, 0x00, 0x80, 0xFF, 0xFF, 0xFF, 0xFF, 0xFF, 0xFF, 0xFF, 0x00, 0x00, 0x00, 0x00, 0x2A, 0xFA, 0xFF, 0xFF, 0x00, 0x00, 0x00, 0x01, 0x01, 0x00, 0x00, 0x00, 0x24, 0x00, 0x00, 0x00, 0x18, 0x00, 0x00, 0x00, 0x04, 0x00, 0x00, 0x00, 0x1C, 0xFA, 0xFF, 0xFF, 0x01, 0x00, 0x00, 0x00, 0x01, 0x00, 0x00, 0x00, 0x00, 0x00, 0x00, 0x01, 0x01, 0x00, 0x00, 0x00, 0x09, 0x00, 0x00, 0x00, 0x03, 0x00, 0x00, 0x00, 0x06, 0x00, 0x00, 0x00, 0x07, 0x00, 0x00, 0x00, 0x08, 0x00, 0x00, 0x00, 0x90, 0xF6, 0xFF, 0xFF, 0x00, 0x00, 0x00, 0x09, 0x14, 0x00, 0x00, 0x00, 0x0A, 0x00, 0x00, 0x00, 0x34, 0x00, 0x00, 0x00, 0xD8, 0x00, 0x00, 0x00, 0x18, 0x00, 0x00, 0x00, 0x04, 0x00, 0x00, 0x00, 0x01, 0x00, 0x00, 0x00, 0x11, 0x00, 0x00, 0x00, 0x81, 0x00, 0x00, 0x00, 0x08, 0x00, 0x00, 0x00, 0x04, 0x00, 0x00, 0x00, 0xFF, 0xFF, 0xFF, 0xFF, 0x11, 0x00, 0x00, 0x00, 0x81, 0x00, 0x00, 0x00, 0x08, 0x00, 0x00, 0x00, 0xA3, 0x00, 0x00, 0x00, 0x73, 0x65, 0x71, 0x75, 0x65, 0x6E, 0x74, 0x69, 0x61, 0x6C, 0x5F, 0x31, 0x2F, 0x71, 0x75, 0x61, 0x6E, 0x74, 0x5F, 0x63, 0x6F, 0x6E, 0x76, 0x32, 0x64, 0x5F, 0x35, 0x2F, 0x52, 0x65, 0x6C, 0x75, 0x3B, 0x73, 0x65, 0x71, 0x75, 0x65, 0x6E, 0x74, 0x69, 0x61, 0x6C, 0x5F, 0x31, 0x2F, 0x71, 0x75, 0x61, 0x6E, 0x74, 0x5F, 0x63, 0x6F, 0x6E, 0x76, 0x32, 0x64, 0x5F, 0x35, 0x2F, 0x42, 0x69, 0x61, 0x73, 0x41, 0x64, 0x64, 0x3B, 0x73, 0x65, 0x71, 0x75, 0x65, 0x6E, 0x74, 0x69, 0x61, 0x6C, 0x5F, 0x31, 0x2F, 0x71, 0x75, 0x61, 0x6E, 0x74, 0x5F, 0x63, 0x6F, 0x6E, 0x76, 0x32, 0x64, 0x5F, 0x35, 0x2F, 0x43, 0x6F, 0x6E, 0x76, 0x32, 0x44, 0x3B, 0x73, 0x65, 0x71, 0x75, 0x65, 0x6E, 0x74, 0x69, 0x61, 0x6C, 0x5F, 0x31, 0x2F, 0x71, 0x75, 0x61, 0x6E, 0x74, 0x5F, 0x63, 0x6F, 0x6E, 0x76, 0x32, 0x64, 0x5F, 0x35, 0x2F, 0x42, 0x69, 0x61, 0x73, 0x41, 0x64, 0x64, 0x2F, 0x52, 0x65, 0x61, 0x64, 0x56, 0x61, 0x72, 0x69, 0x61, 0x62, 0x6C, 0x65, 0x4F, 0x70, 0x2F, 0x72, 0x65, 0x73, 0x6F, 0x75, 0x72, 0x63, 0x65, 0x00, 0x1C, 0xF6, 0xFF, 0xFF, 0x08, 0x00, 0x00, 0x00, 0x0C, 0x00, 0x00, 0x00, 0x01, 0x00, 0x00, 0x00, 0xCC, 0xE4, 0xA7, 0x41, 0x01, 0x00, 0x00, 0x00, 0x80, 0xFF, 0xFF, 0xFF, 0xFF, 0xFF, 0xFF, 0xFF, 0x0A, 0xF6, 0xFF, 0xFF, 0x04, 0x00, 0x00, 0x00, 0x20, 0x00, 0x00, 0x00, 0x00, 0x00, 0x00, 0x00, 0x01, 0x00, 0x00, 0x00, 0x00, 0x00, 0x00, 0x00, 0xFF, 0xFF, 0xFF, 0xFF, 0x00, 0x00, 0x00, 0x00, 0x00, 0x00, 0x00, 0x00, 0x00, 0x00, 0x00, 0x00, 0x00, 0x00, 0x00, 0x00, 0x1A, 0xF6, 0xFF, 0xFF, 0x00, 0x00, 0x00, 0x02, 0x10, 0x00, 0x00, 0x00, 0x09, 0x00, 0x00, 0x00, 0x10, 0x00, 0x00, 0x00, 0x94, 0x00, 0x00, 0x00, 0x01, 0x00, 0x00, 0x00, 0x08, 0x00, 0x00, 0x00, 0x82, 0x00, 0x00, 0x00, 0x73, 0x65, 0x71, 0x75, 0x65, 0x6E, 0x74, 0x69, 0x61, 0x6C, 0x5F, 0x31, 0x2F, 0x71, 0x75, 0x61, 0x6E, 0x74, 0x5F, 0x63, 0x6F, 0x6E, 0x76, 0x32, 0x64, 0x5F, 0x35, 0x2F, 0x42, 0x69, 0x61, 0x73, 0x41, 0x64, 0x64, 0x3B, 0x73, 0x65, 0x71, 0x75, 0x65, 0x6E, 0x74, 0x69, 0x61, 0x6C, 0x5F, 0x31, 0x2F, 0x71, 0x75, 0x61, 0x6E, 0x74, 0x5F, 0x63, 0x6F, 0x6E, 0x76, 0x32, 0x64, 0x5F, 0x35, 0x2F, 0x43, 0x6F, 0x6E, 0x76, 0x32, 0x44, 0x3B, 0x73, 0x65, 0x71, 0x75, 0x65, 0x6E, 0x74, 0x69, 0x61, 0x6C, 0x5F, 0x31, 0x2F, 0x71, 0x75, 0x61, 0x6E, 0x74, 0x5F, 0x63, 0x6F, 0x6E, 0x76, 0x32, 0x64, 0x5F, 0x35, 0x2F, 0x42, 0x69, 0x61, 0x73, 0x41, 0x64, 0x64, 0x2F, 0x52, 0x65, 0x61, 0x64, 0x56, 0x61, 0x72, 0x69, 0x61, 0x62, 0x6C, 0x65, 0x4F, 0x70, 0x2F, 0x72, 0x65, 0x73, 0x6F, 0x75, 0x72, 0x63, 0x65, 0x00, 0x00, 0x10, 0xF7, 0xFF, 0xFF, 0x08, 0x00, 0x00, 0x00, 0x28, 0x00, 0x00, 0x00, 0x08, 0x00, 0x00, 0x00, 0x0C, 0x7B, 0xCC, 0x3E, 0x11, 0x0F, 0xBD, 0x3E, 0x8F, 0x95, 0xF8, 0x3E, 0x34, 0xC6, 0xDF, 0x3E, 0xBD, 0x42, 0xDA, 0x3E, 0x12, 0x46, 0xC8, 0x3E, 0xE9, 0x34, 0xD9, 0x3E, 0x99, 0x38, 0xD0, 0x3E, 0x08, 0x00, 0x00, 0x00, 0x00, 0x00, 0x00, 0x00, 0x00, 0x00, 0x00, 0x00, 0x00, 0x00, 0x00, 0x00, 0x00, 0x00, 0x00, 0x00, 0x00, 0x00, 0x00, 0x00, 0x00, 0x00, 0x00, 0x00, 0x00, 0x00, 0x00, 0x00, 0x00, 0x00, 0x00, 0x00, 0x00, 0x00, 0x00, 0x00, 0x00, 0x00, 0x00, 0x00, 0x00, 0x00, 0x00, 0x00, 0x00, 0x00, 0x00, 0x00, 0x00, 0x00, 0x00, 0x00, 0x00, 0x00, 0x00, 0x00, 0x00, 0x00, 0x00, 0x00, 0x00, 0x00, 0x00, 0x00, 0x52, 0xF7, 0xFF, 0xFF, 0x04, 0x00, 0x00, 0x00, 0x20, 0x01, 0x00, 0x00, 0x95, 0x1E, 0x22, 0x0F, 0xD8, 0xA9, 0xED, 0x31, 0xCA, 0x9C, 0x1C, 0xEE, 0xE3, 0x13, 0x32, 0x43, 0xA3, 0xB1, 0x03, 0xED, 0xDE, 0xE7, 0x95, 0xBA, 0x17, 0x0F, 0xBD, 0x24, 0x47, 0xE2, 0xC3, 0x2B, 0x81, 0xA1, 0xCC, 0x35, 0x3E, 0xF3, 0xEF, 0xB7, 0x36, 0x0B, 0xFC, 0x81, 0xD6, 0x26, 0x51, 0xDF, 0xF3, 0x36, 0x2E, 0xDB, 0xAB, 0x2E, 0xB4, 0xD1, 0x1E, 0x41, 0xF7, 0xC8, 0xCA, 0x1D, 0x4D, 0xE1, 0x30, 0xD7, 0xC6, 0x63, 0x5D, 0x1B, 0xB7, 0xD6, 0xD6, 0xEC, 0xB0, 0x9E, 0x22, 0xAF, 0x42, 0x8F, 0x0B, 0xD1, 0xA4, 0x21, 0x07, 0xD5, 0x81, 0x37, 0x9B, 0xB5, 0x07, 0x2D, 0xDB, 0xF6, 0xC1, 0x91, 0xB8, 0x2F, 0x83, 0x07, 0x37, 0xDA, 0x0E, 0x24, 0xCF, 0x13, 0xBB, 0xA6, 0xEF, 0xE4, 0xC5, 0x1E, 0xE5, 0x81, 0x32, 0xFE, 0x26, 0x29, 0xC4, 0xC5, 0x8F, 0x13, 0x81, 0x92, 0xFB, 0x43, 0xC5, 0x48, 0xE6, 0xE6, 0xFB, 0xB6, 0xB1, 0x87, 0x03, 0x90, 0xC5, 0xD5, 0x31, 0xF2, 0xDF, 0x0F, 0xD3, 0x5E, 0x24, 0x19, 0xFE, 0xA4, 0xF6, 0x1A, 0xF8, 0xC2, 0x85, 0xE7, 0xFD, 0xA0, 0xA5, 0x12, 0xE8, 0x81, 0x19, 0x2C, 0xCC, 0x9D, 0x30, 0xE0, 0x1A, 0xDA, 0x05, 0x0D, 0x31, 0xA3, 0x18, 0x98, 0x1F, 0x9A, 0x27, 0x95, 0x05, 0xA6, 0x81, 0x30, 0xF6, 0x95, 0xC2, 0x08, 0xE1, 0xE8, 0x0E, 0xF0, 0x9D, 0xD2, 0x01, 0x8A, 0xDA, 0x5B, 0xDC, 0xBC, 0xE2, 0xAB, 0xC5, 0xB8, 0xA5, 0x5A, 0x13, 0xDA, 0x31, 0xED, 0x2C, 0x34, 0x97, 0xF8, 0xDF, 0x03, 0x20, 0x52, 0x05, 0x98, 0xF1, 0x3F, 0x48, 0xFC, 0x86, 0xBC, 0x84, 0xF7, 0xB8, 0x32, 0x40, 0xE5, 0x95, 0x57, 0xF3, 0x0E, 0xBE, 0x3C, 0xF2, 0xEC, 0x46, 0x0F, 0x97, 0x81, 0x8B, 0xF3, 0xA0, 0x0A, 0x26, 0xED, 0x0A, 0xAC, 0x8C, 0xF5, 0xAC, 0x3B, 0xD7, 0x14, 0x3E, 0x2F, 0xE6, 0x5F, 0xC9, 0x1C, 0xC1, 0x64, 0x53, 0xEF, 0x0A, 0xB5, 0xE6, 0xD9, 0xA2, 0x1A, 0x88, 0xD1, 0xB1, 0x21, 0x36, 0x30, 0xD0, 0x0D, 0x0C, 0x21, 0x12, 0x28, 0xA2, 0x81, 0x98, 0x43, 0x62, 0xF8, 0xFF, 0xFF, 0x00, 0x00, 0x00, 0x09, 0x10, 0x00, 0x00, 0x00, 0x08, 0x00, 0x00, 0x00, 0x1C, 0x00, 0x00, 0x00, 0x8C, 0x00, 0x00, 0x00, 0x04, 0x00, 0x00, 0x00, 0x08, 0x00, 0x00, 0x00, 0x03, 0x00, 0x00, 0x00, 0x03, 0x00, 0x00, 0x00, 0x04, 0x00, 0x00, 0x00, 0x6F, 0x00, 0x00, 0x00, 0x73, 0x65, 0x71, 0x75, 0x65, 0x6E, 0x74, 0x69, 0x61, 0x6C, 0x5F, 0x31, 0x2F, 0x71, 0x75, 0x61, 0x6E, 0x74, 0x5F, 0x63, 0x6F, 0x6E, 0x76, 0x32, 0x64, 0x5F, 0x35, 0x2F, 0x43, 0x6F, 0x6E, 0x76, 0x32, 0x44, 0x3B, 0x73, 0x65, 0x71, 0x75, 0x65, 0x6E, 0x74, 0x69, 0x61, 0x6C, 0x5F, 0x31, 0x2F, 0x71, 0x75, 0x61, 0x6E, 0x74, 0x5F, 0x63, 0x6F, 0x6E, 0x76, 0x32, 0x64, 0x5F, 0x35, 0x2F, 0x4C, 0x61, 0x73, 0x74, 0x56, 0x61, 0x6C, 0x75, 0x65, 0x51, 0x75, 0x61, 0x6E, 0x74, 0x2F, 0x46, 0x61, 0x6B, 0x65, 0x51, 0x75, 0x61, 0x6E, 0x74, 0x57, 0x69, 0x74, 0x68, 0x4D, 0x69, 0x6E, 0x4D, 0x61, 0x78, 0x56, 0x61, 0x72, 0x73, 0x50, 0x65, 0x72, 0x43, 0x68, 0x61, 0x6E, 0x6E, 0x65, 0x6C, 0x00, 0x50, 0xF9, 0xFF, 0xFF, 0x08, 0x00, 0x00, 0x00, 0x28, 0x00, 0x00, 0x00, 0x08, 0x00, 0x00, 0x00, 0xB7, 0x5B, 0xEE, 0x3A, 0xA5, 0x61, 0xDC, 0x3A, 0x66, 0xE2, 0x10, 0x3B, 0x96, 0x6C, 0x02, 0x3B, 0xDD, 0x6B, 0xFE, 0x3A, 0x4F, 0x74, 0xE9, 0x3A, 0x54, 0x31, 0xFD, 0x3A, 0xE9, 0xB7, 0xF2, 0x3A, 0x08, 0x00, 0x00, 0x00, 0x00, 0x00, 0x00, 0x00, 0x00, 0x00, 0x00, 0x00, 0x00, 0x00, 0x00, 0x00, 0x00, 0x00, 0x00, 0x00, 0x00, 0x00, 0x00, 0x00, 0x00, 0x00, 0x00, 0x00, 0x00, 0x00, 0x00, 0x00, 0x00, 0x00, 0x00, 0x00, 0x00, 0x00, 0x00, 0x00, 0x00, 0x00, 0x00, 0x00, 0x00, 0x00, 0x00, 0x00, 0x00, 0x00, 0x00, 0x00, 0x00, 0x00, 0x00, 0x00, 0x00, 0x00, 0x00, 0x00, 0x00, 0x00, 0x00, 0x00, 0x00, 0x00, 0x00, 0x00, 0x00, 0x00, 0x0E, 0x00, 0x1A, 0x00, 0x08, 0x00, 0x0C, 0x00, 0x10, 0x00, 0x07, 0x00, 0x14, 0x00, 0x0E, 0x00, 0x00, 0x00, 0x00, 0x00, 0x00, 0x05, 0x02, 0x00, 0x00, 0x00, 0x38, 0x00, 0x00, 0x00, 0x2C, 0x00, 0x00, 0x00, 0x14, 0x00, 0x00, 0x00, 0x00, 0x00, 0x0E, 0x00, 0x14, 0x00, 0x00, 0x00, 0x10, 0x00, 0x0C, 0x00, 0x08, 0x00, 0x04, 0x00, 0x0E, 0x00, 0x00, 0x00, 0x02, 0x00, 0x00, 0x00, 0x02, 0x00, 0x00, 0x00, 0x02, 0x00, 0x00, 0x00, 0x02, 0x00, 0x00, 0x00, 0x01, 0x00, 0x00, 0x00, 0x06, 0x00, 0x00, 0x00, 0x01, 0x00, 0x00, 0x00, 0x05, 0x00, 0x00, 0x00, 0x9C, 0xFB, 0xFF, 0xFF, 0x11, 0x00, 0x00, 0x00, 0x00, 0x00, 0x00, 0x11, 0x02, 0x00, 0x00, 0x00, 0x90, 0xFB, 0xFF, 0xFF, 0x00, 0x00, 0x00, 0x09, 0x14, 0x00, 0x00, 0x00, 0x07, 0x00, 0x00, 0x00, 0x34, 0x00, 0x00, 0x00, 0x60, 0x00, 0x00, 0x00, 0x18, 0x00, 0x00, 0x00, 0x04, 0x00, 0x00, 0x00, 0x01, 0x00, 0x00, 0x00, 0x11, 0x00, 0x00, 0x00, 0x81, 0x00, 0x00, 0x00, 0x04, 0x00, 0x00, 0x00, 0x04, 0x00, 0x00, 0x00, 0xFF, 0xFF, 0xFF, 0xFF, 0x11, 0x00, 0x00, 0x00, 0x81, 0x00, 0x00, 0x00, 0x04, 0x00, 0x00, 0x00, 0x2A, 0x00, 0x00, 0x00, 0x73, 0x65, 0x71, 0x75, 0x65, 0x6E, 0x74, 0x69, 0x61, 0x6C, 0x5F, 0x31, 0x2F, 0x71, 0x75, 0x61, 0x6E, 0x74, 0x5F, 0x6D, 0x61, 0x78, 0x5F, 0x70, 0x6F, 0x6F, 0x6C, 0x69, 0x6E, 0x67, 0x32, 0x64, 0x5F, 0x34, 0x2F, 0x4D, 0x61, 0x78, 0x50, 0x6F, 0x6F, 0x6C, 0x00, 0x00, 0xA4, 0xFA, 0xFF, 0xFF, 0x08, 0x00, 0x00, 0x00, 0x0C, 0x00, 0x00, 0x00, 0x01, 0x00, 0x00, 0x00, 0x70, 0x9D, 0x5B, 0x43, 0x01, 0x00, 0x00, 0x00, 0x80, 0xFF, 0xFF, 0xFF, 0xFF, 0xFF, 0xFF, 0xFF, 0x00, 0x00, 0x0E, 0x00, 0x18, 0x00, 0x08, 0x00, 0x0C, 0x00, 0x10, 0x00, 0x07, 0x00, 0x14, 0x00, 0x0E, 0x00, 0x00, 0x00, 0x00, 0x00, 0x00, 0x01, 0x01, 0x00, 0x00, 0x00, 0x30, 0x00, 0x00, 0x00, 0x24, 0x00, 0x00, 0x00, 0x10, 0x00, 0x00, 0x00, 0x0C, 0x00, 0x10, 0x00, 0x00, 0x00, 0x04, 0x00, 0x08, 0x00, 0x0F, 0x00, 0x0C, 0x00, 0x00, 0x00, 0x01, 0x00, 0x00, 0x00, 0x01, 0x00, 0x00, 0x00, 0x00, 0x00, 0x00, 0x01, 0x01, 0x00, 0x00, 0x00, 0x05, 0x00, 0x00, 0x00, 0x03, 0x00, 0x00, 0x00, 0x02, 0x00, 0x00, 0x00, 0x03, 0x00, 0x00, 0x00, 0x04, 0x00, 0x00, 0x00, 0x9C, 0xFC, 0xFF, 0xFF, 0x03, 0x00, 0x00, 0x00, 0x00, 0x00, 0x00, 0x03, 0x03, 0x00, 0x00, 0x00, 0x90, 0xFC, 0xFF, 0xFF, 0x00, 0x00, 0x00, 0x09, 0x14, 0x00, 0x00, 0x00, 0x06, 0x00, 0x00, 0x00, 0x34, 0x00, 0x00, 0x00, 0xD8, 0x00, 0x00, 0x00, 0x18, 0x00, 0x00, 0x00, 0x04, 0x00, 0x00, 0x00, 0x01, 0x00, 0x00, 0x00, 0x21, 0x00, 0x00, 0x00, 0x01, 0x01, 0x00, 0x00, 0x04, 0x00, 0x00, 0x00, 0x04, 0x00, 0x00, 0x00, 0xFF, 0xFF, 0xFF, 0xFF, 0x21, 0x00, 0x00, 0x00, 0x01, 0x01, 0x00, 0x00, 0x04, 0x00, 0x00, 0x00, 0xA3, 0x00, 0x00, 0x00, 0x73, 0x65, 0x71, 0x75, 0x65, 0x6E, 0x74, 0x69, 0x61, 0x6C, 0x5F, 0x31, 0x2F, 0x71, 0x75, 0x61, 0x6E, 0x74, 0x5F, 0x63, 0x6F, 0x6E, 0x76, 0x32, 0x64, 0x5F, 0x34, 0x2F, 0x52, 0x65, 0x6C, 0x75, 0x3B, 0x73, 0x65, 0x71, 0x75, 0x65, 0x6E, 0x74, 0x69, 0x61, 0x6C, 0x5F, 0x31, 0x2F, 0x71, 0x75, 0x61, 0x6E, 0x74, 0x5F, 0x63, 0x6F, 0x6E, 0x76, 0x32, 0x64, 0x5F, 0x34, 0x2F, 0x42, 0x69, 0x61, 0x73, 0x41, 0x64, 0x64, 0x3B, 0x73, 0x65, 0x71, 0x75, 0x65, 0x6E, 0x74, 0x69, 0x61, 0x6C, 0x5F, 0x31, 0x2F, 0x71, 0x75, 0x61, 0x6E, 0x74, 0x5F, 0x63, 0x6F, 0x6E, 0x76, 0x32, 0x64, 0x5F, 0x34, 0x2F, 0x43, 0x6F, 0x6E, 0x76, 0x32, 0x44, 0x3B, 0x73, 0x65, 0x71, 0x75, 0x65, 0x6E, 0x74, 0x69, 0x61, 0x6C, 0x5F, 0x31, 0x2F, 0x71, 0x75, 0x61, 0x6E, 0x74, 0x5F, 0x63, 0x6F, 0x6E, 0x76, 0x32, 0x64, 0x5F, 0x34, 0x2F, 0x42, 0x69, 0x61, 0x73, 0x41, 0x64, 0x64, 0x2F, 0x52, 0x65, 0x61, 0x64, 0x56, 0x61, 0x72, 0x69, 0x61, 0x62, 0x6C, 0x65, 0x4F, 0x70, 0x2F, 0x72, 0x65, 0x73, 0x6F, 0x75, 0x72, 0x63, 0x65, 0x00, 0x1C, 0xFC, 0xFF, 0xFF, 0x08, 0x00, 0x00, 0x00, 0x0C, 0x00, 0x00, 0x00, 0x01, 0x00, 0x00, 0x00, 0x70, 0x9D, 0x5B, 0x43, 0x01, 0x00, 0x00, 0x00, 0x80, 0xFF, 0xFF, 0xFF, 0xFF, 0xFF, 0xFF, 0xFF, 0x0A, 0xFC, 0xFF, 0xFF, 0x04, 0x00, 0x00, 0x00, 0x10, 0x00, 0x00, 0x00, 0x00, 0x00, 0x00, 0x00, 0x00, 0x00, 0x00, 0x00, 0x00, 0x00, 0x00, 0x00, 0x00, 0x00, 0x00, 0x00, 0x0A, 0xFC, 0xFF, 0xFF, 0x00, 0x00, 0x00, 0x02, 0x10, 0x00, 0x00, 0x00, 0x05, 0x00, 0x00, 0x00, 0x10, 0x00, 0x00, 0x00, 0x94, 0x00, 0x00, 0x00, 0x01, 0x00, 0x00, 0x00, 0x04, 0x00, 0x00, 0x00, 0x82, 0x00, 0x00, 0x00, 0x73, 0x65, 0x71, 0x75, 0x65, 0x6E, 0x74, 0x69, 0x61, 0x6C, 0x5F, 0x31, 0x2F, 0x71, 0x75, 0x61, 0x6E, 0x74, 0x5F, 0x63, 0x6F, 0x6E, 0x76, 0x32, 0x64, 0x5F, 0x34, 0x2F, 0x42, 0x69, 0x61, 0x73, 0x41, 0x64, 0x64, 0x3B, 0x73, 0x65, 0x71, 0x75, 0x65, 0x6E, 0x74, 0x69, 0x61, 0x6C, 0x5F, 0x31, 0x2F, 0x71, 0x75, 0x61, 0x6E, 0x74, 0x5F, 0x63, 0x6F, 0x6E, 0x76, 0x32, 0x64, 0x5F, 0x34, 0x2F, 0x43, 0x6F, 0x6E, 0x76, 0x32, 0x44, 0x3B, 0x73, 0x65, 0x71, 0x75, 0x65, 0x6E, 0x74, 0x69, 0x61, 0x6C, 0x5F, 0x31, 0x2F, 0x71, 0x75, 0x61, 0x6E, 0x74, 0x5F, 0x63, 0x6F, 0x6E, 0x76, 0x32, 0x64, 0x5F, 0x34, 0x2F, 0x42, 0x69, 0x61, 0x73, 0x41, 0x64, 0x64, 0x2F, 0x52, 0x65, 0x61, 0x64, 0x56, 0x61, 0x72, 0x69, 0x61, 0x62, 0x6C, 0x65, 0x4F, 0x70, 0x2F, 0x72, 0x65, 0x73, 0x6F, 0x75, 0x72, 0x63, 0x65, 0x00, 0x00, 0x00, 0xFD, 0xFF, 0xFF, 0x08, 0x00, 0x00, 0x00, 0x18, 0x00, 0x00, 0x00, 0x04, 0x00, 0x00, 0x00, 0x88, 0xED, 0x71, 0x41, 0x47, 0x0B, 0x4A, 0x41, 0x4E, 0x44, 0x21, 0x41, 0x08, 0x35, 0x43, 0x41, 0x04, 0x00, 0x00, 0x00, 0x00, 0x00, 0x00, 0x00, 0x00, 0x00, 0x00, 0x00, 0x00, 0x00, 0x00, 0x00, 0x00, 0x00, 0x00, 0x00, 0x00, 0x00, 0x00, 0x00, 0x00, 0x00, 0x00, 0x00, 0x00, 0x00, 0x00, 0x00, 0x00, 0x00, 0x00, 0x00, 0x00, 0x00, 0x00, 0x00, 0x16, 0xFD, 0xFF, 0xFF, 0x04, 0x00, 0x00, 0x00, 0x24, 0x00, 0x00, 0x00, 0xDC, 0xA6, 0xC0, 0x4D, 0x81, 0x94, 0x96, 0xB3, 0x61, 0x55, 0x01, 0x01, 0xD5, 0x9A, 0xF6, 0xC8, 0x81, 0x04, 0xC1, 0xBB, 0xA0, 0x7F, 0x2C, 0x2C, 0x94, 0x07, 0x42, 0x82, 0x81, 0x8D, 0xDD, 0xA3, 0x51, 0xB3, 0x2D, 0x29, 0x2A, 0xFD, 0xFF, 0xFF, 0x00, 0x00, 0x00, 0x09, 0x10, 0x00, 0x00, 0x00, 0x04, 0x00, 0x00, 0x00, 0x1C, 0x00, 0x00, 0x00, 0x8C, 0x00, 0x00, 0x00, 0x04, 0x00, 0x00, 0x00, 0x04, 0x00, 0x00, 0x00, 0x03, 0x00, 0x00, 0x00, 0x03, 0x00, 0x00, 0x00, 0x01, 0x00, 0x00, 0x00, 0x6F, 0x00, 0x00, 0x00, 0x73, 0x65, 0x71, 0x75, 0x65, 0x6E, 0x74, 0x69, 0x61, 0x6C, 0x5F, 0x31, 0x2F, 0x71, 0x75, 0x61, 0x6E, 0x74, 0x5F, 0x63, 0x6F, 0x6E, 0x76, 0x32, 0x64, 0x5F, 0x34, 0x2F, 0x43, 0x6F, 0x6E, 0x76, 0x32, 0x44, 0x3B, 0x73, 0x65, 0x71, 0x75, 0x65, 0x6E, 0x74, 0x69, 0x61, 0x6C, 0x5F, 0x31, 0x2F, 0x71, 0x75, 0x61, 0x6E, 0x74, 0x5F, 0x63, 0x6F, 0x6E, 0x76, 0x32, 0x64, 0x5F, 0x34, 0x2F, 0x4C, 0x61, 0x73, 0x74, 0x56, 0x61, 0x6C, 0x75, 0x65, 0x51, 0x75, 0x61, 0x6E, 0x74, 0x2F, 0x46, 0x61, 0x6B, 0x65, 0x51, 0x75, 0x61, 0x6E, 0x74, 0x57, 0x69, 0x74, 0x68, 0x4D, 0x69, 0x6E, 0x4D, 0x61, 0x78, 0x56, 0x61, 0x72, 0x73, 0x50, 0x65, 0x72, 0x43, 0x68, 0x61, 0x6E, 0x6E, 0x65, 0x6C, 0x00, 0x18, 0xFE, 0xFF, 0xFF, 0x08, 0x00, 0x00, 0x00, 0x18, 0x00, 0x00, 0x00, 0x04, 0x00, 0x00, 0x00, 0x3A, 0x1A, 0x36, 0x3B, 0xD5, 0x14, 0x18, 0x3B, 0x8A, 0xC6, 0xF2, 0x3A, 0x65, 0xEF, 0x12, 0x3B, 0x04, 0x00, 0x00, 0x00, 0x00, 0x00, 0x00, 0x00, 0x00, 0x00, 0x00, 0x00, 0x00, 0x00, 0x00, 0x00, 0x00, 0x00, 0x00, 0x00, 0x00, 0x00, 0x00, 0x00, 0x00, 0x00, 0x00, 0x00, 0x00, 0x00, 0x00, 0x00, 0x00, 0x00, 0x00, 0x00, 0x00, 0x00, 0x0A, 0x00, 0x0C, 0x00, 0x00, 0x00, 0x04, 0x00, 0x08, 0x00, 0x0A, 0x00, 0x00, 0x00, 0x10, 0x00, 0x00, 0x00, 0x04, 0x00, 0x00, 0x00, 0x01, 0x00, 0x00, 0x00, 0x02, 0x00, 0x00, 0x00, 0x01, 0x00, 0x00, 0x00, 0x00, 0x00, 0x00, 0x00, 0x0C, 0x00, 0x10, 0x00, 0x0B, 0x00, 0x00, 0x00, 0x0C, 0x00, 0x04, 0x00, 0x0C, 0x00, 0x00, 0x00, 0x72, 0x00, 0x00, 0x00, 0x00, 0x00, 0x00, 0x72, 0x01, 0x00, 0x00, 0x00, 0x14, 0x00, 0x1C, 0x00, 0x08, 0x00, 0x07, 0x00, 0x0C, 0x00, 0x10, 0x00, 0x14, 0x00, 0x00, 0x00, 0x00, 0x00, 0x18, 0x00, 0x14, 0x00, 0x00, 0x00, 0x00, 0x00, 0x00, 0x09, 0x14, 0x00, 0x00, 0x00, 0x03, 0x00, 0x00, 0x00, 0x34, 0x00, 0x00, 0x00, 0x44, 0x01, 0x00, 0x00, 0x18, 0x00, 0x00, 0x00, 0x04, 0x00, 0x00, 0x00, 0x01, 0x00, 0x00, 0x00, 0x21, 0x00, 0x00, 0x00, 0x01, 0x01, 0x00, 0x00, 0x01, 0x00, 0x00, 0x00, 0x04, 0x00, 0x00, 0x00, 0xFF, 0xFF, 0xFF, 0xFF, 0x21, 0x00, 0x00, 0x00, 0x01, 0x01, 0x00, 0x00, 0x01, 0x00, 0x00, 0x00, 0x03, 0x01, 0x00, 0x00, 0x73, 0x65, 0x71, 0x75, 0x65, 0x6E, 0x74, 0x69, 0x61, 0x6C, 0x5F, 0x31, 0x2F, 0x71, 0x75, 0x61, 0x6E, 0x74, 0x69, 0x7A, 0x65, 0x5F, 0x6C, 0x61, 0x79, 0x65, 0x72, 0x2F, 0x41, 0x6C, 0x6C, 0x56, 0x61, 0x6C, 0x75, 0x65, 0x73, 0x51, 0x75, 0x61, 0x6E, 0x74, 0x69, 0x7A, 0x65, 0x2F, 0x46, 0x61, 0x6B, 0x65, 0x51, 0x75, 0x61, 0x6E, 0x74, 0x57, 0x69, 0x74, 0x68, 0x4D, 0x69, 0x6E, 0x4D, 0x61, 0x78, 0x56, 0x61, 0x72, 0x73, 0x3B, 0x73, 0x65, 0x71, 0x75, 0x65, 0x6E, 0x74, 0x69, 0x61, 0x6C, 0x5F, 0x31, 0x2F, 0x71, 0x75, 0x61, 0x6E, 0x74, 0x69, 0x7A, 0x65, 0x5F, 0x6C, 0x61, 0x79, 0x65, 0x72, 0x2F, 0x41, 0x6C, 0x6C, 0x56, 0x61, 0x6C, 0x75, 0x65, 0x73, 0x51, 0x75, 0x61, 0x6E, 0x74, 0x69, 0x7A, 0x65, 0x2F, 0x46, 0x61, 0x6B, 0x65, 0x51, 0x75, 0x61, 0x6E, 0x74, 0x57, 0x69, 0x74, 0x68, 0x4D, 0x69, 0x6E, 0x4D, 0x61, 0x78, 0x56, 0x61, 0x72, 0x73, 0x2F, 0x52, 0x65, 0x61, 0x64, 0x56, 0x61, 0x72, 0x69, 0x61, 0x62, 0x6C, 0x65, 0x4F, 0x70, 0x2F, 0x72, 0x65, 0x73, 0x6F, 0x75, 0x72, 0x63, 0x65, 0x3B, 0x73, 0x65, 0x71, 0x75, 0x65, 0x6E, 0x74, 0x69, 0x61, 0x6C, 0x5F, 0x31, 0x2F, 0x71, 0x75, 0x61, 0x6E, 0x74, 0x69, 0x7A, 0x65, 0x5F, 0x6C, 0x61, 0x79, 0x65, 0x72, 0x2F, 0x41, 0x6C, 0x6C, 0x56, 0x61, 0x6C, 0x75, 0x65, 0x73, 0x51, 0x75, 0x61, 0x6E, 0x74, 0x69, 0x7A, 0x65, 0x2F, 0x46, 0x61, 0x6B, 0x65, 0x51, 0x75, 0x61, 0x6E, 0x74, 0x57, 0x69, 0x74, 0x68, 0x4D, 0x69, 0x6E, 0x4D, 0x61, 0x78, 0x56, 0x61, 0x72, 0x73, 0x2F, 0x52, 0x65, 0x61, 0x64, 0x56, 0x61, 0x72, 0x69, 0x61, 0x62, 0x6C, 0x65, 0x4F, 0x70, 0x5F, 0x31, 0x2F, 0x72, 0x65, 0x73, 0x6F, 0x75, 0x72, 0x63, 0x65, 0x00, 0x0C, 0x00, 0x0C, 0x00, 0x00, 0x00, 0x00, 0x00, 0x04, 0x00, 0x08, 0x00, 0x0C, 0x00, 0x00, 0x00, 0x08, 0x00, 0x00, 0x00, 0x0C, 0x00, 0x00, 0x00, 0x01, 0x00, 0x00, 0x00, 0x24, 0x0D, 0xAA, 0x45, 0x01, 0x00, 0x00, 0x00, 0x80, 0xFF, 0xFF, 0xFF, 0xFF, 0xFF, 0xFF, 0xFF, 0x00, 0x00, 0x00, 0x00, 0x00, 0x00, 0x06, 0x00, 0x08, 0x00, 0x04, 0x00, 0x06, 0x00, 0x00, 0x00, 0x04, 0x00, 0x00, 0x00, 0x08, 0x00, 0x00, 0x00, 0xFF, 0xFF, 0xFF, 0xFF, 0x30, 0x03, 0x00, 0x00, 0x00, 0x00, 0x0E, 0x00, 0x18, 0x00, 0x08, 0x00, 0x07, 0x00, 0x0C, 0x00, 0x10, 0x00, 0x14, 0x00, 0x0E, 0x00, 0x00, 0x00, 0x00, 0x00, 0x00, 0x02, 0x10, 0x00, 0x00, 0x00, 0x02, 0x00, 0x00, 0x00, 0x10, 0x00, 0x00, 0x00, 0x34, 0x00, 0x00, 0x00, 0x01, 0x00, 0x00, 0x00, 0x02, 0x00, 0x00, 0x00, 0x22, 0x00, 0x00, 0x00, 0x73, 0x65, 0x71, 0x75, 0x65, 0x6E, 0x74, 0x69, 0x61, 0x6C, 0x5F, 0x31, 0x2F, 0x71, 0x75, 0x61, 0x6E, 0x74, 0x5F, 0x66, 0x6C, 0x61, 0x74, 0x74, 0x65, 0x6E, 0x5F, 0x31, 0x2F, 0x43, 0x6F, 0x6E, 0x73, 0x74, 0x00, 0x00, 0x98, 0xFF, 0xFF, 0xFF, 0x14, 0x00, 0x18, 0x00, 0x04, 0x00, 0x00, 0x00, 0x08, 0x00, 0x0C, 0x00, 0x10, 0x00, 0x00, 0x00, 0x00, 0x00, 0x14, 0x00, 0x14, 0x00, 0x00, 0x00, 0x14, 0x00, 0x00, 0x00, 0x01, 0x00, 0x00, 0x00, 0x34, 0x00, 0x00, 0x00, 0x3C, 0x00, 0x00, 0x00, 0x18, 0x00, 0x00, 0x00, 0x04, 0x00, 0x00, 0x00, 0x01, 0x00, 0x00, 0x00, 0x21, 0x00, 0x00, 0x00, 0x01, 0x01, 0x00, 0x00, 0x01, 0x00, 0x00, 0x00, 0x04, 0x00, 0x00, 0x00, 0xFF, 0xFF, 0xFF, 0xFF, 0x21, 0x00, 0x00, 0x00, 0x01, 0x01, 0x00, 0x00, 0x01, 0x00, 0x00, 0x00, 0x07, 0x00, 0x00, 0x00, 0x69, 0x6E, 0x70, 0x75, 0x74, 0x5F, 0x32, 0x00, 0xFC, 0xFF, 0xFF, 0xFF, 0x04, 0x00, 0x04, 0x00, 0x04, 0x00, 0x00, 0x00
};
unsigned int model_tflite_len = 15104;