
// ADDED LINES START
constexpr char* processing_method = "stft";
constexpr double expected_duration = 1.0;
constexpr int sample_rate = 16000;
constexpr int window_size_samples = 512;
constexpr int window_stride_samples = 480;

const char* RESPONSES[] = {"no", "yes"};
unsigned short NUM_RESPONSES = 2;

// ADDED LINES END

alignas(8) const unsigned char model_tflite[] = {
0x20, 0x00, 0x00, 0x00, 0x54, 0x46, 0x4C, 0x33, 0x00, 0x00, 0x00, 0x00, 0x14, 0x00, 0x20, 0x00, 0x04, 0x00, 0x08, 0x00, 0x0C, 0x00, 0x10, 0x00, 0x14, 0x00, 0x00, 0x00, 0x18, 0x00, 0x1C, 0x00, 0x14, 0x00, 0x00, 0x00, 0x03, 0x00, 0x00, 0x00, 0x18, 0x00, 0x00, 0x00, 0x34, 0x00, 0x00, 0x00, 0x08, 0x01, 0x00, 0x00, 0x34, 0x00, 0x00, 0x00, 0xB0, 0x00, 0x00, 0x00, 0xA8, 0x00, 0x00, 0x00, 0x07, 0x00, 0x00, 0x00, 0x28, 0x38, 0x00, 0x00, 0xB4, 0x34, 0x00, 0x00, 0xB0, 0x33, 0x00, 0x00, 0x80, 0x14, 0x00, 0x00, 0x84, 0x05, 0x00, 0x00, 0x8C, 0x02, 0x00, 0x00, 0x04, 0x02, 0x00, 0x00, 0x01, 0x00, 0x00, 0x00, 0xF8, 0x00, 0x00, 0x00, 0x1E, 0x00, 0x00, 0x00, 0x80, 0x3A, 0x00, 0x00, 0x7C, 0x3A, 0x00, 0x00, 0xA0, 0x39, 0x00, 0x00, 0x74, 0x3A, 0x00, 0x00, 0xA8, 0x36, 0x00, 0x00, 0x98, 0x35, 0x00, 0x00, 0x68, 0x3A, 0x00, 0x00, 0x64, 0x3A, 0x00, 0x00, 0xD4, 0x30, 0x00, 0x00, 0x88, 0x2F, 0x00, 0x00, 0x58, 0x3A, 0x00, 0x00, 0x54, 0x3A, 0x00, 0x00, 0x5C, 0x27, 0x00, 0x00, 0x90, 0x25, 0x00, 0x00, 0x48, 0x3A, 0x00, 0x00, 0x44, 0x3A, 0x00, 0x00, 0xE4, 0x18, 0x00, 0x00, 0xF4, 0x16, 0x00, 0x00, 0x38, 0x3A, 0x00, 0x00, 0x34, 0x3A, 0x00, 0x00, 0x30, 0x3A, 0x00, 0x00, 0x68, 0x06, 0x00, 0x00, 0xC8, 0x05, 0x00, 0x00, 0x24, 0x3A, 0x00, 0x00, 0x14, 0x04, 0x00, 0x00, 0x7C, 0x03, 0x00, 0x00, 0x18, 0x3A, 0x00, 0x00, 0x14, 0x3A, 0x00, 0x00, 0x10, 0x3A, 0x00, 0x00, 0x3C, 0x00, 0x00, 0x00, 0x00, 0x00, 0x00, 0x00, 0x01, 0x00, 0x00, 0x00, 0x0C, 0x00, 0x00, 0x00, 0x08, 0x00, 0x0C, 0x00, 0x04, 0x00, 0x08, 0x00, 0x08, 0x00, 0x00, 0x00, 0x08, 0x00, 0x00, 0x00, 0x1D, 0x00, 0x00, 0x00, 0x13, 0x00, 0x00, 0x00, 0x6D, 0x69, 0x6E, 0x5F, 0x72, 0x75, 0x6E, 0x74, 0x69, 0x6D, 0x65, 0x5F, 0x76, 0x65, 0x72, 0x73, 0x69, 0x6F, 0x6E, 0x00, 0x0E, 0xC7, 0xFF, 0xFF, 0x04, 0x00, 0x00, 0x00, 0x10, 0x00, 0x00, 0x00, 0x31, 0x2E, 0x31, 0x34, 0x2E, 0x30, 0x00, 0x00, 0x00, 0x00, 0x00, 0x00, 0x00, 0x00, 0x00, 0x00, 0x0F, 0x00, 0x00, 0x00, 0x4D, 0x4C, 0x49, 0x52, 0x20, 0x43, 0x6F, 0x6E, 0x76, 0x65, 0x72, 0x74, 0x65, 0x64, 0x2E, 0x00, 0x00, 0x00, 0x0E, 0x00, 0x18, 0x00, 0x04, 0x00, 0x08, 0x00, 0x0C, 0x00, 0x10, 0x00, 0x14, 0x00, 0x0E, 0x00, 0x00, 0x00, 0x14, 0x00, 0x00, 0x00, 0x84, 0x00, 0x00, 0x00, 0x88, 0x00, 0x00, 0x00, 0x8C, 0x00, 0x00, 0x00, 0xC4, 0x00, 0x00, 0x00, 0x1C, 0x00, 0x00, 0x00, 0x20, 0x39, 0x00, 0x00, 0xBC, 0x38, 0x00, 0x00, 0x10, 0x37, 0x00, 0x00, 0xD0, 0x35, 0x00, 0x00, 0xAC, 0x34, 0x00, 0x00, 0x80, 0x33, 0x00, 0x00, 0x7C, 0x32, 0x00, 0x00, 0xF8, 0x30, 0x00, 0x00, 0xAC, 0x2E, 0x00, 0x00, 0x70, 0x2D, 0x00, 0x00, 0x94, 0x2C, 0x00, 0x00, 0xE0, 0x2A, 0x00, 0x00, 0xD4, 0x24, 0x00, 0x00, 0x78, 0x23, 0x00, 0x00, 0x9C, 0x22, 0x00, 0x00, 0xE8, 0x20, 0x00, 0x00, 0x38, 0x16, 0x00, 0x00, 0xB4, 0x14, 0x00, 0x00, 0xDC, 0x13, 0x00, 0x00, 0x1C, 0x13, 0x00, 0x00, 0x2C, 0x12, 0x00, 0x00, 0xDC, 0x04, 0x00, 0x00, 0x18, 0x04, 0x00, 0x00, 0x20, 0x03, 0x00, 0x00, 0x88, 0x02, 0x00, 0x00, 0xCC, 0x01, 0x00, 0x00, 0x14, 0x01, 0x00, 0x00, 0x8C, 0x00, 0x00, 0x00, 0x01, 0x00, 0x00, 0x00, 0x00, 0x00, 0x00, 0x00, 0x01, 0x00, 0x00, 0x00, 0x1B, 0x00, 0x00, 0x00, 0x0E, 0x00, 0x00, 0x00, 0x48, 0x36, 0x00, 0x00, 0xB0, 0x32, 0x00, 0x00, 0xAC, 0x31, 0x00, 0x00, 0xC4, 0x2C, 0x00, 0x00, 0xEC, 0x2B, 0x00, 0x00, 0xD4, 0x22, 0x00, 0x00, 0xFC, 0x21, 0x00, 0x00, 0x18, 0x14, 0x00, 0x00, 0x44, 0x13, 0x00, 0x00, 0x8C, 0x12, 0x00, 0x00, 0x80, 0x03, 0x00, 0x00, 0x4C, 0x01, 0x00, 0x00, 0x88, 0x00, 0x00, 0x00, 0x10, 0x00, 0x00, 0x00, 0x04, 0x00, 0x00, 0x00, 0x6D, 0x61, 0x69, 0x6E, 0x00, 0x00, 0x00, 0x00, 0x9E, 0xED, 0xFF, 0xFF, 0x06, 0x00, 0x00, 0x00, 0x10, 0x00, 0x00, 0x00, 0x04, 0x00, 0x00, 0x00, 0x01, 0x00, 0x00, 0x00, 0x1B, 0x00, 0x00, 0x00, 0x01, 0x00, 0x00, 0x00, 0x1A, 0x00, 0x00, 0x00, 0x00, 0xCA, 0xFF, 0xFF, 0x06, 0x00, 0x00, 0x00, 0x00, 0x00, 0x00, 0x06, 0x02, 0x00, 0x00, 0x00, 0xEC, 0xC7, 0xFF, 0xFF, 0x14, 0x00, 0x00, 0x00, 0x1C, 0x00, 0x00, 0x00, 0x24, 0x00, 0x00, 0x00, 0x30, 0x00, 0x00, 0x00, 0x10, 0x00, 0x00, 0x00, 0x02, 0x00, 0x00, 0x00, 0x01, 0x00, 0x00, 0x00, 0x02, 0x00, 0x00, 0x00, 0x02, 0x00, 0x00, 0x00, 0xFF, 0xFF, 0xFF, 0xFF, 0x02, 0x00, 0x00, 0x00, 0x08, 0x00, 0x00, 0x00, 0x49, 0x64, 0x65, 0x6E, 0x74, 0x69, 0x74, 0x79, 0x00, 0x00, 0x00, 0x00, 0xC8, 0xC7, 0xFF, 0xFF, 0x12, 0xCE, 0xFF, 0xFF, 0x00, 0x00, 0x00, 0x09, 0x05, 0x00, 0x00, 0x00, 0x1C, 0x00, 0x00, 0x00, 0x10, 0x00, 0x00, 0x00, 0x04, 0x00, 0x00, 0x00, 0xBE, 0xC8, 0xFF, 0xFF, 0x00, 0x00, 0x80, 0x3F, 0x01, 0x00, 0x00, 0x00, 0x1A, 0x00, 0x00, 0x00, 0x01, 0x00, 0x00, 0x00, 0x19, 0x00, 0x00, 0x00, 0x84, 0xCA, 0xFF, 0xFF, 0x19, 0x00, 0x00, 0x00, 0x00, 0x00, 0x00, 0x19, 0x02, 0x00, 0x00, 0x00, 0x78, 0xCA, 0xFF, 0xFF, 0x00, 0x00, 0x00, 0x09, 0x14, 0x00, 0x00, 0x00, 0x1B, 0x00, 0x00, 0x00, 0x24, 0x00, 0x00, 0x00, 0x48, 0x00, 0x00, 0x00, 0x10, 0x00, 0x00, 0x00, 0x02, 0x00, 0x00, 0x00, 0x01, 0x00, 0x00, 0x00, 0x02, 0x00, 0x00, 0x00, 0x02, 0x00, 0x00, 0x00, 0xFF, 0xFF, 0xFF, 0xFF, 0x02, 0x00, 0x00, 0x00, 0x22, 0x00, 0x00, 0x00, 0x73, 0x65, 0x71, 0x75, 0x65, 0x6E, 0x74, 0x69, 0x61, 0x6C, 0x5F, 0x31, 0x2F, 0x71, 0x75, 0x61, 0x6E, 0x74, 0x5F, 0x64, 0x65, 0x6E, 0x73, 0x65, 0x5F, 0x33, 0x2F, 0x53, 0x6F, 0x66, 0x74, 0x6D, 0x61, 0x78, 0x00, 0x00, 0x74, 0xC9, 0xFF, 0xFF, 0x08, 0x00, 0x00, 0x00, 0x0C, 0x00, 0x00, 0x00, 0x01, 0x00, 0x00, 0x00, 0x00, 0x00, 0x80, 0x3B, 0x01, 0x00, 0x00, 0x00, 0x80, 0xFF, 0xFF, 0xFF, 0xFF, 0xFF, 0xFF, 0xFF, 0x00, 0x00, 0x00, 0x00, 0xD2, 0xCE, 0xFF, 0xFF, 0x00, 0x00, 0x00, 0x08, 0x04, 0x00, 0x00, 0x00, 0x18, 0x00, 0x00, 0x00, 0x0C, 0x00, 0x00, 0x00, 0x04, 0x00, 0x00, 0x00, 0xA4, 0xC8, 0xFF, 0xFF, 0x01, 0x00, 0x00, 0x00, 0x19, 0x00, 0x00, 0x00, 0x03, 0x00, 0x00, 0x00, 0x16, 0x00, 0x00, 0x00, 0x17, 0x00, 0x00, 0x00, 0x18, 0x00, 0x00, 0x00, 0x2C, 0xCB, 0xFF, 0xFF, 0x00, 0x00, 0x00, 0x09, 0x14, 0x00, 0x00, 0x00, 0x1A, 0x00, 0x00, 0x00, 0x24, 0x00, 0x00, 0x00, 0x6C, 0x00, 0x00, 0x00, 0x10, 0x00, 0x00, 0x00, 0x02, 0x00, 0x00, 0x00, 0x01, 0x00, 0x00, 0x00, 0x02, 0x00, 0x00, 0x00, 0x02, 0x00, 0x00, 0x00, 0xFF, 0xFF, 0xFF, 0xFF, 0x02, 0x00, 0x00, 0x00, 0x44, 0x00, 0x00, 0x00, 0x73, 0x65, 0x71, 0x75, 0x65, 0x6E, 0x74, 0x69, 0x61, 0x6C, 0x5F, 0x31, 0x2F, 0x71, 0x75, 0x61, 0x6E, 0x74, 0x5F, 0x64, 0x65, 0x6E, 0x73, 0x65, 0x5F, 0x33, 0x2F, 0x4D, 0x61, 0x74, 0x4D, 0x75, 0x6C, 0x3B, 0x73, 0x65, 0x71, 0x75, 0x65, 0x6E, 0x74, 0x69, 0x61, 0x6C, 0x5F, 0x31, 0x2F, 0x71, 0x75, 0x61, 0x6E, 0x74, 0x5F, 0x64, 0x65, 0x6E, 0x73, 0x65, 0x5F, 0x33, 0x2F, 0x42, 0x69, 0x61, 0x73, 0x41, 0x64, 0x64, 0x00, 0x00, 0x00, 0x00, 0x4C, 0xCA, 0xFF, 0xFF, 0x08, 0x00, 0x00, 0x00, 0x0C, 0x00, 0x00, 0x00, 0x01, 0x00, 0x00, 0x00, 0x2A, 0x54, 0xF9, 0x3E, 0x01, 0x00, 0x00, 0x00, 0x01, 0x00, 0x00, 0x00, 0x00, 0x00, 0x00, 0x00, 0x00, 0x00, 0x00, 0x00, 0x3E, 0xCA, 0xFF, 0xFF, 0x04, 0x00, 0x00, 0x00, 0x08, 0x00, 0x00, 0x00, 0x0A, 0x00, 0x00, 0x00, 0xF6, 0xFF, 0xFF, 0xFF, 0x36, 0xCA, 0xFF, 0xFF, 0x00, 0x00, 0x00, 0x02, 0x10, 0x00, 0x00, 0x00, 0x19, 0x00, 0x00, 0x00, 0x10, 0x00, 0x00, 0x00, 0x4C, 0x00, 0x00, 0x00, 0x01, 0x00, 0x00, 0x00, 0x02, 0x00, 0x00, 0x00, 0x3A, 0x00, 0x00, 0x00, 0x73, 0x65, 0x71, 0x75, 0x65, 0x6E, 0x74, 0x69, 0x61, 0x6C, 0x5F, 0x31, 0x2F, 0x71, 0x75, 0x61, 0x6E, 0x74, 0x5F, 0x64, 0x65, 0x6E, 0x73, 0x65, 0x5F, 0x33, 0x2F, 0x42, 0x69, 0x61, 0x73, 0x41, 0x64, 0x64, 0x2F, 0x52, 0x65, 0x61, 0x64, 0x56, 0x61, 0x72, 0x69, 0x61, 0x62, 0x6C, 0x65, 0x4F, 0x70, 0x2F, 0x72, 0x65, 0x73, 0x6F, 0x75, 0x72, 0x63, 0x65, 0x00, 0x00, 0xE4, 0xCA, 0xFF, 0xFF, 0x08, 0x00, 0x00, 0x00, 0x0C, 0x00, 0x00, 0x00, 0x01, 0x00, 0x00, 0x00, 0xB0, 0x81, 0x0C, 0x3C, 0x01, 0x00, 0x00, 0x00, 0x00, 0x00, 0x00, 0x00, 0x00, 0x00, 0x00, 0x00, 0xD2, 0xCA, 0xFF, 0xFF, 0x04, 0x00, 0x00, 0x00, 0x08, 0x00, 0x00, 0x00, 0x0F, 0x7F, 0x7D, 0x39, 0x21, 0xFC, 0x66, 0x6F, 0xCA, 0xCA, 0xFF, 0xFF, 0x00, 0x00, 0x00, 0x09, 0x10, 0x00, 0x00, 0x00, 0x18, 0x00, 0x00, 0x00, 0x14, 0x00, 0x00, 0x00, 0x78, 0x00, 0x00, 0x00, 0x02, 0x00, 0x00, 0x00, 0x02, 0x00, 0x00, 0x00, 0x04, 0x00, 0x00, 0x00, 0x63, 0x00, 0x00, 0x00, 0x73, 0x65, 0x71, 0x75, 0x65, 0x6E, 0x74, 0x69, 0x61, 0x6C, 0x5F, 0x31, 0x2F, 0x71, 0x75, 0x61, 0x6E, 0x74, 0x5F, 0x64, 0x65, 0x6E, 0x73, 0x65, 0x5F, 0x33, 0x2F, 0x4D, 0x61, 0x74, 0x4D, 0x75, 0x6C, 0x3B, 0x73, 0x65, 0x71, 0x75, 0x65, 0x6E, 0x74, 0x69, 0x61, 0x6C, 0x5F, 0x31, 0x2F, 0x71, 0x75, 0x61, 0x6E, 0x74, 0x5F, 0x64, 0x65, 0x6E, 0x73, 0x65, 0x5F, 0x33, 0x2F, 0x4C, 0x61, 0x73, 0x74, 0x56, 0x61, 0x6C, 0x75, 0x65, 0x51, 0x75, 0x61, 0x6E, 0x74, 0x2F, 0x46, 0x61, 0x6B, 0x65, 0x51, 0x75, 0x61, 0x6E, 0x74, 0x57, 0x69, 0x74, 0x68, 0x4D, 0x69, 0x6E, 0x4D, 0x61, 0x78, 0x56, 0x61, 0x72, 0x73, 0x00, 0xA4, 0xCB, 0xFF, 0xFF, 0x08, 0x00, 0x00, 0x00, 0x0C, 0x00, 0x00, 0x00, 0x01, 0x00, 0x00, 0x00, 0x8E, 0x5F, 0xD9, 0x3B, 0x01, 0x00, 0x00, 0x00, 0x00, 0x00, 0x00, 0x00, 0x00, 0x00, 0x00, 0x00, 0x00, 0x00, 0x00, 0x00, 0x02, 0xD1, 0xFF, 0xFF, 0x00, 0x00, 0x00, 0x08, 0x04, 0x00, 0x00, 0x00, 0x18, 0x00, 0x00, 0x00, 0x0C, 0x00, 0x00, 0x00, 0x04, 0x00, 0x00, 0x00, 0xD4, 0xCA, 0xFF, 0xFF, 0x01, 0x00, 0x00, 0x00, 0x16, 0x00, 0x00, 0x00, 0x03, 0x00, 0x00, 0x00, 0x13, 0x00, 0x00, 0x00, 0x14, 0x00, 0x00, 0x00, 0x15, 0x00, 0x00, 0x00, 0x78, 0xCD, 0xFF, 0xFF, 0x09, 0x00, 0x00, 0x00, 0x00, 0x00, 0x00, 0x09, 0x04, 0x00, 0x00, 0x00, 0x6C, 0xCD, 0xFF, 0xFF, 0x00, 0x00, 0x00, 0x09, 0x14, 0x00, 0x00, 0x00, 0x17, 0x00, 0x00, 0x00, 0x24, 0x00, 0x00, 0x00, 0x6C, 0x00, 0x00, 0x00, 0x10, 0x00, 0x00, 0x00, 0x02, 0x00, 0x00, 0x00, 0x01, 0x00, 0x00, 0x00, 0x04, 0x00, 0x00, 0x00, 0x02, 0x00, 0x00, 0x00, 0xFF, 0xFF, 0xFF, 0xFF, 0x04, 0x00, 0x00, 0x00, 0x44, 0x00, 0x00, 0x00, 0x73, 0x65, 0x71, 0x75, 0x65, 0x6E, 0x74, 0x69, 0x61, 0x6C, 0x5F, 0x31, 0x2F, 0x71, 0x75, 0x61, 0x6E, 0x74, 0x5F, 0x64, 0x65, 0x6E, 0x73, 0x65, 0x5F, 0x32, 0x2F, 0x4D, 0x61, 0x74, 0x4D, 0x75, 0x6C, 0x3B, 0x73, 0x65, 0x71, 0x75, 0x65, 0x6E, 0x74, 0x69, 0x61, 0x6C, 0x5F, 0x31, 0x2F, 0x71, 0x75, 0x61, 0x6E, 0x74, 0x5F, 0x64, 0x65, 0x6E, 0x73, 0x65, 0x5F, 0x32, 0x2F, 0x42, 0x69, 0x61, 0x73, 0x41, 0x64, 0x64, 0x00, 0x00, 0x00, 0x00, 0x8C, 0xCC, 0xFF, 0xFF, 0x08, 0x00, 0x00, 0x00, 0x0C, 0x00, 0x00, 0x00, 0x01, 0x00, 0x00, 0x00, 0x6B, 0x79, 0xA5, 0x3F, 0x01, 0x00, 0x00, 0x00, 0xFD, 0xFF, 0xFF, 0xFF, 0xFF, 0xFF, 0xFF, 0xFF, 0x00, 0x00, 0x00, 0x00, 0x7E, 0xCC, 0xFF, 0xFF, 0x04, 0x00, 0x00, 0x00, 0x10, 0x00, 0x00, 0x00, 0xF8, 0xFF, 0xFF, 0xFF, 0x0B, 0x00, 0x00, 0x00, 0x05, 0x00, 0x00, 0x00, 0xFD, 0xFF, 0xFF, 0xFF, 0x7E, 0xCC, 0xFF, 0xFF, 0x00, 0x00, 0x00, 0x02, 0x10, 0x00, 0x00, 0x00, 0x16, 0x00, 0x00, 0x00, 0x10, 0x00, 0x00, 0x00, 0x4C, 0x00, 0x00, 0x00, 0x01, 0x00, 0x00, 0x00, 0x04, 0x00, 0x00, 0x00, 0x3A, 0x00, 0x00, 0x00, 0x73, 0x65, 0x71, 0x75, 0x65, 0x6E, 0x74, 0x69, 0x61, 0x6C, 0x5F, 0x31, 0x2F, 0x71, 0x75, 0x61, 0x6E, 0x74, 0x5F, 0x64, 0x65, 0x6E, 0x73, 0x65, 0x5F, 0x32, 0x2F, 0x42, 0x69, 0x61, 0x73, 0x41, 0x64, 0x64, 0x2F, 0x52, 0x65, 0x61, 0x64, 0x56, 0x61, 0x72, 0x69, 0x61, 0x62, 0x6C, 0x65, 0x4F, 0x70, 0x2F, 0x72, 0x65, 0x73, 0x6F, 0x75, 0x72, 0x63, 0x65, 0x00, 0x00, 0x2C, 0xCD, 0xFF, 0xFF, 0x08, 0x00, 0x00, 0x00, 0x0C, 0x00, 0x00, 0x00, 0x01, 0x00, 0x00, 0x00, 0xD4, 0x4F, 0x00, 0x3C, 0x01, 0x00, 0x00, 0x00, 0x00, 0x00, 0x00, 0x00, 0x00, 0x00, 0x00, 0x00, 0x1A, 0xCD, 0xFF, 0xFF, 0x04, 0x00, 0x00, 0x00, 0xC0, 0x0C, 0x00, 0x00, 0xF1, 0x11, 0xFD, 0x09, 0xF2, 0x11, 0x00, 0x0E, 0x00, 0x0D, 0x06, 0x01, 0xFB, 0x01, 0xFD, 0xF4, 0xF7, 0xF3, 0x03, 0xFA, 0xEE, 0x10, 0x06, 0x05, 0xFF, 0xEB, 0x02, 0xF3, 0xF1, 0x02, 0x12, 0x00, 0x04, 0x02, 0x01, 0x15, 0xEC, 0x02, 0x17, 0x0B, 0x16, 0x06, 0x05, 0x08, 0xED, 0xEC, 0x0F, 0xFC, 0xF6, 0xFD, 0x0E, 0xFB, 0x0C, 0xEA, 0xEE, 0x0C, 0xF2, 0xFA, 0xFB, 0xF3, 0xEE, 0xF0, 0xEA, 0xFA, 0x22, 0xFC, 0x1C, 0x0D, 0xF1, 0x10, 0xFD, 0x0A, 0xF7, 0x04, 0x0D, 0x07, 0x02, 0x13, 0xF8, 0x00, 0xE1, 0xED, 0xF0, 0x0D, 0xEC, 0x09, 0x14, 0x0C, 0xF7, 0xEC, 0xDE, 0xF0, 0x0D, 0xFF, 0x05, 0xED, 0xDA, 0xFA, 0x03, 0x0E, 0xF4, 0x0A, 0x07, 0xFD, 0x01, 0xFD, 0x09, 0xEB, 0x12, 0x15, 0x1B, 0xEA, 0xEB, 0x0E, 0x0B, 0xEF, 0xF7, 0xFD, 0xF9, 0xE5, 0x0E, 0xF3, 0xF9, 0x15, 0xFA, 0xFA, 0xF2, 0xFD, 0xDB, 0x0C, 0xFE, 0xFA, 0x1F, 0xE9, 0xF8, 0x03, 0xFD, 0x0F, 0xF7, 0xED, 0x09, 0xE7, 0x0F, 0xF3, 0xF8, 0xFA, 0xFD, 0x01, 0x0D, 0x08, 0xEC, 0x15, 0x05, 0xFA, 0xEB, 0xF7, 0x09, 0xF8, 0xFC, 0xF6, 0x06, 0xDE, 0xEB, 0xEE, 0x09, 0xF0, 0xF4, 0x1A, 0xF5, 0xF5, 0x14, 0x00, 0x0C, 0x09, 0x0F, 0x15, 0xE7, 0x00, 0xFF, 0xE8, 0x11, 0xFE, 0xF2, 0x08, 0xE5, 0x19, 0xFD, 0x14, 0xE9, 0x02, 0xF8, 0xF0, 0x02, 0x00, 0x14, 0xDC, 0xF5, 0x07, 0x04, 0x19, 0xF1, 0xF3, 0xE0, 0x17, 0x1B, 0xFD, 0x11, 0x15, 0x1A, 0x0B, 0x12, 0x03, 0xFC, 0xF9, 0x02, 0x04, 0x12, 0xFF, 0x11, 0xF2, 0x0D, 0xEC, 0xF8, 0xEE, 0x15, 0x08, 0x07, 0xE4, 0x08, 0xEA, 0xF3, 0x1C, 0x08, 0xF4, 0xF1, 0xF6, 0xED, 0x11, 0x0A, 0x01, 0x06, 0xFB, 0xF1, 0xDF, 0x04, 0x07, 0xFC, 0x14, 0x09, 0x0A, 0xD0, 0x0A, 0x11, 0x08, 0xF0, 0xFA, 0xE4, 0xDF, 0x06, 0xFD, 0x0E, 0xFB, 0xFB, 0xF1, 0x0D, 0xF1, 0x09, 0x02, 0x07, 0x04, 0xFE, 0x0C, 0xF9, 0xFE, 0x04, 0xF0, 0x11, 0xFD, 0xE8, 0xF3, 0x0B, 0x0A, 0xF9, 0x01, 0xEF, 0x17, 0xF6, 0xF8, 0x09, 0x0C, 0x10, 0x05, 0xF3, 0x05, 0x08, 0xF3, 0x19, 0xF5, 0x08, 0xED, 0x06, 0xF2, 0xFD, 0xF0, 0x04, 0x01, 0x13, 0xF4, 0xE6, 0x13, 0xFA, 0xFD, 0x12, 0xF1, 0xF3, 0x04, 0x14, 0xF1, 0xF0, 0x05, 0x07, 0xF5, 0x0A, 0x0E, 0x1A, 0xF1, 0xE7, 0xFF, 0xF6, 0x12, 0x0D, 0xFB, 0xF0, 0x0A, 0xFD, 0x10, 0xEF, 0x1A, 0x04, 0x07, 0x07, 0xF7, 0xE1, 0x10, 0x0D, 0x14, 0xFD, 0x09, 0x05, 0x08, 0x19, 0x08, 0x12, 0x0D, 0xFD, 0x06, 0x08, 0xFE, 0x0E, 0xF6, 0x0D, 0xF3, 0xE9, 0x15, 0x09, 0x01, 0x16, 0xDB, 0xF1, 0x04, 0xEF, 0x0E, 0xFA, 0x06, 0x05, 0x0F, 0xE8, 0x18, 0x12, 0x10, 0xED, 0xF5, 0xFD, 0xEB, 0x03, 0xF7, 0x00, 0x02, 0x13, 0x0C, 0x11, 0x16, 0x05, 0xF0, 0x0C, 0xFE, 0x0E, 0xEB, 0x09, 0xE6, 0xFB, 0xF7, 0x13, 0x00, 0xF8, 0xEB, 0xEC, 0xEB, 0x08, 0x0E, 0xF0, 0x05, 0x15, 0x0A, 0xFA, 0xEB, 0xE1, 0xFC, 0xF8, 0xFE, 0x1A, 0x19, 0xF3, 0x04, 0xFB, 0x1C, 0x00, 0x00, 0x00, 0x1F, 0x00, 0xD3, 0x0B, 0xFF, 0x08, 0xFA, 0x1D, 0x04, 0xF2, 0x0B, 0xF8, 0x15, 0x13, 0xF1, 0x0B, 0x13, 0xFE, 0xCF, 0x21, 0x08, 0x06, 0x06, 0x20, 0x03, 0x0F, 0x15, 0x09, 0x00, 0xF7, 0xF5, 0xFE, 0x1E, 0xFF, 0xF0, 0xF6, 0xEA, 0x16, 0x1B, 0x12, 0xEC, 0x1B, 0xE5, 0xEA, 0x13, 0xE9, 0x0C, 0xF1, 0x11, 0x1C, 0xD0, 0xE4, 0xEE, 0x1D, 0xF7, 0xFF, 0xEF, 0xF6, 0xED, 0xE6, 0xF9, 0xF0, 0x0B, 0xF2, 0x0F, 0x03, 0xED, 0xE7, 0xFB, 0x1B, 0x15, 0x0D, 0xFF, 0xF2, 0x1D, 0x02, 0x1D, 0x11, 0x09, 0x21, 0xF7, 0x07, 0xFF, 0x07, 0xD2, 0x0A, 0xE9, 0x07, 0xEF, 0xEF, 0x0F, 0x0B, 0x1A, 0x10, 0xF8, 0xF7, 0x08, 0xF3, 0xA7, 0x05, 0xC9, 0x10, 0xFD, 0x01, 0xFF, 0x19, 0x10, 0x04, 0x10, 0xF6, 0xFA, 0xF7, 0x0D, 0xF9, 0x04, 0xFD, 0x0E, 0x0A, 0xE3, 0x11, 0x10, 0xF6, 0xE8, 0xFA, 0x13, 0x18, 0xFD, 0xF1, 0xFD, 0x04, 0xF6, 0xF2, 0x11, 0xF6, 0x15, 0x12, 0x01, 0xE7, 0xF0, 0x00, 0xF3, 0xF1, 0xF8, 0xF0, 0x00, 0x09, 0x0D, 0x09, 0xDE, 0x0A, 0x07, 0xF3, 0xFB, 0x00, 0x02, 0xFE, 0xF2, 0x09, 0x04, 0x0A, 0xF4, 0xF0, 0x33, 0x06, 0xF9, 0xE7, 0x03, 0x0A, 0x14, 0x04, 0xE4, 0x12, 0xF6, 0x23, 0xFD, 0xE4, 0xEA, 0xFF, 0x18, 0x11, 0xF1, 0xFC, 0xEB, 0x05, 0xC0, 0x1D, 0xF8, 0x07, 0x11, 0x0B, 0xFD, 0x01, 0xFA, 0xFB, 0xED, 0x01, 0xEC, 0xFD, 0x11, 0xE9, 0xD7, 0x1C, 0xF4, 0xF6, 0xFD, 0xE6, 0xF5, 0xF9, 0xF4, 0xF0, 0xFF, 0xF7, 0xFE, 0x0B, 0x08, 0x13, 0xEA, 0xED, 0x03, 0xF4, 0xE7, 0xFB, 0xF2, 0x0C, 0x1A, 0xFC, 0xED, 0xDA, 0xF7, 0xEB, 0x12, 0x15, 0x06, 0x0D, 0xFF, 0xFB, 0x0D, 0xFD, 0x19, 0x13, 0x0D, 0xE8, 0xF2, 0xE7, 0x03, 0x12, 0x12, 0xFD, 0xF0, 0xE1, 0x05, 0x19, 0x12, 0x14, 0x20, 0x1E, 0x1E, 0xF4, 0x22, 0x1F, 0xFF, 0x10, 0xFF, 0xF5, 0xCC, 0x16, 0x07, 0x1A, 0xFA, 0xF4, 0xFC, 0x1C, 0xF8, 0xF1, 0xD9, 0xF8, 0x0D, 0xF3, 0xEB, 0x17, 0x27, 0xFA, 0xF2, 0x0A, 0xFE, 0xF8, 0xF0, 0x15, 0xF5, 0xFF, 0xF2, 0xFF, 0x13, 0x19, 0x0C, 0xF7, 0xCF, 0x10, 0xFF, 0x06, 0xFE, 0xF7, 0x11, 0x1B, 0xFF, 0x14, 0x2B, 0x10, 0x16, 0x14, 0xF2, 0x0C, 0xF2, 0xFC, 0xF9, 0x00, 0x09, 0xF1, 0xFE, 0x00, 0x01, 0x12, 0x19, 0x0C, 0x18, 0xEB, 0x14, 0xFE, 0xAD, 0x11, 0x08, 0xFD, 0x08, 0x0B, 0x0C, 0x25, 0x0B, 0xFF, 0x1F, 0x07, 0x24, 0xFF, 0x19, 0x1B, 0xBB, 0x16, 0x03, 0x26, 0x16, 0xE1, 0x1E, 0xFE, 0x0F, 0x11, 0x03, 0x0B, 0x1F, 0x0A, 0x04, 0x20, 0xB5, 0x15, 0x09, 0x0D, 0x04, 0x1D, 0x1D, 0x28, 0x23, 0x03, 0xA0, 0xE8, 0x15, 0xF0, 0x0F, 0x0A, 0xB7, 0x06, 0x0A, 0x14, 0x18, 0xD8, 0xED, 0x1D, 0x01, 0x17, 0xFE, 0x08, 0xF0, 0xF8, 0xFC, 0xF9, 0xF0, 0x03, 0x14, 0x10, 0xF7, 0x0E, 0x03, 0x08, 0xF9, 0x03, 0xF2, 0xFD, 0xF1, 0xEE, 0x01, 0xF8, 0xF7, 0x0E, 0x04, 0xF9, 0x0D, 0xF2, 0x0A, 0x0C, 0xFF, 0xFD, 0xF7, 0xFC, 0x07, 0x0B, 0x0C, 0x10, 0xEC, 0xFE, 0xF5, 0xF9, 0x08, 0xF7, 0x0B, 0x05, 0xFE, 0xF1, 0x07, 0xF2, 0x02, 0x10, 0x02, 0xE7, 0x1C, 0xFF, 0x06, 0x14, 0x00, 0x06, 0x09, 0xF1, 0xF7, 0x1E, 0x09, 0x0C, 0x07, 0x0F, 0x03, 0x0C, 0xF9, 0x0C, 0x13, 0x06, 0x04, 0xFD, 0x0E, 0x06, 0xF5, 0xF7, 0xFD, 0x28, 0x17, 0xF5, 0xF1, 0x09, 0x13, 0xF7, 0xFA, 0x04, 0x08, 0x49, 0xEE, 0xFC, 0xEF, 0xF2, 0xF4, 0x34, 0x18, 0xF9, 0x13, 0xFC, 0xF5, 0x09, 0xEE, 0x11, 0x04, 0x00, 0x05, 0x04, 0x03, 0xF4, 0xEE, 0x1E, 0xFF, 0x00, 0x17, 0xFD, 0x16, 0xF8, 0x12, 0x0D, 0x16, 0x12, 0x09, 0xF6, 0xF2, 0x05, 0x09, 0x10, 0x17, 0xF6, 0xFC, 0xE8, 0x02, 0x17, 0xF1, 0xFA, 0x03, 0x15, 0xE7, 0x0B, 0x01, 0xFA, 0x09, 0x10, 0x13, 0xE7, 0xFA, 0xE8, 0x0F, 0x06, 0xF6, 0x19, 0xF5, 0x01, 0xE8, 0x0A, 0x0A, 0x09, 0xFF, 0x19, 0xF9, 0xF1, 0x01, 0xF2, 0xF6, 0x02, 0xEE, 0x09, 0xEC, 0xEE, 0x0F, 0x12, 0x0C, 0x0E, 0xE9, 0x16, 0x0E, 0xFB, 0x09, 0xED, 0x17, 0x15, 0xFA, 0x04, 0xEF, 0x1F, 0x01, 0x07, 0xED, 0xEE, 0x13, 0x0E, 0x22, 0x0B, 0xF8, 0xE6, 0x1B, 0x10, 0x06, 0xF9, 0x05, 0x1E, 0xF7, 0xE8, 0xF9, 0xE7, 0x09, 0x0A, 0xFE, 0xF0, 0x03, 0xE3, 0x13, 0x02, 0xEE, 0x0C, 0xFC, 0xFF, 0xF2, 0x04, 0x0E, 0xE7, 0x12, 0x14, 0x1C, 0xE8, 0x00, 0xE9, 0x14, 0x04, 0xF8, 0x12, 0xF3, 0x39, 0x03, 0x16, 0xED, 0xE7, 0xEF, 0xEC, 0x14, 0xEB, 0xED, 0xE6, 0x10, 0x07, 0x0C, 0xFB, 0x18, 0x1F, 0x11, 0x02, 0x07, 0x16, 0x0C, 0x18, 0x08, 0xFC, 0xFE, 0x02, 0x0B, 0xEC, 0xF8, 0x0C, 0x13, 0xE8, 0xE7, 0xEE, 0x14, 0xF3, 0x20, 0x19, 0xF0, 0xF3, 0xF3, 0x0F, 0xEB, 0x09, 0x0E, 0xF3, 0xFB, 0x01, 0x05, 0xFD, 0x02, 0xF1, 0x0C, 0x07, 0xF5, 0x12, 0x01, 0xF8, 0x06, 0xEC, 0x18, 0xFD, 0x06, 0xF9, 0xF4, 0x13, 0xF5, 0xFB, 0xEE, 0x10, 0x05, 0xF4, 0xEE, 0x0F, 0xFC, 0xED, 0xE3, 0x0A, 0xF7, 0xF0, 0xFB, 0x13, 0xED, 0xFE, 0xED, 0x0E, 0x12, 0x15, 0xF2, 0xEB, 0x0C, 0x1B, 0xED, 0xEC, 0xFA, 0x0B, 0x12, 0xF2, 0xF6, 0x00, 0xF5, 0xFC, 0x00, 0xF2, 0xF7, 0x05, 0x0B, 0x03, 0xF1, 0x09, 0xF5, 0xFE, 0xF9, 0xEA, 0xFD, 0x09, 0xF0, 0xF5, 0x05, 0xE6, 0x03, 0x11, 0x01, 0xF0, 0xFC, 0xF4, 0xF2, 0x26, 0xF1, 0x06, 0xFC, 0x05, 0x25, 0x07, 0x11, 0x1A, 0x08, 0x18, 0xFA, 0x14, 0xF9, 0xF5, 0xF6, 0x02, 0xF5, 0xEF, 0x0C, 0x00, 0x15, 0x09, 0xFC, 0x02, 0x1C, 0xF3, 0xFE, 0x00, 0x06, 0x17, 0x12, 0x11, 0xF7, 0x19, 0xF9, 0xFC, 0x19, 0x04, 0x13, 0xE4, 0x06, 0xF4, 0x0B, 0xEB, 0xEB, 0xF4, 0x06, 0x0C, 0xE9, 0xFA, 0xF0, 0xF3, 0x08, 0x27, 0x11, 0xFE, 0xE9, 0xE8, 0x03, 0x03, 0xE3, 0x02, 0xE8, 0xF7, 0xE4, 0xEA, 0x06, 0x03, 0xFF, 0xFC, 0xF2, 0x00, 0x15, 0xE7, 0x10, 0xFA, 0x0B, 0xFE, 0xFC, 0x1D, 0x0C, 0x10, 0xF6, 0x13, 0x28, 0xE8, 0xF2, 0xE9, 0x09, 0xE7, 0x18, 0x0A, 0xFF, 0x1B, 0xDF, 0xFF, 0xF7, 0x0B, 0x07, 0x09, 0x1D, 0x09, 0x12, 0xFD, 0xEB, 0x09, 0xFB, 0xE4, 0x0F, 0x09, 0xF5, 0xFF, 0x06, 0x09, 0x00, 0xF3, 0x0F, 0x1C, 0x09, 0x01, 0xED, 0xFC, 0x0C, 0x08, 0x00, 0x02, 0xEC, 0x02, 0xF8, 0x02, 0x03, 0xFB, 0x2F, 0x15, 0x0C, 0x05, 0xFA, 0xE5, 0x11, 0xF0, 0xED, 0x0C, 0x06, 0x09, 0x14, 0xFA, 0xED, 0xF2, 0x02, 0x0E, 0x32, 0x02, 0xF5, 0x0A, 0x0E, 0xE5, 0xED, 0xF5, 0xE8, 0xF3, 0x00, 0xF4, 0xE9, 0xFF, 0x1B, 0x0B, 0x2C, 0xE6, 0xFA, 0xF2, 0xEF, 0x05, 0x13, 0x25, 0x08, 0x14, 0x18, 0x0B, 0x04, 0xE2, 0x00, 0x03, 0x06, 0xFE, 0x03, 0xFC, 0xFA, 0x09, 0xFA, 0x06, 0x0A, 0x0E, 0xF7, 0x04, 0x12, 0xF4, 0xFB, 0x0F, 0x06, 0x10, 0xED, 0xE4, 0xEA, 0xF6, 0xFA, 0xF2, 0x01, 0xEF, 0x04, 0x07, 0x0B, 0x03, 0xFE, 0xF4, 0x23, 0xFA, 0x0C, 0xF9, 0xFD, 0x11, 0xEC, 0x0B, 0xF9, 0xFD, 0xDE, 0x19, 0x0F, 0xFF, 0xD7, 0x18, 0x12, 0xE8, 0x0F, 0x0C, 0x01, 0x1D, 0xEF, 0x12, 0x1E, 0xE2, 0xF9, 0x00, 0x02, 0xEA, 0xEA, 0xFA, 0xE1, 0x14, 0x0B, 0xF6, 0x48, 0x06, 0xEF, 0x0A, 0xEE, 0xF5, 0xF3, 0xE8, 0x0D, 0x18, 0xF5, 0xEF, 0x04, 0xFA, 0xEB, 0x07, 0x1F, 0xFB, 0x06, 0x17, 0x00, 0x01, 0x03, 0x04, 0xE4, 0xF8, 0x0B, 0x11, 0x06, 0xF2, 0x1A, 0x01, 0x04, 0x18, 0xEA, 0x19, 0x0F, 0x00, 0x0B, 0xF2, 0xFA, 0x00, 0xFC, 0x18, 0x11, 0x12, 0x03, 0x1A, 0x09, 0x09, 0x10, 0xFC, 0xF4, 0xF1, 0x0F, 0xEF, 0x16, 0x0C, 0xF2, 0x00, 0xF3, 0x1E, 0x19, 0xEE, 0x1B, 0x07, 0xE8, 0xDF, 0x0D, 0xF8, 0xE3, 0x0C, 0xE5, 0xE5, 0xE3, 0x0A, 0x0F, 0xFA, 0x09, 0x05, 0x17, 0xF5, 0xF3, 0x02, 0x03, 0x0A, 0x12, 0xE2, 0x01, 0xED, 0x0B, 0x07, 0x0F, 0x0B, 0x07, 0xFD, 0x01, 0x1A, 0xF2, 0xF1, 0x06, 0xF3, 0x0B, 0xEC, 0xE2, 0xE6, 0x17, 0x0A, 0xFA, 0x0F, 0x08, 0xE8, 0x48, 0x16, 0x01, 0xF5, 0xEA, 0xEC, 0x0A, 0xF4, 0xED, 0xDF, 0xEC, 0xEE, 0x0C, 0xF0, 0x0F, 0xF5, 0x38, 0x0D, 0x1E, 0xE5, 0xFF, 0x0C, 0x0D, 0xDC, 0xF2, 0x09, 0x10, 0x0E, 0x06, 0x02, 0xDE, 0xE7, 0x30, 0x06, 0xD9, 0xF9, 0xE8, 0xF5, 0x01, 0x03, 0x0D, 0xEE, 0xFC, 0x03, 0xE3, 0x05, 0xF6, 0xF6, 0x25, 0x0A, 0x14, 0xE0, 0xFB, 0x23, 0xF0, 0x00, 0x05, 0xF7, 0xF6, 0xEF, 0xFF, 0xF3, 0xFF, 0xEF, 0x53, 0x01, 0x0D, 0xDE, 0xDE, 0xEB, 0x0F, 0x01, 0xE1, 0x14, 0x48, 0x03, 0x01, 0x13, 0xF4, 0xFB, 0x4C, 0xF9, 0x1A, 0x0C, 0x05, 0x2A, 0xFE, 0xF8, 0xF9, 0xF2, 0x43, 0xF9, 0xF9, 0x17, 0x12, 0xFC, 0x0F, 0xEF, 0xFB, 0x0A, 0xF1, 0xFD, 0xFD, 0xF5, 0xF5, 0xFF, 0x04, 0xFD, 0xF8, 0xF1, 0x0A, 0xF1, 0xF8, 0x10, 0x15, 0xED, 0xFA, 0x08, 0x0D, 0x02, 0xF7, 0x0E, 0xF6, 0x12, 0x06, 0x12, 0x11, 0xF1, 0x03, 0xF5, 0xF7, 0xD6, 0x00, 0xEF, 0x00, 0x0D, 0xFA, 0x13, 0xF6, 0xF4, 0xFA, 0xFD, 0x11, 0xFB, 0x0C, 0x0C, 0xF9, 0x10, 0x12, 0x19, 0xF3, 0x14, 0x0B, 0x19, 0x14, 0xFE, 0x19, 0xE1, 0xEC, 0x0E, 0x13, 0x0E, 0x0F, 0x15, 0xF5, 0x02, 0x05, 0xFC, 0x0B, 0xE4, 0x07, 0x2D, 0x01, 0x07, 0x13, 0x0A, 0xF0, 0x0C, 0xFE, 0xF4, 0x10, 0x0F, 0xFA, 0x0F, 0x0A, 0x0A, 0xF6, 0x29, 0xF9, 0x08, 0xED, 0x10, 0x09, 0xF2, 0xF5, 0xFF, 0xE9, 0xFA, 0xE9, 0x02, 0x0F, 0xFB, 0xEE, 0x2A, 0xF3, 0xF8, 0xF1, 0xF3, 0xF3, 0xF9, 0x19, 0x1A, 0xEE, 0xF1, 0x06, 0x12, 0xEB, 0x0D, 0x15, 0x19, 0xF3, 0xEE, 0xF7, 0xE4, 0xF5, 0xF8, 0xEB, 0x1F, 0x15, 0xFF, 0x14, 0x17, 0xFB, 0xE9, 0xF4, 0x0B, 0x09, 0x06, 0x16, 0x03, 0xF7, 0xE7, 0xF2, 0xFA, 0xF8, 0x00, 0x06, 0xE9, 0xFB, 0x11, 0xED, 0xF8, 0x08, 0xED, 0xF9, 0x0D, 0x0E, 0xF0, 0xE5, 0x28, 0x09, 0x15, 0x0F, 0xFE, 0x1D, 0xED, 0x12, 0x2B, 0x00, 0x03, 0x10, 0xF3, 0x28, 0xF3, 0xE5, 0x00, 0xF3, 0x0B, 0xE8, 0x00, 0x11, 0xE8, 0xEA, 0x01, 0x15, 0xF4, 0xFD, 0xE1, 0x05, 0xE5, 0x06, 0xF7, 0x00, 0x08, 0xEF, 0x0B, 0xFA, 0x09, 0xE7, 0xF3, 0xEE, 0x02, 0xFC, 0x02, 0x07, 0xF8, 0xEA, 0x14, 0x07, 0x11, 0xEF, 0x01, 0xF3, 0xEE, 0x14, 0x0D, 0xF1, 0xE8, 0x0E, 0x0D, 0x15, 0xF9, 0xFD, 0x04, 0xE9, 0x07, 0xF5, 0x00, 0x05, 0x04, 0x14, 0xF0, 0xFA, 0xF9, 0x00, 0x11, 0xFC, 0x02, 0xFE, 0x15, 0xEF, 0xFB, 0xF5, 0xEF, 0x03, 0x14, 0xFE, 0x26, 0xFB, 0x04, 0xF3, 0x10, 0x07, 0x0E, 0x19, 0xDE, 0x0A, 0xF5, 0x0D, 0x12, 0x0F, 0xEA, 0xF7, 0x1C, 0x12, 0xF1, 0xED, 0x06, 0x04, 0x17, 0x0C, 0x0A, 0xFE, 0xEA, 0x0E, 0x0F, 0x07, 0x07, 0xEA, 0x03, 0x05, 0x03, 0xE7, 0x00, 0xEE, 0xFF, 0xF1, 0xE7, 0x16, 0x11, 0x12, 0xFC, 0x14, 0xED, 0x0E, 0xF9, 0x04, 0xFB, 0xFC, 0xF1, 0x05, 0x02, 0xF4, 0xEE, 0x02, 0xF3, 0x0E, 0x0D, 0xFB, 0xFE, 0x0B, 0x0B, 0xE9, 0xFE, 0xFF, 0x11, 0xFD, 0x14, 0x04, 0xF6, 0xFD, 0xFE, 0xFC, 0x05, 0xFC, 0x0E, 0xF7, 0xE5, 0x0F, 0xED, 0x0E, 0xF6, 0xFF, 0x00, 0x13, 0xED, 0xFB, 0x1F, 0x13, 0xF4, 0xE5, 0x0B, 0xF1, 0x15, 0x0C, 0xFB, 0x07, 0x11, 0xF3, 0xE9, 0x05, 0x10, 0xE9, 0x24, 0xE7, 0xF1, 0x0E, 0x0A, 0x11, 0xFC, 0x15, 0x13, 0xF1, 0xFD, 0x10, 0xEA, 0xF1, 0x14, 0x0A, 0x00, 0xF1, 0xFF, 0xFF, 0xEE, 0x18, 0x07, 0x05, 0xF7, 0x22, 0xF2, 0xF5, 0x02, 0xEE, 0x07, 0x11, 0x01, 0x07, 0xF8, 0xFB, 0x10, 0xF9, 0x1B, 0x12, 0xE8, 0x0E, 0x05, 0xEB, 0x04, 0x13, 0x11, 0xEB, 0x00, 0xFB, 0x07, 0x04, 0xE8, 0x15, 0x1A, 0x0D, 0x0F, 0x02, 0xFB, 0xF2, 0xEF, 0xE7, 0xFC, 0xE7, 0x0B, 0xFA, 0x05, 0xF3, 0x09, 0x24, 0x16, 0xF2, 0xEB, 0xEB, 0x0F, 0xF5, 0xF5, 0x0E, 0xFA, 0x09, 0x02, 0xED, 0xE7, 0xFC, 0x07, 0x14, 0xDF, 0x0B, 0x00, 0xE8, 0xE4, 0x09, 0x12, 0xE7, 0x0A, 0x09, 0x05, 0x13, 0xE9, 0xFD, 0xDE, 0x1D, 0xF9, 0x02, 0xE0, 0xF4, 0xDB, 0xE5, 0x03, 0xF0, 0xEC, 0xEC, 0x16, 0x0E, 0x0C, 0xE6, 0xE6, 0x03, 0x13, 0xF0, 0xFF, 0x0C, 0xE9, 0xEE, 0xF5, 0x02, 0x08, 0xEE, 0x08, 0xE3, 0xE0, 0xF1, 0xEC, 0x29, 0x21, 0x0C, 0xED, 0x16, 0xF6, 0xF2, 0x0B, 0xDE, 0xF8, 0xF9, 0x0B, 0x0F, 0x0D, 0x0B, 0xEC, 0x20, 0x1A, 0x09, 0xE2, 0xF2, 0x07, 0xF8, 0xF8, 0x14, 0x16, 0xF9, 0xF2, 0x08, 0xEE, 0xDF, 0xE3, 0x27, 0x20, 0x2F, 0x17, 0x17, 0xF4, 0xEA, 0xF1, 0x0C, 0x1F, 0xFD, 0x1C, 0xF2, 0x0E, 0x07, 0xFC, 0x08, 0xF9, 0x03, 0xFE, 0x05, 0x17, 0xEA, 0x0C, 0xFF, 0x12, 0xFF, 0x06, 0x0A, 0xEC, 0x06, 0xEA, 0xDB, 0xFC, 0x08, 0x12, 0xF6, 0xF9, 0x08, 0x0D, 0x03, 0xEE, 0x14, 0x13, 0x13, 0xF6, 0x0C, 0xF6, 0xFB, 0xF1, 0x19, 0xF1, 0xF6, 0xFE, 0x0C, 0xF3, 0x02, 0x01, 0x0A, 0xF2, 0x0A, 0x12, 0xF6, 0xFF, 0xEE, 0xF9, 0xEF, 0x01, 0xEF, 0xF9, 0xE8, 0x21, 0x19, 0xE9, 0x0B, 0xED, 0x0B, 0x0B, 0x12, 0xE1, 0xF6, 0xF0, 0xFF, 0xEC, 0xF5, 0xFC, 0x4F, 0x11, 0xED, 0xE7, 0x08, 0xFC, 0xF8, 0xE9, 0x01, 0x0C, 0xF7, 0xEE, 0x19, 0xFA, 0xDF, 0x1A, 0x15, 0x12, 0xEA, 0x07, 0xF2, 0x1C, 0xE6, 0x01, 0xE6, 0x02, 0x08, 0x16, 0x03, 0xF1, 0x06, 0xE3, 0x15, 0xFF, 0xD5, 0xFA, 0x02, 0x0A, 0xEB, 0x1B, 0x10, 0x13, 0x14, 0x12, 0xFF, 0x0E, 0xFB, 0xF3, 0xD7, 0xFE, 0xE7, 0x01, 0xFA, 0xF9, 0xFF, 0x05, 0x16, 0x03, 0x0E, 0x0A, 0xFB, 0xF9, 0x11, 0xE5, 0x06, 0x0B, 0xD8, 0xED, 0x13, 0xFA, 0x0C, 0xF2, 0x0F, 0x0E, 0xBD, 0xFB, 0xF8, 0xEE, 0xED, 0x06, 0x38, 0xE5, 0xFA, 0xFF, 0x07, 0xF4, 0xEE, 0x0F, 0x0A, 0xE6, 0xF7, 0xFA, 0x0E, 0xF5, 0x11, 0xFD, 0xF3, 0xFE, 0xF2, 0xEC, 0x04, 0xFA, 0x19, 0xE5, 0xED, 0x0A, 0xFB, 0xEF, 0xF7, 0x0C, 0xF1, 0x01, 0x0F, 0xFE, 0xF3, 0xFF, 0x0A, 0xDD, 0x03, 0xE9, 0xFE, 0xED, 0xC8, 0xE6, 0x0F, 0x11, 0x12, 0x15, 0x28, 0xF3, 0x10, 0xE2, 0xFE, 0x06, 0xE8, 0xE8, 0xEA, 0x09, 0xEE, 0xFB, 0x00, 0xFE, 0xF7, 0xEF, 0x44, 0x10, 0xF5, 0xF5, 0xFE, 0xF0, 0x0B, 0xF1, 0x07, 0xEA, 0xD9, 0xEA, 0xFC, 0xFF, 0x04, 0x12, 0x4E, 0xEA, 0x15, 0xDF, 0xE4, 0xF0, 0x04, 0xEE, 0xEE, 0x14, 0x06, 0x0D, 0xE7, 0x1D, 0xEF, 0x03, 0x66, 0xF1, 0xFF, 0xFB, 0x02, 0x0A, 0xE0, 0x0A, 0xEC, 0x0C, 0x40, 0x0F, 0xE9, 0x2C, 0xE0, 0xDA, 0x7F, 0x0C, 0xF2, 0xF3, 0x03, 0x15, 0xEE, 0xEA, 0x06, 0x02, 0x1F, 0x0F, 0xF4, 0xF3, 0xFB, 0xEF, 0x0F, 0xEC, 0xF6, 0xF7, 0x0B, 0x0F, 0x13, 0xF9, 0xF0, 0xFA, 0xF0, 0x01, 0x08, 0x06, 0xFB, 0x04, 0x0A, 0xFC, 0x08, 0xFF, 0x04, 0xF4, 0xEB, 0xFA, 0x0A, 0x0B, 0x14, 0xEE, 0x01, 0x08, 0x03, 0x0B, 0x0E, 0xF5, 0x0C, 0x1A, 0xF9, 0x0C, 0x01, 0x06, 0xEA, 0xFF, 0xFA, 0xFC, 0xF8, 0x0D, 0x05, 0x0A, 0xF3, 0xE4, 0x11, 0xEC, 0xF5, 0x05, 0x00, 0x09, 0x01, 0xF1, 0x09, 0x0B, 0xF6, 0x19, 0xF6, 0xEF, 0x12, 0xF6, 0xF1, 0x00, 0xFB, 0xF6, 0xE8, 0xFA, 0x09, 0xED, 0x08, 0xF2, 0x16, 0x15, 0x01, 0xFA, 0xFF, 0x0A, 0x0D, 0x19, 0x08, 0xE2, 0xEC, 0x0E, 0xFA, 0x13, 0x0C, 0xD5, 0xEC, 0xF0, 0xFC, 0x0A, 0xF6, 0x06, 0xF3, 0x19, 0xF3, 0x0B, 0x16, 0x04, 0xF1, 0xEB, 0x0D, 0xE3, 0xF2, 0x01, 0xF4, 0xF5, 0xF4, 0xEB, 0xF5, 0x0A, 0x10, 0x14, 0x05, 0xF0, 0x07, 0x08, 0xFB, 0xE3, 0xE7, 0x14, 0xF9, 0x16, 0xEE, 0x0A, 0xF8, 0xD9, 0x02, 0x05, 0x17, 0x12, 0x0D, 0xE8, 0xF5, 0xED, 0xFC, 0x00, 0xFE, 0x0D, 0xE4, 0x17, 0x05, 0xFE, 0xF2, 0xFF, 0x0C, 0xF2, 0x05, 0x13, 0xFD, 0xF4, 0x03, 0x03, 0x02, 0x0C, 0xE3, 0xFA, 0x07, 0xFF, 0xEF, 0x03, 0xF7, 0x10, 0xF2, 0x06, 0xFF, 0xF7, 0xFE, 0x02, 0xFF, 0x11, 0xDC, 0xEC, 0x02, 0xE4, 0xF9, 0xED, 0xF2, 0xFF, 0x11, 0xFD, 0x1A, 0x06, 0xE7, 0xF4, 0xF8, 0xF6, 0xDE, 0xFA, 0x04, 0xE8, 0x05, 0xE6, 0xEE, 0x0D, 0x04, 0x03, 0x0B, 0xEB, 0xEE, 0x14, 0xF9, 0xF7, 0x0B, 0x13, 0x0D, 0x05, 0x07, 0x05, 0x04, 0x11, 0xF1, 0x1D, 0x0A, 0x02, 0x07, 0x0B, 0x05, 0xF4, 0xF1, 0x14, 0x11, 0xEA, 0xEF, 0xF6, 0xF3, 0x0D, 0xED, 0x19, 0x0E, 0xEC, 0xFC, 0xF1, 0x08, 0x04, 0xE2, 0x11, 0xF5, 0xEE, 0x09, 0xF4, 0xF5, 0xF9, 0x0B, 0xEF, 0x0A, 0x00, 0xE2, 0xF4, 0x17, 0xFC, 0xED, 0x0F, 0xED, 0x1B, 0x18, 0x1A, 0x08, 0x10, 0x03, 0xFE, 0x0E, 0xFD, 0xF5, 0x01, 0x00, 0xFE, 0xF3, 0x08, 0x19, 0xF7, 0x04, 0xFE, 0xF0, 0xFB, 0x0C, 0xFB, 0x06, 0xF6, 0xFE, 0xFF, 0xF8, 0xE9, 0x08, 0xFC, 0xFF, 0xFF, 0x08, 0x15, 0x0C, 0xF2, 0x11, 0xFF, 0xFE, 0x0A, 0x16, 0x11, 0xFE, 0x10, 0x12, 0xF4, 0xF3, 0xF4, 0xED, 0xF7, 0x0F, 0xF8, 0x0D, 0x02, 0x14, 0xF0, 0x0A, 0xE6, 0x0F, 0x0E, 0x0D, 0xE1, 0xED, 0xFA, 0xF7, 0x01, 0xE6, 0xEF, 0xFA, 0xE6, 0x1B, 0xFB, 0xF1, 0x09, 0x12, 0xFE, 0x02, 0xFA, 0xE7, 0x13, 0x10, 0xF2, 0xFE, 0x0F, 0x07, 0x04, 0x06, 0x14, 0xE7, 0x07, 0x01, 0xED, 0x06, 0x11, 0xEA, 0x0A, 0xF6, 0xF7, 0xF5, 0x10, 0x15, 0xF1, 0x0C, 0xFA, 0x06, 0x11, 0xFE, 0x10, 0xFD, 0x15, 0x03, 0xEB, 0x0F, 0xE9, 0xF9, 0xF1, 0xF2, 0xEC, 0xFB, 0x07, 0xE5, 0xFD, 0xE9, 0x1C, 0x01, 0xE9, 0xEE, 0xE9, 0x00, 0xF4, 0xF0, 0x0C, 0xF9, 0x0D, 0x08, 0xF7, 0x0A, 0x18, 0xED, 0x0D, 0xF5, 0xEE, 0xF1, 0xEE, 0xF1, 0xFF, 0x0D, 0xF7, 0x04, 0x06, 0x09, 0xD7, 0xF2, 0xF1, 0xFC, 0x1C, 0x0A, 0x1B, 0x1A, 0x13, 0x02, 0x08, 0x0A, 0x08, 0x1E, 0xEF, 0x04, 0xF5, 0x03, 0xF5, 0xF0, 0xF3, 0xE9, 0x0C, 0x1E, 0x02, 0x09, 0x10, 0xF1, 0x17, 0x08, 0xF0, 0xE8, 0x21, 0xFC, 0x01, 0xEF, 0x21, 0xE9, 0xF7, 0x09, 0xE9, 0x00, 0xF3, 0xF6, 0x13, 0x06, 0x08, 0xEB, 0xFB, 0x0C, 0x05, 0xF4, 0x12, 0xFC, 0xF1, 0x13, 0xF3, 0x11, 0x00, 0x00, 0x01, 0x1B, 0xFE, 0xDE, 0x0D, 0xEA, 0xFB, 0xF6, 0x18, 0xF3, 0xFC, 0xEF, 0xE3, 0x0A, 0xE6, 0x07, 0xFB, 0xFC, 0xFB, 0x07, 0xEB, 0x17, 0xFA, 0xF6, 0x05, 0xF3, 0xFD, 0x0D, 0xFF, 0x10, 0xF4, 0xFE, 0x0D, 0xF8, 0x0B, 0xED, 0xF8, 0xD4, 0xF5, 0xF2, 0x10, 0x15, 0x11, 0xF1, 0xEB, 0x10, 0xE6, 0x1D, 0x01, 0xF4, 0x15, 0xA6, 0x04, 0xC4, 0xFD, 0xFF, 0xF3, 0xFC, 0x12, 0xFC, 0xFD, 0xF4, 0xFA, 0x04, 0x21, 0xFA, 0x17, 0xF3, 0x1B, 0xF9, 0xFE, 0xFB, 0xF3, 0xF8, 0x1B, 0x0F, 0x01, 0xF8, 0x04, 0x15, 0xF1, 0xF2, 0xFA, 0x0C, 0xF7, 0xFC, 0xFE, 0x08, 0x03, 0x22, 0x02, 0x05, 0xF0, 0x09, 0x0D, 0x11, 0xF9, 0x10, 0x19, 0xFB, 0x09, 0x02, 0xF9, 0xFA, 0xF4, 0xF2, 0xFA, 0x1D, 0x12, 0x0E, 0x08, 0x0A, 0xF6, 0x08, 0x14, 0x11, 0x06, 0xFC, 0xE9, 0xF1, 0x03, 0x1A, 0xE2, 0xE5, 0xED, 0xEB, 0x0A, 0xFB, 0x0D, 0xF0, 0xF7, 0xFE, 0x0B, 0x10, 0x0C, 0x06, 0x08, 0xAE, 0x17, 0xFC, 0xF5, 0x0A, 0x0B, 0xE9, 0x10, 0x0C, 0xE3, 0xF4, 0x19, 0xF7, 0x16, 0x1A, 0xF8, 0xE1, 0x01, 0x00, 0x12, 0x08, 0xE3, 0x0F, 0xEF, 0x12, 0xF1, 0xE1, 0xE6, 0xE8, 0x03, 0xF7, 0x13, 0xDE, 0xF6, 0xF7, 0x0E, 0xF3, 0xEA, 0xFC, 0x0E, 0x02, 0x12, 0xE0, 0xE3, 0x11, 0xBC, 0x1B, 0x19, 0x08, 0x0F, 0xF0, 0x10, 0xF6, 0x0E, 0x04, 0x19, 0x0E, 0x13, 0xFA, 0xDE, 0x10, 0x00, 0xEB, 0x1E, 0x0D, 0xEB, 0x14, 0x20, 0x08, 0x01, 0x03, 0x02, 0x17, 0xF3, 0x41, 0x13, 0x06, 0x14, 0xEC, 0x19, 0xDE, 0x07, 0x04, 0x03, 0x03, 0x2E, 0x08, 0x13, 0x1A, 0xFC, 0xE4, 0xEE, 0x03, 0xF3, 0x0B, 0x16, 0x0A, 0xEB, 0x03, 0x18, 0x1D, 0x0E, 0x13, 0x19, 0x12, 0xEE, 0xEB, 0xF6, 0x06, 0x01, 0x09, 0x07, 0xDA, 0x14, 0xF7, 0x07, 0x10, 0xFD, 0x01, 0x1E, 0x16, 0x01, 0x11, 0x1A, 0x00, 0x01, 0xFC, 0xF5, 0xEE, 0x13, 0xFE, 0x01, 0x21, 0xF2, 0x06, 0x08, 0x13, 0xFA, 0x0F, 0x08, 0x06, 0x0C, 0x20, 0x15, 0xB9, 0xF8, 0x24, 0x22, 0xF8, 0x11, 0x0F, 0x13, 0x0B, 0xF0, 0x0B, 0x1A, 0x2E, 0xFA, 0xF0, 0x0B, 0xE1, 0xEC, 0x0B, 0xF8, 0xF8, 0xE8, 0x16, 0x11, 0x19, 0xF0, 0xFF, 0x17, 0x08, 0xFF, 0xFA, 0x10, 0xAF, 0x07, 0x0A, 0x01, 0xF9, 0x0C, 0xF8, 0xF4, 0x0A, 0x09, 0x95, 0xFC, 0x13, 0xE6, 0x13, 0x28, 0xBE, 0x05, 0xFE, 0xFE, 0xF5, 0xE5, 0xF7, 0xFC, 0x01, 0x04, 0xFB, 0xCA, 0xD9, 0xFF, 0xFF, 0x00, 0x00, 0x00, 0x09, 0x10, 0x00, 0x00, 0x00, 0x15, 0x00, 0x00, 0x00, 0x14, 0x00, 0x00, 0x00, 0x78, 0x00, 0x00, 0x00, 0x02, 0x00, 0x00, 0x00, 0x04, 0x00, 0x00, 0x00, 0x30, 0x03, 0x00, 0x00, 0x63, 0x00, 0x00, 0x00, 0x73, 0x65, 0x71, 0x75, 0x65, 0x6E, 0x74, 0x69, 0x61, 0x6C, 0x5F, 0x31, 0x2F, 0x71, 0x75, 0x61, 0x6E, 0x74, 0x5F, 0x64, 0x65, 0x6E, 0x73, 0x65, 0x5F, 0x32, 0x2F, 0x4D, 0x61, 0x74, 0x4D, 0x75, 0x6C, 0x3B, 0x73, 0x65, 0x71, 0x75, 0x65, 0x6E, 0x74, 0x69, 0x61, 0x6C, 0x5F, 0x31, 0x2F, 0x71, 0x75, 0x61, 0x6E, 0x74, 0x5F, 0x64, 0x65, 0x6E, 0x73, 0x65, 0x5F, 0x32, 0x2F, 0x4C, 0x61, 0x73, 0x74, 0x56, 0x61, 0x6C, 0x75, 0x65, 0x51, 0x75, 0x61, 0x6E, 0x74, 0x2F, 0x46, 0x61, 0x6B, 0x65, 0x51, 0x75, 0x61, 0x6E, 0x74, 0x57, 0x69, 0x74, 0x68, 0x4D, 0x69, 0x6E, 0x4D, 0x61, 0x78, 0x56, 0x61, 0x72, 0x73, 0x00, 0xA4, 0xDA, 0xFF, 0xFF, 0x08, 0x00, 0x00, 0x00, 0x0C, 0x00, 0x00, 0x00, 0x01, 0x00, 0x00, 0x00, 0xB6, 0xCD, 0x63, 0x3B, 0x01, 0x00, 0x00, 0x00, 0x00, 0x00, 0x00, 0x00, 0x00, 0x00, 0x00, 0x00, 0x00, 0x00, 0x0A, 0x00, 0x10, 0x00, 0x04, 0x00, 0x08, 0x00, 0x0C, 0x00, 0x0A, 0x00, 0x00, 0x00, 0x03, 0x00, 0x00, 0x00, 0x10, 0x00, 0x00, 0x00, 0x04, 0x00, 0x00, 0x00, 0x01, 0x00, 0x00, 0x00, 0x13, 0x00, 0x00, 0x00, 0x02, 0x00, 0x00, 0x00, 0x12, 0x00, 0x00, 0x00, 0x01, 0x00, 0x00, 0x00, 0x70, 0xDC, 0xFF, 0xFF, 0x16, 0x00, 0x00, 0x00, 0x00, 0x00, 0x00, 0x16, 0x01, 0x00, 0x00, 0x00, 0x64, 0xDC, 0xFF, 0xFF, 0x00, 0x00, 0x00, 0x09, 0x14, 0x00, 0x00, 0x00, 0x14, 0x00, 0x00, 0x00, 0x24, 0x00, 0x00, 0x00, 0x4C, 0x00, 0x00, 0x00, 0x10, 0x00, 0x00, 0x00, 0x02, 0x00, 0x00, 0x00, 0x01, 0x00, 0x00, 0x00, 0x30, 0x03, 0x00, 0x00, 0x02, 0x00, 0x00, 0x00, 0xFF, 0xFF, 0xFF, 0xFF, 0x30, 0x03, 0x00, 0x00, 0x24, 0x00, 0x00, 0x00, 0x73, 0x65, 0x71, 0x75, 0x65, 0x6E, 0x74, 0x69, 0x61, 0x6C, 0x5F, 0x31, 0x2F, 0x71, 0x75, 0x61, 0x6E, 0x74, 0x5F, 0x66, 0x6C, 0x61, 0x74, 0x74, 0x65, 0x6E, 0x5F, 0x31, 0x2F, 0x52, 0x65, 0x73, 0x68, 0x61, 0x70, 0x65, 0x00, 0x00, 0x00, 0x00, 0x64, 0xDB, 0xFF, 0xFF, 0x08, 0x00, 0x00, 0x00, 0x0C, 0x00, 0x00, 0x00, 0x01, 0x00, 0x00, 0x00, 0x93, 0x31, 0x10, 0x40, 0x01, 0x00, 0x00, 0x00, 0x81, 0xFF, 0xFF, 0xFF, 0xFF, 0xFF, 0xFF, 0xFF, 0xBE, 0xE0, 0xFF, 0xFF, 0x00, 0x00, 0x00, 0x05, 0x02, 0x00, 0x00, 0x00, 0x28, 0x00, 0x00, 0x00, 0x1C, 0x00, 0x00, 0x00, 0x04, 0x00, 0x00, 0x00, 0xAE, 0xE1, 0xFF, 0xFF, 0x02, 0x00, 0x00, 0x00, 0x02, 0x00, 0x00, 0x00, 0x02, 0x00, 0x00, 0x00, 0x02, 0x00, 0x00, 0x00, 0x01, 0x00, 0x00, 0x00, 0x12, 0x00, 0x00, 0x00, 0x01, 0x00, 0x00, 0x00, 0x11, 0x00, 0x00, 0x00, 0x20, 0xDD, 0xFF, 0xFF, 0x00, 0x00, 0x00, 0x09, 0x14, 0x00, 0x00, 0x00, 0x13, 0x00, 0x00, 0x00, 0x34, 0x00, 0x00, 0x00, 0x60, 0x00, 0x00, 0x00, 0x18, 0x00, 0x00, 0x00, 0x04, 0x00, 0x00, 0x00, 0x01, 0x00, 0x00, 0x00, 0x03, 0x00, 0x00, 0x00, 0x11, 0x00, 0x00, 0x00, 0x10, 0x00, 0x00, 0x00, 0x04, 0x00, 0x00, 0x00, 0xFF, 0xFF, 0xFF, 0xFF, 0x03, 0x00, 0x00, 0x00, 0x11, 0x00, 0x00, 0x00, 0x10, 0x00, 0x00, 0x00, 0x2A, 0x00, 0x00, 0x00, 0x73, 0x65, 0x71, 0x75, 0x65, 0x6E, 0x74, 0x69, 0x61, 0x6C, 0x5F, 0x31, 0x2F, 0x71, 0x75, 0x61, 0x6E, 0x74, 0x5F, 0x6D, 0x61, 0x78, 0x5F, 0x70, 0x6F, 0x6F, 0x6C, 0x69, 0x6E, 0x67, 0x32, 0x64, 0x5F, 0x37, 0x2F, 0x4D, 0x61, 0x78, 0x50, 0x6F, 0x6F, 0x6C, 0x00, 0x00, 0x34, 0xDC, 0xFF, 0xFF, 0x08, 0x00, 0x00, 0x00, 0x0C, 0x00, 0x00, 0x00, 0x01, 0x00, 0x00, 0x00, 0x93, 0x31, 0x10, 0x40, 0x01, 0x00, 0x00, 0x00, 0x81, 0xFF, 0xFF, 0xFF, 0xFF, 0xFF, 0xFF, 0xFF, 0x8E, 0xE1, 0xFF, 0xFF, 0x00, 0x00, 0x00, 0x01, 0x01, 0x00, 0x00, 0x00, 0x24, 0x00, 0x00, 0x00, 0x18, 0x00, 0x00, 0x00, 0x04, 0x00, 0x00, 0x00, 0x80, 0xE1, 0xFF, 0xFF, 0x01, 0x00, 0x00, 0x00, 0x01, 0x00, 0x00, 0x00, 0x00, 0x00, 0x00, 0x01, 0x01, 0x00, 0x00, 0x00, 0x11, 0x00, 0x00, 0x00, 0x03, 0x00, 0x00, 0x00, 0x0E, 0x00, 0x00, 0x00, 0x0F, 0x00, 0x00, 0x00, 0x10, 0x00, 0x00, 0x00, 0xF4, 0xDD, 0xFF, 0xFF, 0x00, 0x00, 0x00, 0x09, 0x14, 0x00, 0x00, 0x00, 0x12, 0x00, 0x00, 0x00, 0x34, 0x00, 0x00, 0x00, 0xFC, 0x00, 0x00, 0x00, 0x18, 0x00, 0x00, 0x00, 0x04, 0x00, 0x00, 0x00, 0x01, 0x00, 0x00, 0x00, 0x05, 0x00, 0x00, 0x00, 0x21, 0x00, 0x00, 0x00, 0x10, 0x00, 0x00, 0x00, 0x04, 0x00, 0x00, 0x00, 0xFF, 0xFF, 0xFF, 0xFF, 0x05, 0x00, 0x00, 0x00, 0x21, 0x00, 0x00, 0x00, 0x10, 0x00, 0x00, 0x00, 0xC6, 0x00, 0x00, 0x00, 0x73, 0x65, 0x71, 0x75, 0x65, 0x6E, 0x74, 0x69, 0x61, 0x6C, 0x5F, 0x31, 0x2F, 0x71, 0x75, 0x61, 0x6E, 0x74, 0x5F, 0x63, 0x6F, 0x6E, 0x76, 0x32, 0x64, 0x5F, 0x37, 0x2F, 0x52, 0x65, 0x6C, 0x75, 0x3B, 0x73, 0x65, 0x71, 0x75, 0x65, 0x6E, 0x74, 0x69, 0x61, 0x6C, 0x5F, 0x31, 0x2F, 0x71, 0x75, 0x61, 0x6E, 0x74, 0x5F, 0x63, 0x6F, 0x6E, 0x76, 0x32, 0x64, 0x5F, 0x37, 0x2F, 0x42, 0x69, 0x61, 0x73, 0x41, 0x64, 0x64, 0x3B, 0x73, 0x65, 0x71, 0x75, 0x65, 0x6E, 0x74, 0x69, 0x61, 0x6C, 0x5F, 0x31, 0x2F, 0x71, 0x75, 0x61, 0x6E, 0x74, 0x5F, 0x63, 0x6F, 0x6E, 0x76, 0x32, 0x64, 0x5F, 0x36, 0x2F, 0x43, 0x6F, 0x6E, 0x76, 0x32, 0x44, 0x3B, 0x73, 0x65, 0x71, 0x75, 0x65, 0x6E, 0x74, 0x69, 0x61, 0x6C, 0x5F, 0x31, 0x2F, 0x71, 0x75, 0x61, 0x6E, 0x74, 0x5F, 0x63, 0x6F, 0x6E, 0x76, 0x32, 0x64, 0x5F, 0x37, 0x2F, 0x43, 0x6F, 0x6E, 0x76, 0x32, 0x44, 0x3B, 0x73, 0x65, 0x71, 0x75, 0x65, 0x6E, 0x74, 0x69, 0x61, 0x6C, 0x5F, 0x31, 0x2F, 0x71, 0x75, 0x61, 0x6E, 0x74, 0x5F, 0x63, 0x6F, 0x6E, 0x76, 0x32, 0x64, 0x5F, 0x37, 0x2F, 0x42, 0x69, 0x61, 0x73, 0x41, 0x64, 0x64, 0x2F, 0x52, 0x65, 0x61, 0x64, 0x56, 0x61, 0x72, 0x69, 0x61, 0x62, 0x6C, 0x65, 0x4F, 0x70, 0x2F, 0x72, 0x65, 0x73, 0x6F, 0x75, 0x72, 0x63, 0x65, 0x00, 0x00, 0xA4, 0xDD, 0xFF, 0xFF, 0x08, 0x00, 0x00, 0x00, 0x0C, 0x00, 0x00, 0x00, 0x01, 0x00, 0x00, 0x00, 0x93, 0x31, 0x10, 0x40, 0x01, 0x00, 0x00, 0x00, 0x81, 0xFF, 0xFF, 0xFF, 0xFF, 0xFF, 0xFF, 0xFF, 0x00, 0x00, 0x00, 0x00, 0x96, 0xDD, 0xFF, 0xFF, 0x04, 0x00, 0x00, 0x00, 0x40, 0x00, 0x00, 0x00, 0x0D, 0x00, 0x00, 0x00, 0x10, 0x00, 0x00, 0x00, 0xFC, 0xFF, 0xFF, 0xFF, 0xFF, 0xFF, 0xFF, 0xFF, 0x05, 0x00, 0x00, 0x00, 0x18, 0x00, 0x00, 0x00, 0x0B, 0x00, 0x00, 0x00, 0x03, 0x00, 0x00, 0x00, 0x00, 0x00, 0x00, 0x00, 0xFB, 0xFF, 0xFF, 0xFF, 0x09, 0x00, 0x00, 0x00, 0xFC, 0xFF, 0xFF, 0xFF, 0xFD, 0xFF, 0xFF, 0xFF, 0xFF, 0xFF, 0xFF, 0xFF, 0xFE, 0xFF, 0xFF, 0xFF, 0x19, 0x00, 0x00, 0x00, 0xC6, 0xDD, 0xFF, 0xFF, 0x00, 0x00, 0x00, 0x02, 0x10, 0x00, 0x00, 0x00, 0x11, 0x00, 0x00, 0x00, 0x10, 0x00, 0x00, 0x00, 0xB8, 0x00, 0x00, 0x00, 0x01, 0x00, 0x00, 0x00, 0x10, 0x00, 0x00, 0x00, 0xA5, 0x00, 0x00, 0x00, 0x73, 0x65, 0x71, 0x75, 0x65, 0x6E, 0x74, 0x69, 0x61, 0x6C, 0x5F, 0x31, 0x2F, 0x71, 0x75, 0x61, 0x6E, 0x74, 0x5F, 0x63, 0x6F, 0x6E, 0x76, 0x32, 0x64, 0x5F, 0x37, 0x2F, 0x42, 0x69, 0x61, 0x73, 0x41, 0x64, 0x64, 0x3B, 0x73, 0x65, 0x71, 0x75, 0x65, 0x6E, 0x74, 0x69, 0x61, 0x6C, 0x5F, 0x31, 0x2F, 0x71, 0x75, 0x61, 0x6E, 0x74, 0x5F, 0x63, 0x6F, 0x6E, 0x76, 0x32, 0x64, 0x5F, 0x36, 0x2F, 0x43, 0x6F, 0x6E, 0x76, 0x32, 0x44, 0x3B, 0x73, 0x65, 0x71, 0x75, 0x65, 0x6E, 0x74, 0x69, 0x61, 0x6C, 0x5F, 0x31, 0x2F, 0x71, 0x75, 0x61, 0x6E, 0x74, 0x5F, 0x63, 0x6F, 0x6E, 0x76, 0x32, 0x64, 0x5F, 0x37, 0x2F, 0x43, 0x6F, 0x6E, 0x76, 0x32, 0x44, 0x3B, 0x73, 0x65, 0x71, 0x75, 0x65, 0x6E, 0x74, 0x69, 0x61, 0x6C, 0x5F, 0x31, 0x2F, 0x71, 0x75, 0x61, 0x6E, 0x74, 0x5F, 0x63, 0x6F, 0x6E, 0x76, 0x32, 0x64, 0x5F, 0x37, 0x2F, 0x42, 0x69, 0x61, 0x73, 0x41, 0x64, 0x64, 0x2F, 0x52, 0x65, 0x61, 0x64, 0x56, 0x61, 0x72, 0x69, 0x61, 0x62, 0x6C, 0x65, 0x4F, 0x70, 0x2F, 0x72, 0x65, 0x73, 0x6F, 0x75, 0x72, 0x63, 0x65, 0x00, 0x00, 0x00, 0xE0, 0xDE, 0xFF, 0xFF, 0x08, 0x00, 0x00, 0x00, 0x48, 0x00, 0x00, 0x00, 0x10, 0x00, 0x00, 0x00, 0x7F, 0x46, 0x96, 0x3C, 0x00, 0x26, 0x7D, 0x3C, 0xD0, 0x0F, 0x92, 0x3C, 0x8D, 0xD1, 0x81, 0x3C, 0x41, 0x92, 0x86, 0x3C, 0x47, 0x71, 0x86, 0x3C, 0xC1, 0x5D, 0x93, 0x3C, 0x26, 0xA1, 0x96, 0x3C, 0x82, 0x82, 0x8C, 0x3C, 0xFE, 0xCD, 0x8D, 0x3C, 0xD0, 0x8F, 0x88, 0x3C, 0x49, 0xB6, 0x80, 0x3C, 0xE2, 0x56, 0x90, 0x3C, 0x12, 0x16, 0x80, 0x3C, 0x3A, 0xF2, 0x82, 0x3C, 0x86, 0x76, 0x87, 0x3C, 0x10, 0x00, 0x00, 0x00, 0x00, 0x00, 0x00, 0x00, 0x00, 0x00, 0x00, 0x00, 0x00, 0x00, 0x00, 0x00, 0x00, 0x00, 0x00, 0x00, 0x00, 0x00, 0x00, 0x00, 0x00, 0x00, 0x00, 0x00, 0x00, 0x00, 0x00, 0x00, 0x00, 0x00, 0x00, 0x00, 0x00, 0x00, 0x00, 0x00, 0x00, 0x00, 0x00, 0x00, 0x00, 0x00, 0x00, 0x00, 0x00, 0x00, 0x00, 0x00, 0x00, 0x00, 0x00, 0x00, 0x00, 0x00, 0x00, 0x00, 0x00, 0x00, 0x00, 0x00, 0x00, 0x00, 0x00, 0x00, 0x00, 0x00, 0x00, 0x00, 0x00, 0x00, 0x00, 0x00, 0x00, 0x00, 0x00, 0x00, 0x00, 0x00, 0x00, 0x00, 0x00, 0x00, 0x00, 0x00, 0x00, 0x00, 0x00, 0x00, 0x00, 0x00, 0x00, 0x00, 0x00, 0x00, 0x00, 0x00, 0x00, 0x00, 0x00, 0x00, 0x00, 0x00, 0x00, 0x00, 0x00, 0x00, 0x00, 0x00, 0x00, 0x00, 0x00, 0x00, 0x00, 0x00, 0x00, 0x00, 0x00, 0x00, 0x00, 0x00, 0x00, 0x00, 0x00, 0x00, 0x00, 0x00, 0x00, 0x00, 0x82, 0xDF, 0xFF, 0xFF, 0x04, 0x00, 0x00, 0x00, 0x00, 0x09, 0x00, 0x00, 0x4B, 0xC8, 0xF5, 0x1F, 0x40, 0xD4, 0xAA, 0xD0, 0xD9, 0x93, 0x2D, 0x70, 0x4C, 0xDC, 0x31, 0x1A, 0x01, 0x14, 0x07, 0xFB, 0xC1, 0xEB, 0x2B, 0xB7, 0x81, 0xB0, 0xA4, 0xEC, 0xA2, 0xE8, 0xCB, 0xC8, 0x21, 0x03, 0xE5, 0xEB, 0x05, 0x00, 0xBF, 0x26, 0xDE, 0x51, 0x98, 0x12, 0x13, 0xA1, 0x0E, 0x11, 0xA2, 0x12, 0xC3, 0xF3, 0xCE, 0x11, 0xC4, 0xCB, 0xDE, 0xF8, 0x50, 0x09, 0xA9, 0xF6, 0x41, 0xF3, 0x1E, 0xDB, 0x3A, 0x46, 0x55, 0xC5, 0x00, 0xA7, 0xC1, 0xA1, 0xC9, 0xEF, 0x2A, 0xDF, 0x26, 0xAA, 0xB6, 0xCC, 0xA7, 0x01, 0xB3, 0xB1, 0x3C, 0xBE, 0x22, 0x3C, 0x24, 0xF4, 0xCC, 0x8A, 0x9F, 0xE6, 0xBA, 0x07, 0xB2, 0xE0, 0xC8, 0xF9, 0xA8, 0x1D, 0xF4, 0x99, 0xD9, 0xE5, 0x9A, 0x54, 0x48, 0x40, 0xD7, 0x9F, 0xE9, 0x3C, 0x9A, 0xE9, 0xF9, 0xE8, 0xEB, 0x5B, 0xE9, 0xC9, 0xD5, 0xFD, 0x43, 0x52, 0x4F, 0xD6, 0x4E, 0x28, 0x33, 0xE3, 0x4B, 0xEB, 0xAE, 0x0C, 0xC9, 0x50, 0x20, 0x13, 0x08, 0x39, 0x03, 0xE5, 0x1D, 0x4E, 0x0D, 0x3B, 0xDF, 0x9C, 0x4F, 0x64, 0xD1, 0xB4, 0xA4, 0x1E, 0xB3, 0xC8, 0xA6, 0x01, 0x43, 0xE1, 0x35, 0x5A, 0x54, 0x20, 0x22, 0xFD, 0x8F, 0x4A, 0x18, 0x52, 0xCC, 0xC5, 0xEE, 0x9A, 0x18, 0xC3, 0xAD, 0x37, 0x52, 0x53, 0xC2, 0x1A, 0xA6, 0xDF, 0xEF, 0x07, 0xBF, 0x2E, 0xDE, 0xD8, 0xF9, 0x34, 0xFD, 0xD5, 0xD8, 0x43, 0x21, 0x14, 0xD9, 0x43, 0x8E, 0xF9, 0xA2, 0xAC, 0xAD, 0xF1, 0x1A, 0x3C, 0xA4, 0x0E, 0xD5, 0x9E, 0x07, 0xDC, 0xBC, 0x45, 0x09, 0x07, 0x18, 0xC3, 0xD8, 0x0B, 0xCF, 0xD7, 0x9B, 0x5D, 0xF4, 0x59, 0xF5, 0x25, 0x96, 0x1B, 0xE1, 0x53, 0x04, 0x83, 0x53, 0xC2, 0xF8, 0xAA, 0x91, 0xD3, 0x47, 0x86, 0xD6, 0xA0, 0xE4, 0x39, 0xF3, 0x14, 0x9D, 0x33, 0x26, 0x22, 0xFD, 0x73, 0xC5, 0xC6, 0xE6, 0xA0, 0x12, 0xE3, 0x3F, 0xD8, 0x02, 0x17, 0x00, 0xB5, 0xAE, 0xDD, 0xD6, 0x04, 0xF8, 0x2A, 0x1D, 0x4C, 0xC1, 0x97, 0x46, 0x07, 0x0C, 0xE0, 0x50, 0x81, 0x9B, 0xB1, 0x9E, 0xC1, 0x46, 0x08, 0xC7, 0xB8, 0x3A, 0x4A, 0x25, 0x24, 0xEF, 0xD3, 0x9F, 0x93, 0xBB, 0x21, 0x4D, 0x81, 0xD9, 0x37, 0xAB, 0x03, 0x1D, 0xDC, 0x35, 0x20, 0x41, 0xF4, 0x4E, 0xD7, 0xA5, 0x1D, 0x04, 0x09, 0x8F, 0xFE, 0xB6, 0xCD, 0x9D, 0x4C, 0x36, 0xB2, 0xF4, 0xC4, 0xA8, 0xB8, 0xE5, 0xFF, 0x12, 0x14, 0xFE, 0x04, 0xE3, 0x42, 0x53, 0x04, 0x1F, 0x13, 0xA8, 0x2F, 0x03, 0x34, 0x9F, 0xBC, 0x4A, 0x03, 0x2C, 0x4C, 0xE7, 0xAA, 0xB2, 0x0B, 0xF8, 0x9C, 0x2B, 0x1D, 0x4A, 0xE1, 0x12, 0x03, 0x30, 0x0A, 0x4F, 0xC2, 0x2D, 0x33, 0xA7, 0xC6, 0xAB, 0xA1, 0x03, 0x36, 0xF7, 0xEB, 0xFE, 0x33, 0x60, 0x3A, 0x43, 0x2A, 0xA8, 0x53, 0x07, 0xCE, 0xC7, 0x3C, 0xE0, 0xDE, 0xBF, 0xCD, 0xFD, 0xFF, 0xBB, 0x37, 0x5B, 0xC3, 0xEC, 0xD0, 0x0D, 0x30, 0x54, 0xC7, 0x09, 0x23, 0x01, 0x39, 0xE5, 0xE2, 0x5F, 0x53, 0xD3, 0x51, 0x12, 0x0C, 0x26, 0xD0, 0x46, 0xEC, 0x30, 0xD9, 0x03, 0x0F, 0x59, 0x0D, 0x12, 0x8A, 0xF0, 0x62, 0x1E, 0x90, 0x2B, 0x94, 0xCC, 0x1C, 0x53, 0x1B, 0xD5, 0x3A, 0x82, 0x33, 0x50, 0x08, 0x88, 0xC7, 0x20, 0x94, 0x3C, 0x2C, 0x15, 0x81, 0x5F, 0x30, 0xA9, 0xFF, 0xA8, 0xF1, 0x99, 0xFE, 0xEC, 0xC8, 0xAB, 0x0F, 0xF2, 0xBA, 0xDB, 0x9B, 0x0E, 0x47, 0x2C, 0xC1, 0xC6, 0xDB, 0x94, 0x25, 0x44, 0xD4, 0x55, 0xA6, 0x4B, 0xBD, 0x56, 0x8A, 0xEE, 0x09, 0x2D, 0x00, 0xB5, 0x3C, 0x38, 0x89, 0x24, 0xB3, 0x84, 0xA4, 0x9D, 0x53, 0xC2, 0x3B, 0xFB, 0x1D, 0x21, 0xE9, 0x53, 0x9D, 0x04, 0x4D, 0x65, 0x56, 0xC0, 0x61, 0xCA, 0x43, 0x3E, 0x46, 0xD8, 0xB4, 0xB7, 0xD3, 0xF7, 0xCC, 0xE8, 0xFA, 0xAE, 0x07, 0xFE, 0xC1, 0x18, 0xA6, 0x8C, 0x11, 0x1D, 0xFA, 0xFF, 0xCC, 0xA7, 0x35, 0xCB, 0xDB, 0x5A, 0xA7, 0xCA, 0xD6, 0x07, 0x2A, 0xCC, 0x04, 0x1F, 0xD2, 0x39, 0x27, 0x9E, 0xFE, 0x12, 0xB4, 0xB7, 0x12, 0x05, 0x8C, 0xE0, 0xBA, 0x15, 0x23, 0x08, 0xAA, 0x42, 0x08, 0xDA, 0xC2, 0x68, 0xD7, 0xF8, 0xD0, 0x81, 0xE2, 0xA7, 0xF9, 0x68, 0xBA, 0xAC, 0xE0, 0x82, 0xE6, 0xDE, 0x5B, 0x55, 0xA3, 0x1B, 0xE0, 0xEC, 0x9F, 0x97, 0xF0, 0x22, 0xF6, 0x3A, 0x37, 0xDC, 0x03, 0xD6, 0xD2, 0x18, 0x31, 0xBF, 0x06, 0x2D, 0xB6, 0x31, 0x2B, 0x46, 0xDC, 0x59, 0xD0, 0xA6, 0x33, 0xE0, 0xFE, 0x37, 0x0A, 0x0E, 0xAE, 0x58, 0xE9, 0x21, 0xCF, 0xB9, 0x02, 0x26, 0xD2, 0x02, 0x3C, 0xDC, 0x55, 0x00, 0x85, 0x9A, 0xB1, 0xDC, 0x39, 0xB3, 0xEA, 0xC8, 0x0D, 0x11, 0x02, 0xBB, 0x23, 0x03, 0x84, 0x01, 0xCF, 0x46, 0x01, 0x93, 0x98, 0xEF, 0x8A, 0x93, 0xBA, 0x35, 0x2C, 0x1B, 0xE6, 0x26, 0x8C, 0xB4, 0x8B, 0xC9, 0x5D, 0x99, 0xC8, 0x22, 0xB4, 0x10, 0x04, 0x3F, 0xC1, 0x93, 0x15, 0x5A, 0xA8, 0xA1, 0x99, 0xBE, 0x11, 0x4D, 0xA2, 0x4C, 0xAC, 0x22, 0x06, 0x31, 0xD3, 0xDC, 0xA3, 0x4C, 0xB7, 0x42, 0xF0, 0x98, 0xB0, 0xA7, 0x35, 0x16, 0x19, 0x3F, 0x11, 0xDB, 0x56, 0x22, 0x11, 0x90, 0xE2, 0x0A, 0x1C, 0x46, 0xE7, 0x98, 0x2E, 0xAD, 0xA0, 0xBE, 0xD9, 0xA9, 0x35, 0xF3, 0x96, 0xCC, 0xBF, 0x9E, 0x81, 0xCB, 0x0B, 0xB1, 0xFF, 0xBD, 0x91, 0xFC, 0x2E, 0xED, 0xB6, 0x52, 0xBE, 0xD2, 0x3A, 0x41, 0x0B, 0x08, 0xBB, 0x34, 0xD0, 0x5D, 0xAD, 0xC0, 0xED, 0x1B, 0x89, 0xC6, 0xEC, 0x27, 0x11, 0x52, 0xCF, 0x4A, 0xDB, 0x6A, 0x36, 0xF0, 0x56, 0x9A, 0xBE, 0x5E, 0x41, 0xE9, 0x57, 0xC6, 0x40, 0xD6, 0x28, 0x5B, 0x40, 0x54, 0x11, 0x45, 0xD3, 0xEA, 0xEE, 0x23, 0xDD, 0xF7, 0x00, 0x3C, 0xA6, 0xFC, 0xF6, 0xA5, 0x2B, 0xF6, 0x93, 0x26, 0x31, 0xCE, 0x4E, 0x2C, 0x9C, 0xF7, 0x29, 0x26, 0x3A, 0x9E, 0xF7, 0x32, 0x2D, 0x54, 0x07, 0x9C, 0x68, 0xC3, 0x36, 0x0C, 0x3B, 0xFF, 0xB5, 0xE7, 0x4E, 0xE8, 0x6B, 0x35, 0x43, 0x02, 0x97, 0xCF, 0x38, 0xCC, 0xAF, 0xED, 0x20, 0x0F, 0x51, 0x42, 0x0C, 0x99, 0x6D, 0xEF, 0xC7, 0x53, 0xDD, 0x0C, 0xD6, 0x4D, 0x9D, 0xBB, 0x1F, 0x47, 0x46, 0x38, 0xBD, 0xFD, 0xDE, 0x66, 0xDD, 0x3A, 0xF0, 0x8D, 0xD4, 0x3A, 0x03, 0xC2, 0xC5, 0x22, 0x16, 0xC1, 0x2C, 0xD4, 0x05, 0xF1, 0x5C, 0x9E, 0x3B, 0xAA, 0x98, 0x18, 0xD4, 0x33, 0x1D, 0x0E, 0x02, 0xCF, 0x00, 0x20, 0xB1, 0x20, 0xF3, 0x16, 0xFB, 0x11, 0xCD, 0x9C, 0x23, 0xC7, 0xFA, 0x06, 0xDB, 0xE2, 0x3A, 0xC7, 0xCA, 0x3B, 0xF5, 0x11, 0x4F, 0xE7, 0x08, 0xD1, 0x41, 0x27, 0x0A, 0xE2, 0xDE, 0x24, 0x13, 0xAE, 0x64, 0xCE, 0xF5, 0xDB, 0x2A, 0x17, 0xF1, 0x1C, 0x27, 0xC9, 0xAD, 0x3C, 0xD0, 0x17, 0x8C, 0x2A, 0xBB, 0xF2, 0x06, 0x81, 0xD5, 0x0E, 0x30, 0x00, 0xE2, 0x04, 0xD5, 0xF4, 0xE3, 0x1C, 0xCD, 0x2A, 0x09, 0xC7, 0x55, 0x38, 0x50, 0x0F, 0x44, 0x0B, 0x22, 0xEA, 0x0D, 0x2E, 0xF3, 0xF8, 0x10, 0xDA, 0xCB, 0x3E, 0x5B, 0xE9, 0xF4, 0xA2, 0xCD, 0xEB, 0xAD, 0x13, 0x4B, 0x0D, 0xC1, 0xCC, 0x33, 0xC8, 0xD5, 0xC1, 0xC5, 0x3B, 0xB9, 0x4F, 0xC3, 0x37, 0xAC, 0x3E, 0x5E, 0xF2, 0x3F, 0x81, 0xCE, 0xD1, 0x1A, 0x8E, 0x9A, 0x5F, 0xCA, 0xA0, 0x1C, 0xE3, 0xBE, 0x93, 0x43, 0x16, 0xB1, 0x00, 0x56, 0xD3, 0xA5, 0xBC, 0xE3, 0x30, 0x56, 0x1F, 0x07, 0x13, 0x2B, 0x13, 0xDD, 0xC7, 0xB4, 0xFE, 0xCF, 0x46, 0xF6, 0xF4, 0xE7, 0x32, 0xCD, 0xC5, 0x34, 0x03, 0xF3, 0xC7, 0xF0, 0x37, 0xDF, 0x43, 0x11, 0x34, 0xB1, 0x3E, 0x39, 0x23, 0x08, 0x22, 0x2E, 0xE7, 0x5A, 0xC0, 0x21, 0xB2, 0xF1, 0xCC, 0x3C, 0xB2, 0xC4, 0x0D, 0xFF, 0x42, 0xC4, 0xE4, 0x2E, 0xF7, 0x1C, 0xA9, 0x35, 0xB4, 0x1F, 0xDC, 0x2F, 0x0F, 0x3C, 0xA7, 0xB3, 0xCD, 0xB0, 0xB1, 0x09, 0x34, 0x40, 0xD9, 0xD3, 0x41, 0xD1, 0xB7, 0xC5, 0xD4, 0xD2, 0x32, 0x47, 0xAE, 0x36, 0x29, 0xC2, 0xFE, 0x00, 0xBD, 0x53, 0x16, 0x13, 0xEC, 0x1D, 0xFF, 0x9A, 0xA9, 0xD9, 0xE8, 0x9E, 0x3D, 0xC0, 0x3C, 0xBF, 0x27, 0x9C, 0x27, 0x2F, 0x35, 0xBB, 0x20, 0x45, 0x03, 0xE5, 0x04, 0xF9, 0x01, 0x3D, 0x2C, 0x13, 0x37, 0xC1, 0xBF, 0x0D, 0xC4, 0x66, 0xD0, 0x2B, 0x58, 0xB9, 0xCA, 0x2A, 0x1A, 0xB1, 0xFD, 0x55, 0x30, 0xD1, 0x2A, 0xC1, 0xF6, 0xEF, 0xF7, 0x05, 0x6A, 0xAA, 0xB1, 0x48, 0xC4, 0xFF, 0x1B, 0xEF, 0x27, 0x0D, 0xB0, 0xC2, 0xEF, 0x49, 0xF3, 0x3E, 0x2F, 0x49, 0xB1, 0x46, 0x05, 0x3F, 0x2D, 0x57, 0x46, 0x54, 0x17, 0xE2, 0xF2, 0xDC, 0xC3, 0x54, 0xC5, 0x29, 0x42, 0x25, 0xD1, 0xAF, 0x10, 0x78, 0x64, 0xDC, 0xB6, 0xDB, 0xAA, 0xEB, 0xA3, 0x8F, 0xAD, 0xDE, 0x2E, 0x05, 0x3F, 0xCA, 0xB4, 0xC6, 0xB2, 0xF6, 0x98, 0xAD, 0x1F, 0xC4, 0x34, 0x0E, 0x12, 0x13, 0xFC, 0xCE, 0xA5, 0x41, 0xCE, 0xCC, 0x9C, 0x32, 0x11, 0x51, 0xD3, 0x12, 0x4D, 0xED, 0xCD, 0xB0, 0x0F, 0x6E, 0xC1, 0x55, 0x15, 0xD4, 0x21, 0xF9, 0xBA, 0xDE, 0xEB, 0xD6, 0xAA, 0x81, 0x10, 0x60, 0x1F, 0xB3, 0xCE, 0x29, 0xDC, 0x1E, 0x1C, 0x08, 0xF8, 0xA8, 0xD0, 0x59, 0x99, 0x3F, 0x13, 0x17, 0x2F, 0x8C, 0x42, 0x8C, 0x32, 0xD6, 0xDC, 0x05, 0x95, 0xC0, 0x46, 0xF6, 0xDB, 0xEE, 0xBC, 0x41, 0x02, 0x50, 0x91, 0x31, 0x33, 0xB2, 0x38, 0x38, 0x44, 0x16, 0xE3, 0xCC, 0x52, 0xEE, 0x46, 0xA5, 0x55, 0x02, 0x03, 0xB2, 0xB3, 0x8F, 0xA5, 0x39, 0x11, 0x2F, 0x46, 0xE8, 0xF9, 0xB2, 0x15, 0xA6, 0x42, 0xB5, 0x20, 0x37, 0x29, 0x17, 0x4E, 0x22, 0x0D, 0xCC, 0x47, 0xC9, 0xF4, 0xF5, 0xE0, 0x16, 0xA3, 0x42, 0x42, 0x04, 0x97, 0xCD, 0x1D, 0x42, 0xA0, 0xF4, 0x47, 0xF1, 0x09, 0x13, 0x59, 0x1C, 0xA8, 0xDF, 0xD3, 0xC1, 0xE5, 0xE8, 0xC9, 0x2E, 0xA4, 0xC2, 0x26, 0xF2, 0xD8, 0xA2, 0xA9, 0x4F, 0x7F, 0x3F, 0x11, 0x2C, 0xFB, 0xCA, 0xB4, 0x27, 0x3E, 0x23, 0xC6, 0xE6, 0x50, 0xB5, 0xDD, 0x63, 0xD4, 0x35, 0x00, 0x12, 0x58, 0xA1, 0x0A, 0x5C, 0x19, 0x52, 0x32, 0x22, 0x6C, 0xED, 0x32, 0xCE, 0xF2, 0xA2, 0x3D, 0xD9, 0x13, 0x0D, 0xD3, 0x2F, 0xE2, 0x15, 0xBB, 0x0A, 0x37, 0x46, 0xC3, 0xE0, 0xEB, 0x44, 0x99, 0x45, 0xCE, 0x68, 0x93, 0xE4, 0x61, 0xF5, 0xC0, 0x43, 0x50, 0x4D, 0x08, 0x4F, 0x48, 0x29, 0x03, 0xB1, 0x93, 0xCE, 0xA6, 0xE9, 0xF0, 0xC7, 0xC1, 0x10, 0x16, 0x37, 0xD6, 0x1D, 0xFB, 0x3D, 0xF5, 0x24, 0xCB, 0x69, 0x0A, 0x12, 0x60, 0xA8, 0xAE, 0x99, 0xC2, 0x9E, 0x1C, 0xC7, 0x20, 0x45, 0x8D, 0xD9, 0x65, 0x01, 0xF4, 0x59, 0x45, 0xF5, 0xFA, 0xCB, 0xF5, 0xA2, 0x81, 0xDA, 0x29, 0x89, 0x1F, 0xD9, 0xF3, 0x04, 0xAE, 0xD4, 0x29, 0xA2, 0xEC, 0x15, 0xD0, 0xD9, 0xCC, 0x96, 0x40, 0x9F, 0xDF, 0x56, 0x1B, 0xCF, 0x9C, 0xEF, 0x16, 0x4C, 0x1D, 0x2D, 0xBB, 0x05, 0xB8, 0xF6, 0x48, 0x46, 0x3A, 0xDE, 0xD9, 0x1D, 0xDE, 0xDB, 0x17, 0x09, 0xE1, 0x0A, 0xEC, 0xDE, 0xE3, 0xCF, 0xB4, 0x34, 0xC0, 0x07, 0xFD, 0x94, 0xF3, 0xE1, 0xC8, 0xD9, 0xA8, 0x0F, 0xE8, 0x04, 0x18, 0x30, 0xAE, 0xC1, 0xA4, 0x4D, 0x4F, 0xC3, 0xF2, 0xDF, 0x19, 0x90, 0x4E, 0xD8, 0xA0, 0x41, 0xA7, 0x66, 0xF9, 0x0C, 0xC8, 0x10, 0xB0, 0xE4, 0xC9, 0x9A, 0xDE, 0x9D, 0x9A, 0x28, 0xB8, 0x27, 0xD5, 0x21, 0x04, 0x03, 0x4E, 0x47, 0xF9, 0x2B, 0x5C, 0xD6, 0xDD, 0xED, 0xB2, 0x48, 0x1D, 0xFD, 0xB9, 0xEB, 0x90, 0x17, 0xDE, 0xC1, 0xA0, 0x35, 0x14, 0x35, 0x19, 0x39, 0xCB, 0x8A, 0xCC, 0xEB, 0xA8, 0xBE, 0xBB, 0x30, 0xA9, 0x3B, 0xEE, 0xA3, 0x11, 0x3C, 0xBC, 0xF2, 0x10, 0xC0, 0xA5, 0x3A, 0x42, 0x1E, 0x81, 0x15, 0xF6, 0x02, 0x2E, 0x4A, 0x1E, 0x93, 0x22, 0xB3, 0x2E, 0x14, 0x16, 0xEA, 0xDE, 0x49, 0x98, 0xC6, 0x3D, 0x4C, 0x04, 0x00, 0x05, 0xDC, 0xF0, 0xAD, 0x9F, 0x8B, 0xC4, 0xD2, 0x52, 0xFE, 0xCF, 0xAB, 0x49, 0xF4, 0x5A, 0xDF, 0x5C, 0xC3, 0xFB, 0x4F, 0x26, 0x6D, 0xE1, 0xA3, 0x1B, 0xB5, 0xF3, 0xDF, 0x12, 0x97, 0xE2, 0xE3, 0x06, 0xAF, 0xCF, 0x08, 0x4E, 0xE3, 0xDE, 0xA1, 0x2B, 0xC0, 0x31, 0x55, 0x60, 0xB6, 0xE9, 0x13, 0x27, 0xD1, 0x27, 0x0D, 0x90, 0xB9, 0x3E, 0x93, 0x33, 0x19, 0x9E, 0xE0, 0x0B, 0xDE, 0x36, 0xFC, 0x50, 0xDE, 0x29, 0xF6, 0x3A, 0x18, 0x11, 0xF8, 0x2F, 0x2C, 0xA6, 0x4D, 0x41, 0xE2, 0xA7, 0xBB, 0x21, 0x53, 0x81, 0xF0, 0x46, 0xA6, 0x1A, 0x16, 0x38, 0x41, 0x12, 0x1F, 0xE1, 0xBC, 0xF1, 0x36, 0xD1, 0xE5, 0x2B, 0x2D, 0x4B, 0x2F, 0xEF, 0xF2, 0xED, 0x5A, 0x36, 0xEF, 0x51, 0xDC, 0x62, 0xF4, 0x2B, 0xB1, 0xE4, 0xEF, 0x1C, 0xE4, 0x54, 0xD3, 0x0C, 0x13, 0x49, 0x60, 0xCB, 0xDD, 0xFA, 0x13, 0xBB, 0xEB, 0x42, 0x04, 0xD6, 0x1D, 0xEF, 0x16, 0x24, 0xB1, 0xD5, 0x42, 0xC1, 0xFA, 0xF8, 0x96, 0x14, 0x0D, 0x21, 0x34, 0xEA, 0xF8, 0x62, 0x42, 0xDD, 0xBF, 0x4C, 0x25, 0xA8, 0xAE, 0xB8, 0x29, 0xA6, 0xB0, 0xB6, 0x40, 0xBC, 0x1D, 0xD3, 0xA7, 0x3E, 0x21, 0xD6, 0xD6, 0xF9, 0x54, 0x58, 0xB2, 0x66, 0xA7, 0xE0, 0xFD, 0x2E, 0xE5, 0x4D, 0x18, 0x31, 0x00, 0xE7, 0xEA, 0x2B, 0xCF, 0xA4, 0x0A, 0xD6, 0x43, 0xA4, 0x26, 0x23, 0xF3, 0x06, 0x38, 0x60, 0xF5, 0x34, 0x57, 0x1C, 0xF7, 0xAA, 0x2D, 0x07, 0xF4, 0xF1, 0xBB, 0x2D, 0x05, 0xBE, 0x50, 0x2A, 0x87, 0xF9, 0x5D, 0x3A, 0xB4, 0xE9, 0x6B, 0xC2, 0xC3, 0x3A, 0xFB, 0xBE, 0x0C, 0xFC, 0x81, 0x3C, 0x45, 0xA9, 0x08, 0x97, 0x1F, 0xD5, 0x9D, 0x8F, 0xC4, 0x45, 0xD0, 0xE5, 0x99, 0x97, 0x8D, 0x40, 0x42, 0x57, 0xF5, 0xF6, 0x37, 0xE8, 0xEB, 0x62, 0xFE, 0x4A, 0xC6, 0x59, 0xFE, 0x0E, 0xF5, 0x5A, 0x36, 0x4D, 0x31, 0xA7, 0xC7, 0x2A, 0xDD, 0x08, 0xBF, 0x2F, 0xEB, 0x59, 0xFD, 0x2E, 0x8E, 0x9B, 0x32, 0x4A, 0x24, 0xE7, 0xEE, 0x53, 0x19, 0x5E, 0x17, 0x94, 0xF4, 0x43, 0xE9, 0x05, 0x25, 0xBE, 0xC6, 0x2B, 0x90, 0xE7, 0x43, 0x58, 0x4D, 0xCA, 0x9F, 0xE7, 0xE1, 0xE3, 0x2A, 0xD0, 0x0E, 0xE4, 0xB2, 0x61, 0x4A, 0xD3, 0xFD, 0x60, 0x29, 0xE5, 0xD2, 0x0B, 0x1B, 0x61, 0xEB, 0x9C, 0x6E, 0xA9, 0xA0, 0x17, 0x34, 0x01, 0xD8, 0x23, 0xBB, 0x91, 0x14, 0x5E, 0xFA, 0x92, 0x1D, 0xCE, 0xD2, 0xCD, 0x03, 0x0D, 0xA4, 0xBB, 0xEE, 0xC4, 0x52, 0x15, 0x52, 0x6F, 0x55, 0x01, 0xEF, 0xBB, 0xAC, 0xFF, 0x30, 0xA2, 0xC9, 0xBC, 0x04, 0x09, 0x0E, 0x12, 0x9F, 0xDB, 0x9D, 0x43, 0xE7, 0x9F, 0xEE, 0xBB, 0xC5, 0xDC, 0xE0, 0x05, 0xD9, 0x38, 0x63, 0x9F, 0xCC, 0x29, 0xEC, 0xFD, 0x50, 0x23, 0x56, 0x21, 0xBB, 0x04, 0xB0, 0xA6, 0xDE, 0xFD, 0x35, 0x36, 0xA5, 0x92, 0xF2, 0xD7, 0x3D, 0x06, 0xF2, 0x60, 0x09, 0xE1, 0xCD, 0x62, 0x07, 0x9E, 0xDB, 0x11, 0x02, 0xDE, 0xDC, 0x1D, 0xF1, 0x36, 0xB2, 0x37, 0x1F, 0xFD, 0x3D, 0x8A, 0x06, 0x81, 0x29, 0xAE, 0xA9, 0xA2, 0xC5, 0x8F, 0x10, 0x52, 0x11, 0x08, 0xA1, 0x0F, 0x3F, 0xD2, 0xD3, 0x34, 0xFF, 0x1B, 0xB8, 0xD3, 0x38, 0x49, 0xD6, 0x22, 0x7A, 0x69, 0x01, 0xFE, 0xEE, 0x09, 0x64, 0xDA, 0xB8, 0x36, 0xDD, 0x0E, 0x4A, 0x37, 0xD5, 0x09, 0xEE, 0xFF, 0x51, 0x54, 0x1A, 0x0D, 0x2C, 0x47, 0xED, 0x01, 0x9B, 0xA4, 0x09, 0x2B, 0x53, 0x4F, 0xF1, 0xD5, 0x22, 0xEE, 0x32, 0xAF, 0xDA, 0xBC, 0x0D, 0xFA, 0x1B, 0x1A, 0xED, 0x89, 0x0B, 0x1B, 0xC0, 0x1F, 0xF7, 0xFB, 0xD5, 0x3A, 0xCD, 0x11, 0x38, 0x10, 0x41, 0x59, 0x23, 0x88, 0x3A, 0xEB, 0x10, 0xB3, 0x8E, 0xAF, 0xB3, 0xEB, 0xC1, 0x0E, 0x21, 0xF6, 0xCB, 0xC6, 0xD2, 0xCA, 0xBF, 0xD4, 0x30, 0x22, 0xF8, 0x43, 0x21, 0x59, 0x61, 0x33, 0x61, 0xF5, 0xDA, 0x25, 0xEC, 0xCE, 0x81, 0x36, 0xD5, 0xB5, 0xE0, 0x88, 0xA0, 0xBB, 0x1E, 0x50, 0x62, 0x3B, 0xC7, 0x38, 0xCB, 0xB3, 0xD6, 0x1B, 0xFF, 0xF8, 0x1A, 0xD6, 0xE6, 0xDA, 0x34, 0x06, 0xCC, 0x1C, 0x28, 0x4C, 0xA7, 0x99, 0x18, 0xBC, 0xDC, 0x9F, 0x81, 0x26, 0x3C, 0xC0, 0x38, 0x86, 0x29, 0x0C, 0x39, 0xE1, 0xA2, 0x4A, 0xC4, 0x1D, 0x4A, 0x2A, 0x15, 0x31, 0xB7, 0x3B, 0x9A, 0xA2, 0x9E, 0xD6, 0x8C, 0x20, 0xBA, 0x07, 0x40, 0x90, 0xB7, 0xCB, 0xC0, 0x49, 0x53, 0x03, 0x97, 0x0C, 0xBF, 0x0C, 0xFC, 0x0E, 0x58, 0x04, 0xDD, 0xA7, 0xB4, 0xEF, 0xE4, 0xE0, 0x9F, 0x2A, 0x9C, 0x40, 0x42, 0xD6, 0xC9, 0x1D, 0xC2, 0x72, 0xE8, 0xFF, 0xFF, 0x00, 0x00, 0x00, 0x09, 0x10, 0x00, 0x00, 0x00, 0x10, 0x00, 0x00, 0x00, 0x1C, 0x00, 0x00, 0x00, 0x8C, 0x00, 0x00, 0x00, 0x04, 0x00, 0x00, 0x00, 0x10, 0x00, 0x00, 0x00, 0x03, 0x00, 0x00, 0x00, 0x03, 0x00, 0x00, 0x00, 0x10, 0x00, 0x00, 0x00, 0x6F, 0x00, 0x00, 0x00, 0x73, 0x65, 0x71, 0x75, 0x65, 0x6E, 0x74, 0x69, 0x61, 0x6C, 0x5F, 0x31, 0x2F, 0x71, 0x75, 0x61, 0x6E, 0x74, 0x5F, 0x63, 0x6F, 0x6E, 0x76, 0x32, 0x64, 0x5F, 0x37, 0x2F, 0x43, 0x6F, 0x6E, 0x76, 0x32, 0x44, 0x3B, 0x73, 0x65, 0x71, 0x75, 0x65, 0x6E, 0x74, 0x69, 0x61, 0x6C, 0x5F, 0x31, 0x2F, 0x71, 0x75, 0x61, 0x6E, 0x74, 0x5F, 0x63, 0x6F, 0x6E, 0x76, 0x32, 0x64, 0x5F, 0x37, 0x2F, 0x4C, 0x61, 0x73, 0x74, 0x56, 0x61, 0x6C, 0x75, 0x65, 0x51, 0x75, 0x61, 0x6E, 0x74, 0x2F, 0x46, 0x61, 0x6B, 0x65, 0x51, 0x75, 0x61, 0x6E, 0x74, 0x57, 0x69, 0x74, 0x68, 0x4D, 0x69, 0x6E, 0x4D, 0x61, 0x78, 0x56, 0x61, 0x72, 0x73, 0x50, 0x65, 0x72, 0x43, 0x68, 0x61, 0x6E, 0x6E, 0x65, 0x6C, 0x00, 0x60, 0xE9, 0xFF, 0xFF, 0x08, 0x00, 0x00, 0x00, 0x48, 0x00, 0x00, 0x00, 0x10, 0x00, 0x00, 0x00, 0x8F, 0x53, 0xC4, 0x3A, 0xB6, 0x5C, 0xA5, 0x3A, 0x52, 0xD2, 0xBE, 0x3A, 0xC9, 0x99, 0xA9, 0x3A, 0x56, 0xCF, 0xAF, 0x3A, 0x42, 0xA4, 0xAF, 0x3A, 0x98, 0x86, 0xC0, 0x3A, 0xFD, 0xC9, 0xC4, 0x3A, 0x77, 0x91, 0xB7, 0x3A, 0x87, 0x42, 0xB9, 0x3A, 0x0B, 0x69, 0xB2, 0x3A, 0xB5, 0x27, 0xA8, 0x3A, 0x45, 0x92, 0xBC, 0x3A, 0x66, 0x56, 0xA7, 0x3A, 0xEC, 0x12, 0xAB, 0x3A, 0x8E, 0xF9, 0xB0, 0x3A, 0x10, 0x00, 0x00, 0x00, 0x00, 0x00, 0x00, 0x00, 0x00, 0x00, 0x00, 0x00, 0x00, 0x00, 0x00, 0x00, 0x00, 0x00, 0x00, 0x00, 0x00, 0x00, 0x00, 0x00, 0x00, 0x00, 0x00, 0x00, 0x00, 0x00, 0x00, 0x00, 0x00, 0x00, 0x00, 0x00, 0x00, 0x00, 0x00, 0x00, 0x00, 0x00, 0x00, 0x00, 0x00, 0x00, 0x00, 0x00, 0x00, 0x00, 0x00, 0x00, 0x00, 0x00, 0x00, 0x00, 0x00, 0x00, 0x00, 0x00, 0x00, 0x00, 0x00, 0x00, 0x00, 0x00, 0x00, 0x00, 0x00, 0x00, 0x00, 0x00, 0x00, 0x00, 0x00, 0x00, 0x00, 0x00, 0x00, 0x00, 0x00, 0x00, 0x00, 0x00, 0x00, 0x00, 0x00, 0x00, 0x00, 0x00, 0x00, 0x00, 0x00, 0x00, 0x00, 0x00, 0x00, 0x00, 0x00, 0x00, 0x00, 0x00, 0x00, 0x00, 0x00, 0x00, 0x00, 0x00, 0x00, 0x00, 0x00, 0x00, 0x00, 0x00, 0x00, 0x00, 0x00, 0x00, 0x00, 0x00, 0x00, 0x00, 0x00, 0x00, 0x00, 0x00, 0x00, 0x00, 0x00, 0x00, 0x00, 0x00, 0x6E, 0xEF, 0xFF, 0xFF, 0x00, 0x00, 0x00, 0x05, 0x02, 0x00, 0x00, 0x00, 0x28, 0x00, 0x00, 0x00, 0x1C, 0x00, 0x00, 0x00, 0x04, 0x00, 0x00, 0x00, 0x5E, 0xF0, 0xFF, 0xFF, 0x02, 0x00, 0x00, 0x00, 0x02, 0x00, 0x00, 0x00, 0x02, 0x00, 0x00, 0x00, 0x02, 0x00, 0x00, 0x00, 0x01, 0x00, 0x00, 0x00, 0x0E, 0x00, 0x00, 0x00, 0x01, 0x00, 0x00, 0x00, 0x0D, 0x00, 0x00, 0x00, 0xD0, 0xEB, 0xFF, 0xFF, 0x00, 0x00, 0x00, 0x09, 0x14, 0x00, 0x00, 0x00, 0x0F, 0x00, 0x00, 0x00, 0x34, 0x00, 0x00, 0x00, 0x60, 0x00, 0x00, 0x00, 0x18, 0x00, 0x00, 0x00, 0x04, 0x00, 0x00, 0x00, 0x01, 0x00, 0x00, 0x00, 0x05, 0x00, 0x00, 0x00, 0x21, 0x00, 0x00, 0x00, 0x10, 0x00, 0x00, 0x00, 0x04, 0x00, 0x00, 0x00, 0xFF, 0xFF, 0xFF, 0xFF, 0x05, 0x00, 0x00, 0x00, 0x21, 0x00, 0x00, 0x00, 0x10, 0x00, 0x00, 0x00, 0x2A, 0x00, 0x00, 0x00, 0x73, 0x65, 0x71, 0x75, 0x65, 0x6E, 0x74, 0x69, 0x61, 0x6C, 0x5F, 0x31, 0x2F, 0x71, 0x75, 0x61, 0x6E, 0x74, 0x5F, 0x6D, 0x61, 0x78, 0x5F, 0x70, 0x6F, 0x6F, 0x6C, 0x69, 0x6E, 0x67, 0x32, 0x64, 0x5F, 0x36, 0x2F, 0x4D, 0x61, 0x78, 0x50, 0x6F, 0x6F, 0x6C, 0x00, 0x00, 0xE4, 0xEA, 0xFF, 0xFF, 0x08, 0x00, 0x00, 0x00, 0x0C, 0x00, 0x00, 0x00, 0x01, 0x00, 0x00, 0x00, 0xA4, 0xF3, 0x43, 0x41, 0x01, 0x00, 0x00, 0x00, 0x80, 0xFF, 0xFF, 0xFF, 0xFF, 0xFF, 0xFF, 0xFF, 0x00, 0x00, 0x00, 0x00, 0x42, 0xF0, 0xFF, 0xFF, 0x00, 0x00, 0x00, 0x01, 0x01, 0x00, 0x00, 0x00, 0x24, 0x00, 0x00, 0x00, 0x18, 0x00, 0x00, 0x00, 0x04, 0x00, 0x00, 0x00, 0x34, 0xF0, 0xFF, 0xFF, 0x01, 0x00, 0x00, 0x00, 0x01, 0x00, 0x00, 0x00, 0x00, 0x00, 0x00, 0x01, 0x01, 0x00, 0x00, 0x00, 0x0D, 0x00, 0x00, 0x00, 0x03, 0x00, 0x00, 0x00, 0x0A, 0x00, 0x00, 0x00, 0x0B, 0x00, 0x00, 0x00, 0x0C, 0x00, 0x00, 0x00, 0xA8, 0xEC, 0xFF, 0xFF, 0x00, 0x00, 0x00, 0x09, 0x14, 0x00, 0x00, 0x00, 0x0E, 0x00, 0x00, 0x00, 0x34, 0x00, 0x00, 0x00, 0xD8, 0x00, 0x00, 0x00, 0x18, 0x00, 0x00, 0x00, 0x04, 0x00, 0x00, 0x00, 0x01, 0x00, 0x00, 0x00, 0x09, 0x00, 0x00, 0x00, 0x41, 0x00, 0x00, 0x00, 0x10, 0x00, 0x00, 0x00, 0x04, 0x00, 0x00, 0x00, 0xFF, 0xFF, 0xFF, 0xFF, 0x09, 0x00, 0x00, 0x00, 0x41, 0x00, 0x00, 0x00, 0x10, 0x00, 0x00, 0x00, 0xA3, 0x00, 0x00, 0x00, 0x73, 0x65, 0x71, 0x75, 0x65, 0x6E, 0x74, 0x69, 0x61, 0x6C, 0x5F, 0x31, 0x2F, 0x71, 0x75, 0x61, 0x6E, 0x74, 0x5F, 0x63, 0x6F, 0x6E, 0x76, 0x32, 0x64, 0x5F, 0x36, 0x2F, 0x52, 0x65, 0x6C, 0x75, 0x3B, 0x73, 0x65, 0x71, 0x75, 0x65, 0x6E, 0x74, 0x69, 0x61, 0x6C, 0x5F, 0x31, 0x2F, 0x71, 0x75, 0x61, 0x6E, 0x74, 0x5F, 0x63, 0x6F, 0x6E, 0x76, 0x32, 0x64, 0x5F, 0x36, 0x2F, 0x42, 0x69, 0x61, 0x73, 0x41, 0x64, 0x64, 0x3B, 0x73, 0x65, 0x71, 0x75, 0x65, 0x6E, 0x74, 0x69, 0x61, 0x6C, 0x5F, 0x31, 0x2F, 0x71, 0x75, 0x61, 0x6E, 0x74, 0x5F, 0x63, 0x6F, 0x6E, 0x76, 0x32, 0x64, 0x5F, 0x36, 0x2F, 0x43, 0x6F, 0x6E, 0x76, 0x32, 0x44, 0x3B, 0x73, 0x65, 0x71, 0x75, 0x65, 0x6E, 0x74, 0x69, 0x61, 0x6C, 0x5F, 0x31, 0x2F, 0x71, 0x75, 0x61, 0x6E, 0x74, 0x5F, 0x63, 0x6F, 0x6E, 0x76, 0x32, 0x64, 0x5F, 0x36, 0x2F, 0x42, 0x69, 0x61, 0x73, 0x41, 0x64, 0x64, 0x2F, 0x52, 0x65, 0x61, 0x64, 0x56, 0x61, 0x72, 0x69, 0x61, 0x62, 0x6C, 0x65, 0x4F, 0x70, 0x2F, 0x72, 0x65, 0x73, 0x6F, 0x75, 0x72, 0x63, 0x65, 0x00, 0x34, 0xEC, 0xFF, 0xFF, 0x08, 0x00, 0x00, 0x00, 0x0C, 0x00, 0x00, 0x00, 0x01, 0x00, 0x00, 0x00, 0xA4, 0xF3, 0x43, 0x41, 0x01, 0x00, 0x00, 0x00, 0x80, 0xFF, 0xFF, 0xFF, 0xFF, 0xFF, 0xFF, 0xFF, 0x22, 0xEC, 0xFF, 0xFF, 0x04, 0x00, 0x00, 0x00, 0x40, 0x00, 0x00, 0x00, 0xFD, 0xFF, 0xFF, 0xFF, 0x00, 0x00, 0x00, 0x00, 0x00, 0x00, 0x00, 0x00, 0x01, 0x00, 0x00, 0x00, 0xFE, 0xFF, 0xFF, 0xFF, 0x01, 0x00, 0x00, 0x00, 0x03, 0x00, 0x00, 0x00, 0xFE, 0xFF, 0xFF, 0xFF, 0xFF, 0xFF, 0xFF, 0xFF, 0x00, 0x00, 0x00, 0x00, 0xFF, 0xFF, 0xFF, 0xFF, 0x03, 0x00, 0x00, 0x00, 0xFF, 0xFF, 0xFF, 0xFF, 0xFD, 0xFF, 0xFF, 0xFF, 0x01, 0x00, 0x00, 0x00, 0xFD, 0xFF, 0xFF, 0xFF, 0x52, 0xEC, 0xFF, 0xFF, 0x00, 0x00, 0x00, 0x02, 0x10, 0x00, 0x00, 0x00, 0x0D, 0x00, 0x00, 0x00, 0x10, 0x00, 0x00, 0x00, 0x94, 0x00, 0x00, 0x00, 0x01, 0x00, 0x00, 0x00, 0x10, 0x00, 0x00, 0x00, 0x82, 0x00, 0x00, 0x00, 0x73, 0x65, 0x71, 0x75, 0x65, 0x6E, 0x74, 0x69, 0x61, 0x6C, 0x5F, 0x31, 0x2F, 0x71, 0x75, 0x61, 0x6E, 0x74, 0x5F, 0x63, 0x6F, 0x6E, 0x76, 0x32, 0x64, 0x5F, 0x36, 0x2F, 0x42, 0x69, 0x61, 0x73, 0x41, 0x64, 0x64, 0x3B, 0x73, 0x65, 0x71, 0x75, 0x65, 0x6E, 0x74, 0x69, 0x61, 0x6C, 0x5F, 0x31, 0x2F, 0x71, 0x75, 0x61, 0x6E, 0x74, 0x5F, 0x63, 0x6F, 0x6E, 0x76, 0x32, 0x64, 0x5F, 0x36, 0x2F, 0x43, 0x6F, 0x6E, 0x76, 0x32, 0x44, 0x3B, 0x73, 0x65, 0x71, 0x75, 0x65, 0x6E, 0x74, 0x69, 0x61, 0x6C, 0x5F, 0x31, 0x2F, 0x71, 0x75, 0x61, 0x6E, 0x74, 0x5F, 0x63, 0x6F, 0x6E, 0x76, 0x32, 0x64, 0x5F, 0x36, 0x2F, 0x42, 0x69, 0x61, 0x73, 0x41, 0x64, 0x64, 0x2F, 0x52, 0x65, 0x61, 0x64, 0x56, 0x61, 0x72, 0x69, 0x61, 0x62, 0x6C, 0x65, 0x4F, 0x70, 0x2F, 0x72, 0x65, 0x73, 0x6F, 0x75, 0x72, 0x63, 0x65, 0x00, 0x00, 0x48, 0xED, 0xFF, 0xFF, 0x08, 0x00, 0x00, 0x00, 0x48, 0x00, 0x00, 0x00, 0x10, 0x00, 0x00, 0x00, 0x7A, 0xEC, 0xE0, 0x3D, 0xA1, 0xB7, 0xAE, 0x3D, 0x35, 0xE4, 0xBB, 0x3D, 0xD8, 0x8B, 0xB2, 0x3D, 0x51, 0x4A, 0xB6, 0x3D, 0x0B, 0xA7, 0xBF, 0x3D, 0x51, 0x2F, 0xB6, 0x3D, 0x44, 0x25, 0xD7, 0x3D, 0x3E, 0x7D, 0xA3, 0x3D, 0x97, 0x06, 0xB7, 0x3D, 0x57, 0xFD, 0xBA, 0x3D, 0xB8, 0xFA, 0xC4, 0x3D, 0x3D, 0xE4, 0xAF, 0x3D, 0xF6, 0xF9, 0xA9, 0x3D, 0x54, 0x79, 0xBA, 0x3D, 0xD6, 0x72, 0xC2, 0x3D, 0x10, 0x00, 0x00, 0x00, 0x00, 0x00, 0x00, 0x00, 0x00, 0x00, 0x00, 0x00, 0x00, 0x00, 0x00, 0x00, 0x00, 0x00, 0x00, 0x00, 0x00, 0x00, 0x00, 0x00, 0x00, 0x00, 0x00, 0x00, 0x00, 0x00, 0x00, 0x00, 0x00, 0x00, 0x00, 0x00, 0x00, 0x00, 0x00, 0x00, 0x00, 0x00, 0x00, 0x00, 0x00, 0x00, 0x00, 0x00, 0x00, 0x00, 0x00, 0x00, 0x00, 0x00, 0x00, 0x00, 0x00, 0x00, 0x00, 0x00, 0x00, 0x00, 0x00, 0x00, 0x00, 0x00, 0x00, 0x00, 0x00, 0x00, 0x00, 0x00, 0x00, 0x00, 0x00, 0x00, 0x00, 0x00, 0x00, 0x00, 0x00, 0x00, 0x00, 0x00, 0x00, 0x00, 0x00, 0x00, 0x00, 0x00, 0x00, 0x00, 0x00, 0x00, 0x00, 0x00, 0x00, 0x00, 0x00, 0x00, 0x00, 0x00, 0x00, 0x00, 0x00, 0x00, 0x00, 0x00, 0x00, 0x00, 0x00, 0x00, 0x00, 0x00, 0x00, 0x00, 0x00, 0x00, 0x00, 0x00, 0x00, 0x00, 0x00, 0x00, 0x00, 0x00, 0x00, 0x00, 0x00, 0x00, 0x00, 0x00, 0xEA, 0xED, 0xFF, 0xFF, 0x04, 0x00, 0x00, 0x00, 0x80, 0x04, 0x00, 0x00, 0xE3, 0xD4, 0x2C, 0x2A, 0x2F, 0xED, 0x3C, 0x2F, 0x2D, 0xC4, 0xF4, 0xD4, 0x35, 0x1C, 0x28, 0x03, 0xCE, 0x3B, 0x35, 0x06, 0x1B, 0xDA, 0x3D, 0xBF, 0xE6, 0xC1, 0xAF, 0xF6, 0xD2, 0x17, 0x34, 0xB6, 0x81, 0x2A, 0x9F, 0xBC, 0xC7, 0xEE, 0xD4, 0xDA, 0x9E, 0xCD, 0x55, 0x48, 0x35, 0x1C, 0xC9, 0xFF, 0xB3, 0x00, 0x04, 0xED, 0x43, 0xF9, 0x32, 0x0C, 0xD3, 0xCD, 0x31, 0x0D, 0x23, 0x0C, 0xCD, 0x42, 0x25, 0x59, 0xF6, 0x94, 0x00, 0x2D, 0x45, 0x07, 0xF3, 0xE0, 0xDB, 0x11, 0xF7, 0x27, 0x59, 0x26, 0xE7, 0x25, 0xEE, 0x9B, 0x12, 0xBF, 0x2F, 0xC3, 0xF2, 0x2D, 0xB7, 0x94, 0x8E, 0xB4, 0xF2, 0x8C, 0x36, 0x0D, 0x01, 0x54, 0x94, 0x19, 0xED, 0x0A, 0xA9, 0x15, 0x8B, 0xF0, 0xB9, 0x98, 0xE8, 0x69, 0x36, 0x55, 0x52, 0xDD, 0x9A, 0xF2, 0x96, 0x3F, 0xE9, 0x13, 0x47, 0x2F, 0x47, 0x2E, 0xB5, 0xF9, 0x06, 0xE7, 0xEB, 0xA0, 0xFE, 0x42, 0xB8, 0x18, 0x68, 0xA1, 0x4A, 0x4B, 0x26, 0xC6, 0x81, 0x5C, 0x8E, 0x00, 0x19, 0x0D, 0xE3, 0xA3, 0xC8, 0xE3, 0x8A, 0x22, 0xF9, 0xD7, 0x31, 0x89, 0xB2, 0x57, 0xB4, 0x21, 0xEC, 0x38, 0x4E, 0xD6, 0x1E, 0x23, 0xCB, 0xF4, 0x1A, 0xCD, 0x44, 0xDE, 0xA6, 0x62, 0xD5, 0xB0, 0xAE, 0xFC, 0x9C, 0xE2, 0x44, 0x42, 0x50, 0x4A, 0xAA, 0x95, 0x24, 0x40, 0x00, 0x1A, 0xA4, 0x9E, 0xDF, 0x6A, 0x4A, 0xD4, 0xEA, 0x4F, 0xBD, 0xA7, 0xEC, 0x25, 0x18, 0x5D, 0x3B, 0xC9, 0x81, 0x06, 0x4C, 0x19, 0x10, 0x1C, 0x0A, 0xBB, 0x42, 0x4C, 0xFB, 0x24, 0x06, 0x3B, 0x9C, 0x83, 0x48, 0x44, 0x5F, 0x30, 0x98, 0x92, 0xDE, 0x0F, 0x17, 0xF2, 0xDF, 0x44, 0xBE, 0xB8, 0x21, 0xE8, 0xDF, 0x45, 0xA1, 0x1C, 0x1F, 0xC3, 0x0A, 0x49, 0xA3, 0xD9, 0x2A, 0x10, 0x9A, 0xC0, 0xAC, 0x97, 0x13, 0xEE, 0xC3, 0x2E, 0xA6, 0xDA, 0x1E, 0x39, 0xAC, 0x68, 0x17, 0xB0, 0x16, 0xA0, 0x13, 0xD2, 0xDC, 0x4D, 0xC2, 0xDC, 0xD6, 0x40, 0x51, 0x81, 0x00, 0x58, 0x7A, 0xE1, 0x51, 0xA9, 0xBA, 0x53, 0x45, 0xD0, 0xD5, 0xE7, 0xCA, 0x16, 0x18, 0x39, 0xE3, 0x02, 0x96, 0xA0, 0xCC, 0x3F, 0xF7, 0x60, 0x19, 0x26, 0x24, 0xD0, 0xBC, 0xD9, 0x5B, 0x99, 0x0F, 0xB1, 0xFC, 0x3B, 0xF8, 0xC7, 0x6A, 0x12, 0x2F, 0x43, 0x93, 0x28, 0xDD, 0x9D, 0x89, 0x09, 0x97, 0x25, 0x4A, 0xAF, 0x0A, 0xFF, 0xAC, 0x4C, 0x30, 0xDA, 0x4B, 0x2B, 0xA6, 0xDD, 0x23, 0xA4, 0xF5, 0x1F, 0xA0, 0x2E, 0x9A, 0xF4, 0x43, 0x81, 0x24, 0xA6, 0xAB, 0xFA, 0x36, 0x42, 0xC5, 0x88, 0x42, 0x8F, 0xF4, 0x1A, 0xE7, 0x06, 0x23, 0x4A, 0x10, 0x00, 0xE4, 0x9D, 0x9E, 0xC0, 0x1B, 0xC6, 0x81, 0xFB, 0x31, 0x24, 0xE5, 0x0E, 0xFB, 0x42, 0x53, 0x47, 0x0A, 0x8E, 0x9F, 0x3F, 0x9B, 0x3D, 0xAF, 0xB0, 0xF9, 0x19, 0x81, 0x99, 0x20, 0xC3, 0xB0, 0xB7, 0xD3, 0xA4, 0x4F, 0x27, 0x4E, 0x27, 0x1C, 0xBD, 0xDE, 0x63, 0x0C, 0xEF, 0x16, 0x8C, 0x0A, 0xC0, 0x4E, 0x30, 0xAC, 0x28, 0x21, 0x4F, 0x97, 0x44, 0x05, 0xEA, 0x93, 0xD2, 0x3F, 0x92, 0x62, 0x7C, 0xE8, 0x0C, 0x90, 0xF4, 0x5F, 0x10, 0xCD, 0xC0, 0x57, 0xF3, 0x21, 0x26, 0xCE, 0x8C, 0xBD, 0x0C, 0x81, 0x3E, 0xFF, 0x46, 0x44, 0xBC, 0x32, 0xC9, 0x26, 0xDD, 0xFC, 0x30, 0x99, 0xD3, 0x94, 0xDE, 0x0E, 0xD2, 0x10, 0x22, 0xE8, 0xBA, 0xEF, 0xA9, 0xF7, 0xA8, 0xFF, 0x09, 0xF2, 0xAE, 0x5C, 0x0D, 0x3B, 0x00, 0xFF, 0xBF, 0xBC, 0x0A, 0x2F, 0xF2, 0x54, 0xB7, 0x92, 0xEC, 0xB3, 0xF2, 0xE9, 0x65, 0xE3, 0x10, 0xE9, 0x0B, 0x47, 0x1A, 0xD5, 0x10, 0x43, 0xDD, 0x3B, 0x46, 0xDE, 0xF5, 0x49, 0xAF, 0xFE, 0x54, 0xF0, 0xA7, 0x30, 0x9D, 0xEE, 0x81, 0x60, 0xE9, 0x4B, 0x14, 0xA9, 0xD3, 0x0E, 0x36, 0x27, 0x12, 0x45, 0xB5, 0x12, 0x00, 0xBB, 0xB7, 0xE9, 0xBE, 0x36, 0x27, 0x4D, 0x27, 0x25, 0xD5, 0xF7, 0x21, 0x07, 0xD4, 0x16, 0x2F, 0x45, 0x2A, 0xE3, 0x36, 0xB7, 0x2A, 0x44, 0xF3, 0xA1, 0x9F, 0x1F, 0xD3, 0xCB, 0xEB, 0x2D, 0xED, 0xF9, 0xFD, 0xE6, 0x22, 0xC9, 0xE9, 0x13, 0xD4, 0xB0, 0xB3, 0x13, 0xC5, 0x67, 0xC0, 0xC4, 0xEF, 0xF7, 0x12, 0x67, 0x1A, 0x4F, 0x39, 0xB3, 0x10, 0xD7, 0xCB, 0xAE, 0x20, 0xF3, 0x36, 0x63, 0xBC, 0x60, 0x03, 0x9B, 0xEA, 0x85, 0xE7, 0x8C, 0x4D, 0xF5, 0x07, 0x5D, 0xF7, 0xC3, 0x00, 0xFB, 0x5B, 0x26, 0xEA, 0x21, 0xA0, 0x58, 0x3D, 0x5D, 0x9B, 0xA8, 0xEC, 0x9A, 0x81, 0xD8, 0x1F, 0x00, 0x56, 0x3C, 0x55, 0x2A, 0xFD, 0x0B, 0x4B, 0x23, 0x4F, 0xE4, 0xC2, 0x5D, 0x4F, 0x52, 0xA8, 0xD2, 0x31, 0x8E, 0x51, 0xC9, 0x0B, 0xA6, 0x02, 0x16, 0xE9, 0x40, 0x6F, 0xD5, 0x18, 0xE6, 0xC0, 0xD1, 0x5A, 0xF2, 0xD3, 0x4B, 0xD9, 0xAB, 0x8A, 0xDB, 0x53, 0x22, 0xC2, 0xFC, 0xB6, 0xD2, 0x4A, 0x5D, 0x3B, 0xD9, 0xB4, 0x19, 0xF9, 0xF3, 0x64, 0xAB, 0xFE, 0xAA, 0x02, 0x61, 0x47, 0x44, 0xD3, 0xF6, 0x9D, 0x71, 0xF0, 0x9D, 0xFB, 0x4B, 0x18, 0xFE, 0xED, 0x36, 0xA4, 0x02, 0x33, 0xCE, 0x66, 0x2F, 0x94, 0x15, 0xFD, 0x7F, 0x21, 0xC7, 0xA6, 0x07, 0xE9, 0xF8, 0xBF, 0x3F, 0x81, 0x98, 0x12, 0x08, 0x82, 0xB2, 0xE2, 0x17, 0xBD, 0x03, 0x94, 0x40, 0x2C, 0x50, 0xB1, 0x9D, 0x54, 0xEB, 0xFB, 0x5B, 0xF5, 0xC8, 0xCD, 0xB5, 0x11, 0xDF, 0xC6, 0x27, 0x15, 0xFB, 0x17, 0x35, 0xA9, 0x53, 0xF7, 0x4E, 0x2C, 0xB9, 0xB1, 0xEC, 0x92, 0xB5, 0xB2, 0x16, 0x42, 0x48, 0xB4, 0xC1, 0xA5, 0xF3, 0x3B, 0x05, 0xF8, 0x0A, 0x19, 0x19, 0x2F, 0x23, 0xFA, 0x07, 0xF3, 0x10, 0xD5, 0x07, 0x3C, 0x56, 0xBC, 0x39, 0xE2, 0x39, 0xC7, 0xE4, 0x2D, 0xA0, 0xF9, 0x38, 0xE4, 0x06, 0xFD, 0xAF, 0x54, 0xEC, 0xF7, 0x3F, 0xC6, 0x0B, 0xF2, 0x3D, 0xD2, 0xFE, 0x44, 0x2C, 0x47, 0xD3, 0x9D, 0xC6, 0x18, 0xDD, 0x06, 0xF5, 0xCF, 0xC5, 0xC5, 0x5D, 0x3A, 0xA7, 0xF7, 0xDE, 0x3F, 0x57, 0x20, 0xBC, 0xF4, 0x30, 0x02, 0x1C, 0xA8, 0xD0, 0xFC, 0x98, 0x19, 0x48, 0xE1, 0x57, 0x57, 0x1D, 0xF8, 0x02, 0x51, 0x81, 0xBA, 0xD7, 0xDF, 0x43, 0x65, 0xE9, 0x0F, 0xEE, 0xCB, 0xC4, 0x4F, 0xAD, 0x1A, 0x53, 0xB6, 0xF6, 0x56, 0xDE, 0xDC, 0x3E, 0xE0, 0x18, 0x4F, 0xD9, 0xFB, 0x54, 0x48, 0x02, 0x91, 0xC2, 0x30, 0xF5, 0x81, 0x41, 0xF6, 0x89, 0xB4, 0xD3, 0x5E, 0x4E, 0x17, 0xB3, 0xCC, 0xCD, 0x15, 0x81, 0x2A, 0xD9, 0x1D, 0x00, 0xBF, 0x50, 0x84, 0x0E, 0xEB, 0x22, 0x01, 0x31, 0x85, 0xAF, 0x0C, 0x30, 0x2D, 0x2B, 0x13, 0x69, 0x17, 0x55, 0xE5, 0x59, 0x24, 0x95, 0xBE, 0x12, 0x18, 0x2E, 0xA6, 0xC8, 0xE6, 0x05, 0x0F, 0x07, 0x3D, 0xBD, 0x1D, 0xF0, 0x3E, 0xBE, 0xA6, 0xE8, 0x81, 0x87, 0x13, 0x0D, 0x63, 0xA8, 0x4C, 0xE6, 0xE4, 0x1A, 0x84, 0x44, 0x51, 0x40, 0xE9, 0xE2, 0x63, 0x68, 0x49, 0xE4, 0x27, 0x31, 0x95, 0x32, 0xB8, 0x45, 0xB3, 0x0D, 0x0E, 0xDF, 0x43, 0xA2, 0x53, 0xE1, 0x44, 0x6C, 0x1A, 0x0B, 0xF2, 0xD0, 0xDA, 0xE9, 0x2C, 0x98, 0xD3, 0xD5, 0x9F, 0x57, 0xB0, 0x11, 0x29, 0xC5, 0x33, 0x0D, 0xB2, 0xF3, 0x03, 0xF4, 0x28, 0xA2, 0xA3, 0x3A, 0x21, 0x5F, 0x6F, 0xB5, 0x9B, 0xBF, 0xED, 0x22, 0x01, 0x81, 0x49, 0x20, 0x44, 0xE8, 0x0E, 0xDE, 0x11, 0x39, 0xF7, 0x45, 0x94, 0x8E, 0x4E, 0x15, 0x2D, 0xAE, 0x46, 0xAD, 0x44, 0x53, 0x8E, 0xEC, 0x9C, 0x98, 0xF2, 0x25, 0xCD, 0xA3, 0xFF, 0x58, 0x57, 0x89, 0xC8, 0x2D, 0xCC, 0xF5, 0xB1, 0xE9, 0x4F, 0xB7, 0x9E, 0x54, 0xFB, 0xCF, 0xC6, 0x84, 0xBE, 0x2E, 0x50, 0x55, 0xC8, 0x4F, 0x58, 0x16, 0x9A, 0x28, 0x1C, 0xA1, 0x9F, 0x9C, 0xC8, 0xFD, 0x96, 0x03, 0xD5, 0x62, 0x9E, 0x37, 0x3D, 0xBE, 0xDD, 0x43, 0x19, 0xCD, 0xA5, 0xD1, 0x07, 0xF9, 0x23, 0x9A, 0x97, 0x32, 0x41, 0x3F, 0x4F, 0x08, 0xEC, 0xAB, 0xBD, 0x50, 0xBC, 0x23, 0xF7, 0xEE, 0xAB, 0x25, 0x36, 0x32, 0x06, 0xB9, 0x81, 0xDD, 0x14, 0x01, 0xE0, 0x9C, 0x22, 0xEE, 0xDA, 0x17, 0xD5, 0x02, 0x9F, 0xD6, 0x4C, 0x25, 0xF4, 0xD9, 0xC4, 0x01, 0xFC, 0x13, 0xFE, 0x2A, 0x4A, 0xA9, 0xD1, 0x1B, 0x26, 0x98, 0x3D, 0xB5, 0xBB, 0x48, 0x0B, 0x57, 0xB5, 0x5A, 0xF2, 0xFF, 0xFF, 0x00, 0x00, 0x00, 0x09, 0x10, 0x00, 0x00, 0x00, 0x0C, 0x00, 0x00, 0x00, 0x1C, 0x00, 0x00, 0x00, 0x8C, 0x00, 0x00, 0x00, 0x04, 0x00, 0x00, 0x00, 0x10, 0x00, 0x00, 0x00, 0x03, 0x00, 0x00, 0x00, 0x03, 0x00, 0x00, 0x00, 0x08, 0x00, 0x00, 0x00, 0x6F, 0x00, 0x00, 0x00, 0x73, 0x65, 0x71, 0x75, 0x65, 0x6E, 0x74, 0x69, 0x61, 0x6C, 0x5F, 0x31, 0x2F, 0x71, 0x75, 0x61, 0x6E, 0x74, 0x5F, 0x63, 0x6F, 0x6E, 0x76, 0x32, 0x64, 0x5F, 0x36, 0x2F, 0x43, 0x6F, 0x6E, 0x76, 0x32, 0x44, 0x3B, 0x73, 0x65, 0x71, 0x75, 0x65, 0x6E, 0x74, 0x69, 0x61, 0x6C, 0x5F, 0x31, 0x2F, 0x71, 0x75, 0x61, 0x6E, 0x74, 0x5F, 0x63, 0x6F, 0x6E, 0x76, 0x32, 0x64, 0x5F, 0x36, 0x2F, 0x4C, 0x61, 0x73, 0x74, 0x56, 0x61, 0x6C, 0x75, 0x65, 0x51, 0x75, 0x61, 0x6E, 0x74, 0x2F, 0x46, 0x61, 0x6B, 0x65, 0x51, 0x75, 0x61, 0x6E, 0x74, 0x57, 0x69, 0x74, 0x68, 0x4D, 0x69, 0x6E, 0x4D, 0x61, 0x78, 0x56, 0x61, 0x72, 0x73, 0x50, 0x65, 0x72, 0x43, 0x68, 0x61, 0x6E, 0x6E, 0x65, 0x6C, 0x00, 0x48, 0xF3, 0xFF, 0xFF, 0x08, 0x00, 0x00, 0x00, 0x48, 0x00, 0x00, 0x00, 0x10, 0x00, 0x00, 0x00, 0x39, 0x34, 0xF1, 0x3A, 0x12, 0x5D, 0xBB, 0x3A, 0xC3, 0x7D, 0xC9, 0x3A, 0x3C, 0x78, 0xBF, 0x3A, 0x15, 0x7C, 0xC3, 0x3A, 0x4A, 0x86, 0xCD, 0x3A, 0x21, 0x5F, 0xC3, 0x3A, 0xD4, 0xB7, 0xE6, 0x3A, 0xA1, 0x52, 0xAF, 0x3A, 0xFC, 0x45, 0xC4, 0x3A, 0x2E, 0x86, 0xC8, 0x3A, 0xAB, 0x3C, 0xD3, 0x3A, 0x70, 0x9F, 0xBC, 0x3A, 0x8E, 0x47, 0xB6, 0x3A, 0x9D, 0xF8, 0xC7, 0x3A, 0xE4, 0x85, 0xD0, 0x3A, 0x10, 0x00, 0x00, 0x00, 0x00, 0x00, 0x00, 0x00, 0x00, 0x00, 0x00, 0x00, 0x00, 0x00, 0x00, 0x00, 0x00, 0x00, 0x00, 0x00, 0x00, 0x00, 0x00, 0x00, 0x00, 0x00, 0x00, 0x00, 0x00, 0x00, 0x00, 0x00, 0x00, 0x00, 0x00, 0x00, 0x00, 0x00, 0x00, 0x00, 0x00, 0x00, 0x00, 0x00, 0x00, 0x00, 0x00, 0x00, 0x00, 0x00, 0x00, 0x00, 0x00, 0x00, 0x00, 0x00, 0x00, 0x00, 0x00, 0x00, 0x00, 0x00, 0x00, 0x00, 0x00, 0x00, 0x00, 0x00, 0x00, 0x00, 0x00, 0x00, 0x00, 0x00, 0x00, 0x00, 0x00, 0x00, 0x00, 0x00, 0x00, 0x00, 0x00, 0x00, 0x00, 0x00, 0x00, 0x00, 0x00, 0x00, 0x00, 0x00, 0x00, 0x00, 0x00, 0x00, 0x00, 0x00, 0x00, 0x00, 0x00, 0x00, 0x00, 0x00, 0x00, 0x00, 0x00, 0x00, 0x00, 0x00, 0x00, 0x00, 0x00, 0x00, 0x00, 0x00, 0x00, 0x00, 0x00, 0x00, 0x00, 0x00, 0x00, 0x00, 0x00, 0x00, 0x00, 0x00, 0x00, 0x00, 0x00, 0x00, 0x56, 0xF9, 0xFF, 0xFF, 0x00, 0x00, 0x00, 0x05, 0x02, 0x00, 0x00, 0x00, 0x28, 0x00, 0x00, 0x00, 0x1C, 0x00, 0x00, 0x00, 0x04, 0x00, 0x00, 0x00, 0x46, 0xFA, 0xFF, 0xFF, 0x02, 0x00, 0x00, 0x00, 0x02, 0x00, 0x00, 0x00, 0x02, 0x00, 0x00, 0x00, 0x02, 0x00, 0x00, 0x00, 0x01, 0x00, 0x00, 0x00, 0x0A, 0x00, 0x00, 0x00, 0x01, 0x00, 0x00, 0x00, 0x09, 0x00, 0x00, 0x00, 0xB8, 0xF5, 0xFF, 0xFF, 0x00, 0x00, 0x00, 0x09, 0x14, 0x00, 0x00, 0x00, 0x0B, 0x00, 0x00, 0x00, 0x34, 0x00, 0x00, 0x00, 0x60, 0x00, 0x00, 0x00, 0x18, 0x00, 0x00, 0x00, 0x04, 0x00, 0x00, 0x00, 0x01, 0x00, 0x00, 0x00, 0x09, 0x00, 0x00, 0x00, 0x41, 0x00, 0x00, 0x00, 0x08, 0x00, 0x00, 0x00, 0x04, 0x00, 0x00, 0x00, 0xFF, 0xFF, 0xFF, 0xFF, 0x09, 0x00, 0x00, 0x00, 0x41, 0x00, 0x00, 0x00, 0x08, 0x00, 0x00, 0x00, 0x2A, 0x00, 0x00, 0x00, 0x73, 0x65, 0x71, 0x75, 0x65, 0x6E, 0x74, 0x69, 0x61, 0x6C, 0x5F, 0x31, 0x2F, 0x71, 0x75, 0x61, 0x6E, 0x74, 0x5F, 0x6D, 0x61, 0x78, 0x5F, 0x70, 0x6F, 0x6F, 0x6C, 0x69, 0x6E, 0x67, 0x32, 0x64, 0x5F, 0x35, 0x2F, 0x4D, 0x61, 0x78, 0x50, 0x6F, 0x6F, 0x6C, 0x00, 0x00, 0xCC, 0xF4, 0xFF, 0xFF, 0x08, 0x00, 0x00, 0x00, 0x0C, 0x00, 0x00, 0x00, 0x01, 0x00, 0x00, 0x00, 0x98, 0xB8, 0x6E, 0x42, 0x01, 0x00, 0x00, 0x00, 0x80, 0xFF, 0xFF, 0xFF, 0xFF, 0xFF, 0xFF, 0xFF, 0x00, 0x00, 0x00, 0x00, 0x2A, 0xFA, 0xFF, 0xFF, 0x00, 0x00, 0x00, 0x01, 0x01, 0x00, 0x00, 0x00, 0x24, 0x00, 0x00, 0x00, 0x18, 0x00, 0x00, 0x00, 0x04, 0x00, 0x00, 0x00, 0x1C, 0xFA, 0xFF, 0xFF, 0x01, 0x00, 0x00, 0x00, 0x01, 0x00, 0x00, 0x00, 0x00, 0x00, 0x00, 0x01, 0x01, 0x00, 0x00, 0x00, 0x09, 0x00, 0x00, 0x00, 0x03, 0x00, 0x00, 0x00, 0x06, 0x00, 0x00, 0x00, 0x07, 0x00, 0x00, 0x00, 0x08, 0x00, 0x00, 0x00, 0x90, 0xF6, 0xFF, 0xFF, 0x00, 0x00, 0x00, 0x09, 0x14, 0x00, 0x00, 0x00, 0x0A, 0x00, 0x00, 0x00, 0x34, 0x00, 0x00, 0x00, 0xD8, 0x00, 0x00, 0x00, 0x18, 0x00, 0x00, 0x00, 0x04, 0x00, 0x00, 0x00, 0x01, 0x00, 0x00, 0x00, 0x11, 0x00, 0x00, 0x00, 0x81, 0x00, 0x00, 0x00, 0x08, 0x00, 0x00, 0x00, 0x04, 0x00, 0x00, 0x00, 0xFF, 0xFF, 0xFF, 0xFF, 0x11, 0x00, 0x00, 0x00, 0x81, 0x00, 0x00, 0x00, 0x08, 0x00, 0x00, 0x00, 0xA3, 0x00, 0x00, 0x00, 0x73, 0x65, 0x71, 0x75, 0x65, 0x6E, 0x74, 0x69, 0x61, 0x6C, 0x5F, 0x31, 0x2F, 0x71, 0x75, 0x61, 0x6E, 0x74, 0x5F, 0x63, 0x6F, 0x6E, 0x76, 0x32, 0x64, 0x5F, 0x35, 0x2F, 0x52, 0x65, 0x6C, 0x75, 0x3B, 0x73, 0x65, 0x71, 0x75, 0x65, 0x6E, 0x74, 0x69, 0x61, 0x6C, 0x5F, 0x31, 0x2F, 0x71, 0x75, 0x61, 0x6E, 0x74, 0x5F, 0x63, 0x6F, 0x6E, 0x76, 0x32, 0x64, 0x5F, 0x35, 0x2F, 0x42, 0x69, 0x61, 0x73, 0x41, 0x64, 0x64, 0x3B, 0x73, 0x65, 0x71, 0x75, 0x65, 0x6E, 0x74, 0x69, 0x61, 0x6C, 0x5F, 0x31, 0x2F, 0x71, 0x75, 0x61, 0x6E, 0x74, 0x5F, 0x63, 0x6F, 0x6E, 0x76, 0x32, 0x64, 0x5F, 0x35, 0x2F, 0x43, 0x6F, 0x6E, 0x76, 0x32, 0x44, 0x3B, 0x73, 0x65, 0x71, 0x75, 0x65, 0x6E, 0x74, 0x69, 0x61, 0x6C, 0x5F, 0x31, 0x2F, 0x71, 0x75, 0x61, 0x6E, 0x74, 0x5F, 0x63, 0x6F, 0x6E, 0x76, 0x32, 0x64, 0x5F, 0x35, 0x2F, 0x42, 0x69, 0x61, 0x73, 0x41, 0x64, 0x64, 0x2F, 0x52, 0x65, 0x61, 0x64, 0x56, 0x61, 0x72, 0x69, 0x61, 0x62, 0x6C, 0x65, 0x4F, 0x70, 0x2F, 0x72, 0x65, 0x73, 0x6F, 0x75, 0x72, 0x63, 0x65, 0x00, 0x1C, 0xF6, 0xFF, 0xFF, 0x08, 0x00, 0x00, 0x00, 0x0C, 0x00, 0x00, 0x00, 0x01, 0x00, 0x00, 0x00, 0x98, 0xB8, 0x6E, 0x42, 0x01, 0x00, 0x00, 0x00, 0x80, 0xFF, 0xFF, 0xFF, 0xFF, 0xFF, 0xFF, 0xFF, 0x0A, 0xF6, 0xFF, 0xFF, 0x04, 0x00, 0x00, 0x00, 0x20, 0x00, 0x00, 0x00, 0x01, 0x00, 0x00, 0x00, 0x00, 0x00, 0x00, 0x00, 0x00, 0x00, 0x00, 0x00, 0x00, 0x00, 0x00, 0x00, 0x00, 0x00, 0x00, 0x00, 0x00, 0x00, 0x00, 0x00, 0x00, 0x00, 0x00, 0x00, 0x00, 0x00, 0x00, 0x00, 0x1A, 0xF6, 0xFF, 0xFF, 0x00, 0x00, 0x00, 0x02, 0x10, 0x00, 0x00, 0x00, 0x09, 0x00, 0x00, 0x00, 0x10, 0x00, 0x00, 0x00, 0x94, 0x00, 0x00, 0x00, 0x01, 0x00, 0x00, 0x00, 0x08, 0x00, 0x00, 0x00, 0x82, 0x00, 0x00, 0x00, 0x73, 0x65, 0x71, 0x75, 0x65, 0x6E, 0x74, 0x69, 0x61, 0x6C, 0x5F, 0x31, 0x2F, 0x71, 0x75, 0x61, 0x6E, 0x74, 0x5F, 0x63, 0x6F, 0x6E, 0x76, 0x32, 0x64, 0x5F, 0x35, 0x2F, 0x42, 0x69, 0x61, 0x73, 0x41, 0x64, 0x64, 0x3B, 0x73, 0x65, 0x71, 0x75, 0x65, 0x6E, 0x74, 0x69, 0x61, 0x6C, 0x5F, 0x31, 0x2F, 0x71, 0x75, 0x61, 0x6E, 0x74, 0x5F, 0x63, 0x6F, 0x6E, 0x76, 0x32, 0x64, 0x5F, 0x35, 0x2F, 0x43, 0x6F, 0x6E, 0x76, 0x32, 0x44, 0x3B, 0x73, 0x65, 0x71, 0x75, 0x65, 0x6E, 0x74, 0x69, 0x61, 0x6C, 0x5F, 0x31, 0x2F, 0x71, 0x75, 0x61, 0x6E, 0x74, 0x5F, 0x63, 0x6F, 0x6E, 0x76, 0x32, 0x64, 0x5F, 0x35, 0x2F, 0x42, 0x69, 0x61, 0x73, 0x41, 0x64, 0x64, 0x2F, 0x52, 0x65, 0x61, 0x64, 0x56, 0x61, 0x72, 0x69, 0x61, 0x62, 0x6C, 0x65, 0x4F, 0x70, 0x2F, 0x72, 0x65, 0x73, 0x6F, 0x75, 0x72, 0x63, 0x65, 0x00, 0x00, 0x10, 0xF7, 0xFF, 0xFF, 0x08, 0x00, 0x00, 0x00, 0x28, 0x00, 0x00, 0x00, 0x08, 0x00, 0x00, 0x00, 0x33, 0x59, 0x10, 0x3F, 0xE2, 0xC5, 0x31, 0x3F, 0xCF, 0xD2, 0x04, 0x3F, 0xE9, 0x67, 0xFB, 0x3E, 0x1B, 0x08, 0xFD, 0x3E, 0xC8, 0x7E, 0x1C, 0x3F, 0x3F, 0x95, 0x16, 0x3F, 0xE7, 0x95, 0x17, 0x3F, 0x08, 0x00, 0x00, 0x00, 0x00, 0x00, 0x00, 0x00, 0x00, 0x00, 0x00, 0x00, 0x00, 0x00, 0x00, 0x00, 0x00, 0x00, 0x00, 0x00, 0x00, 0x00, 0x00, 0x00, 0x00, 0x00, 0x00, 0x00, 0x00, 0x00, 0x00, 0x00, 0x00, 0x00, 0x00, 0x00, 0x00, 0x00, 0x00, 0x00, 0x00, 0x00, 0x00, 0x00, 0x00, 0x00, 0x00, 0x00, 0x00, 0x00, 0x00, 0x00, 0x00, 0x00, 0x00, 0x00, 0x00, 0x00, 0x00, 0x00, 0x00, 0x00, 0x00, 0x00, 0x00, 0x00, 0x00, 0x00, 0x52, 0xF7, 0xFF, 0xFF, 0x04, 0x00, 0x00, 0x00, 0x20, 0x01, 0x00, 0x00, 0x32, 0xC9, 0x11, 0x2C, 0x29, 0x90, 0xC2, 0x40, 0x43, 0xBC, 0x05, 0x7F, 0xDC, 0xC3, 0x55, 0xA2, 0xC5, 0x4A, 0x37, 0x9F, 0x15, 0xE0, 0x37, 0xD2, 0xE6, 0xF5, 0xB9, 0xA8, 0xA8, 0xC9, 0xCC, 0xB5, 0xBD, 0xE3, 0x5B, 0xB4, 0xF5, 0xCF, 0xB7, 0x9F, 0xD2, 0xC6, 0x42, 0x62, 0xCB, 0x10, 0x81, 0xBA, 0xE5, 0xC9, 0x12, 0xBB, 0xBD, 0x1C, 0xF6, 0xB2, 0x75, 0x53, 0xEF, 0xE1, 0xBC, 0x45, 0x2B, 0xD0, 0x2E, 0xBD, 0x4C, 0x22, 0x54, 0xB5, 0xA2, 0x4C, 0x4D, 0xA1, 0xF7, 0x30, 0x58, 0x98, 0xFA, 0x2D, 0x01, 0x8A, 0xED, 0x17, 0x41, 0x24, 0xA3, 0x56, 0x3A, 0xBF, 0x4D, 0xA9, 0xC5, 0x15, 0x5A, 0xBD, 0xC6, 0xC4, 0x64, 0x1B, 0xD3, 0xB3, 0xC2, 0xA5, 0xBB, 0x9C, 0x81, 0xF4, 0x3D, 0xE0, 0x79, 0x81, 0xA4, 0x98, 0xA9, 0x08, 0x0C, 0x0A, 0xA5, 0x3C, 0xC3, 0x41, 0xBC, 0x6A, 0x9D, 0xBE, 0xAD, 0xE2, 0x78, 0x32, 0xE3, 0x20, 0xF9, 0x8F, 0xC1, 0x3A, 0x05, 0xCD, 0x61, 0xA7, 0xAD, 0x0C, 0xCE, 0xDD, 0xB3, 0x83, 0x6E, 0x99, 0x02, 0x66, 0x6A, 0xBD, 0xF1, 0x6A, 0x4B, 0xCB, 0xD7, 0x13, 0x09, 0xD6, 0x88, 0xB2, 0xA6, 0x76, 0x47, 0x06, 0x1E, 0x06, 0x81, 0xB3, 0xF6, 0x1A, 0x0C, 0x87, 0x33, 0x13, 0x13, 0x58, 0x54, 0x0A, 0x4F, 0x17, 0x33, 0xBE, 0x07, 0xE0, 0x50, 0x9E, 0xC7, 0x4D, 0xD4, 0x29, 0x0C, 0xDA, 0x07, 0x63, 0x7F, 0xA8, 0x24, 0xC9, 0x09, 0x45, 0xCF, 0x4A, 0x09, 0xA7, 0xDB, 0x5E, 0x57, 0xEB, 0x8E, 0xF1, 0x06, 0xBA, 0xE7, 0xC9, 0xFF, 0xC8, 0x58, 0x34, 0x20, 0x3C, 0x91, 0x43, 0xC8, 0xF7, 0x8C, 0x38, 0x3E, 0x9F, 0x81, 0x31, 0x03, 0x47, 0xC7, 0xA9, 0xD1, 0xE2, 0x38, 0x3C, 0x89, 0xFD, 0x42, 0x2E, 0x8A, 0x3C, 0xF6, 0x46, 0xE6, 0x24, 0x03, 0xD0, 0x9D, 0xED, 0xFA, 0x5D, 0xBF, 0xEE, 0x15, 0xFD, 0xCE, 0x1A, 0x21, 0x1E, 0xC6, 0x49, 0xE0, 0x49, 0x0E, 0xA0, 0xAB, 0x48, 0xF9, 0x9C, 0x57, 0x5B, 0x13, 0x4E, 0xF2, 0x08, 0xE9, 0xD0, 0x81, 0x8A, 0x46, 0xA4, 0xB3, 0x8C, 0x62, 0xF8, 0xFF, 0xFF, 0x00, 0x00, 0x00, 0x09, 0x10, 0x00, 0x00, 0x00, 0x08, 0x00, 0x00, 0x00, 0x1C, 0x00, 0x00, 0x00, 0x8C, 0x00, 0x00, 0x00, 0x04, 0x00, 0x00, 0x00, 0x08, 0x00, 0x00, 0x00, 0x03, 0x00, 0x00, 0x00, 0x03, 0x00, 0x00, 0x00, 0x04, 0x00, 0x00, 0x00, 0x6F, 0x00, 0x00, 0x00, 0x73, 0x65, 0x71, 0x75, 0x65, 0x6E, 0x74, 0x69, 0x61, 0x6C, 0x5F, 0x31, 0x2F, 0x71, 0x75, 0x61, 0x6E, 0x74, 0x5F, 0x63, 0x6F, 0x6E, 0x76, 0x32, 0x64, 0x5F, 0x35, 0x2F, 0x43, 0x6F, 0x6E, 0x76, 0x32, 0x44, 0x3B, 0x73, 0x65, 0x71, 0x75, 0x65, 0x6E, 0x74, 0x69, 0x61, 0x6C, 0x5F, 0x31, 0x2F, 0x71, 0x75, 0x61, 0x6E, 0x74, 0x5F, 0x63, 0x6F, 0x6E, 0x76, 0x32, 0x64, 0x5F, 0x35, 0x2F, 0x4C, 0x61, 0x73, 0x74, 0x56, 0x61, 0x6C, 0x75, 0x65, 0x51, 0x75, 0x61, 0x6E, 0x74, 0x2F, 0x46, 0x61, 0x6B, 0x65, 0x51, 0x75, 0x61, 0x6E, 0x74, 0x57, 0x69, 0x74, 0x68, 0x4D, 0x69, 0x6E, 0x4D, 0x61, 0x78, 0x56, 0x61, 0x72, 0x73, 0x50, 0x65, 0x72, 0x43, 0x68, 0x61, 0x6E, 0x6E, 0x65, 0x6C, 0x00, 0x50, 0xF9, 0xFF, 0xFF, 0x08, 0x00, 0x00, 0x00, 0x28, 0x00, 0x00, 0x00, 0x08, 0x00, 0x00, 0x00, 0x85, 0xE8, 0xFE, 0x3A, 0x7C, 0xF7, 0x1C, 0x3B, 0x5B, 0x8E, 0xEA, 0x3A, 0x56, 0xFB, 0xDD, 0x3A, 0xD2, 0x6A, 0xDF, 0x3A, 0xE7, 0x2D, 0x0A, 0x3B, 0x82, 0xF5, 0x04, 0x3B, 0x20, 0xD8, 0x05, 0x3B, 0x08, 0x00, 0x00, 0x00, 0x00, 0x00, 0x00, 0x00, 0x00, 0x00, 0x00, 0x00, 0x00, 0x00, 0x00, 0x00, 0x00, 0x00, 0x00, 0x00, 0x00, 0x00, 0x00, 0x00, 0x00, 0x00, 0x00, 0x00, 0x00, 0x00, 0x00, 0x00, 0x00, 0x00, 0x00, 0x00, 0x00, 0x00, 0x00, 0x00, 0x00, 0x00, 0x00, 0x00, 0x00, 0x00, 0x00, 0x00, 0x00, 0x00, 0x00, 0x00, 0x00, 0x00, 0x00, 0x00, 0x00, 0x00, 0x00, 0x00, 0x00, 0x00, 0x00, 0x00, 0x00, 0x00, 0x00, 0x00, 0x00, 0x00, 0x0E, 0x00, 0x1A, 0x00, 0x08, 0x00, 0x0C, 0x00, 0x10, 0x00, 0x07, 0x00, 0x14, 0x00, 0x0E, 0x00, 0x00, 0x00, 0x00, 0x00, 0x00, 0x05, 0x02, 0x00, 0x00, 0x00, 0x38, 0x00, 0x00, 0x00, 0x2C, 0x00, 0x00, 0x00, 0x14, 0x00, 0x00, 0x00, 0x00, 0x00, 0x0E, 0x00, 0x14, 0x00, 0x00, 0x00, 0x10, 0x00, 0x0C, 0x00, 0x08, 0x00, 0x04, 0x00, 0x0E, 0x00, 0x00, 0x00, 0x02, 0x00, 0x00, 0x00, 0x02, 0x00, 0x00, 0x00, 0x02, 0x00, 0x00, 0x00, 0x02, 0x00, 0x00, 0x00, 0x01, 0x00, 0x00, 0x00, 0x06, 0x00, 0x00, 0x00, 0x01, 0x00, 0x00, 0x00, 0x05, 0x00, 0x00, 0x00, 0x9C, 0xFB, 0xFF, 0xFF, 0x11, 0x00, 0x00, 0x00, 0x00, 0x00, 0x00, 0x11, 0x02, 0x00, 0x00, 0x00, 0x90, 0xFB, 0xFF, 0xFF, 0x00, 0x00, 0x00, 0x09, 0x14, 0x00, 0x00, 0x00, 0x07, 0x00, 0x00, 0x00, 0x34, 0x00, 0x00, 0x00, 0x60, 0x00, 0x00, 0x00, 0x18, 0x00, 0x00, 0x00, 0x04, 0x00, 0x00, 0x00, 0x01, 0x00, 0x00, 0x00, 0x11, 0x00, 0x00, 0x00, 0x81, 0x00, 0x00, 0x00, 0x04, 0x00, 0x00, 0x00, 0x04, 0x00, 0x00, 0x00, 0xFF, 0xFF, 0xFF, 0xFF, 0x11, 0x00, 0x00, 0x00, 0x81, 0x00, 0x00, 0x00, 0x04, 0x00, 0x00, 0x00, 0x2A, 0x00, 0x00, 0x00, 0x73, 0x65, 0x71, 0x75, 0x65, 0x6E, 0x74, 0x69, 0x61, 0x6C, 0x5F, 0x31, 0x2F, 0x71, 0x75, 0x61, 0x6E, 0x74, 0x5F, 0x6D, 0x61, 0x78, 0x5F, 0x70, 0x6F, 0x6F, 0x6C, 0x69, 0x6E, 0x67, 0x32, 0x64, 0x5F, 0x34, 0x2F, 0x4D, 0x61, 0x78, 0x50, 0x6F, 0x6F, 0x6C, 0x00, 0x00, 0xA4, 0xFA, 0xFF, 0xFF, 0x08, 0x00, 0x00, 0x00, 0x0C, 0x00, 0x00, 0x00, 0x01, 0x00, 0x00, 0x00, 0x77, 0xF7, 0x90, 0x43, 0x01, 0x00, 0x00, 0x00, 0x80, 0xFF, 0xFF, 0xFF, 0xFF, 0xFF, 0xFF, 0xFF, 0x00, 0x00, 0x0E, 0x00, 0x18, 0x00, 0x08, 0x00, 0x0C, 0x00, 0x10, 0x00, 0x07, 0x00, 0x14, 0x00, 0x0E, 0x00, 0x00, 0x00, 0x00, 0x00, 0x00, 0x01, 0x01, 0x00, 0x00, 0x00, 0x30, 0x00, 0x00, 0x00, 0x24, 0x00, 0x00, 0x00, 0x10, 0x00, 0x00, 0x00, 0x0C, 0x00, 0x10, 0x00, 0x00, 0x00, 0x04, 0x00, 0x08, 0x00, 0x0F, 0x00, 0x0C, 0x00, 0x00, 0x00, 0x01, 0x00, 0x00, 0x00, 0x01, 0x00, 0x00, 0x00, 0x00, 0x00, 0x00, 0x01, 0x01, 0x00, 0x00, 0x00, 0x05, 0x00, 0x00, 0x00, 0x03, 0x00, 0x00, 0x00, 0x02, 0x00, 0x00, 0x00, 0x03, 0x00, 0x00, 0x00, 0x04, 0x00, 0x00, 0x00, 0x9C, 0xFC, 0xFF, 0xFF, 0x03, 0x00, 0x00, 0x00, 0x00, 0x00, 0x00, 0x03, 0x03, 0x00, 0x00, 0x00, 0x90, 0xFC, 0xFF, 0xFF, 0x00, 0x00, 0x00, 0x09, 0x14, 0x00, 0x00, 0x00, 0x06, 0x00, 0x00, 0x00, 0x34, 0x00, 0x00, 0x00, 0xD8, 0x00, 0x00, 0x00, 0x18, 0x00, 0x00, 0x00, 0x04, 0x00, 0x00, 0x00, 0x01, 0x00, 0x00, 0x00, 0x21, 0x00, 0x00, 0x00, 0x01, 0x01, 0x00, 0x00, 0x04, 0x00, 0x00, 0x00, 0x04, 0x00, 0x00, 0x00, 0xFF, 0xFF, 0xFF, 0xFF, 0x21, 0x00, 0x00, 0x00, 0x01, 0x01, 0x00, 0x00, 0x04, 0x00, 0x00, 0x00, 0xA3, 0x00, 0x00, 0x00, 0x73, 0x65, 0x71, 0x75, 0x65, 0x6E, 0x74, 0x69, 0x61, 0x6C, 0x5F, 0x31, 0x2F, 0x71, 0x75, 0x61, 0x6E, 0x74, 0x5F, 0x63, 0x6F, 0x6E, 0x76, 0x32, 0x64, 0x5F, 0x34, 0x2F, 0x52, 0x65, 0x6C, 0x75, 0x3B, 0x73, 0x65, 0x71, 0x75, 0x65, 0x6E, 0x74, 0x69, 0x61, 0x6C, 0x5F, 0x31, 0x2F, 0x71, 0x75, 0x61, 0x6E, 0x74, 0x5F, 0x63, 0x6F, 0x6E, 0x76, 0x32, 0x64, 0x5F, 0x34, 0x2F, 0x42, 0x69, 0x61, 0x73, 0x41, 0x64, 0x64, 0x3B, 0x73, 0x65, 0x71, 0x75, 0x65, 0x6E, 0x74, 0x69, 0x61, 0x6C, 0x5F, 0x31, 0x2F, 0x71, 0x75, 0x61, 0x6E, 0x74, 0x5F, 0x63, 0x6F, 0x6E, 0x76, 0x32, 0x64, 0x5F, 0x34, 0x2F, 0x43, 0x6F, 0x6E, 0x76, 0x32, 0x44, 0x3B, 0x73, 0x65, 0x71, 0x75, 0x65, 0x6E, 0x74, 0x69, 0x61, 0x6C, 0x5F, 0x31, 0x2F, 0x71, 0x75, 0x61, 0x6E, 0x74, 0x5F, 0x63, 0x6F, 0x6E, 0x76, 0x32, 0x64, 0x5F, 0x34, 0x2F, 0x42, 0x69, 0x61, 0x73, 0x41, 0x64, 0x64, 0x2F, 0x52, 0x65, 0x61, 0x64, 0x56, 0x61, 0x72, 0x69, 0x61, 0x62, 0x6C, 0x65, 0x4F, 0x70, 0x2F, 0x72, 0x65, 0x73, 0x6F, 0x75, 0x72, 0x63, 0x65, 0x00, 0x1C, 0xFC, 0xFF, 0xFF, 0x08, 0x00, 0x00, 0x00, 0x0C, 0x00, 0x00, 0x00, 0x01, 0x00, 0x00, 0x00, 0x77, 0xF7, 0x90, 0x43, 0x01, 0x00, 0x00, 0x00, 0x80, 0xFF, 0xFF, 0xFF, 0xFF, 0xFF, 0xFF, 0xFF, 0x0A, 0xFC, 0xFF, 0xFF, 0x04, 0x00, 0x00, 0x00, 0x10, 0x00, 0x00, 0x00, 0x00, 0x00, 0x00, 0x00, 0x00, 0x00, 0x00, 0x00, 0x00, 0x00, 0x00, 0x00, 0x00, 0x00, 0x00, 0x00, 0x0A, 0xFC, 0xFF, 0xFF, 0x00, 0x00, 0x00, 0x02, 0x10, 0x00, 0x00, 0x00, 0x05, 0x00, 0x00, 0x00, 0x10, 0x00, 0x00, 0x00, 0x94, 0x00, 0x00, 0x00, 0x01, 0x00, 0x00, 0x00, 0x04, 0x00, 0x00, 0x00, 0x82, 0x00, 0x00, 0x00, 0x73, 0x65, 0x71, 0x75, 0x65, 0x6E, 0x74, 0x69, 0x61, 0x6C, 0x5F, 0x31, 0x2F, 0x71, 0x75, 0x61, 0x6E, 0x74, 0x5F, 0x63, 0x6F, 0x6E, 0x76, 0x32, 0x64, 0x5F, 0x34, 0x2F, 0x42, 0x69, 0x61, 0x73, 0x41, 0x64, 0x64, 0x3B, 0x73, 0x65, 0x71, 0x75, 0x65, 0x6E, 0x74, 0x69, 0x61, 0x6C, 0x5F, 0x31, 0x2F, 0x71, 0x75, 0x61, 0x6E, 0x74, 0x5F, 0x63, 0x6F, 0x6E, 0x76, 0x32, 0x64, 0x5F, 0x34, 0x2F, 0x43, 0x6F, 0x6E, 0x76, 0x32, 0x44, 0x3B, 0x73, 0x65, 0x71, 0x75, 0x65, 0x6E, 0x74, 0x69, 0x61, 0x6C, 0x5F, 0x31, 0x2F, 0x71, 0x75, 0x61, 0x6E, 0x74, 0x5F, 0x63, 0x6F, 0x6E, 0x76, 0x32, 0x64, 0x5F, 0x34, 0x2F, 0x42, 0x69, 0x61, 0x73, 0x41, 0x64, 0x64, 0x2F, 0x52, 0x65, 0x61, 0x64, 0x56, 0x61, 0x72, 0x69, 0x61, 0x62, 0x6C, 0x65, 0x4F, 0x70, 0x2F, 0x72, 0x65, 0x73, 0x6F, 0x75, 0x72, 0x63, 0x65, 0x00, 0x00, 0x00, 0xFD, 0xFF, 0xFF, 0x08, 0x00, 0x00, 0x00, 0x18, 0x00, 0x00, 0x00, 0x04, 0x00, 0x00, 0x00, 0xCB, 0xA4, 0x49, 0x41, 0x46, 0x45, 0x5E, 0x41, 0xD2, 0x40, 0x33, 0x41, 0xB9, 0xAD, 0x4C, 0x41, 0x04, 0x00, 0x00, 0x00, 0x00, 0x00, 0x00, 0x00, 0x00, 0x00, 0x00, 0x00, 0x00, 0x00, 0x00, 0x00, 0x00, 0x00, 0x00, 0x00, 0x00, 0x00, 0x00, 0x00, 0x00, 0x00, 0x00, 0x00, 0x00, 0x00, 0x00, 0x00, 0x00, 0x00, 0x00, 0x00, 0x00, 0x00, 0x00, 0x00, 0x16, 0xFD, 0xFF, 0xFF, 0x04, 0x00, 0x00, 0x00, 0x24, 0x00, 0x00, 0x00, 0x70, 0x1D, 0xEB, 0xA1, 0x26, 0x26, 0xE7, 0x81, 0x97, 0x2D, 0x67, 0x9C, 0x36, 0x8A, 0x1D, 0xA8, 0x3E, 0x81, 0x6B, 0x93, 0x25, 0x2A, 0x81, 0x12, 0x94, 0x31, 0x7A, 0x46, 0xEC, 0x39, 0xEB, 0x31, 0x81, 0x49, 0x14, 0x12, 0x2A, 0xFD, 0xFF, 0xFF, 0x00, 0x00, 0x00, 0x09, 0x10, 0x00, 0x00, 0x00, 0x04, 0x00, 0x00, 0x00, 0x1C, 0x00, 0x00, 0x00, 0x8C, 0x00, 0x00, 0x00, 0x04, 0x00, 0x00, 0x00, 0x04, 0x00, 0x00, 0x00, 0x03, 0x00, 0x00, 0x00, 0x03, 0x00, 0x00, 0x00, 0x01, 0x00, 0x00, 0x00, 0x6F, 0x00, 0x00, 0x00, 0x73, 0x65, 0x71, 0x75, 0x65, 0x6E, 0x74, 0x69, 0x61, 0x6C, 0x5F, 0x31, 0x2F, 0x71, 0x75, 0x61, 0x6E, 0x74, 0x5F, 0x63, 0x6F, 0x6E, 0x76, 0x32, 0x64, 0x5F, 0x34, 0x2F, 0x43, 0x6F, 0x6E, 0x76, 0x32, 0x44, 0x3B, 0x73, 0x65, 0x71, 0x75, 0x65, 0x6E, 0x74, 0x69, 0x61, 0x6C, 0x5F, 0x31, 0x2F, 0x71, 0x75, 0x61, 0x6E, 0x74, 0x5F, 0x63, 0x6F, 0x6E, 0x76, 0x32, 0x64, 0x5F, 0x34, 0x2F, 0x4C, 0x61, 0x73, 0x74, 0x56, 0x61, 0x6C, 0x75, 0x65, 0x51, 0x75, 0x61, 0x6E, 0x74, 0x2F, 0x46, 0x61, 0x6B, 0x65, 0x51, 0x75, 0x61, 0x6E, 0x74, 0x57, 0x69, 0x74, 0x68, 0x4D, 0x69, 0x6E, 0x4D, 0x61, 0x78, 0x56, 0x61, 0x72, 0x73, 0x50, 0x65, 0x72, 0x43, 0x68, 0x61, 0x6E, 0x6E, 0x65, 0x6C, 0x00, 0x18, 0xFE, 0xFF, 0xFF, 0x08, 0x00, 0x00, 0x00, 0x18, 0x00, 0x00, 0x00, 0x04, 0x00, 0x00, 0x00, 0xED, 0x20, 0x2B, 0x3B, 0x4D, 0xA2, 0x3C, 0x3B, 0x62, 0x20, 0x18, 0x3B, 0x48, 0xB4, 0x2D, 0x3B, 0x04, 0x00, 0x00, 0x00, 0x00, 0x00, 0x00, 0x00, 0x00, 0x00, 0x00, 0x00, 0x00, 0x00, 0x00, 0x00, 0x00, 0x00, 0x00, 0x00, 0x00, 0x00, 0x00, 0x00, 0x00, 0x00, 0x00, 0x00, 0x00, 0x00, 0x00, 0x00, 0x00, 0x00, 0x00, 0x00, 0x00, 0x00, 0x0A, 0x00, 0x0C, 0x00, 0x00, 0x00, 0x04, 0x00, 0x08, 0x00, 0x0A, 0x00, 0x00, 0x00, 0x10, 0x00, 0x00, 0x00, 0x04, 0x00, 0x00, 0x00, 0x01, 0x00, 0x00, 0x00, 0x02, 0x00, 0x00, 0x00, 0x01, 0x00, 0x00, 0x00, 0x00, 0x00, 0x00, 0x00, 0x0C, 0x00, 0x10, 0x00, 0x0B, 0x00, 0x00, 0x00, 0x0C, 0x00, 0x04, 0x00, 0x0C, 0x00, 0x00, 0x00, 0x72, 0x00, 0x00, 0x00, 0x00, 0x00, 0x00, 0x72, 0x01, 0x00, 0x00, 0x00, 0x14, 0x00, 0x1C, 0x00, 0x08, 0x00, 0x07, 0x00, 0x0C, 0x00, 0x10, 0x00, 0x14, 0x00, 0x00, 0x00, 0x00, 0x00, 0x18, 0x00, 0x14, 0x00, 0x00, 0x00, 0x00, 0x00, 0x00, 0x09, 0x14, 0x00, 0x00, 0x00, 0x03, 0x00, 0x00, 0x00, 0x34, 0x00, 0x00, 0x00, 0x44, 0x01, 0x00, 0x00, 0x18, 0x00, 0x00, 0x00, 0x04, 0x00, 0x00, 0x00, 0x01, 0x00, 0x00, 0x00, 0x21, 0x00, 0x00, 0x00, 0x01, 0x01, 0x00, 0x00, 0x01, 0x00, 0x00, 0x00, 0x04, 0x00, 0x00, 0x00, 0xFF, 0xFF, 0xFF, 0xFF, 0x21, 0x00, 0x00, 0x00, 0x01, 0x01, 0x00, 0x00, 0x01, 0x00, 0x00, 0x00, 0x03, 0x01, 0x00, 0x00, 0x73, 0x65, 0x71, 0x75, 0x65, 0x6E, 0x74, 0x69, 0x61, 0x6C, 0x5F, 0x31, 0x2F, 0x71, 0x75, 0x61, 0x6E, 0x74, 0x69, 0x7A, 0x65, 0x5F, 0x6C, 0x61, 0x79, 0x65, 0x72, 0x2F, 0x41, 0x6C, 0x6C, 0x56, 0x61, 0x6C, 0x75, 0x65, 0x73, 0x51, 0x75, 0x61, 0x6E, 0x74, 0x69, 0x7A, 0x65, 0x2F, 0x46, 0x61, 0x6B, 0x65, 0x51, 0x75, 0x61, 0x6E, 0x74, 0x57, 0x69, 0x74, 0x68, 0x4D, 0x69, 0x6E, 0x4D, 0x61, 0x78, 0x56, 0x61, 0x72, 0x73, 0x3B, 0x73, 0x65, 0x71, 0x75, 0x65, 0x6E, 0x74, 0x69, 0x61, 0x6C, 0x5F, 0x31, 0x2F, 0x71, 0x75, 0x61, 0x6E, 0x74, 0x69, 0x7A, 0x65, 0x5F, 0x6C, 0x61, 0x79, 0x65, 0x72, 0x2F, 0x41, 0x6C, 0x6C, 0x56, 0x61, 0x6C, 0x75, 0x65, 0x73, 0x51, 0x75, 0x61, 0x6E, 0x74, 0x69, 0x7A, 0x65, 0x2F, 0x46, 0x61, 0x6B, 0x65, 0x51, 0x75, 0x61, 0x6E, 0x74, 0x57, 0x69, 0x74, 0x68, 0x4D, 0x69, 0x6E, 0x4D, 0x61, 0x78, 0x56, 0x61, 0x72, 0x73, 0x2F, 0x52, 0x65, 0x61, 0x64, 0x56, 0x61, 0x72, 0x69, 0x61, 0x62, 0x6C, 0x65, 0x4F, 0x70, 0x2F, 0x72, 0x65, 0x73, 0x6F, 0x75, 0x72, 0x63, 0x65, 0x3B, 0x73, 0x65, 0x71, 0x75, 0x65, 0x6E, 0x74, 0x69, 0x61, 0x6C, 0x5F, 0x31, 0x2F, 0x71, 0x75, 0x61, 0x6E, 0x74, 0x69, 0x7A, 0x65, 0x5F, 0x6C, 0x61, 0x79, 0x65, 0x72, 0x2F, 0x41, 0x6C, 0x6C, 0x56, 0x61, 0x6C, 0x75, 0x65, 0x73, 0x51, 0x75, 0x61, 0x6E, 0x74, 0x69, 0x7A, 0x65, 0x2F, 0x46, 0x61, 0x6B, 0x65, 0x51, 0x75, 0x61, 0x6E, 0x74, 0x57, 0x69, 0x74, 0x68, 0x4D, 0x69, 0x6E, 0x4D, 0x61, 0x78, 0x56, 0x61, 0x72, 0x73, 0x2F, 0x52, 0x65, 0x61, 0x64, 0x56, 0x61, 0x72, 0x69, 0x61, 0x62, 0x6C, 0x65, 0x4F, 0x70, 0x5F, 0x31, 0x2F, 0x72, 0x65, 0x73, 0x6F, 0x75, 0x72, 0x63, 0x65, 0x00, 0x0C, 0x00, 0x0C, 0x00, 0x00, 0x00, 0x00, 0x00, 0x04, 0x00, 0x08, 0x00, 0x0C, 0x00, 0x00, 0x00, 0x08, 0x00, 0x00, 0x00, 0x0C, 0x00, 0x00, 0x00, 0x01, 0x00, 0x00, 0x00, 0x16, 0xD3, 0x96, 0x45, 0x01, 0x00, 0x00, 0x00, 0x80, 0xFF, 0xFF, 0xFF, 0xFF, 0xFF, 0xFF, 0xFF, 0x00, 0x00, 0x00, 0x00, 0x00, 0x00, 0x06, 0x00, 0x08, 0x00, 0x04, 0x00, 0x06, 0x00, 0x00, 0x00, 0x04, 0x00, 0x00, 0x00, 0x08, 0x00, 0x00, 0x00, 0xFF, 0xFF, 0xFF, 0xFF, 0x30, 0x03, 0x00, 0x00, 0x00, 0x00, 0x0E, 0x00, 0x18, 0x00, 0x08, 0x00, 0x07, 0x00, 0x0C, 0x00, 0x10, 0x00, 0x14, 0x00, 0x0E, 0x00, 0x00, 0x00, 0x00, 0x00, 0x00, 0x02, 0x10, 0x00, 0x00, 0x00, 0x02, 0x00, 0x00, 0x00, 0x10, 0x00, 0x00, 0x00, 0x34, 0x00, 0x00, 0x00, 0x01, 0x00, 0x00, 0x00, 0x02, 0x00, 0x00, 0x00, 0x22, 0x00, 0x00, 0x00, 0x73, 0x65, 0x71, 0x75, 0x65, 0x6E, 0x74, 0x69, 0x61, 0x6C, 0x5F, 0x31, 0x2F, 0x71, 0x75, 0x61, 0x6E, 0x74, 0x5F, 0x66, 0x6C, 0x61, 0x74, 0x74, 0x65, 0x6E, 0x5F, 0x31, 0x2F, 0x43, 0x6F, 0x6E, 0x73, 0x74, 0x00, 0x00, 0x98, 0xFF, 0xFF, 0xFF, 0x14, 0x00, 0x18, 0x00, 0x04, 0x00, 0x00, 0x00, 0x08, 0x00, 0x0C, 0x00, 0x10, 0x00, 0x00, 0x00, 0x00, 0x00, 0x14, 0x00, 0x14, 0x00, 0x00, 0x00, 0x14, 0x00, 0x00, 0x00, 0x01, 0x00, 0x00, 0x00, 0x34, 0x00, 0x00, 0x00, 0x3C, 0x00, 0x00, 0x00, 0x18, 0x00, 0x00, 0x00, 0x04, 0x00, 0x00, 0x00, 0x01, 0x00, 0x00, 0x00, 0x21, 0x00, 0x00, 0x00, 0x01, 0x01, 0x00, 0x00, 0x01, 0x00, 0x00, 0x00, 0x04, 0x00, 0x00, 0x00, 0xFF, 0xFF, 0xFF, 0xFF, 0x21, 0x00, 0x00, 0x00, 0x01, 0x01, 0x00, 0x00, 0x01, 0x00, 0x00, 0x00, 0x07, 0x00, 0x00, 0x00, 0x69, 0x6E, 0x70, 0x75, 0x74, 0x5F, 0x32, 0x00, 0xFC, 0xFF, 0xFF, 0xFF, 0x04, 0x00, 0x04, 0x00, 0x04, 0x00, 0x00, 0x00
};
unsigned int model_tflite_len = 15088;