
// ADDED LINES START
constexpr char* processing_method = "stft";
constexpr double expected_duration = 1.0;
constexpr int sample_rate = 16000;
constexpr int window_size_samples = 512;
constexpr int window_stride_samples = 480;

const char* RESPONSES[] = {"eight", "four", "zero"};
unsigned short NUM_RESPONSES = 3;

// ADDED LINES END

alignas(8) const unsigned char model_tflite[] = {
0x20, 0x00, 0x00, 0x00, 0x54, 0x46, 0x4C, 0x33, 0x00, 0x00, 0x00, 0x00, 0x14, 0x00, 0x20, 0x00, 0x04, 0x00, 0x08, 0x00, 0x0C, 0x00, 0x10, 0x00, 0x14, 0x00, 0x00, 0x00, 0x18, 0x00, 0x1C, 0x00, 0x14, 0x00, 0x00, 0x00, 0x03, 0x00, 0x00, 0x00, 0x18, 0x00, 0x00, 0x00, 0x34, 0x00, 0x00, 0x00, 0x08, 0x01, 0x00, 0x00, 0x34, 0x00, 0x00, 0x00, 0xB0, 0x00, 0x00, 0x00, 0xA8, 0x00, 0x00, 0x00, 0x07, 0x00, 0x00, 0x00, 0x30, 0x38, 0x00, 0x00, 0xBC, 0x34, 0x00, 0x00, 0xB8, 0x33, 0x00, 0x00, 0x88, 0x14, 0x00, 0x00, 0x8C, 0x05, 0x00, 0x00, 0x8C, 0x02, 0x00, 0x00, 0x04, 0x02, 0x00, 0x00, 0x01, 0x00, 0x00, 0x00, 0xF8, 0x00, 0x00, 0x00, 0x1E, 0x00, 0x00, 0x00, 0x88, 0x3A, 0x00, 0x00, 0x84, 0x3A, 0x00, 0x00, 0xA8, 0x39, 0x00, 0x00, 0x7C, 0x3A, 0x00, 0x00, 0xB0, 0x36, 0x00, 0x00, 0xA0, 0x35, 0x00, 0x00, 0x70, 0x3A, 0x00, 0x00, 0x6C, 0x3A, 0x00, 0x00, 0xDC, 0x30, 0x00, 0x00, 0x90, 0x2F, 0x00, 0x00, 0x60, 0x3A, 0x00, 0x00, 0x5C, 0x3A, 0x00, 0x00, 0x64, 0x27, 0x00, 0x00, 0x98, 0x25, 0x00, 0x00, 0x50, 0x3A, 0x00, 0x00, 0x4C, 0x3A, 0x00, 0x00, 0xEC, 0x18, 0x00, 0x00, 0xFC, 0x16, 0x00, 0x00, 0x40, 0x3A, 0x00, 0x00, 0x3C, 0x3A, 0x00, 0x00, 0x38, 0x3A, 0x00, 0x00, 0x70, 0x06, 0x00, 0x00, 0xD0, 0x05, 0x00, 0x00, 0x2C, 0x3A, 0x00, 0x00, 0x18, 0x04, 0x00, 0x00, 0x78, 0x03, 0x00, 0x00, 0x20, 0x3A, 0x00, 0x00, 0x1C, 0x3A, 0x00, 0x00, 0x18, 0x3A, 0x00, 0x00, 0x3C, 0x00, 0x00, 0x00, 0x00, 0x00, 0x00, 0x00, 0x01, 0x00, 0x00, 0x00, 0x0C, 0x00, 0x00, 0x00, 0x08, 0x00, 0x0C, 0x00, 0x04, 0x00, 0x08, 0x00, 0x08, 0x00, 0x00, 0x00, 0x08, 0x00, 0x00, 0x00, 0x1D, 0x00, 0x00, 0x00, 0x13, 0x00, 0x00, 0x00, 0x6D, 0x69, 0x6E, 0x5F, 0x72, 0x75, 0x6E, 0x74, 0x69, 0x6D, 0x65, 0x5F, 0x76, 0x65, 0x72, 0x73, 0x69, 0x6F, 0x6E, 0x00, 0x06, 0xC7, 0xFF, 0xFF, 0x04, 0x00, 0x00, 0x00, 0x10, 0x00, 0x00, 0x00, 0x31, 0x2E, 0x31, 0x34, 0x2E, 0x30, 0x00, 0x00, 0x00, 0x00, 0x00, 0x00, 0x00, 0x00, 0x00, 0x00, 0x0F, 0x00, 0x00, 0x00, 0x4D, 0x4C, 0x49, 0x52, 0x20, 0x43, 0x6F, 0x6E, 0x76, 0x65, 0x72, 0x74, 0x65, 0x64, 0x2E, 0x00, 0x00, 0x00, 0x0E, 0x00, 0x18, 0x00, 0x04, 0x00, 0x08, 0x00, 0x0C, 0x00, 0x10, 0x00, 0x14, 0x00, 0x0E, 0x00, 0x00, 0x00, 0x14, 0x00, 0x00, 0x00, 0x84, 0x00, 0x00, 0x00, 0x88, 0x00, 0x00, 0x00, 0x8C, 0x00, 0x00, 0x00, 0xC4, 0x00, 0x00, 0x00, 0x1C, 0x00, 0x00, 0x00, 0x28, 0x39, 0x00, 0x00, 0xC4, 0x38, 0x00, 0x00, 0x18, 0x37, 0x00, 0x00, 0xD8, 0x35, 0x00, 0x00, 0xB4, 0x34, 0x00, 0x00, 0x88, 0x33, 0x00, 0x00, 0x84, 0x32, 0x00, 0x00, 0x00, 0x31, 0x00, 0x00, 0xB4, 0x2E, 0x00, 0x00, 0x78, 0x2D, 0x00, 0x00, 0x9C, 0x2C, 0x00, 0x00, 0xE8, 0x2A, 0x00, 0x00, 0xDC, 0x24, 0x00, 0x00, 0x80, 0x23, 0x00, 0x00, 0xA4, 0x22, 0x00, 0x00, 0xF0, 0x20, 0x00, 0x00, 0x40, 0x16, 0x00, 0x00, 0xBC, 0x14, 0x00, 0x00, 0xE4, 0x13, 0x00, 0x00, 0x24, 0x13, 0x00, 0x00, 0x34, 0x12, 0x00, 0x00, 0xE4, 0x04, 0x00, 0x00, 0x20, 0x04, 0x00, 0x00, 0x28, 0x03, 0x00, 0x00, 0x88, 0x02, 0x00, 0x00, 0xCC, 0x01, 0x00, 0x00, 0x14, 0x01, 0x00, 0x00, 0x8C, 0x00, 0x00, 0x00, 0x01, 0x00, 0x00, 0x00, 0x00, 0x00, 0x00, 0x00, 0x01, 0x00, 0x00, 0x00, 0x1B, 0x00, 0x00, 0x00, 0x0E, 0x00, 0x00, 0x00, 0x50, 0x36, 0x00, 0x00, 0xB8, 0x32, 0x00, 0x00, 0xB4, 0x31, 0x00, 0x00, 0xCC, 0x2C, 0x00, 0x00, 0xF4, 0x2B, 0x00, 0x00, 0xDC, 0x22, 0x00, 0x00, 0x04, 0x22, 0x00, 0x00, 0x20, 0x14, 0x00, 0x00, 0x4C, 0x13, 0x00, 0x00, 0x94, 0x12, 0x00, 0x00, 0x88, 0x03, 0x00, 0x00, 0x4C, 0x01, 0x00, 0x00, 0x88, 0x00, 0x00, 0x00, 0x10, 0x00, 0x00, 0x00, 0x04, 0x00, 0x00, 0x00, 0x6D, 0x61, 0x69, 0x6E, 0x00, 0x00, 0x00, 0x00, 0x96, 0xED, 0xFF, 0xFF, 0x06, 0x00, 0x00, 0x00, 0x10, 0x00, 0x00, 0x00, 0x04, 0x00, 0x00, 0x00, 0x01, 0x00, 0x00, 0x00, 0x1B, 0x00, 0x00, 0x00, 0x01, 0x00, 0x00, 0x00, 0x1A, 0x00, 0x00, 0x00, 0xF8, 0xC9, 0xFF, 0xFF, 0x06, 0x00, 0x00, 0x00, 0x00, 0x00, 0x00, 0x06, 0x02, 0x00, 0x00, 0x00, 0xE4, 0xC7, 0xFF, 0xFF, 0x14, 0x00, 0x00, 0x00, 0x1C, 0x00, 0x00, 0x00, 0x24, 0x00, 0x00, 0x00, 0x30, 0x00, 0x00, 0x00, 0x10, 0x00, 0x00, 0x00, 0x02, 0x00, 0x00, 0x00, 0x01, 0x00, 0x00, 0x00, 0x03, 0x00, 0x00, 0x00, 0x02, 0x00, 0x00, 0x00, 0xFF, 0xFF, 0xFF, 0xFF, 0x03, 0x00, 0x00, 0x00, 0x08, 0x00, 0x00, 0x00, 0x49, 0x64, 0x65, 0x6E, 0x74, 0x69, 0x74, 0x79, 0x00, 0x00, 0x00, 0x00, 0xC0, 0xC7, 0xFF, 0xFF, 0x0A, 0xCE, 0xFF, 0xFF, 0x00, 0x00, 0x00, 0x09, 0x05, 0x00, 0x00, 0x00, 0x1C, 0x00, 0x00, 0x00, 0x10, 0x00, 0x00, 0x00, 0x04, 0x00, 0x00, 0x00, 0xB6, 0xC8, 0xFF, 0xFF, 0x00, 0x00, 0x80, 0x3F, 0x01, 0x00, 0x00, 0x00, 0x1A, 0x00, 0x00, 0x00, 0x01, 0x00, 0x00, 0x00, 0x19, 0x00, 0x00, 0x00, 0x7C, 0xCA, 0xFF, 0xFF, 0x19, 0x00, 0x00, 0x00, 0x00, 0x00, 0x00, 0x19, 0x02, 0x00, 0x00, 0x00, 0x70, 0xCA, 0xFF, 0xFF, 0x00, 0x00, 0x00, 0x09, 0x14, 0x00, 0x00, 0x00, 0x1B, 0x00, 0x00, 0x00, 0x24, 0x00, 0x00, 0x00, 0x48, 0x00, 0x00, 0x00, 0x10, 0x00, 0x00, 0x00, 0x02, 0x00, 0x00, 0x00, 0x01, 0x00, 0x00, 0x00, 0x03, 0x00, 0x00, 0x00, 0x02, 0x00, 0x00, 0x00, 0xFF, 0xFF, 0xFF, 0xFF, 0x03, 0x00, 0x00, 0x00, 0x22, 0x00, 0x00, 0x00, 0x73, 0x65, 0x71, 0x75, 0x65, 0x6E, 0x74, 0x69, 0x61, 0x6C, 0x5F, 0x31, 0x2F, 0x71, 0x75, 0x61, 0x6E, 0x74, 0x5F, 0x64, 0x65, 0x6E, 0x73, 0x65, 0x5F, 0x33, 0x2F, 0x53, 0x6F, 0x66, 0x74, 0x6D, 0x61, 0x78, 0x00, 0x00, 0x6C, 0xC9, 0xFF, 0xFF, 0x08, 0x00, 0x00, 0x00, 0x0C, 0x00, 0x00, 0x00, 0x01, 0x00, 0x00, 0x00, 0x00, 0x00, 0x80, 0x3B, 0x01, 0x00, 0x00, 0x00, 0x80, 0xFF, 0xFF, 0xFF, 0xFF, 0xFF, 0xFF, 0xFF, 0x00, 0x00, 0x00, 0x00, 0xCA, 0xCE, 0xFF, 0xFF, 0x00, 0x00, 0x00, 0x08, 0x04, 0x00, 0x00, 0x00, 0x18, 0x00, 0x00, 0x00, 0x0C, 0x00, 0x00, 0x00, 0x04, 0x00, 0x00, 0x00, 0x9C, 0xC8, 0xFF, 0xFF, 0x01, 0x00, 0x00, 0x00, 0x19, 0x00, 0x00, 0x00, 0x03, 0x00, 0x00, 0x00, 0x16, 0x00, 0x00, 0x00, 0x17, 0x00, 0x00, 0x00, 0x18, 0x00, 0x00, 0x00, 0x24, 0xCB, 0xFF, 0xFF, 0x00, 0x00, 0x00, 0x09, 0x14, 0x00, 0x00, 0x00, 0x1A, 0x00, 0x00, 0x00, 0x24, 0x00, 0x00, 0x00, 0x6C, 0x00, 0x00, 0x00, 0x10, 0x00, 0x00, 0x00, 0x02, 0x00, 0x00, 0x00, 0x01, 0x00, 0x00, 0x00, 0x03, 0x00, 0x00, 0x00, 0x02, 0x00, 0x00, 0x00, 0xFF, 0xFF, 0xFF, 0xFF, 0x03, 0x00, 0x00, 0x00, 0x44, 0x00, 0x00, 0x00, 0x73, 0x65, 0x71, 0x75, 0x65, 0x6E, 0x74, 0x69, 0x61, 0x6C, 0x5F, 0x31, 0x2F, 0x71, 0x75, 0x61, 0x6E, 0x74, 0x5F, 0x64, 0x65, 0x6E, 0x73, 0x65, 0x5F, 0x33, 0x2F, 0x4D, 0x61, 0x74, 0x4D, 0x75, 0x6C, 0x3B, 0x73, 0x65, 0x71, 0x75, 0x65, 0x6E, 0x74, 0x69, 0x61, 0x6C, 0x5F, 0x31, 0x2F, 0x71, 0x75, 0x61, 0x6E, 0x74, 0x5F, 0x64, 0x65, 0x6E, 0x73, 0x65, 0x5F, 0x33, 0x2F, 0x42, 0x69, 0x61, 0x73, 0x41, 0x64, 0x64, 0x00, 0x00, 0x00, 0x00, 0x44, 0xCA, 0xFF, 0xFF, 0x08, 0x00, 0x00, 0x00, 0x0C, 0x00, 0x00, 0x00, 0x01, 0x00, 0x00, 0x00, 0x54, 0x14, 0xD8, 0x3E, 0x01, 0x00, 0x00, 0x00, 0xF8, 0xFF, 0xFF, 0xFF, 0xFF, 0xFF, 0xFF, 0xFF, 0x32, 0xCA, 0xFF, 0xFF, 0x04, 0x00, 0x00, 0x00, 0x0C, 0x00, 0x00, 0x00, 0x10, 0x00, 0x00, 0x00, 0xCD, 0x00, 0x00, 0x00, 0x24, 0xFF, 0xFF, 0xFF, 0x2E, 0xCA, 0xFF, 0xFF, 0x00, 0x00, 0x00, 0x02, 0x10, 0x00, 0x00, 0x00, 0x19, 0x00, 0x00, 0x00, 0x10, 0x00, 0x00, 0x00, 0x4C, 0x00, 0x00, 0x00, 0x01, 0x00, 0x00, 0x00, 0x03, 0x00, 0x00, 0x00, 0x3A, 0x00, 0x00, 0x00, 0x73, 0x65, 0x71, 0x75, 0x65, 0x6E, 0x74, 0x69, 0x61, 0x6C, 0x5F, 0x31, 0x2F, 0x71, 0x75, 0x61, 0x6E, 0x74, 0x5F, 0x64, 0x65, 0x6E, 0x73, 0x65, 0x5F, 0x33, 0x2F, 0x42, 0x69, 0x61, 0x73, 0x41, 0x64, 0x64, 0x2F, 0x52, 0x65, 0x61, 0x64, 0x56, 0x61, 0x72, 0x69, 0x61, 0x62, 0x6C, 0x65, 0x4F, 0x70, 0x2F, 0x72, 0x65, 0x73, 0x6F, 0x75, 0x72, 0x63, 0x65, 0x00, 0x00, 0xDC, 0xCA, 0xFF, 0xFF, 0x08, 0x00, 0x00, 0x00, 0x0C, 0x00, 0x00, 0x00, 0x01, 0x00, 0x00, 0x00, 0x85, 0x13, 0x42, 0x3B, 0x01, 0x00, 0x00, 0x00, 0x00, 0x00, 0x00, 0x00, 0x00, 0x00, 0x00, 0x00, 0x00, 0x00, 0x00, 0x00, 0xCE, 0xCA, 0xFF, 0xFF, 0x04, 0x00, 0x00, 0x00, 0x0C, 0x00, 0x00, 0x00, 0xA6, 0x81, 0x1B, 0x58, 0xA9, 0xEE, 0x8B, 0xB5, 0x4D, 0xE9, 0x39, 0x9A, 0xCA, 0xCA, 0xFF, 0xFF, 0x00, 0x00, 0x00, 0x09, 0x10, 0x00, 0x00, 0x00, 0x18, 0x00, 0x00, 0x00, 0x14, 0x00, 0x00, 0x00, 0x78, 0x00, 0x00, 0x00, 0x02, 0x00, 0x00, 0x00, 0x03, 0x00, 0x00, 0x00, 0x04, 0x00, 0x00, 0x00, 0x63, 0x00, 0x00, 0x00, 0x73, 0x65, 0x71, 0x75, 0x65, 0x6E, 0x74, 0x69, 0x61, 0x6C, 0x5F, 0x31, 0x2F, 0x71, 0x75, 0x61, 0x6E, 0x74, 0x5F, 0x64, 0x65, 0x6E, 0x73, 0x65, 0x5F, 0x33, 0x2F, 0x4D, 0x61, 0x74, 0x4D, 0x75, 0x6C, 0x3B, 0x73, 0x65, 0x71, 0x75, 0x65, 0x6E, 0x74, 0x69, 0x61, 0x6C, 0x5F, 0x31, 0x2F, 0x71, 0x75, 0x61, 0x6E, 0x74, 0x5F, 0x64, 0x65, 0x6E, 0x73, 0x65, 0x5F, 0x33, 0x2F, 0x4C, 0x61, 0x73, 0x74, 0x56, 0x61, 0x6C, 0x75, 0x65, 0x51, 0x75, 0x61, 0x6E, 0x74, 0x2F, 0x46, 0x61, 0x6B, 0x65, 0x51, 0x75, 0x61, 0x6E, 0x74, 0x57, 0x69, 0x74, 0x68, 0x4D, 0x69, 0x6E, 0x4D, 0x61, 0x78, 0x56, 0x61, 0x72, 0x73, 0x00, 0xA4, 0xCB, 0xFF, 0xFF, 0x08, 0x00, 0x00, 0x00, 0x0C, 0x00, 0x00, 0x00, 0x01, 0x00, 0x00, 0x00, 0x1E, 0xDD, 0xB6, 0x3B, 0x01, 0x00, 0x00, 0x00, 0x00, 0x00, 0x00, 0x00, 0x00, 0x00, 0x00, 0x00, 0x00, 0x00, 0x00, 0x00, 0x02, 0xD1, 0xFF, 0xFF, 0x00, 0x00, 0x00, 0x08, 0x04, 0x00, 0x00, 0x00, 0x18, 0x00, 0x00, 0x00, 0x0C, 0x00, 0x00, 0x00, 0x04, 0x00, 0x00, 0x00, 0xD4, 0xCA, 0xFF, 0xFF, 0x01, 0x00, 0x00, 0x00, 0x16, 0x00, 0x00, 0x00, 0x03, 0x00, 0x00, 0x00, 0x13, 0x00, 0x00, 0x00, 0x14, 0x00, 0x00, 0x00, 0x15, 0x00, 0x00, 0x00, 0x78, 0xCD, 0xFF, 0xFF, 0x09, 0x00, 0x00, 0x00, 0x00, 0x00, 0x00, 0x09, 0x04, 0x00, 0x00, 0x00, 0x6C, 0xCD, 0xFF, 0xFF, 0x00, 0x00, 0x00, 0x09, 0x14, 0x00, 0x00, 0x00, 0x17, 0x00, 0x00, 0x00, 0x24, 0x00, 0x00, 0x00, 0x6C, 0x00, 0x00, 0x00, 0x10, 0x00, 0x00, 0x00, 0x02, 0x00, 0x00, 0x00, 0x01, 0x00, 0x00, 0x00, 0x04, 0x00, 0x00, 0x00, 0x02, 0x00, 0x00, 0x00, 0xFF, 0xFF, 0xFF, 0xFF, 0x04, 0x00, 0x00, 0x00, 0x44, 0x00, 0x00, 0x00, 0x73, 0x65, 0x71, 0x75, 0x65, 0x6E, 0x74, 0x69, 0x61, 0x6C, 0x5F, 0x31, 0x2F, 0x71, 0x75, 0x61, 0x6E, 0x74, 0x5F, 0x64, 0x65, 0x6E, 0x73, 0x65, 0x5F, 0x32, 0x2F, 0x4D, 0x61, 0x74, 0x4D, 0x75, 0x6C, 0x3B, 0x73, 0x65, 0x71, 0x75, 0x65, 0x6E, 0x74, 0x69, 0x61, 0x6C, 0x5F, 0x31, 0x2F, 0x71, 0x75, 0x61, 0x6E, 0x74, 0x5F, 0x64, 0x65, 0x6E, 0x73, 0x65, 0x5F, 0x32, 0x2F, 0x42, 0x69, 0x61, 0x73, 0x41, 0x64, 0x64, 0x00, 0x00, 0x00, 0x00, 0x8C, 0xCC, 0xFF, 0xFF, 0x08, 0x00, 0x00, 0x00, 0x0C, 0x00, 0x00, 0x00, 0x01, 0x00, 0x00, 0x00, 0x35, 0xD9, 0x07, 0x3F, 0x01, 0x00, 0x00, 0x00, 0x03, 0x00, 0x00, 0x00, 0x00, 0x00, 0x00, 0x00, 0x00, 0x00, 0x00, 0x00, 0x7E, 0xCC, 0xFF, 0xFF, 0x04, 0x00, 0x00, 0x00, 0x10, 0x00, 0x00, 0x00, 0x0D, 0x00, 0x00, 0x00, 0x11, 0x00, 0x00, 0x00, 0x07, 0x00, 0x00, 0x00, 0xEA, 0xFF, 0xFF, 0xFF, 0x7E, 0xCC, 0xFF, 0xFF, 0x00, 0x00, 0x00, 0x02, 0x10, 0x00, 0x00, 0x00, 0x16, 0x00, 0x00, 0x00, 0x10, 0x00, 0x00, 0x00, 0x4C, 0x00, 0x00, 0x00, 0x01, 0x00, 0x00, 0x00, 0x04, 0x00, 0x00, 0x00, 0x3A, 0x00, 0x00, 0x00, 0x73, 0x65, 0x71, 0x75, 0x65, 0x6E, 0x74, 0x69, 0x61, 0x6C, 0x5F, 0x31, 0x2F, 0x71, 0x75, 0x61, 0x6E, 0x74, 0x5F, 0x64, 0x65, 0x6E, 0x73, 0x65, 0x5F, 0x32, 0x2F, 0x42, 0x69, 0x61, 0x73, 0x41, 0x64, 0x64, 0x2F, 0x52, 0x65, 0x61, 0x64, 0x56, 0x61, 0x72, 0x69, 0x61, 0x62, 0x6C, 0x65, 0x4F, 0x70, 0x2F, 0x72, 0x65, 0x73, 0x6F, 0x75, 0x72, 0x63, 0x65, 0x00, 0x00, 0x2C, 0xCD, 0xFF, 0xFF, 0x08, 0x00, 0x00, 0x00, 0x0C, 0x00, 0x00, 0x00, 0x01, 0x00, 0x00, 0x00, 0x9E, 0x7B, 0xF2, 0x3B, 0x01, 0x00, 0x00, 0x00, 0x00, 0x00, 0x00, 0x00, 0x00, 0x00, 0x00, 0x00, 0x1A, 0xCD, 0xFF, 0xFF, 0x04, 0x00, 0x00, 0x00, 0xC0, 0x0C, 0x00, 0x00, 0xF6, 0x03, 0x05, 0xFA, 0x0A, 0x05, 0x0C, 0xF2, 0xF7, 0x0A, 0xF1, 0xF5, 0xF9, 0xF2, 0x05, 0x05, 0xF4, 0x0B, 0xFE, 0xF0, 0x02, 0xE6, 0x09, 0xF4, 0x0C, 0x01, 0xFC, 0xF1, 0xF3, 0xFC, 0xFB, 0xEE, 0x07, 0x07, 0x02, 0xE8, 0xF2, 0x06, 0xEA, 0xE2, 0x03, 0xE3, 0x12, 0xF2, 0xFE, 0x2D, 0xF1, 0xF5, 0xFF, 0xF4, 0xF3, 0xF5, 0x11, 0xF9, 0xF1, 0xEC, 0x00, 0xF3, 0x04, 0xEF, 0x11, 0x14, 0x0E, 0xDB, 0xF8, 0x14, 0xE6, 0x0C, 0xF3, 0xED, 0xEC, 0xFB, 0xED, 0xF4, 0xF0, 0xF3, 0x12, 0x0C, 0xF3, 0xF5, 0x13, 0xF1, 0x06, 0x0E, 0x09, 0xFA, 0x14, 0x02, 0xEC, 0xE7, 0xFF, 0x00, 0xF8, 0xF0, 0xFF, 0xE8, 0xFE, 0x0B, 0x13, 0x10, 0xEE, 0xF2, 0xF3, 0xFA, 0xFF, 0xED, 0x13, 0x00, 0xED, 0xFE, 0xF5, 0x03, 0xF2, 0x10, 0x06, 0xF9, 0xF8, 0xFD, 0x15, 0xF8, 0xEA, 0xF0, 0x04, 0xED, 0x09, 0x19, 0x06, 0x06, 0xF9, 0xF7, 0x21, 0x21, 0x0E, 0x10, 0xFC, 0x00, 0x05, 0xEF, 0x0A, 0x18, 0xF3, 0x18, 0xFD, 0x28, 0xF4, 0xED, 0xF6, 0x08, 0x06, 0x09, 0x11, 0x0A, 0x03, 0x03, 0x19, 0xFD, 0x23, 0x19, 0xFA, 0x04, 0x0E, 0xF6, 0xEA, 0x08, 0x17, 0xEE, 0x0E, 0x1A, 0xEA, 0x1D, 0x13, 0x11, 0x0F, 0x09, 0x10, 0x0B, 0x13, 0xF8, 0x15, 0x0B, 0x12, 0xEE, 0xEF, 0xFB, 0x06, 0xF5, 0x01, 0xF8, 0x02, 0xF2, 0x07, 0x0C, 0xF8, 0xF5, 0x02, 0x17, 0x06, 0x1C, 0x07, 0x0F, 0xF0, 0xFF, 0xEA, 0xFE, 0x1E, 0x13, 0x15, 0x0F, 0xF4, 0x0A, 0xFD, 0x1C, 0x18, 0x1E, 0xF5, 0xFB, 0x00, 0x0D, 0x0F, 0xF6, 0x01, 0x13, 0x06, 0x0E, 0xF5, 0x1B, 0x0A, 0x0F, 0x0F, 0x1B, 0x0A, 0x0B, 0x1B, 0x06, 0x22, 0x04, 0xF5, 0x0A, 0x0B, 0x04, 0x0A, 0xEA, 0xE6, 0x27, 0x0A, 0x15, 0xEE, 0xDF, 0xF3, 0x02, 0xDE, 0x10, 0x11, 0xEC, 0x13, 0x0D, 0x15, 0x0A, 0x12, 0x0B, 0x12, 0x18, 0xE5, 0xE4, 0xE9, 0x23, 0xFC, 0x1C, 0x0B, 0x1D, 0xFA, 0x0F, 0x08, 0x0C, 0xFC, 0xEB, 0x05, 0x0E, 0xEC, 0xFD, 0x0C, 0x07, 0xF3, 0x02, 0x04, 0xFF, 0x00, 0xFD, 0xFF, 0x0F, 0xF5, 0x0B, 0xF6, 0xF4, 0x12, 0xF5, 0xFC, 0x01, 0xF0, 0x07, 0xF7, 0xF1, 0x07, 0x07, 0xEA, 0xFA, 0x12, 0xF7, 0xF4, 0xF6, 0x12, 0x03, 0xE9, 0xE7, 0x13, 0xFD, 0x0B, 0xF5, 0x00, 0x09, 0x15, 0xF2, 0xE2, 0xE4, 0xFB, 0x07, 0x00, 0x17, 0x17, 0xEB, 0xDB, 0xE6, 0xFD, 0xFD, 0x12, 0x06, 0x12, 0xF3, 0xFF, 0x0D, 0xF1, 0xF5, 0x14, 0x07, 0x05, 0xEC, 0xF6, 0x13, 0x0A, 0x01, 0xF7, 0xE5, 0x0C, 0xF2, 0xF8, 0xFF, 0x01, 0xF9, 0x10, 0x0E, 0x0E, 0xEE, 0xFD, 0x03, 0xFB, 0xF1, 0x08, 0x1A, 0xED, 0x0C, 0x0C, 0x01, 0xFB, 0xE8, 0x09, 0x1A, 0x07, 0x03, 0x12, 0x0A, 0xFE, 0x1B, 0xE4, 0x07, 0xFA, 0xE2, 0xE5, 0xF3, 0xFC, 0x15, 0xEB, 0x06, 0x09, 0xFE, 0x01, 0x0C, 0xF6, 0xFE, 0x02, 0x02, 0xED, 0xFE, 0xEE, 0x09, 0xF1, 0xE5, 0x0D, 0x09, 0x04, 0xFF, 0x0D, 0xEE, 0xEB, 0x17, 0x02, 0xFD, 0x07, 0xF8, 0x03, 0x11, 0xEB, 0xFC, 0x01, 0xF1, 0xE3, 0x18, 0xF1, 0xFD, 0x05, 0xEA, 0x05, 0x15, 0xF3, 0xEA, 0xDA, 0x06, 0x02, 0x0A, 0xE5, 0xFC, 0xF0, 0x17, 0xE1, 0xE5, 0x01, 0x0F, 0x03, 0xF5, 0x0F, 0xF8, 0xE9, 0x04, 0x0D, 0xEA, 0x0D, 0xFE, 0xF1, 0xF3, 0xF9, 0x00, 0xFD, 0xEA, 0x0E, 0xF7, 0x11, 0xEC, 0xEA, 0xEF, 0x09, 0xEA, 0xEE, 0x0A, 0x12, 0x1D, 0xE6, 0xEE, 0x01, 0xEB, 0xF1, 0x0C, 0xED, 0x00, 0xFC, 0x19, 0xEB, 0x06, 0xE6, 0xFB, 0xF8, 0x15, 0xED, 0x0C, 0x00, 0xDD, 0x02, 0x06, 0xED, 0xF7, 0x11, 0x05, 0xF2, 0x0B, 0x02, 0xF1, 0x0F, 0x0E, 0x24, 0xFB, 0x05, 0x17, 0xE3, 0xF3, 0x04, 0xF3, 0xFA, 0xFB, 0xF4, 0x04, 0x12, 0xF1, 0xF0, 0xFA, 0xE2, 0x01, 0xDB, 0x05, 0x03, 0x09, 0xFC, 0x04, 0x34, 0xF8, 0xEE, 0xF0, 0xF5, 0x04, 0x01, 0x09, 0xEF, 0xEA, 0xE5, 0x05, 0xE9, 0xEC, 0xF5, 0xE7, 0x03, 0xFE, 0x04, 0x09, 0xF9, 0x06, 0xF1, 0x07, 0xF5, 0xF7, 0xDC, 0xEE, 0x0A, 0x00, 0xEF, 0xF6, 0xF7, 0x10, 0xF0, 0x05, 0xEF, 0xF5, 0x04, 0xF8, 0x13, 0xFF, 0x08, 0xFA, 0xF7, 0xF5, 0xEF, 0x22, 0xDD, 0xF9, 0x05, 0xEF, 0xFE, 0x18, 0x1C, 0xF7, 0x08, 0x0F, 0x00, 0xF6, 0x15, 0x10, 0xF7, 0x0A, 0xFF, 0xF9, 0xF7, 0xEF, 0x04, 0x19, 0xF0, 0xF2, 0xFA, 0x03, 0xCF, 0xF0, 0x00, 0xF4, 0x10, 0x02, 0xD6, 0xE7, 0xE7, 0x04, 0x0C, 0xF7, 0xED, 0x00, 0x0F, 0xF0, 0x13, 0x17, 0xF7, 0x01, 0x01, 0x02, 0xF9, 0x02, 0x07, 0x02, 0xF3, 0x23, 0xFF, 0xF4, 0xF2, 0xFA, 0x02, 0xEC, 0x01, 0xF2, 0xF6, 0xFA, 0x21, 0x08, 0xF9, 0x02, 0xF4, 0xEB, 0x09, 0xEC, 0x12, 0x19, 0x10, 0xE5, 0x0A, 0x01, 0xE7, 0x0E, 0xFC, 0x18, 0x14, 0x02, 0xF0, 0x10, 0x11, 0x00, 0x27, 0x0E, 0x16, 0xF5, 0x08, 0xF4, 0x0A, 0x00, 0xD9, 0xE5, 0x0E, 0xE9, 0xFA, 0xEF, 0xEE, 0xF2, 0x00, 0xF1, 0xDB, 0x11, 0xEC, 0xFA, 0xE8, 0x01, 0xD9, 0xF7, 0xEB, 0x06, 0xF5, 0x14, 0xF3, 0xF3, 0xE7, 0xE8, 0x05, 0xF0, 0xD7, 0x11, 0xFF, 0x03, 0xF7, 0xF4, 0x05, 0xFC, 0x01, 0x25, 0x05, 0xFE, 0xD8, 0x02, 0xF5, 0x0E, 0xDB, 0x07, 0xF7, 0xE7, 0x11, 0xF1, 0x0A, 0xF0, 0xF3, 0xFC, 0x1C, 0xF7, 0x09, 0xEF, 0xE7, 0x15, 0x00, 0x02, 0xE8, 0x0E, 0x33, 0xED, 0xFE, 0x10, 0xF4, 0xFB, 0x14, 0x19, 0x0A, 0xFD, 0xEA, 0xF1, 0xFE, 0xFD, 0x05, 0x11, 0xEE, 0x09, 0x11, 0xDF, 0xF4, 0xF5, 0xFC, 0xE8, 0x01, 0xF4, 0x00, 0x09, 0xE2, 0xF2, 0xDF, 0xE2, 0xF4, 0xEF, 0xF7, 0x0E, 0xE4, 0xF4, 0xED, 0xF6, 0xF2, 0xE5, 0xF8, 0x0D, 0xEB, 0x04, 0xED, 0x07, 0x01, 0xF3, 0x12, 0xF5, 0x0D, 0xEE, 0xC9, 0xF0, 0x05, 0xE9, 0xFB, 0xEB, 0xE5, 0xF9, 0xE3, 0x10, 0xF6, 0x20, 0x06, 0x14, 0xF2, 0x1B, 0x01, 0xF8, 0xF6, 0x13, 0xFF, 0xF6, 0xF6, 0x04, 0x02, 0xF5, 0x01, 0x0B, 0xF2, 0xFA, 0x05, 0xFC, 0x0C, 0xFF, 0xF8, 0xFB, 0x10, 0xF8, 0x05, 0x08, 0x07, 0xF9, 0xF7, 0xEF, 0x00, 0x07, 0xFE, 0xE5, 0x08, 0x0F, 0xFE, 0xF9, 0xFF, 0x09, 0xF7, 0xF7, 0x0B, 0x13, 0xF5, 0xE8, 0x07, 0xF9, 0xF7, 0x0F, 0x07, 0x0D, 0x06, 0xDD, 0x0F, 0xF9, 0x1D, 0xEE, 0xF1, 0x03, 0xF0, 0xE6, 0x11, 0x02, 0x04, 0x0D, 0x15, 0x01, 0xEE, 0xE8, 0xF5, 0xFC, 0x0C, 0x05, 0xFB, 0x06, 0xF3, 0xFF, 0xF4, 0xE5, 0xFB, 0x03, 0x02, 0xE7, 0xFC, 0x0C, 0xE4, 0x09, 0xEE, 0x06, 0xFE, 0xF3, 0xEF, 0x01, 0xF9, 0x12, 0x08, 0x14, 0xE7, 0xE9, 0xEE, 0x02, 0xF0, 0xF0, 0xEA, 0x00, 0x15, 0x0C, 0x0E, 0xE1, 0x05, 0x16, 0xFE, 0x02, 0x10, 0xFB, 0xFC, 0x18, 0xEB, 0x26, 0xF8, 0x00, 0xF1, 0x07, 0x18, 0x0A, 0x17, 0xE6, 0xE8, 0xFB, 0x10, 0x06, 0x0D, 0x13, 0x05, 0x0F, 0x00, 0x10, 0x04, 0xE4, 0x06, 0xFE, 0x0F, 0xF2, 0x03, 0x07, 0x05, 0xFA, 0x08, 0xFA, 0xFD, 0x03, 0xFF, 0x06, 0x05, 0x04, 0x1A, 0xF7, 0x05, 0xF0, 0x07, 0xF1, 0xEE, 0xEF, 0xF4, 0xF7, 0xEE, 0x01, 0x14, 0x0D, 0x06, 0x03, 0x10, 0x25, 0xEC, 0x1A, 0xEA, 0xF7, 0xFD, 0x12, 0x1C, 0xF3, 0xFB, 0xF0, 0xF4, 0xF6, 0xFD, 0x09, 0xFB, 0x08, 0x0E, 0x00, 0xF3, 0xF7, 0x19, 0x06, 0x07, 0xEA, 0x18, 0x16, 0x01, 0x0E, 0xF4, 0xF7, 0x13, 0x1F, 0x02, 0x09, 0xF7, 0xF4, 0xF0, 0xF6, 0xEE, 0xF9, 0x0E, 0x07, 0x0F, 0x22, 0x11, 0xF5, 0x10, 0x22, 0xF7, 0x20, 0x18, 0x03, 0x13, 0xFE, 0xDE, 0xE9, 0x19, 0x05, 0x02, 0x12, 0x04, 0xF8, 0x00, 0x20, 0x05, 0xF8, 0xF0, 0xEF, 0x0B, 0x09, 0x24, 0x0A, 0x1B, 0x03, 0xF5, 0x02, 0xFD, 0x0B, 0xDD, 0x10, 0xF1, 0xFE, 0x18, 0x23, 0x13, 0x11, 0x0A, 0x07, 0x0E, 0xFE, 0xFE, 0x13, 0x15, 0xFA, 0x0C, 0x05, 0x14, 0x08, 0xE8, 0x22, 0x0E, 0x17, 0xFF, 0x0B, 0x19, 0x12, 0x09, 0xFA, 0x09, 0xF9, 0x0B, 0xF2, 0x04, 0xF9, 0xF1, 0xF7, 0x03, 0x06, 0xF3, 0xFF, 0x03, 0x06, 0xFA, 0xFF, 0xF9, 0xF5, 0xFE, 0xFD, 0x0C, 0x17, 0xFB, 0xF2, 0x04, 0x00, 0xE9, 0x07, 0xFD, 0xF2, 0x0E, 0xF9, 0xFE, 0x0B, 0x0D, 0x08, 0xEF, 0x14, 0x05, 0x0F, 0xF6, 0x10, 0xF4, 0xDB, 0x02, 0xFF, 0xF9, 0xFF, 0x14, 0x02, 0x05, 0xF6, 0x03, 0xF2, 0x1C, 0x06, 0xED, 0x09, 0xEA, 0x17, 0xF2, 0xFE, 0x14, 0xE1, 0xF2, 0xFA, 0xF0, 0x09, 0xEC, 0x00, 0x0C, 0x02, 0xFE, 0xF0, 0x04, 0xF6, 0x14, 0x0C, 0x02, 0xFA, 0xE6, 0x11, 0x01, 0xEF, 0xF6, 0x00, 0x12, 0x27, 0xF4, 0xE0, 0xEC, 0x20, 0xFF, 0xF7, 0xE8, 0xFA, 0x0D, 0x00, 0x01, 0xFA, 0xE8, 0xE9, 0x06, 0x09, 0xF1, 0x12, 0x1A, 0x0E, 0x00, 0x04, 0xE3, 0xFF, 0x0B, 0xE8, 0xE5, 0xF5, 0xFF, 0x00, 0x04, 0x22, 0x0D, 0xFE, 0xE9, 0xF2, 0xF2, 0xEC, 0xF6, 0x12, 0x09, 0x0B, 0xEF, 0xFE, 0x09, 0x04, 0xEC, 0xF3, 0xFA, 0x08, 0xF0, 0xF1, 0xE8, 0x12, 0x13, 0x0F, 0x16, 0x0B, 0xE4, 0xFA, 0xF2, 0xFA, 0xF7, 0xF1, 0x06, 0xF3, 0xFF, 0xE2, 0xFF, 0xE9, 0x0F, 0xF4, 0x06, 0x03, 0xF8, 0xEE, 0xF4, 0xF3, 0x0D, 0x15, 0x0D, 0xF6, 0xD3, 0x0C, 0x0F, 0xF2, 0xEB, 0x08, 0x13, 0xE6, 0xFD, 0xF9, 0xFC, 0xEC, 0x08, 0x04, 0xE4, 0xF6, 0xEC, 0xFD, 0xEC, 0xDE, 0xE6, 0x0A, 0x00, 0x05, 0xDF, 0xEB, 0x0D, 0x0C, 0x13, 0x06, 0xE2, 0x0B, 0xDA, 0xE6, 0xF0, 0xE1, 0x11, 0x01, 0xF7, 0xF1, 0x09, 0x0E, 0xFE, 0xEF, 0x01, 0xF9, 0x04, 0xFA, 0xFE, 0xF0, 0x00, 0xF8, 0x09, 0xFA, 0xEA, 0xE4, 0xF8, 0xFF, 0x10, 0xFC, 0xF7, 0x02, 0xE2, 0x0C, 0xE3, 0xE9, 0x0E, 0x04, 0x0F, 0xEE, 0x13, 0xF1, 0xF6, 0x0F, 0xF0, 0x14, 0x15, 0xDD, 0xFF, 0x20, 0xF0, 0xF3, 0xE1, 0x05, 0xF2, 0x18, 0x14, 0xF4, 0x7F, 0x09, 0x1A, 0x11, 0xE8, 0xF7, 0xE6, 0x11, 0x21, 0x08, 0xDF, 0x0C, 0xFD, 0x0F, 0x0F, 0x13, 0x0E, 0xFB, 0xF5, 0x12, 0xF8, 0xFE, 0xEB, 0xFB, 0xEF, 0xFF, 0xEE, 0xFF, 0xFB, 0xFA, 0x0F, 0x07, 0x0C, 0xF8, 0xFF, 0x17, 0xF0, 0xFB, 0xF1, 0xFC, 0x0A, 0xE9, 0x0A, 0xF2, 0x09, 0x0D, 0x14, 0x02, 0xEE, 0x02, 0x08, 0x17, 0xF8, 0x06, 0xFD, 0x08, 0x0C, 0x07, 0x02, 0xF4, 0x18, 0xF9, 0x0E, 0x04, 0x15, 0x05, 0x0A, 0x07, 0x1D, 0x12, 0xF4, 0x12, 0x27, 0xE6, 0xEA, 0x00, 0xEE, 0xD4, 0xFD, 0xF9, 0xD9, 0xE5, 0x08, 0xFE, 0x03, 0x0C, 0x0A, 0xFC, 0xFD, 0x0D, 0xFC, 0xF5, 0x03, 0x05, 0xE3, 0x0C, 0xDC, 0xF0, 0x16, 0xEB, 0xFA, 0x22, 0xE7, 0xFB, 0x1C, 0x23, 0xE7, 0x0C, 0xE8, 0x0C, 0x0A, 0x06, 0x34, 0x11, 0xFD, 0xE6, 0xED, 0xF7, 0x06, 0xEC, 0xF6, 0x14, 0xF1, 0x07, 0xEE, 0x02, 0x00, 0xF6, 0x12, 0x0A, 0x0F, 0x0A, 0x00, 0xFB, 0x22, 0xEA, 0x26, 0xE3, 0x23, 0x0C, 0xF6, 0xEB, 0x02, 0x15, 0xCA, 0x06, 0xF4, 0x00, 0xF2, 0x11, 0x12, 0xDD, 0xFB, 0xEA, 0x25, 0xE7, 0xF7, 0x13, 0xF2, 0xE6, 0xE0, 0xEA, 0xE3, 0xF3, 0xE8, 0xF5, 0xFB, 0xEB, 0xE1, 0xF9, 0xFA, 0xFA, 0xEA, 0x11, 0x07, 0xE8, 0xF1, 0x15, 0xF5, 0xFD, 0x11, 0xF0, 0x05, 0xF5, 0xDF, 0xCC, 0x02, 0xFF, 0xDF, 0xEE, 0xE2, 0x10, 0xE3, 0xEE, 0xF2, 0x04, 0xEA, 0xFD, 0xF5, 0x06, 0x00, 0xF1, 0xE8, 0x0F, 0xF2, 0xF5, 0xEC, 0xF7, 0xF9, 0xFC, 0xE6, 0xFD, 0xED, 0xEA, 0x08, 0xF5, 0xE8, 0xDE, 0xEC, 0xE8, 0x05, 0xE9, 0xF8, 0xE3, 0x1E, 0xED, 0xFC, 0x05, 0x12, 0xF9, 0x01, 0x08, 0x01, 0xFA, 0xFC, 0xFA, 0xDA, 0xEF, 0xE5, 0x10, 0x30, 0x15, 0x0B, 0xE1, 0xFD, 0x09, 0xF9, 0xE1, 0xD2, 0xFB, 0xE6, 0xFB, 0xED, 0xEE, 0x07, 0xEB, 0x3B, 0xED, 0x14, 0x09, 0x06, 0xF6, 0xCF, 0xE9, 0xCF, 0xD5, 0x05, 0xFA, 0xF3, 0x12, 0xF5, 0x3C, 0xEB, 0x43, 0xF7, 0x05, 0xF0, 0xF2, 0x16, 0xF6, 0xFC, 0xD8, 0x19, 0xF7, 0xE3, 0x02, 0xF1, 0xFF, 0x06, 0xFE, 0xF2, 0x00, 0x0A, 0x06, 0x0C, 0x07, 0xF9, 0x0A, 0xFB, 0x03, 0xFB, 0xF4, 0xF0, 0xFE, 0xF0, 0x01, 0xF8, 0xEC, 0xF3, 0x11, 0x0E, 0x08, 0x0C, 0xFF, 0x01, 0x0C, 0xF8, 0xFD, 0xF0, 0xF6, 0x01, 0x05, 0xEC, 0xFF, 0x0B, 0xEE, 0xFA, 0xEA, 0x04, 0x15, 0x0C, 0x19, 0x0A, 0xF0, 0xFE, 0x05, 0x18, 0xF4, 0xFE, 0xF6, 0x0D, 0xEE, 0x15, 0xEF, 0x07, 0x04, 0xF3, 0x18, 0x12, 0xEB, 0x0E, 0x1D, 0xF5, 0x1C, 0x21, 0x11, 0xF5, 0xF1, 0xF4, 0xEE, 0xF8, 0xF4, 0xFE, 0xF6, 0x07, 0xFD, 0x14, 0x18, 0x17, 0x15, 0xFC, 0xF0, 0x16, 0x16, 0xF1, 0x21, 0x21, 0xFD, 0x01, 0x03, 0x0B, 0xFE, 0x20, 0xFB, 0xF0, 0x17, 0x00, 0xEB, 0x13, 0xF4, 0xFD, 0x18, 0xFA, 0xFD, 0x13, 0x07, 0xEF, 0x14, 0x02, 0xF8, 0xF7, 0xFB, 0x0F, 0xFC, 0xF4, 0x09, 0xF9, 0xF4, 0xF9, 0xFE, 0x03, 0x14, 0x03, 0x1E, 0xF7, 0xFE, 0x0F, 0x0D, 0x02, 0xF5, 0xF8, 0x0C, 0x09, 0xF9, 0x13, 0x10, 0xFC, 0x0D, 0xF7, 0x19, 0x1A, 0xF4, 0xF8, 0xF8, 0x15, 0xF4, 0xF8, 0x13, 0x0C, 0xF8, 0x18, 0xF2, 0x06, 0xFF, 0x0C, 0xF9, 0xEF, 0xFB, 0xEC, 0x19, 0x1B, 0x05, 0xF2, 0x0B, 0x12, 0x08, 0xE8, 0xFE, 0x0A, 0xFD, 0x11, 0xEF, 0x05, 0xFD, 0x15, 0x26, 0xEF, 0x05, 0x1B, 0x02, 0xF6, 0xF9, 0x0C, 0x06, 0x0E, 0x00, 0x09, 0x19, 0x09, 0x07, 0x0C, 0x09, 0xFB, 0xF7, 0xF3, 0xF0, 0x18, 0xF9, 0x15, 0x0D, 0xFF, 0x08, 0x00, 0xE4, 0x0F, 0xF3, 0xEB, 0x11, 0xE9, 0xF0, 0x06, 0x22, 0xEF, 0x00, 0xF1, 0xEC, 0xF8, 0x02, 0x02, 0xEB, 0x0D, 0x0A, 0x11, 0x0A, 0x08, 0x00, 0x08, 0xDF, 0xEC, 0xEC, 0x08, 0xF8, 0xFD, 0xFF, 0xFD, 0xD6, 0x0B, 0xF7, 0xE9, 0xF6, 0x17, 0x07, 0xFD, 0xB3, 0xEB, 0x08, 0xF6, 0x0D, 0xF2, 0x0C, 0x15, 0xED, 0xED, 0x0D, 0x41, 0xE1, 0xF0, 0xFE, 0x17, 0xCE, 0xED, 0xEF, 0xE5, 0x14, 0x05, 0x04, 0x12, 0xEF, 0x12, 0x05, 0x06, 0x08, 0xFC, 0xFB, 0x08, 0x04, 0x0B, 0xFE, 0x09, 0x02, 0xF4, 0xF6, 0xFD, 0x03, 0xF9, 0x0E, 0xF0, 0x07, 0xFC, 0x0C, 0xF5, 0x03, 0xFC, 0xFC, 0x05, 0x10, 0x05, 0x06, 0xF2, 0xFA, 0xF7, 0xF5, 0x12, 0x04, 0xFE, 0x09, 0xF5, 0x07, 0x02, 0x00, 0x15, 0x0B, 0x0D, 0xFC, 0xFE, 0xF7, 0x09, 0xF4, 0x03, 0xFC, 0xF7, 0xEC, 0x1B, 0xF7, 0xEF, 0x08, 0xF5, 0x0E, 0x06, 0x05, 0x00, 0x0D, 0xFA, 0xFD, 0xFF, 0xFB, 0xF2, 0x04, 0x06, 0x09, 0xE8, 0x0E, 0x09, 0x11, 0xF6, 0xFC, 0x10, 0x0F, 0xF3, 0x1A, 0xEA, 0x0A, 0x0B, 0xEF, 0x00, 0x06, 0xFE, 0x05, 0xFF, 0x1B, 0x12, 0x13, 0xFA, 0x19, 0x0C, 0xF7, 0x10, 0x1A, 0x07, 0xF8, 0xF9, 0xFE, 0x12, 0x06, 0x15, 0x1C, 0x11, 0x14, 0x02, 0xFF, 0x0B, 0xF5, 0xFD, 0xF0, 0xEF, 0x05, 0xEE, 0xF0, 0x0E, 0xFF, 0xF4, 0xE8, 0x01, 0x1A, 0x11, 0xEF, 0x08, 0xFA, 0x06, 0x0B, 0x01, 0x0E, 0xF7, 0x0B, 0x09, 0xFE, 0x01, 0xF0, 0xF0, 0xF9, 0xFA, 0x13, 0x05, 0xF3, 0x11, 0x08, 0x16, 0x19, 0x0C, 0x0A, 0xF8, 0x1F, 0xED, 0xF1, 0xFF, 0x00, 0xEF, 0x12, 0x03, 0x02, 0xF1, 0xED, 0x02, 0x13, 0x10, 0x12, 0x0B, 0x05, 0xCA, 0xE9, 0x20, 0x00, 0x11, 0x02, 0x16, 0xF1, 0x11, 0x09, 0x0C, 0xF4, 0x09, 0xF9, 0xF2, 0x06, 0x01, 0xF4, 0xEB, 0xEA, 0x06, 0xE7, 0xF7, 0x1A, 0x08, 0xEE, 0x11, 0x1A, 0x0C, 0xE3, 0x02, 0xFD, 0xFB, 0xFF, 0x13, 0x04, 0x05, 0x08, 0xF7, 0xFF, 0x0F, 0x0C, 0xE9, 0x00, 0x09, 0xE0, 0xF8, 0xEC, 0xFB, 0xE2, 0xE5, 0xE9, 0xFD, 0x0D, 0xF0, 0x0E, 0xF4, 0x09, 0x01, 0xF6, 0xED, 0x00, 0x12, 0x0B, 0x05, 0xD2, 0x10, 0x04, 0xFC, 0x1A, 0x12, 0xE3, 0xFF, 0xFD, 0xEC, 0xF9, 0xE4, 0x08, 0xE6, 0xF5, 0xED, 0xED, 0x05, 0xFA, 0xF4, 0x06, 0xF5, 0x09, 0x0C, 0xF6, 0xF8, 0xE8, 0xE2, 0xE2, 0x16, 0xF9, 0x10, 0xEA, 0x07, 0x1B, 0x02, 0x07, 0xEF, 0x0E, 0xFA, 0x0A, 0x0E, 0xEC, 0xF5, 0xF7, 0xFB, 0x01, 0x0D, 0x02, 0x15, 0x07, 0x00, 0x02, 0x06, 0x10, 0xED, 0x0A, 0x14, 0xF4, 0x01, 0x00, 0xF6, 0x09, 0x04, 0x0A, 0xFA, 0xEF, 0x07, 0xEE, 0xEF, 0x09, 0xF1, 0x05, 0xFB, 0xEF, 0xF1, 0x19, 0xFE, 0xFF, 0xFA, 0xF0, 0x0C, 0xFE, 0xEE, 0x18, 0xF1, 0x02, 0xF9, 0x06, 0x04, 0x10, 0x05, 0x09, 0x15, 0xF7, 0xF4, 0xF9, 0xE8, 0xDC, 0x09, 0x0B, 0x11, 0xE8, 0xF5, 0xEC, 0x0E, 0x14, 0x0C, 0xFA, 0xE8, 0x0F, 0xF6, 0xFD, 0xF7, 0xF1, 0xF1, 0xFC, 0x17, 0x04, 0xFE, 0xEA, 0x12, 0xFA, 0xEA, 0x1E, 0x0C, 0x17, 0x03, 0x11, 0x05, 0x18, 0x0A, 0xE3, 0x17, 0x0E, 0x01, 0x0D, 0x06, 0x06, 0xFE, 0xF6, 0xFA, 0x01, 0xF0, 0x30, 0xF1, 0xE7, 0xEF, 0xEF, 0x07, 0xE8, 0xEF, 0xF2, 0x06, 0xFD, 0xFA, 0xFF, 0xF7, 0xE5, 0x18, 0xF4, 0x1E, 0xE6, 0x08, 0xF1, 0x0F, 0xFE, 0x16, 0xFC, 0xFD, 0x0F, 0xF5, 0xFB, 0xFA, 0x19, 0xFC, 0xF6, 0x04, 0x17, 0xE8, 0x04, 0xFE, 0xFC, 0xAE, 0xF6, 0x02, 0x06, 0xF5, 0xF1, 0x0B, 0x1C, 0xF3, 0xF6, 0xF2, 0xF4, 0x0F, 0x03, 0x18, 0xF6, 0x0E, 0x09, 0x13, 0x01, 0xF4, 0x14, 0xE5, 0xF6, 0xF5, 0xED, 0xE4, 0xF2, 0xE7, 0x0C, 0xEB, 0xF6, 0x21, 0xF5, 0xE8, 0x15, 0x0D, 0x14, 0x13, 0xEE, 0xD9, 0x0E, 0x15, 0xEF, 0x13, 0xF9, 0x0B, 0xEF, 0x02, 0xEE, 0xEB, 0x06, 0x0C, 0x04, 0xFA, 0x0D, 0x22, 0x06, 0xE2, 0x1A, 0x13, 0x0D, 0x14, 0xFC, 0xF2, 0xFE, 0x19, 0xED, 0xEC, 0xEC, 0xEA, 0x02, 0x03, 0xED, 0x08, 0x00, 0xF3, 0xF8, 0xE7, 0xF8, 0xB9, 0x0A, 0x0B, 0xFA, 0x05, 0xEC, 0x0C, 0x05, 0x05, 0x03, 0x0E, 0x04, 0x13, 0xFB, 0xEA, 0xE2, 0xAF, 0xEF, 0x03, 0x10, 0xE5, 0xF9, 0x2F, 0x16, 0x07, 0xF2, 0xE8, 0xF2, 0xE8, 0xEC, 0xEC, 0xD7, 0xF4, 0x04, 0x13, 0x0C, 0x02, 0xF2, 0xEB, 0xEA, 0xFB, 0x14, 0x03, 0xE0, 0x0B, 0x05, 0xFD, 0xF4, 0x07, 0xFB, 0x03, 0x07, 0x01, 0xED, 0x03, 0x06, 0x04, 0xF4, 0xFD, 0x03, 0xFF, 0xFF, 0x13, 0xF4, 0xF9, 0x04, 0x0D, 0x04, 0x00, 0x06, 0xF9, 0xF8, 0xF6, 0x05, 0x04, 0xF0, 0xFD, 0xF6, 0xF1, 0x0B, 0xFA, 0x04, 0x00, 0xEC, 0xFE, 0x0C, 0xFB, 0xF8, 0x13, 0xFB, 0x03, 0xFC, 0x00, 0x08, 0xF3, 0xF7, 0x01, 0x04, 0x12, 0x0E, 0x06, 0xFB, 0x03, 0x05, 0x04, 0x02, 0x06, 0x16, 0xF7, 0xFD, 0xF8, 0x07, 0xFC, 0x07, 0xEF, 0xF9, 0x01, 0x13, 0x04, 0x08, 0x1A, 0xEB, 0x10, 0x03, 0x1D, 0x20, 0xF4, 0x05, 0xF6, 0x02, 0x0B, 0x12, 0xF4, 0xFE, 0x01, 0x14, 0x16, 0xF9, 0x00, 0x04, 0x17, 0x06, 0xF7, 0x03, 0x06, 0x00, 0x19, 0xFE, 0xEC, 0x0B, 0xFE, 0xEB, 0xFD, 0xF2, 0xFA, 0x00, 0x0D, 0xEF, 0x05, 0x0A, 0xE6, 0xF4, 0xF9, 0x0B, 0xF0, 0xF9, 0xF6, 0xFB, 0xFB, 0x0E, 0x00, 0xE7, 0xFB, 0xFD, 0x08, 0xFA, 0x0C, 0xF7, 0x0F, 0x0A, 0x16, 0xF5, 0xF5, 0x10, 0xF8, 0xE0, 0xED, 0xF7, 0xF5, 0xED, 0xE2, 0xFE, 0x01, 0x04, 0x0D, 0x0F, 0x09, 0xF9, 0x08, 0x14, 0xFA, 0x16, 0xFD, 0x05, 0xDE, 0x03, 0xEE, 0x13, 0x0A, 0xFC, 0xED, 0x00, 0xF5, 0x10, 0xEE, 0xF7, 0xEF, 0x13, 0x0A, 0xF7, 0x00, 0x0D, 0x07, 0xFF, 0x03, 0xFE, 0xED, 0xEF, 0x0B, 0xF7, 0xFB, 0x07, 0x1C, 0xFF, 0xEC, 0xE7, 0x09, 0xE6, 0x0E, 0xF1, 0x02, 0xEC, 0xF3, 0xFE, 0x0C, 0xF6, 0x02, 0xFA, 0x03, 0xFC, 0xED, 0xF5, 0x04, 0xF9, 0x04, 0xEC, 0xE8, 0xF6, 0xEF, 0x06, 0x0F, 0xE9, 0x0C, 0xE5, 0xF1, 0xFD, 0x06, 0xED, 0xFF, 0xFB, 0xFC, 0x0E, 0x17, 0xE5, 0xE1, 0xFE, 0xE9, 0xF1, 0xE1, 0xF5, 0xDA, 0x0B, 0xDE, 0x0D, 0xFD, 0xFE, 0xF1, 0xFA, 0x2E, 0xD6, 0xF4, 0x05, 0xF5, 0x0B, 0xE8, 0xED, 0xFC, 0xFB, 0x09, 0x00, 0xED, 0xD7, 0xF0, 0x1D, 0x03, 0xE4, 0x05, 0x13, 0x0B, 0x03, 0xE6, 0xD8, 0xF6, 0xDA, 0xFF, 0xE6, 0xEB, 0xED, 0xF0, 0x08, 0x0A, 0x00, 0xF5, 0x00, 0xEE, 0xFF, 0xF3, 0xFA, 0x0D, 0xF8, 0x00, 0x0F, 0xF8, 0x0B, 0x11, 0xEE, 0xF4, 0x05, 0x10, 0xFB, 0x0C, 0x0B, 0xFF, 0x02, 0xF1, 0x13, 0xFD, 0x04, 0x00, 0xFB, 0x00, 0x0E, 0xEA, 0x0D, 0xFB, 0x11, 0xF0, 0xF9, 0x03, 0xE6, 0x07, 0x0D, 0x07, 0x19, 0xF5, 0x06, 0xF9, 0x17, 0x08, 0x09, 0xEB, 0xFE, 0x0B, 0xDB, 0x00, 0xF6, 0x1D, 0x02, 0xF6, 0xFD, 0xF3, 0x02, 0x13, 0x0E, 0x10, 0x18, 0x19, 0x16, 0x07, 0xEF, 0x0B, 0x1A, 0x0D, 0x11, 0xF6, 0x15, 0xF3, 0x09, 0x0A, 0xFB, 0xF2, 0x14, 0xF0, 0xF1, 0xFB, 0xE8, 0x17, 0x13, 0x1D, 0xDC, 0xF5, 0xF8, 0x00, 0x08, 0x07, 0x1D, 0xDA, 0xEF, 0x0A, 0x02, 0xFE, 0xF9, 0xF1, 0x05, 0xF4, 0xEC, 0x1A, 0xFA, 0x1C, 0xE2, 0x1B, 0x18, 0xF2, 0xF8, 0xEE, 0x11, 0x03, 0xFA, 0x0D, 0x09, 0xF3, 0xFB, 0x12, 0x09, 0x04, 0x0F, 0x03, 0xFD, 0x15, 0x10, 0x0B, 0x15, 0xFE, 0xFD, 0xFF, 0x04, 0x10, 0xF8, 0xEE, 0xF4, 0x08, 0xEB, 0xF5, 0xFA, 0xFD, 0xFA, 0xF0, 0x07, 0xFA, 0xFA, 0x03, 0xF9, 0x0B, 0xF7, 0x01, 0x0C, 0x02, 0x04, 0x13, 0x14, 0xFF, 0xF0, 0xF1, 0x13, 0x12, 0xFC, 0xFC, 0x08, 0x35, 0x1C, 0x1B, 0x03, 0x18, 0xFE, 0x13, 0x06, 0xF6, 0xFF, 0x12, 0x10, 0x15, 0x05, 0x1C, 0xF5, 0x18, 0x0B, 0x1A, 0x13, 0xEA, 0x07, 0xEC, 0xF8, 0x08, 0x00, 0x06, 0x0B, 0x13, 0xF0, 0x0B, 0x0F, 0x0C, 0x18, 0x11, 0xFC, 0x09, 0xF2, 0xFC, 0x11, 0x0F, 0xEF, 0x00, 0xF7, 0xF0, 0x1D, 0x01, 0xE3, 0x16, 0x08, 0xFB, 0xF2, 0xF1, 0xFE, 0xF0, 0x0B, 0xEA, 0xEB, 0xF9, 0x09, 0x08, 0x18, 0x0E, 0x10, 0xFB, 0xFE, 0xFB, 0xEB, 0x18, 0x12, 0x0C, 0x25, 0xE2, 0xF6, 0x03, 0x07, 0x11, 0x10, 0x0C, 0xE2, 0x02, 0x19, 0x18, 0xF5, 0x0D, 0xFC, 0x13, 0x04, 0x86, 0x08, 0x01, 0xEA, 0x1A, 0x11, 0xF2, 0xD8, 0xEE, 0xFE, 0xF6, 0xF0, 0xFF, 0xF6, 0x0B, 0x11, 0x08, 0x01, 0x0E, 0xF3, 0xF1, 0x05, 0x00, 0x01, 0x05, 0xFB, 0x09, 0xF7, 0x10, 0xF6, 0x0F, 0x05, 0x07, 0x0E, 0xF6, 0x00, 0xFB, 0x0D, 0xFF, 0x02, 0x06, 0xF1, 0xFE, 0x0B, 0xF2, 0xFA, 0xFC, 0x07, 0xE4, 0xF1, 0x0C, 0x0E, 0xE8, 0xF2, 0x13, 0x07, 0xF1, 0xF5, 0x0E, 0xF7, 0x08, 0x16, 0x09, 0x1E, 0x0A, 0xF7, 0x17, 0x16, 0xDF, 0x05, 0xED, 0xF6, 0xE1, 0x02, 0x10, 0xF3, 0xF5, 0x1D, 0x02, 0xF6, 0x0F, 0xF3, 0x10, 0x13, 0x0A, 0xF0, 0xEB, 0x0F, 0x21, 0x00, 0xDB, 0xF9, 0x03, 0xFC, 0x02, 0x0D, 0x0D, 0x0E, 0x01, 0x01, 0x05, 0xEF, 0x13, 0x09, 0x0A, 0x00, 0x03, 0x02, 0xFC, 0x11, 0x07, 0xF6, 0xF8, 0x05, 0xFB, 0xF5, 0xEB, 0x06, 0xEE, 0x14, 0xF7, 0xE9, 0xF9, 0x03, 0x17, 0x00, 0x1C, 0xFB, 0x0D, 0xF6, 0xED, 0xFE, 0xFC, 0xF6, 0xE8, 0x16, 0xEE, 0xF9, 0xF5, 0xFC, 0xF9, 0x24, 0x11, 0x0B, 0x3B, 0x1E, 0xF3, 0x02, 0x1C, 0x03, 0x14, 0xF2, 0xFE, 0xF6, 0xFC, 0xF0, 0x1A, 0xFD, 0x15, 0x05, 0xD0, 0x1E, 0x0C, 0x21, 0xF0, 0xF4, 0x07, 0x16, 0x0F, 0x14, 0x06, 0xFF, 0x0B, 0xF7, 0x0B, 0x03, 0x1A, 0x09, 0x03, 0x06, 0x11, 0x17, 0x14, 0x12, 0xF1, 0x16, 0x10, 0xFF, 0x07, 0xFF, 0x13, 0x13, 0xE6, 0x0D, 0x14, 0xFD, 0x13, 0xFB, 0x05, 0x1D, 0x00, 0xEF, 0x11, 0xF2, 0xF7, 0xEB, 0xF5, 0xF4, 0x07, 0x0C, 0x17, 0x1C, 0x08, 0x0A, 0x07, 0xFA, 0x0C, 0xF9, 0x20, 0x04, 0x17, 0x08, 0xEE, 0x12, 0xEC, 0x02, 0xF0, 0xF4, 0x0A, 0x08, 0xF2, 0xF4, 0x1C, 0xFE, 0x00, 0xFB, 0x20, 0xFA, 0x05, 0xEC, 0x0D, 0xF4, 0xFB, 0x0F, 0x05, 0x01, 0x11, 0xEC, 0x03, 0x21, 0xF5, 0x0D, 0xF6, 0xF6, 0xFE, 0x14, 0xD6, 0x04, 0x19, 0x19, 0xF6, 0x20, 0x1E, 0xED, 0xFE, 0x01, 0x04, 0x08, 0x01, 0x11, 0x08, 0xD6, 0xF1, 0xDB, 0xF6, 0x00, 0xF7, 0x07, 0xF9, 0xEC, 0x11, 0x02, 0xFD, 0xFC, 0x07, 0x02, 0xCA, 0xD9, 0xFF, 0xFF, 0x00, 0x00, 0x00, 0x09, 0x10, 0x00, 0x00, 0x00, 0x15, 0x00, 0x00, 0x00, 0x14, 0x00, 0x00, 0x00, 0x78, 0x00, 0x00, 0x00, 0x02, 0x00, 0x00, 0x00, 0x04, 0x00, 0x00, 0x00, 0x30, 0x03, 0x00, 0x00, 0x63, 0x00, 0x00, 0x00, 0x73, 0x65, 0x71, 0x75, 0x65, 0x6E, 0x74, 0x69, 0x61, 0x6C, 0x5F, 0x31, 0x2F, 0x71, 0x75, 0x61, 0x6E, 0x74, 0x5F, 0x64, 0x65, 0x6E, 0x73, 0x65, 0x5F, 0x32, 0x2F, 0x4D, 0x61, 0x74, 0x4D, 0x75, 0x6C, 0x3B, 0x73, 0x65, 0x71, 0x75, 0x65, 0x6E, 0x74, 0x69, 0x61, 0x6C, 0x5F, 0x31, 0x2F, 0x71, 0x75, 0x61, 0x6E, 0x74, 0x5F, 0x64, 0x65, 0x6E, 0x73, 0x65, 0x5F, 0x32, 0x2F, 0x4C, 0x61, 0x73, 0x74, 0x56, 0x61, 0x6C, 0x75, 0x65, 0x51, 0x75, 0x61, 0x6E, 0x74, 0x2F, 0x46, 0x61, 0x6B, 0x65, 0x51, 0x75, 0x61, 0x6E, 0x74, 0x57, 0x69, 0x74, 0x68, 0x4D, 0x69, 0x6E, 0x4D, 0x61, 0x78, 0x56, 0x61, 0x72, 0x73, 0x00, 0xA4, 0xDA, 0xFF, 0xFF, 0x08, 0x00, 0x00, 0x00, 0x0C, 0x00, 0x00, 0x00, 0x01, 0x00, 0x00, 0x00, 0x26, 0x12, 0x5D, 0x3B, 0x01, 0x00, 0x00, 0x00, 0x00, 0x00, 0x00, 0x00, 0x00, 0x00, 0x00, 0x00, 0x00, 0x00, 0x0A, 0x00, 0x10, 0x00, 0x04, 0x00, 0x08, 0x00, 0x0C, 0x00, 0x0A, 0x00, 0x00, 0x00, 0x03, 0x00, 0x00, 0x00, 0x10, 0x00, 0x00, 0x00, 0x04, 0x00, 0x00, 0x00, 0x01, 0x00, 0x00, 0x00, 0x13, 0x00, 0x00, 0x00, 0x02, 0x00, 0x00, 0x00, 0x12, 0x00, 0x00, 0x00, 0x01, 0x00, 0x00, 0x00, 0x70, 0xDC, 0xFF, 0xFF, 0x16, 0x00, 0x00, 0x00, 0x00, 0x00, 0x00, 0x16, 0x01, 0x00, 0x00, 0x00, 0x64, 0xDC, 0xFF, 0xFF, 0x00, 0x00, 0x00, 0x09, 0x14, 0x00, 0x00, 0x00, 0x14, 0x00, 0x00, 0x00, 0x24, 0x00, 0x00, 0x00, 0x4C, 0x00, 0x00, 0x00, 0x10, 0x00, 0x00, 0x00, 0x02, 0x00, 0x00, 0x00, 0x01, 0x00, 0x00, 0x00, 0x30, 0x03, 0x00, 0x00, 0x02, 0x00, 0x00, 0x00, 0xFF, 0xFF, 0xFF, 0xFF, 0x30, 0x03, 0x00, 0x00, 0x24, 0x00, 0x00, 0x00, 0x73, 0x65, 0x71, 0x75, 0x65, 0x6E, 0x74, 0x69, 0x61, 0x6C, 0x5F, 0x31, 0x2F, 0x71, 0x75, 0x61, 0x6E, 0x74, 0x5F, 0x66, 0x6C, 0x61, 0x74, 0x74, 0x65, 0x6E, 0x5F, 0x31, 0x2F, 0x52, 0x65, 0x73, 0x68, 0x61, 0x70, 0x65, 0x00, 0x00, 0x00, 0x00, 0x64, 0xDB, 0xFF, 0xFF, 0x08, 0x00, 0x00, 0x00, 0x0C, 0x00, 0x00, 0x00, 0x01, 0x00, 0x00, 0x00, 0xC4, 0x65, 0x0C, 0x40, 0x01, 0x00, 0x00, 0x00, 0x81, 0xFF, 0xFF, 0xFF, 0xFF, 0xFF, 0xFF, 0xFF, 0xBE, 0xE0, 0xFF, 0xFF, 0x00, 0x00, 0x00, 0x05, 0x02, 0x00, 0x00, 0x00, 0x28, 0x00, 0x00, 0x00, 0x1C, 0x00, 0x00, 0x00, 0x04, 0x00, 0x00, 0x00, 0xAE, 0xE1, 0xFF, 0xFF, 0x02, 0x00, 0x00, 0x00, 0x02, 0x00, 0x00, 0x00, 0x02, 0x00, 0x00, 0x00, 0x02, 0x00, 0x00, 0x00, 0x01, 0x00, 0x00, 0x00, 0x12, 0x00, 0x00, 0x00, 0x01, 0x00, 0x00, 0x00, 0x11, 0x00, 0x00, 0x00, 0x20, 0xDD, 0xFF, 0xFF, 0x00, 0x00, 0x00, 0x09, 0x14, 0x00, 0x00, 0x00, 0x13, 0x00, 0x00, 0x00, 0x34, 0x00, 0x00, 0x00, 0x60, 0x00, 0x00, 0x00, 0x18, 0x00, 0x00, 0x00, 0x04, 0x00, 0x00, 0x00, 0x01, 0x00, 0x00, 0x00, 0x03, 0x00, 0x00, 0x00, 0x11, 0x00, 0x00, 0x00, 0x10, 0x00, 0x00, 0x00, 0x04, 0x00, 0x00, 0x00, 0xFF, 0xFF, 0xFF, 0xFF, 0x03, 0x00, 0x00, 0x00, 0x11, 0x00, 0x00, 0x00, 0x10, 0x00, 0x00, 0x00, 0x2A, 0x00, 0x00, 0x00, 0x73, 0x65, 0x71, 0x75, 0x65, 0x6E, 0x74, 0x69, 0x61, 0x6C, 0x5F, 0x31, 0x2F, 0x71, 0x75, 0x61, 0x6E, 0x74, 0x5F, 0x6D, 0x61, 0x78, 0x5F, 0x70, 0x6F, 0x6F, 0x6C, 0x69, 0x6E, 0x67, 0x32, 0x64, 0x5F, 0x37, 0x2F, 0x4D, 0x61, 0x78, 0x50, 0x6F, 0x6F, 0x6C, 0x00, 0x00, 0x34, 0xDC, 0xFF, 0xFF, 0x08, 0x00, 0x00, 0x00, 0x0C, 0x00, 0x00, 0x00, 0x01, 0x00, 0x00, 0x00, 0xC4, 0x65, 0x0C, 0x40, 0x01, 0x00, 0x00, 0x00, 0x81, 0xFF, 0xFF, 0xFF, 0xFF, 0xFF, 0xFF, 0xFF, 0x8E, 0xE1, 0xFF, 0xFF, 0x00, 0x00, 0x00, 0x01, 0x01, 0x00, 0x00, 0x00, 0x24, 0x00, 0x00, 0x00, 0x18, 0x00, 0x00, 0x00, 0x04, 0x00, 0x00, 0x00, 0x80, 0xE1, 0xFF, 0xFF, 0x01, 0x00, 0x00, 0x00, 0x01, 0x00, 0x00, 0x00, 0x00, 0x00, 0x00, 0x01, 0x01, 0x00, 0x00, 0x00, 0x11, 0x00, 0x00, 0x00, 0x03, 0x00, 0x00, 0x00, 0x0E, 0x00, 0x00, 0x00, 0x0F, 0x00, 0x00, 0x00, 0x10, 0x00, 0x00, 0x00, 0xF4, 0xDD, 0xFF, 0xFF, 0x00, 0x00, 0x00, 0x09, 0x14, 0x00, 0x00, 0x00, 0x12, 0x00, 0x00, 0x00, 0x34, 0x00, 0x00, 0x00, 0xFC, 0x00, 0x00, 0x00, 0x18, 0x00, 0x00, 0x00, 0x04, 0x00, 0x00, 0x00, 0x01, 0x00, 0x00, 0x00, 0x05, 0x00, 0x00, 0x00, 0x21, 0x00, 0x00, 0x00, 0x10, 0x00, 0x00, 0x00, 0x04, 0x00, 0x00, 0x00, 0xFF, 0xFF, 0xFF, 0xFF, 0x05, 0x00, 0x00, 0x00, 0x21, 0x00, 0x00, 0x00, 0x10, 0x00, 0x00, 0x00, 0xC6, 0x00, 0x00, 0x00, 0x73, 0x65, 0x71, 0x75, 0x65, 0x6E, 0x74, 0x69, 0x61, 0x6C, 0x5F, 0x31, 0x2F, 0x71, 0x75, 0x61, 0x6E, 0x74, 0x5F, 0x63, 0x6F, 0x6E, 0x76, 0x32, 0x64, 0x5F, 0x37, 0x2F, 0x52, 0x65, 0x6C, 0x75, 0x3B, 0x73, 0x65, 0x71, 0x75, 0x65, 0x6E, 0x74, 0x69, 0x61, 0x6C, 0x5F, 0x31, 0x2F, 0x71, 0x75, 0x61, 0x6E, 0x74, 0x5F, 0x63, 0x6F, 0x6E, 0x76, 0x32, 0x64, 0x5F, 0x37, 0x2F, 0x42, 0x69, 0x61, 0x73, 0x41, 0x64, 0x64, 0x3B, 0x73, 0x65, 0x71, 0x75, 0x65, 0x6E, 0x74, 0x69, 0x61, 0x6C, 0x5F, 0x31, 0x2F, 0x71, 0x75, 0x61, 0x6E, 0x74, 0x5F, 0x63, 0x6F, 0x6E, 0x76, 0x32, 0x64, 0x5F, 0x36, 0x2F, 0x43, 0x6F, 0x6E, 0x76, 0x32, 0x44, 0x3B, 0x73, 0x65, 0x71, 0x75, 0x65, 0x6E, 0x74, 0x69, 0x61, 0x6C, 0x5F, 0x31, 0x2F, 0x71, 0x75, 0x61, 0x6E, 0x74, 0x5F, 0x63, 0x6F, 0x6E, 0x76, 0x32, 0x64, 0x5F, 0x37, 0x2F, 0x43, 0x6F, 0x6E, 0x76, 0x32, 0x44, 0x3B, 0x73, 0x65, 0x71, 0x75, 0x65, 0x6E, 0x74, 0x69, 0x61, 0x6C, 0x5F, 0x31, 0x2F, 0x71, 0x75, 0x61, 0x6E, 0x74, 0x5F, 0x63, 0x6F, 0x6E, 0x76, 0x32, 0x64, 0x5F, 0x37, 0x2F, 0x42, 0x69, 0x61, 0x73, 0x41, 0x64, 0x64, 0x2F, 0x52, 0x65, 0x61, 0x64, 0x56, 0x61, 0x72, 0x69, 0x61, 0x62, 0x6C, 0x65, 0x4F, 0x70, 0x2F, 0x72, 0x65, 0x73, 0x6F, 0x75, 0x72, 0x63, 0x65, 0x00, 0x00, 0xA4, 0xDD, 0xFF, 0xFF, 0x08, 0x00, 0x00, 0x00, 0x0C, 0x00, 0x00, 0x00, 0x01, 0x00, 0x00, 0x00, 0xC4, 0x65, 0x0C, 0x40, 0x01, 0x00, 0x00, 0x00, 0x81, 0xFF, 0xFF, 0xFF, 0xFF, 0xFF, 0xFF, 0xFF, 0x00, 0x00, 0x00, 0x00, 0x96, 0xDD, 0xFF, 0xFF, 0x04, 0x00, 0x00, 0x00, 0x40, 0x00, 0x00, 0x00, 0xFE, 0xFF, 0xFF, 0xFF, 0x09, 0x00, 0x00, 0x00, 0x09, 0x00, 0x00, 0x00, 0x11, 0x00, 0x00, 0x00, 0x01, 0x00, 0x00, 0x00, 0xFD, 0xFF, 0xFF, 0xFF, 0xF8, 0xFF, 0xFF, 0xFF, 0x07, 0x00, 0x00, 0x00, 0x00, 0x00, 0x00, 0x00, 0xFE, 0xFF, 0xFF, 0xFF, 0x04, 0x00, 0x00, 0x00, 0xFF, 0xFF, 0xFF, 0xFF, 0x0A, 0x00, 0x00, 0x00, 0x00, 0x00, 0x00, 0x00, 0xFA, 0xFF, 0xFF, 0xFF, 0x0B, 0x00, 0x00, 0x00, 0xC6, 0xDD, 0xFF, 0xFF, 0x00, 0x00, 0x00, 0x02, 0x10, 0x00, 0x00, 0x00, 0x11, 0x00, 0x00, 0x00, 0x10, 0x00, 0x00, 0x00, 0xB8, 0x00, 0x00, 0x00, 0x01, 0x00, 0x00, 0x00, 0x10, 0x00, 0x00, 0x00, 0xA5, 0x00, 0x00, 0x00, 0x73, 0x65, 0x71, 0x75, 0x65, 0x6E, 0x74, 0x69, 0x61, 0x6C, 0x5F, 0x31, 0x2F, 0x71, 0x75, 0x61, 0x6E, 0x74, 0x5F, 0x63, 0x6F, 0x6E, 0x76, 0x32, 0x64, 0x5F, 0x37, 0x2F, 0x42, 0x69, 0x61, 0x73, 0x41, 0x64, 0x64, 0x3B, 0x73, 0x65, 0x71, 0x75, 0x65, 0x6E, 0x74, 0x69, 0x61, 0x6C, 0x5F, 0x31, 0x2F, 0x71, 0x75, 0x61, 0x6E, 0x74, 0x5F, 0x63, 0x6F, 0x6E, 0x76, 0x32, 0x64, 0x5F, 0x36, 0x2F, 0x43, 0x6F, 0x6E, 0x76, 0x32, 0x44, 0x3B, 0x73, 0x65, 0x71, 0x75, 0x65, 0x6E, 0x74, 0x69, 0x61, 0x6C, 0x5F, 0x31, 0x2F, 0x71, 0x75, 0x61, 0x6E, 0x74, 0x5F, 0x63, 0x6F, 0x6E, 0x76, 0x32, 0x64, 0x5F, 0x37, 0x2F, 0x43, 0x6F, 0x6E, 0x76, 0x32, 0x44, 0x3B, 0x73, 0x65, 0x71, 0x75, 0x65, 0x6E, 0x74, 0x69, 0x61, 0x6C, 0x5F, 0x31, 0x2F, 0x71, 0x75, 0x61, 0x6E, 0x74, 0x5F, 0x63, 0x6F, 0x6E, 0x76, 0x32, 0x64, 0x5F, 0x37, 0x2F, 0x42, 0x69, 0x61, 0x73, 0x41, 0x64, 0x64, 0x2F, 0x52, 0x65, 0x61, 0x64, 0x56, 0x61, 0x72, 0x69, 0x61, 0x62, 0x6C, 0x65, 0x4F, 0x70, 0x2F, 0x72, 0x65, 0x73, 0x6F, 0x75, 0x72, 0x63, 0x65, 0x00, 0x00, 0x00, 0xE0, 0xDE, 0xFF, 0xFF, 0x08, 0x00, 0x00, 0x00, 0x48, 0x00, 0x00, 0x00, 0x10, 0x00, 0x00, 0x00, 0xAA, 0xFC, 0xCA, 0x3C, 0xF2, 0xBC, 0xD4, 0x3C, 0x36, 0x40, 0x11, 0x3D, 0x47, 0x3D, 0xCF, 0x3C, 0xAB, 0xA8, 0xF4, 0x3C, 0x6B, 0x29, 0xEA, 0x3C, 0xDB, 0x18, 0xE4, 0x3C, 0xE9, 0x38, 0xEA, 0x3C, 0x6E, 0xDB, 0xC9, 0x3C, 0x2D, 0xAD, 0x0B, 0x3D, 0xC2, 0x0B, 0xD0, 0x3C, 0xC3, 0xEE, 0xF6, 0x3C, 0x8B, 0x15, 0xDB, 0x3C, 0x6C, 0x20, 0xCF, 0x3C, 0xEF, 0xE5, 0xEB, 0x3C, 0xFE, 0x7A, 0xFC, 0x3C, 0x10, 0x00, 0x00, 0x00, 0x00, 0x00, 0x00, 0x00, 0x00, 0x00, 0x00, 0x00, 0x00, 0x00, 0x00, 0x00, 0x00, 0x00, 0x00, 0x00, 0x00, 0x00, 0x00, 0x00, 0x00, 0x00, 0x00, 0x00, 0x00, 0x00, 0x00, 0x00, 0x00, 0x00, 0x00, 0x00, 0x00, 0x00, 0x00, 0x00, 0x00, 0x00, 0x00, 0x00, 0x00, 0x00, 0x00, 0x00, 0x00, 0x00, 0x00, 0x00, 0x00, 0x00, 0x00, 0x00, 0x00, 0x00, 0x00, 0x00, 0x00, 0x00, 0x00, 0x00, 0x00, 0x00, 0x00, 0x00, 0x00, 0x00, 0x00, 0x00, 0x00, 0x00, 0x00, 0x00, 0x00, 0x00, 0x00, 0x00, 0x00, 0x00, 0x00, 0x00, 0x00, 0x00, 0x00, 0x00, 0x00, 0x00, 0x00, 0x00, 0x00, 0x00, 0x00, 0x00, 0x00, 0x00, 0x00, 0x00, 0x00, 0x00, 0x00, 0x00, 0x00, 0x00, 0x00, 0x00, 0x00, 0x00, 0x00, 0x00, 0x00, 0x00, 0x00, 0x00, 0x00, 0x00, 0x00, 0x00, 0x00, 0x00, 0x00, 0x00, 0x00, 0x00, 0x00, 0x00, 0x00, 0x00, 0x00, 0x00, 0x82, 0xDF, 0xFF, 0xFF, 0x04, 0x00, 0x00, 0x00, 0x00, 0x09, 0x00, 0x00, 0x30, 0x24, 0xFD, 0x3F, 0xE7, 0x32, 0x68, 0x34, 0x69, 0x22, 0x6E, 0xC4, 0xB4, 0x11, 0xE1, 0x48, 0x36, 0xC7, 0x87, 0xD9, 0x94, 0x40, 0x5D, 0x10, 0xBF, 0x39, 0x23, 0x82, 0xF3, 0x07, 0xF6, 0xFB, 0x4C, 0xCD, 0x0C, 0xF5, 0xA3, 0x02, 0x29, 0x47, 0x4F, 0xF0, 0x24, 0xC0, 0x5C, 0x22, 0x32, 0xAA, 0xCA, 0x3E, 0x82, 0xA7, 0xA7, 0x1D, 0xDC, 0xEF, 0x52, 0xD4, 0xF4, 0xD2, 0x5C, 0x0B, 0x04, 0xDC, 0xCC, 0x17, 0x0B, 0xDD, 0x4A, 0x8C, 0x95, 0xA2, 0x86, 0x2E, 0x58, 0x1E, 0xD5, 0xCE, 0xC4, 0x1D, 0xAD, 0x95, 0xEB, 0xF4, 0xA7, 0xA9, 0x57, 0xFE, 0xB0, 0x6E, 0x19, 0xE4, 0x3E, 0x19, 0x08, 0x51, 0x0B, 0x3F, 0x23, 0xC6, 0xF6, 0xB9, 0x84, 0xFC, 0xF2, 0x81, 0xC0, 0xA0, 0x98, 0x27, 0x58, 0xD3, 0xE2, 0x53, 0x37, 0x02, 0x2F, 0x49, 0x07, 0x31, 0x51, 0xD0, 0x6A, 0x0D, 0x9D, 0xC3, 0xE3, 0x93, 0xF0, 0x42, 0x5E, 0xB8, 0xB7, 0x26, 0x32, 0x19, 0x42, 0x1F, 0xC0, 0xDA, 0xCF, 0xE5, 0xAB, 0xDD, 0x97, 0xD3, 0x45, 0xE4, 0x06, 0xE3, 0x03, 0xDE, 0x21, 0xAA, 0x17, 0xFA, 0x97, 0xB8, 0xA2, 0x1E, 0x49, 0x39, 0x44, 0xBB, 0xB2, 0xD7, 0x41, 0x40, 0xB8, 0x4B, 0x41, 0xF9, 0x3D, 0xCA, 0xBF, 0xCA, 0x36, 0x05, 0x25, 0xEA, 0xA6, 0x05, 0x2A, 0x01, 0x0F, 0xD3, 0x39, 0x84, 0x1A, 0x17, 0x5F, 0xE1, 0xF0, 0xC4, 0x06, 0x1A, 0xE0, 0x12, 0x27, 0x10, 0xD9, 0xCE, 0x00, 0x03, 0xDA, 0x4D, 0x9C, 0xE5, 0xF6, 0xCA, 0x9C, 0xCD, 0xBA, 0xD1, 0x0B, 0x81, 0xCA, 0x96, 0x18, 0xE5, 0xF7, 0x8B, 0x34, 0xF4, 0x4E, 0xA0, 0xF1, 0x46, 0x06, 0x11, 0x57, 0xE8, 0x65, 0x40, 0x2F, 0xF0, 0xB5, 0x0C, 0xCA, 0x4D, 0x19, 0x55, 0xC2, 0x8A, 0x00, 0xC7, 0x2F, 0xBD, 0xE4, 0x24, 0xBC, 0x02, 0x50, 0x4F, 0x39, 0x2C, 0x1D, 0xF7, 0x31, 0x3F, 0x0D, 0x54, 0x4C, 0xEA, 0xE5, 0x44, 0xE5, 0xAC, 0xBE, 0x59, 0x18, 0xEA, 0x10, 0x5C, 0x55, 0xC8, 0x65, 0xF8, 0xAD, 0xC3, 0x2D, 0x67, 0x90, 0xF4, 0xBD, 0x98, 0xD3, 0x43, 0xE2, 0xC7, 0xFF, 0x20, 0x14, 0x33, 0x31, 0x07, 0xD2, 0xC3, 0x7F, 0xD5, 0x16, 0xEB, 0xF9, 0x24, 0x25, 0xE6, 0x1B, 0x29, 0x0C, 0xB0, 0x23, 0x0E, 0x4E, 0x34, 0xE5, 0xFE, 0xF1, 0xF0, 0xFE, 0xC8, 0x00, 0x01, 0xA7, 0xEE, 0x3D, 0x02, 0xF6, 0xDF, 0xE4, 0xB9, 0xB4, 0xE9, 0xEC, 0xBD, 0xD8, 0xD7, 0xB2, 0xE4, 0xBB, 0xDA, 0xE0, 0xA4, 0x13, 0xB1, 0xB2, 0x45, 0xBE, 0xFF, 0xE3, 0xAD, 0x1E, 0xCB, 0xBB, 0xE5, 0x2D, 0xEB, 0x15, 0x21, 0xCF, 0x10, 0x16, 0xEE, 0xD4, 0xF7, 0x35, 0x0C, 0x26, 0x0B, 0xE0, 0x3D, 0x0A, 0x1A, 0xCF, 0x25, 0xCC, 0x15, 0x2D, 0x21, 0x4C, 0x1B, 0xE5, 0xE6, 0xF1, 0xCB, 0xB3, 0x11, 0xF6, 0xE3, 0xCC, 0xAE, 0xBB, 0xEB, 0xDB, 0x09, 0x2F, 0x00, 0xF7, 0x0D, 0x2D, 0x09, 0xD9, 0x35, 0xFB, 0x42, 0x16, 0x01, 0xDF, 0x33, 0xFB, 0xF3, 0xD5, 0x27, 0xBC, 0xD4, 0xE2, 0xC6, 0x2C, 0xDD, 0xFF, 0x15, 0xEC, 0x15, 0x25, 0xFD, 0x06, 0xD3, 0xFA, 0xC8, 0xD8, 0x33, 0xED, 0xCB, 0xE7, 0xAA, 0xD6, 0xC7, 0x2D, 0xE9, 0x4F, 0x60, 0x76, 0xD7, 0x2D, 0xDB, 0x0E, 0x94, 0x35, 0x9F, 0xFD, 0xD5, 0xDD, 0x39, 0x1E, 0xDB, 0x82, 0xF2, 0x9C, 0x58, 0xEA, 0xE0, 0x94, 0x2F, 0x65, 0x30, 0x59, 0x02, 0xDE, 0x91, 0xCB, 0x18, 0x2F, 0x27, 0x0A, 0x96, 0x50, 0x8B, 0x07, 0x5D, 0x55, 0x12, 0x2A, 0x1B, 0xE2, 0xDC, 0x23, 0x60, 0xF6, 0x10, 0x0D, 0x48, 0x58, 0xC9, 0x9D, 0xF9, 0x4C, 0xE9, 0x3E, 0x3D, 0x56, 0xFD, 0x22, 0x02, 0x4A, 0xC9, 0xD1, 0x56, 0xFA, 0x41, 0x08, 0xA6, 0xEF, 0xE1, 0x66, 0x64, 0x50, 0x56, 0x01, 0x8E, 0xDF, 0x59, 0x3A, 0xD5, 0x59, 0xAD, 0xA3, 0x92, 0x1A, 0x63, 0x0E, 0x49, 0x88, 0xA4, 0x73, 0xB4, 0x00, 0x43, 0x2A, 0xAE, 0xDA, 0x0D, 0x9C, 0xF8, 0x6E, 0x40, 0x1E, 0x3E, 0x3A, 0xFA, 0x97, 0x9D, 0x9B, 0x37, 0xE4, 0x25, 0x9A, 0xA2, 0x4E, 0xBF, 0x20, 0x55, 0xB5, 0x99, 0xA6, 0xE2, 0xBD, 0x55, 0xE7, 0x0B, 0x01, 0x64, 0x7F, 0x25, 0x38, 0x90, 0x10, 0xA9, 0x06, 0x14, 0x05, 0xD2, 0xDB, 0xEF, 0x22, 0x04, 0xF3, 0xD7, 0x15, 0x9A, 0xFE, 0xAF, 0xA2, 0xAC, 0x9F, 0xA4, 0xBC, 0x42, 0xBB, 0xC0, 0x2D, 0xD8, 0x2D, 0xA8, 0x3A, 0x39, 0x4B, 0x2E, 0x29, 0xB3, 0xFE, 0xDB, 0xD6, 0xBC, 0x0E, 0x24, 0x0D, 0x1D, 0x99, 0x16, 0xEE, 0xC8, 0x02, 0xF9, 0xC4, 0x34, 0x53, 0xD0, 0xE1, 0xFC, 0x3E, 0x2F, 0xF0, 0xC5, 0xDA, 0xE4, 0x37, 0xCE, 0x2D, 0x30, 0x81, 0x05, 0x44, 0xF9, 0xBF, 0x45, 0x2A, 0x40, 0x3D, 0x50, 0x11, 0x36, 0xC0, 0xB1, 0x06, 0x47, 0x14, 0xAF, 0x0E, 0x0D, 0xDA, 0x10, 0x2B, 0x44, 0xFF, 0x3B, 0x01, 0xAE, 0xC2, 0xC5, 0xF1, 0xE7, 0x24, 0xDC, 0xC0, 0x25, 0xFC, 0xDC, 0xF3, 0xBE, 0xBF, 0x29, 0x4D, 0x2F, 0xE6, 0x04, 0xCC, 0xEA, 0xC1, 0x21, 0x30, 0x08, 0xE1, 0x2E, 0xA4, 0x00, 0x28, 0xDB, 0x3E, 0x06, 0xE6, 0xD1, 0x13, 0x2B, 0xCC, 0xCF, 0x04, 0xF3, 0xBC, 0x3D, 0x9C, 0x14, 0x1A, 0x05, 0x2F, 0x11, 0xC4, 0x11, 0x45, 0xE1, 0xA2, 0x17, 0x4E, 0xCC, 0x2F, 0x0F, 0xEC, 0xE2, 0xA7, 0xC1, 0xBB, 0xFE, 0x29, 0xBE, 0x4B, 0x1B, 0x25, 0xAD, 0xB6, 0xF3, 0xAA, 0x24, 0x0B, 0xDB, 0x14, 0x81, 0x25, 0x9C, 0x3F, 0x23, 0xBC, 0x11, 0xE7, 0x03, 0x0A, 0x25, 0x61, 0x1A, 0xA8, 0x30, 0xA9, 0xB4, 0x36, 0x36, 0x10, 0xCD, 0x22, 0x9E, 0x17, 0x20, 0x4F, 0xAF, 0x14, 0x49, 0xC3, 0xB4, 0xE2, 0x38, 0x0B, 0x22, 0x2B, 0xF6, 0x5F, 0x38, 0x35, 0xC5, 0xDF, 0xF6, 0x0F, 0xFA, 0xA2, 0x34, 0xC7, 0x22, 0xD7, 0x07, 0x5C, 0x23, 0xF5, 0x4A, 0xFC, 0xBF, 0x2E, 0x53, 0x20, 0x48, 0x3D, 0xA0, 0x53, 0xAE, 0xB4, 0x02, 0x3F, 0xC5, 0x00, 0x5C, 0xD6, 0xFA, 0x00, 0x0A, 0x43, 0xBD, 0xF6, 0xEC, 0xC1, 0xE4, 0x42, 0x4A, 0x28, 0xB1, 0x1F, 0xC7, 0x51, 0xDA, 0x22, 0xD3, 0x18, 0xB8, 0xFF, 0x2F, 0xD0, 0x3B, 0xB7, 0xDE, 0xC8, 0x2E, 0x3E, 0xDA, 0xF3, 0x17, 0x1F, 0x95, 0xD8, 0x13, 0xC6, 0xEB, 0xCC, 0x22, 0xA2, 0xD2, 0x37, 0xC8, 0x9D, 0xE7, 0x06, 0xA9, 0xA9, 0xDB, 0xA8, 0xAB, 0x13, 0x0B, 0xD3, 0x25, 0x3F, 0x0A, 0x41, 0x1A, 0xBB, 0xDF, 0xB7, 0x2A, 0x46, 0x0F, 0xE9, 0x0D, 0xFC, 0x9B, 0x44, 0xC0, 0x33, 0xAF, 0x30, 0xCB, 0x3D, 0xA7, 0x1E, 0xF3, 0xA2, 0xC4, 0xBF, 0x3D, 0x51, 0x03, 0xD9, 0xFC, 0x56, 0xDF, 0x5E, 0x01, 0x29, 0x3C, 0xCA, 0x2C, 0x06, 0x81, 0x51, 0xBF, 0xD1, 0x35, 0x0A, 0xE9, 0x45, 0xC0, 0x57, 0x1D, 0xFC, 0x1D, 0xD0, 0x0E, 0x35, 0x09, 0xB3, 0x9F, 0x2E, 0x32, 0xD6, 0x8E, 0x17, 0xCF, 0x46, 0xEF, 0xD4, 0xBC, 0xC6, 0x1A, 0x0F, 0xFE, 0xD2, 0xF4, 0xA5, 0x10, 0x42, 0x46, 0xBB, 0x61, 0x5A, 0xB4, 0xA9, 0xB5, 0x1D, 0xC6, 0x2C, 0xF0, 0x24, 0xD6, 0x1C, 0xA5, 0xD8, 0x06, 0x56, 0xF1, 0x07, 0xB8, 0xDF, 0x2C, 0xC8, 0x3E, 0x30, 0x0F, 0x0F, 0xB5, 0x33, 0x3B, 0xC6, 0xDF, 0xB7, 0xE6, 0xA3, 0x1C, 0xD8, 0x00, 0xB1, 0xF1, 0xA1, 0xE1, 0x8E, 0xFE, 0xE4, 0x20, 0x31, 0xEE, 0x50, 0xA5, 0xA3, 0x05, 0xB4, 0xB4, 0x8B, 0x04, 0x3B, 0xD4, 0xED, 0xE2, 0x3E, 0xFF, 0xDF, 0x34, 0x27, 0x1E, 0xBD, 0x15, 0xD4, 0x23, 0xF3, 0x11, 0xBC, 0xCD, 0x68, 0x0A, 0x3C, 0xAB, 0x15, 0xF3, 0xAF, 0x2B, 0x25, 0x2F, 0xD8, 0x09, 0xB4, 0x60, 0xEA, 0xF1, 0xF7, 0x29, 0x21, 0xD0, 0x01, 0xF4, 0x25, 0x40, 0x38, 0x9A, 0x8D, 0xED, 0x02, 0x23, 0x5A, 0x9A, 0xE5, 0xF3, 0xDD, 0xE8, 0xD3, 0x34, 0xF8, 0x90, 0x2F, 0x0D, 0x34, 0xF6, 0x0D, 0x0A, 0x15, 0x9E, 0xDA, 0xAD, 0x9C, 0x2D, 0x23, 0xAA, 0x34, 0xFF, 0x00, 0x89, 0x1D, 0x04, 0xB9, 0x28, 0xBA, 0xFB, 0x33, 0xAB, 0x81, 0x3B, 0x4D, 0x19, 0x04, 0x13, 0x10, 0xB2, 0x40, 0xC5, 0x15, 0xD5, 0xCF, 0xD8, 0x26, 0xD1, 0xD5, 0xE5, 0xB0, 0x5E, 0xF4, 0x32, 0x27, 0x17, 0xDC, 0xE2, 0xE2, 0x2E, 0xA6, 0xA7, 0x1E, 0x14, 0x22, 0x15, 0x22, 0x25, 0x8E, 0xFF, 0xAD, 0xE8, 0x1A, 0xCF, 0x19, 0x25, 0x08, 0xB5, 0x0A, 0x15, 0xDD, 0x52, 0x37, 0x2F, 0xEC, 0x24, 0xC9, 0xDD, 0xF1, 0x2E, 0xAF, 0xB3, 0x50, 0xA1, 0xF9, 0xD1, 0xC4, 0xF3, 0xDE, 0x8B, 0xB7, 0x93, 0xE4, 0x33, 0x29, 0xAC, 0x70, 0x24, 0x18, 0x70, 0x4F, 0xE5, 0x38, 0xA4, 0xDB, 0xFF, 0xF2, 0x66, 0xFE, 0xA0, 0x21, 0xA5, 0x98, 0x97, 0x02, 0x4E, 0xA0, 0xA3, 0xBA, 0xC4, 0x76, 0xC4, 0xD3, 0x9D, 0xC0, 0x87, 0xBE, 0x2E, 0x51, 0xD6, 0xD4, 0xBC, 0x25, 0x26, 0xE0, 0x44, 0x5F, 0x30, 0x97, 0x55, 0x5F, 0x3D, 0x18, 0x22, 0x43, 0xC0, 0x41, 0x44, 0x95, 0xE8, 0x2F, 0xF1, 0x1F, 0x2F, 0xAA, 0x9D, 0xC3, 0x9A, 0x7A, 0x56, 0x1C, 0xFD, 0xF1, 0xED, 0xA1, 0x8A, 0xAD, 0xFC, 0xF4, 0x86, 0x3A, 0x81, 0x0A, 0xEC, 0x4A, 0xCB, 0x84, 0xFC, 0x35, 0xE9, 0xDB, 0x5E, 0xDB, 0x9E, 0x40, 0x25, 0xC1, 0xDF, 0x66, 0xB7, 0x46, 0xFC, 0x40, 0xFC, 0x20, 0x31, 0x3F, 0x29, 0x08, 0x59, 0x77, 0xDA, 0x46, 0xF4, 0xC5, 0xB9, 0x47, 0x4C, 0x2A, 0xEC, 0xF1, 0xDE, 0xCD, 0xDF, 0xA8, 0x65, 0xF4, 0x23, 0xEF, 0x1A, 0x09, 0xF5, 0xB6, 0xDB, 0xCE, 0x1B, 0x1E, 0xD6, 0x9C, 0x45, 0x32, 0x0F, 0xB7, 0xDC, 0x08, 0xC9, 0x1F, 0xEF, 0xF8, 0x13, 0x54, 0x2A, 0x09, 0xA7, 0xB8, 0x3F, 0xE6, 0xC2, 0x1C, 0xC2, 0xE1, 0xEA, 0xF4, 0x2A, 0x9F, 0xF4, 0xE0, 0xEF, 0xEA, 0x32, 0x13, 0xDB, 0xC9, 0xC4, 0xDD, 0x06, 0xF9, 0xEC, 0x1E, 0x0E, 0xE4, 0x00, 0x3E, 0xEB, 0x1B, 0x33, 0x06, 0xF5, 0x0C, 0x30, 0x2B, 0xCF, 0x1B, 0x16, 0xF7, 0xD3, 0xF5, 0xE2, 0x1B, 0x2B, 0xB4, 0xA7, 0x17, 0x24, 0xAE, 0x24, 0xC6, 0xA5, 0x36, 0xD7, 0xBA, 0xE0, 0x3E, 0xEB, 0x24, 0xDC, 0x2B, 0x81, 0xFF, 0x1A, 0x51, 0x19, 0x3E, 0x16, 0x26, 0x2D, 0x33, 0xE9, 0xCF, 0xDB, 0x34, 0x37, 0xD1, 0x03, 0xFB, 0xC5, 0x04, 0x24, 0xFD, 0xAC, 0x0C, 0xB6, 0x2C, 0x32, 0xCD, 0x0F, 0xE5, 0x10, 0x1D, 0xE3, 0xA0, 0x0C, 0xCD, 0xFA, 0x2A, 0x02, 0x2B, 0xF2, 0xC0, 0x11, 0x5A, 0xFF, 0xC5, 0xFC, 0xDD, 0x0E, 0xFB, 0xC3, 0x23, 0x04, 0xEB, 0x19, 0x2A, 0xAC, 0x0D, 0xB7, 0x35, 0xD7, 0x08, 0xFC, 0x07, 0xE3, 0x1E, 0xFF, 0x98, 0x6D, 0xA8, 0x1A, 0xCE, 0x14, 0x07, 0xBE, 0x0F, 0xD7, 0x8B, 0x2A, 0x22, 0x42, 0x0C, 0x54, 0xF3, 0xB4, 0x0E, 0xB3, 0x07, 0x35, 0xD3, 0xA5, 0x2D, 0x8C, 0x57, 0x92, 0x9B, 0x6D, 0xB8, 0xC8, 0x79, 0xEA, 0xED, 0xD8, 0xA5, 0x98, 0xB7, 0xB4, 0xC9, 0x94, 0x9B, 0xBF, 0xB3, 0xB8, 0x59, 0x65, 0x5E, 0x1E, 0x8F, 0x13, 0x2E, 0x9D, 0x21, 0xCF, 0x19, 0x37, 0xF3, 0x9D, 0xE1, 0xEC, 0xA8, 0xE7, 0x3D, 0x59, 0x02, 0xAA, 0x04, 0xC4, 0xFE, 0x2A, 0xB2, 0xD9, 0x33, 0x38, 0xE1, 0xA9, 0x4B, 0xF2, 0xF4, 0x8C, 0xF6, 0xBD, 0xCF, 0x67, 0x85, 0x06, 0x70, 0x26, 0x05, 0x23, 0x31, 0x48, 0x33, 0x1E, 0x49, 0x8A, 0xF7, 0xFC, 0x13, 0x5C, 0xF8, 0xAB, 0x4B, 0x5A, 0x0B, 0x07, 0x9A, 0x0E, 0x23, 0xF7, 0xD5, 0xAE, 0x1D, 0xB7, 0x4B, 0x1C, 0x14, 0xAF, 0x9A, 0x81, 0x67, 0xCC, 0xBB, 0x5E, 0xFA, 0x3E, 0x3E, 0x41, 0x94, 0x13, 0x3B, 0x67, 0x5A, 0xEA, 0xDC, 0x93, 0x09, 0x6C, 0xFE, 0xCF, 0x43, 0xDE, 0x21, 0xBD, 0x2E, 0x4F, 0xAD, 0x07, 0xFD, 0xB5, 0x23, 0x56, 0xF9, 0x55, 0xB8, 0xF7, 0x3D, 0x1E, 0xAF, 0xA1, 0xFB, 0x8C, 0xCC, 0x56, 0x48, 0xE6, 0x0A, 0xEA, 0xA1, 0xD2, 0x3A, 0xD2, 0xAD, 0xB3, 0x81, 0xB2, 0x5E, 0xAD, 0x44, 0xC3, 0x34, 0x35, 0x23, 0xC9, 0xF7, 0xA8, 0x2D, 0xB6, 0x2B, 0xE5, 0x2D, 0x9F, 0xE5, 0xBB, 0xB3, 0x3E, 0x9E, 0xF5, 0x24, 0x39, 0x02, 0xEE, 0xD3, 0x3F, 0xB5, 0x44, 0xB3, 0x34, 0x01, 0x46, 0xF2, 0xCC, 0xBB, 0xCA, 0xE9, 0xC1, 0x98, 0x2A, 0x43, 0x1B, 0x13, 0x0D, 0xD0, 0x3E, 0x96, 0x11, 0x04, 0xA0, 0x16, 0xDC, 0xD9, 0x57, 0xC7, 0x28, 0xEE, 0x07, 0xF7, 0x97, 0x95, 0xAA, 0x37, 0x45, 0x0F, 0x34, 0x48, 0xBC, 0xAF, 0xB3, 0x36, 0x9C, 0xD6, 0xFA, 0xBC, 0xF8, 0x5D, 0xE5, 0xE4, 0xF1, 0xA8, 0x42, 0xA6, 0xF6, 0xF1, 0xE7, 0xE6, 0x4B, 0xAB, 0x46, 0xC9, 0xAD, 0xEB, 0xCF, 0xEC, 0x57, 0xEA, 0xE3, 0x57, 0xA4, 0xBD, 0x2A, 0xCB, 0x15, 0xCA, 0x01, 0xDF, 0x04, 0x22, 0x32, 0x95, 0x02, 0xA7, 0xBF, 0xBA, 0x24, 0xBD, 0xB5, 0xD7, 0xA6, 0x58, 0xC4, 0xB5, 0x01, 0xF7, 0xF0, 0xA8, 0xEC, 0xCD, 0xD1, 0x13, 0x9E, 0x48, 0xD3, 0x59, 0xE8, 0xE3, 0x5E, 0xA2, 0xF7, 0x13, 0xA6, 0xE2, 0x42, 0xDE, 0x9F, 0x4B, 0xCD, 0xA4, 0x13, 0xB7, 0xE2, 0x39, 0xB6, 0xB1, 0x0E, 0xBC, 0xFB, 0x31, 0x49, 0x2C, 0xFF, 0x33, 0x30, 0x2F, 0x08, 0xF0, 0x39, 0xDF, 0x1A, 0x19, 0xB5, 0xF8, 0xB6, 0x81, 0xC2, 0xBC, 0xB5, 0x3D, 0x2C, 0xBE, 0x27, 0xBC, 0xB8, 0xDD, 0x2B, 0xCB, 0x61, 0xE3, 0x2C, 0xB2, 0x26, 0x4D, 0x40, 0x4B, 0x0E, 0x3A, 0x29, 0xD3, 0x4E, 0x16, 0x5D, 0x45, 0xD9, 0xDE, 0x8D, 0x31, 0xED, 0xEE, 0xA6, 0x1B, 0xD8, 0x4B, 0xFD, 0xA5, 0x20, 0xFF, 0x20, 0x2D, 0xC1, 0x27, 0xFF, 0x5D, 0xEA, 0xF1, 0x47, 0x96, 0xEE, 0x01, 0xD2, 0xB2, 0xF0, 0x49, 0x29, 0xD2, 0xAE, 0xC1, 0x02, 0x3F, 0xFA, 0x26, 0x42, 0x66, 0x07, 0x9B, 0xD8, 0xD5, 0x4D, 0xE4, 0x15, 0x3D, 0xD2, 0xB4, 0x05, 0xA1, 0xF7, 0x4E, 0x4E, 0x06, 0xB6, 0x48, 0x02, 0x68, 0x06, 0xE6, 0xF2, 0xB0, 0x13, 0x36, 0xF0, 0x43, 0x9F, 0x68, 0x27, 0x2A, 0x1E, 0x9B, 0x2F, 0xE4, 0x16, 0x83, 0x2C, 0xA8, 0x2B, 0x4A, 0xB9, 0x08, 0xE1, 0x62, 0xD9, 0xC0, 0xBB, 0x40, 0x2D, 0x43, 0xA8, 0xF4, 0xF4, 0xF5, 0x46, 0x2E, 0xA3, 0xAE, 0x41, 0x1A, 0xD4, 0x17, 0xBB, 0xEA, 0x9C, 0xF5, 0x35, 0x5C, 0xB6, 0x1D, 0x90, 0x0C, 0x3D, 0x9F, 0x02, 0xF9, 0x3E, 0x2F, 0xE8, 0x5C, 0x9D, 0x24, 0x2E, 0x1A, 0xFE, 0x1F, 0xC4, 0x12, 0xD1, 0xF6, 0x6A, 0x34, 0x45, 0x67, 0x81, 0x33, 0xEE, 0x3C, 0x2F, 0xCA, 0xDB, 0x5D, 0x49, 0x56, 0xA0, 0xFC, 0xF5, 0xCD, 0x96, 0x07, 0xC5, 0x61, 0x10, 0x12, 0x2F, 0x45, 0x61, 0x0E, 0x40, 0x23, 0x40, 0xCE, 0xE8, 0x94, 0xA5, 0xF5, 0x27, 0xC0, 0xCF, 0x07, 0x6E, 0xE5, 0x36, 0xE7, 0xF7, 0x1F, 0xCF, 0xA7, 0x55, 0x54, 0x57, 0x7F, 0x31, 0xD0, 0xEE, 0xCA, 0xC6, 0xF7, 0x0F, 0x11, 0xC6, 0x17, 0x1F, 0xF6, 0xB5, 0xCC, 0xE3, 0x2C, 0x21, 0xEE, 0x37, 0xC1, 0xEB, 0x00, 0xBD, 0xD7, 0xCB, 0xFB, 0x27, 0xDA, 0x4D, 0x2A, 0xD1, 0x25, 0xD8, 0xA6, 0xDF, 0x61, 0x00, 0x4A, 0xF5, 0xEA, 0xE2, 0x24, 0x31, 0x18, 0xEE, 0x0D, 0xE6, 0x31, 0x24, 0xD0, 0xE8, 0x09, 0xFF, 0xC6, 0x2C, 0x2C, 0x33, 0x4F, 0x15, 0x81, 0xFA, 0x03, 0x4A, 0x38, 0xE0, 0xA4, 0xF1, 0xE0, 0x2F, 0x16, 0xE8, 0xA8, 0x41, 0xE7, 0x4C, 0xD9, 0xE3, 0xF0, 0xBE, 0x32, 0x2F, 0x0F, 0x9C, 0x48, 0xA2, 0x2C, 0x2D, 0xD4, 0xD5, 0xE3, 0xC9, 0x48, 0x30, 0xE2, 0xCB, 0x4E, 0x12, 0x17, 0xA5, 0x2F, 0xF3, 0x2D, 0xF1, 0x3C, 0xC3, 0x08, 0x3F, 0xB2, 0x06, 0xAC, 0xDC, 0xB6, 0x21, 0xB9, 0xD4, 0xE7, 0x25, 0x14, 0xE9, 0xE8, 0xE8, 0xAD, 0xAF, 0x45, 0x13, 0x5E, 0xCD, 0x0D, 0xDC, 0xE5, 0x2A, 0x48, 0x9C, 0x9F, 0x3E, 0x2B, 0xD1, 0xE4, 0xD2, 0x44, 0x2D, 0xCC, 0xF8, 0x13, 0xF9, 0x0E, 0xEE, 0xE1, 0xB0, 0xF5, 0xF6, 0xDA, 0x01, 0x9C, 0x43, 0x81, 0xF6, 0xCA, 0xF3, 0xF3, 0x93, 0x43, 0xF2, 0x51, 0x38, 0xD1, 0xEA, 0xE0, 0xC4, 0x3E, 0xBC, 0xD8, 0x46, 0xB8, 0x3F, 0x42, 0xD3, 0x08, 0xBE, 0x37, 0xCE, 0x0F, 0xD4, 0xFC, 0x1F, 0x1E, 0x20, 0xCB, 0x14, 0xF9, 0x29, 0x48, 0x2C, 0x4E, 0xEC, 0xA7, 0x4D, 0xAF, 0xF6, 0x9F, 0xE0, 0x09, 0xF7, 0xEC, 0xC5, 0x2E, 0x2D, 0xC3, 0x1A, 0xE8, 0x2A, 0xF4, 0x37, 0xCA, 0x1F, 0x4E, 0xCB, 0xF9, 0xED, 0xE5, 0x0E, 0xAD, 0x40, 0xD2, 0x19, 0xD2, 0xC7, 0x4E, 0x2E, 0xBD, 0x47, 0xCD, 0xE1, 0x3E, 0xE0, 0xEC, 0xB1, 0xD6, 0x48, 0x02, 0x08, 0x0C, 0x0B, 0x22, 0xFE, 0xA7, 0xAC, 0xA1, 0x59, 0x08, 0xDB, 0x95, 0x23, 0x04, 0x15, 0xE7, 0xE1, 0xF2, 0x1D, 0x13, 0x03, 0xEA, 0xF6, 0xF3, 0x23, 0x93, 0xA4, 0x1A, 0xE3, 0xFE, 0xFC, 0x20, 0xD9, 0xF4, 0xC7, 0x15, 0x20, 0x4B, 0xC4, 0xDC, 0x34, 0x33, 0x4B, 0xF2, 0x99, 0x30, 0xCD, 0x3B, 0xC6, 0xC4, 0xB8, 0x40, 0xFD, 0x72, 0xE8, 0xFF, 0xFF, 0x00, 0x00, 0x00, 0x09, 0x10, 0x00, 0x00, 0x00, 0x10, 0x00, 0x00, 0x00, 0x1C, 0x00, 0x00, 0x00, 0x8C, 0x00, 0x00, 0x00, 0x04, 0x00, 0x00, 0x00, 0x10, 0x00, 0x00, 0x00, 0x03, 0x00, 0x00, 0x00, 0x03, 0x00, 0x00, 0x00, 0x10, 0x00, 0x00, 0x00, 0x6F, 0x00, 0x00, 0x00, 0x73, 0x65, 0x71, 0x75, 0x65, 0x6E, 0x74, 0x69, 0x61, 0x6C, 0x5F, 0x31, 0x2F, 0x71, 0x75, 0x61, 0x6E, 0x74, 0x5F, 0x63, 0x6F, 0x6E, 0x76, 0x32, 0x64, 0x5F, 0x37, 0x2F, 0x43, 0x6F, 0x6E, 0x76, 0x32, 0x44, 0x3B, 0x73, 0x65, 0x71, 0x75, 0x65, 0x6E, 0x74, 0x69, 0x61, 0x6C, 0x5F, 0x31, 0x2F, 0x71, 0x75, 0x61, 0x6E, 0x74, 0x5F, 0x63, 0x6F, 0x6E, 0x76, 0x32, 0x64, 0x5F, 0x37, 0x2F, 0x4C, 0x61, 0x73, 0x74, 0x56, 0x61, 0x6C, 0x75, 0x65, 0x51, 0x75, 0x61, 0x6E, 0x74, 0x2F, 0x46, 0x61, 0x6B, 0x65, 0x51, 0x75, 0x61, 0x6E, 0x74, 0x57, 0x69, 0x74, 0x68, 0x4D, 0x69, 0x6E, 0x4D, 0x61, 0x78, 0x56, 0x61, 0x72, 0x73, 0x50, 0x65, 0x72, 0x43, 0x68, 0x61, 0x6E, 0x6E, 0x65, 0x6C, 0x00, 0x60, 0xE9, 0xFF, 0xFF, 0x08, 0x00, 0x00, 0x00, 0x48, 0x00, 0x00, 0x00, 0x10, 0x00, 0x00, 0x00, 0xA3, 0xB5, 0xA2, 0x3A, 0x99, 0x86, 0xAA, 0x3A, 0xF5, 0xDB, 0xE8, 0x3A, 0x3E, 0x1E, 0xA6, 0x3A, 0xDC, 0x1C, 0xC4, 0x3A, 0xD3, 0xB2, 0xBB, 0x3A, 0x53, 0xD6, 0xB6, 0x3A, 0x3D, 0xBF, 0xBB, 0x3A, 0xCC, 0xCD, 0xA1, 0x3A, 0x34, 0xEC, 0xDF, 0x3A, 0xC2, 0xC3, 0xA6, 0x3A, 0x73, 0xEF, 0xC5, 0x3A, 0xD7, 0x9C, 0xAF, 0x3A, 0x1D, 0x07, 0xA6, 0x3A, 0x22, 0x17, 0xBD, 0x3A, 0xE0, 0x61, 0xCA, 0x3A, 0x10, 0x00, 0x00, 0x00, 0x00, 0x00, 0x00, 0x00, 0x00, 0x00, 0x00, 0x00, 0x00, 0x00, 0x00, 0x00, 0x00, 0x00, 0x00, 0x00, 0x00, 0x00, 0x00, 0x00, 0x00, 0x00, 0x00, 0x00, 0x00, 0x00, 0x00, 0x00, 0x00, 0x00, 0x00, 0x00, 0x00, 0x00, 0x00, 0x00, 0x00, 0x00, 0x00, 0x00, 0x00, 0x00, 0x00, 0x00, 0x00, 0x00, 0x00, 0x00, 0x00, 0x00, 0x00, 0x00, 0x00, 0x00, 0x00, 0x00, 0x00, 0x00, 0x00, 0x00, 0x00, 0x00, 0x00, 0x00, 0x00, 0x00, 0x00, 0x00, 0x00, 0x00, 0x00, 0x00, 0x00, 0x00, 0x00, 0x00, 0x00, 0x00, 0x00, 0x00, 0x00, 0x00, 0x00, 0x00, 0x00, 0x00, 0x00, 0x00, 0x00, 0x00, 0x00, 0x00, 0x00, 0x00, 0x00, 0x00, 0x00, 0x00, 0x00, 0x00, 0x00, 0x00, 0x00, 0x00, 0x00, 0x00, 0x00, 0x00, 0x00, 0x00, 0x00, 0x00, 0x00, 0x00, 0x00, 0x00, 0x00, 0x00, 0x00, 0x00, 0x00, 0x00, 0x00, 0x00, 0x00, 0x00, 0x00, 0x00, 0x6E, 0xEF, 0xFF, 0xFF, 0x00, 0x00, 0x00, 0x05, 0x02, 0x00, 0x00, 0x00, 0x28, 0x00, 0x00, 0x00, 0x1C, 0x00, 0x00, 0x00, 0x04, 0x00, 0x00, 0x00, 0x5E, 0xF0, 0xFF, 0xFF, 0x02, 0x00, 0x00, 0x00, 0x02, 0x00, 0x00, 0x00, 0x02, 0x00, 0x00, 0x00, 0x02, 0x00, 0x00, 0x00, 0x01, 0x00, 0x00, 0x00, 0x0E, 0x00, 0x00, 0x00, 0x01, 0x00, 0x00, 0x00, 0x0D, 0x00, 0x00, 0x00, 0xD0, 0xEB, 0xFF, 0xFF, 0x00, 0x00, 0x00, 0x09, 0x14, 0x00, 0x00, 0x00, 0x0F, 0x00, 0x00, 0x00, 0x34, 0x00, 0x00, 0x00, 0x60, 0x00, 0x00, 0x00, 0x18, 0x00, 0x00, 0x00, 0x04, 0x00, 0x00, 0x00, 0x01, 0x00, 0x00, 0x00, 0x05, 0x00, 0x00, 0x00, 0x21, 0x00, 0x00, 0x00, 0x10, 0x00, 0x00, 0x00, 0x04, 0x00, 0x00, 0x00, 0xFF, 0xFF, 0xFF, 0xFF, 0x05, 0x00, 0x00, 0x00, 0x21, 0x00, 0x00, 0x00, 0x10, 0x00, 0x00, 0x00, 0x2A, 0x00, 0x00, 0x00, 0x73, 0x65, 0x71, 0x75, 0x65, 0x6E, 0x74, 0x69, 0x61, 0x6C, 0x5F, 0x31, 0x2F, 0x71, 0x75, 0x61, 0x6E, 0x74, 0x5F, 0x6D, 0x61, 0x78, 0x5F, 0x70, 0x6F, 0x6F, 0x6C, 0x69, 0x6E, 0x67, 0x32, 0x64, 0x5F, 0x36, 0x2F, 0x4D, 0x61, 0x78, 0x50, 0x6F, 0x6F, 0x6C, 0x00, 0x00, 0xE4, 0xEA, 0xFF, 0xFF, 0x08, 0x00, 0x00, 0x00, 0x0C, 0x00, 0x00, 0x00, 0x01, 0x00, 0x00, 0x00, 0x75, 0xAF, 0x9F, 0x41, 0x01, 0x00, 0x00, 0x00, 0x80, 0xFF, 0xFF, 0xFF, 0xFF, 0xFF, 0xFF, 0xFF, 0x00, 0x00, 0x00, 0x00, 0x42, 0xF0, 0xFF, 0xFF, 0x00, 0x00, 0x00, 0x01, 0x01, 0x00, 0x00, 0x00, 0x24, 0x00, 0x00, 0x00, 0x18, 0x00, 0x00, 0x00, 0x04, 0x00, 0x00, 0x00, 0x34, 0xF0, 0xFF, 0xFF, 0x01, 0x00, 0x00, 0x00, 0x01, 0x00, 0x00, 0x00, 0x00, 0x00, 0x00, 0x01, 0x01, 0x00, 0x00, 0x00, 0x0D, 0x00, 0x00, 0x00, 0x03, 0x00, 0x00, 0x00, 0x0A, 0x00, 0x00, 0x00, 0x0B, 0x00, 0x00, 0x00, 0x0C, 0x00, 0x00, 0x00, 0xA8, 0xEC, 0xFF, 0xFF, 0x00, 0x00, 0x00, 0x09, 0x14, 0x00, 0x00, 0x00, 0x0E, 0x00, 0x00, 0x00, 0x34, 0x00, 0x00, 0x00, 0xD8, 0x00, 0x00, 0x00, 0x18, 0x00, 0x00, 0x00, 0x04, 0x00, 0x00, 0x00, 0x01, 0x00, 0x00, 0x00, 0x09, 0x00, 0x00, 0x00, 0x41, 0x00, 0x00, 0x00, 0x10, 0x00, 0x00, 0x00, 0x04, 0x00, 0x00, 0x00, 0xFF, 0xFF, 0xFF, 0xFF, 0x09, 0x00, 0x00, 0x00, 0x41, 0x00, 0x00, 0x00, 0x10, 0x00, 0x00, 0x00, 0xA3, 0x00, 0x00, 0x00, 0x73, 0x65, 0x71, 0x75, 0x65, 0x6E, 0x74, 0x69, 0x61, 0x6C, 0x5F, 0x31, 0x2F, 0x71, 0x75, 0x61, 0x6E, 0x74, 0x5F, 0x63, 0x6F, 0x6E, 0x76, 0x32, 0x64, 0x5F, 0x36, 0x2F, 0x52, 0x65, 0x6C, 0x75, 0x3B, 0x73, 0x65, 0x71, 0x75, 0x65, 0x6E, 0x74, 0x69, 0x61, 0x6C, 0x5F, 0x31, 0x2F, 0x71, 0x75, 0x61, 0x6E, 0x74, 0x5F, 0x63, 0x6F, 0x6E, 0x76, 0x32, 0x64, 0x5F, 0x36, 0x2F, 0x42, 0x69, 0x61, 0x73, 0x41, 0x64, 0x64, 0x3B, 0x73, 0x65, 0x71, 0x75, 0x65, 0x6E, 0x74, 0x69, 0x61, 0x6C, 0x5F, 0x31, 0x2F, 0x71, 0x75, 0x61, 0x6E, 0x74, 0x5F, 0x63, 0x6F, 0x6E, 0x76, 0x32, 0x64, 0x5F, 0x36, 0x2F, 0x43, 0x6F, 0x6E, 0x76, 0x32, 0x44, 0x3B, 0x73, 0x65, 0x71, 0x75, 0x65, 0x6E, 0x74, 0x69, 0x61, 0x6C, 0x5F, 0x31, 0x2F, 0x71, 0x75, 0x61, 0x6E, 0x74, 0x5F, 0x63, 0x6F, 0x6E, 0x76, 0x32, 0x64, 0x5F, 0x36, 0x2F, 0x42, 0x69, 0x61, 0x73, 0x41, 0x64, 0x64, 0x2F, 0x52, 0x65, 0x61, 0x64, 0x56, 0x61, 0x72, 0x69, 0x61, 0x62, 0x6C, 0x65, 0x4F, 0x70, 0x2F, 0x72, 0x65, 0x73, 0x6F, 0x75, 0x72, 0x63, 0x65, 0x00, 0x34, 0xEC, 0xFF, 0xFF, 0x08, 0x00, 0x00, 0x00, 0x0C, 0x00, 0x00, 0x00, 0x01, 0x00, 0x00, 0x00, 0x75, 0xAF, 0x9F, 0x41, 0x01, 0x00, 0x00, 0x00, 0x80, 0xFF, 0xFF, 0xFF, 0xFF, 0xFF, 0xFF, 0xFF, 0x22, 0xEC, 0xFF, 0xFF, 0x04, 0x00, 0x00, 0x00, 0x40, 0x00, 0x00, 0x00, 0xFF, 0xFF, 0xFF, 0xFF, 0x01, 0x00, 0x00, 0x00, 0x00, 0x00, 0x00, 0x00, 0xFF, 0xFF, 0xFF, 0xFF, 0x00, 0x00, 0x00, 0x00, 0xFF, 0xFF, 0xFF, 0xFF, 0x00, 0x00, 0x00, 0x00, 0x00, 0x00, 0x00, 0x00, 0x00, 0x00, 0x00, 0x00, 0x00, 0x00, 0x00, 0x00, 0x00, 0x00, 0x00, 0x00, 0xFE, 0xFF, 0xFF, 0xFF, 0x00, 0x00, 0x00, 0x00, 0xFF, 0xFF, 0xFF, 0xFF, 0x01, 0x00, 0x00, 0x00, 0x00, 0x00, 0x00, 0x00, 0x52, 0xEC, 0xFF, 0xFF, 0x00, 0x00, 0x00, 0x02, 0x10, 0x00, 0x00, 0x00, 0x0D, 0x00, 0x00, 0x00, 0x10, 0x00, 0x00, 0x00, 0x94, 0x00, 0x00, 0x00, 0x01, 0x00, 0x00, 0x00, 0x10, 0x00, 0x00, 0x00, 0x82, 0x00, 0x00, 0x00, 0x73, 0x65, 0x71, 0x75, 0x65, 0x6E, 0x74, 0x69, 0x61, 0x6C, 0x5F, 0x31, 0x2F, 0x71, 0x75, 0x61, 0x6E, 0x74, 0x5F, 0x63, 0x6F, 0x6E, 0x76, 0x32, 0x64, 0x5F, 0x36, 0x2F, 0x42, 0x69, 0x61, 0x73, 0x41, 0x64, 0x64, 0x3B, 0x73, 0x65, 0x71, 0x75, 0x65, 0x6E, 0x74, 0x69, 0x61, 0x6C, 0x5F, 0x31, 0x2F, 0x71, 0x75, 0x61, 0x6E, 0x74, 0x5F, 0x63, 0x6F, 0x6E, 0x76, 0x32, 0x64, 0x5F, 0x36, 0x2F, 0x43, 0x6F, 0x6E, 0x76, 0x32, 0x44, 0x3B, 0x73, 0x65, 0x71, 0x75, 0x65, 0x6E, 0x74, 0x69, 0x61, 0x6C, 0x5F, 0x31, 0x2F, 0x71, 0x75, 0x61, 0x6E, 0x74, 0x5F, 0x63, 0x6F, 0x6E, 0x76, 0x32, 0x64, 0x5F, 0x36, 0x2F, 0x42, 0x69, 0x61, 0x73, 0x41, 0x64, 0x64, 0x2F, 0x52, 0x65, 0x61, 0x64, 0x56, 0x61, 0x72, 0x69, 0x61, 0x62, 0x6C, 0x65, 0x4F, 0x70, 0x2F, 0x72, 0x65, 0x73, 0x6F, 0x75, 0x72, 0x63, 0x65, 0x00, 0x00, 0x48, 0xED, 0xFF, 0xFF, 0x08, 0x00, 0x00, 0x00, 0x48, 0x00, 0x00, 0x00, 0x10, 0x00, 0x00, 0x00, 0xD1, 0x4A, 0x35, 0x3E, 0x38, 0x80, 0x25, 0x3E, 0xCB, 0xFE, 0x20, 0x3E, 0x3B, 0xF4, 0x28, 0x3E, 0x5C, 0x3F, 0x40, 0x3E, 0x9E, 0x48, 0x21, 0x3E, 0x59, 0x34, 0x51, 0x3E, 0x41, 0x16, 0x27, 0x3E, 0xD9, 0xBA, 0x21, 0x3E, 0x7C, 0x6B, 0x1C, 0x3E, 0xD9, 0x21, 0x3D, 0x3E, 0xE2, 0xE3, 0x21, 0x3E, 0x38, 0x3E, 0x2E, 0x3E, 0x9D, 0xAE, 0x39, 0x3E, 0xC2, 0xD3, 0x37, 0x3E, 0x59, 0x45, 0x47, 0x3E, 0x10, 0x00, 0x00, 0x00, 0x00, 0x00, 0x00, 0x00, 0x00, 0x00, 0x00, 0x00, 0x00, 0x00, 0x00, 0x00, 0x00, 0x00, 0x00, 0x00, 0x00, 0x00, 0x00, 0x00, 0x00, 0x00, 0x00, 0x00, 0x00, 0x00, 0x00, 0x00, 0x00, 0x00, 0x00, 0x00, 0x00, 0x00, 0x00, 0x00, 0x00, 0x00, 0x00, 0x00, 0x00, 0x00, 0x00, 0x00, 0x00, 0x00, 0x00, 0x00, 0x00, 0x00, 0x00, 0x00, 0x00, 0x00, 0x00, 0x00, 0x00, 0x00, 0x00, 0x00, 0x00, 0x00, 0x00, 0x00, 0x00, 0x00, 0x00, 0x00, 0x00, 0x00, 0x00, 0x00, 0x00, 0x00, 0x00, 0x00, 0x00, 0x00, 0x00, 0x00, 0x00, 0x00, 0x00, 0x00, 0x00, 0x00, 0x00, 0x00, 0x00, 0x00, 0x00, 0x00, 0x00, 0x00, 0x00, 0x00, 0x00, 0x00, 0x00, 0x00, 0x00, 0x00, 0x00, 0x00, 0x00, 0x00, 0x00, 0x00, 0x00, 0x00, 0x00, 0x00, 0x00, 0x00, 0x00, 0x00, 0x00, 0x00, 0x00, 0x00, 0x00, 0x00, 0x00, 0x00, 0x00, 0x00, 0x00, 0x00, 0xEA, 0xED, 0xFF, 0xFF, 0x04, 0x00, 0x00, 0x00, 0x80, 0x04, 0x00, 0x00, 0x51, 0x0B, 0x1A, 0x3B, 0xC2, 0x58, 0xE0, 0xDA, 0xE9, 0xB1, 0xB3, 0x36, 0x3E, 0x08, 0xDA, 0x06, 0x1E, 0x29, 0xB5, 0x3C, 0xB1, 0x9E, 0x14, 0xF1, 0xA2, 0x46, 0x1D, 0x1C, 0x1F, 0xC8, 0x3E, 0xA9, 0x89, 0xA5, 0x37, 0x87, 0x40, 0x0B, 0xFC, 0x0F, 0x1E, 0xC6, 0x81, 0x07, 0x31, 0x54, 0xE9, 0x31, 0xA6, 0x2C, 0xE8, 0x27, 0x2F, 0xBA, 0x13, 0x18, 0xF8, 0x32, 0xAB, 0x99, 0x9C, 0x05, 0x3E, 0x09, 0xCB, 0xD8, 0x4B, 0xCE, 0x31, 0xFA, 0x07, 0xF1, 0xD6, 0xE5, 0x8E, 0xA6, 0x50, 0x1C, 0x85, 0xAB, 0xF8, 0xEE, 0xAA, 0xB6, 0x09, 0x39, 0x39, 0x97, 0x49, 0xDC, 0x85, 0x52, 0xD6, 0xBA, 0x62, 0x3F, 0x15, 0x54, 0x0F, 0x6C, 0xA9, 0x06, 0x59, 0xB9, 0xDD, 0xD7, 0x22, 0xF2, 0x33, 0xD5, 0x4A, 0xEB, 0xC6, 0xA9, 0x18, 0xCE, 0xD6, 0x9B, 0x81, 0xDC, 0x09, 0x34, 0xFA, 0xA4, 0x1A, 0xBD, 0x22, 0x0E, 0x40, 0x0A, 0x29, 0xAA, 0xB0, 0xEC, 0xE5, 0xB9, 0xEC, 0xEE, 0x1B, 0x72, 0xEB, 0xF1, 0xF8, 0x4A, 0xE0, 0x6D, 0x01, 0xDB, 0x3D, 0x60, 0x0A, 0xC4, 0x56, 0xC7, 0xE6, 0x36, 0xE5, 0x8B, 0xDA, 0x9B, 0xF7, 0x8A, 0xAA, 0x2E, 0x88, 0xC5, 0x94, 0x14, 0x41, 0xE2, 0x98, 0x18, 0x18, 0x9A, 0x64, 0x19, 0xEF, 0x1E, 0x21, 0x9D, 0x2A, 0x0D, 0x50, 0xF8, 0x90, 0x64, 0x62, 0xA2, 0xDD, 0xC3, 0xC6, 0x5C, 0x4B, 0xE3, 0xAB, 0xE7, 0x4F, 0xC5, 0x11, 0x8E, 0xE0, 0x2D, 0xA1, 0xAB, 0xDA, 0xF6, 0x87, 0xE2, 0xAA, 0x82, 0xF7, 0xCB, 0x81, 0x02, 0x30, 0xE0, 0xC6, 0x24, 0xDC, 0x1D, 0xF9, 0x01, 0xB2, 0x29, 0x14, 0xE0, 0x12, 0xC4, 0x88, 0x45, 0x4B, 0x2E, 0x2A, 0x65, 0xF1, 0xE2, 0xA9, 0xCE, 0x53, 0xCA, 0xD1, 0x04, 0x85, 0x8C, 0x90, 0x37, 0x19, 0x2F, 0x58, 0x4B, 0x31, 0xE0, 0xA5, 0xB6, 0x51, 0xAD, 0x51, 0x41, 0x11, 0x2C, 0x89, 0x50, 0x6A, 0xB6, 0xD8, 0x66, 0x81, 0x49, 0x0D, 0x35, 0x5E, 0x2D, 0xD3, 0xD5, 0xF3, 0x2B, 0x82, 0x44, 0x3E, 0x8B, 0xB3, 0xE4, 0xC8, 0x95, 0x59, 0x16, 0x1E, 0x2E, 0xF4, 0x41, 0xF0, 0xFD, 0xF6, 0x26, 0x37, 0x03, 0x11, 0x46, 0x2C, 0xDB, 0xEC, 0xE8, 0xFC, 0x00, 0x04, 0x96, 0xCA, 0xF3, 0x4E, 0x34, 0xED, 0x2B, 0xF9, 0xAC, 0x00, 0xB4, 0x09, 0x25, 0x10, 0x2F, 0x20, 0x49, 0x03, 0x07, 0x10, 0x44, 0x1F, 0xC2, 0xDA, 0xD1, 0x40, 0xB0, 0x11, 0x08, 0xC6, 0x8C, 0xFB, 0xCA, 0x21, 0xA3, 0xE4, 0x3F, 0x49, 0xFC, 0xF1, 0x39, 0xBC, 0x0B, 0xE0, 0xB1, 0x81, 0xAD, 0x16, 0xBE, 0xB1, 0xB2, 0x37, 0xC8, 0x4F, 0xBA, 0x08, 0x47, 0x8F, 0x12, 0x56, 0x5C, 0xAB, 0xDA, 0x58, 0xCB, 0xF9, 0x1F, 0xFF, 0xB1, 0xBF, 0x17, 0x24, 0x4F, 0xFE, 0x16, 0x9E, 0xA5, 0xC1, 0x0D, 0xB8, 0xEE, 0x4B, 0xBD, 0x82, 0x8B, 0xB2, 0xC9, 0x97, 0x12, 0x31, 0x18, 0xD2, 0x9B, 0xB8, 0x99, 0x28, 0x12, 0xA1, 0xDE, 0xB1, 0x61, 0x73, 0x43, 0x37, 0x4C, 0x44, 0xD7, 0xE6, 0xDA, 0xD3, 0x10, 0x52, 0x3E, 0xD5, 0xA7, 0x97, 0x12, 0x25, 0x9F, 0x04, 0x81, 0x1C, 0x2C, 0xDF, 0x44, 0xA5, 0x0E, 0xD7, 0xDC, 0x3B, 0xC2, 0x10, 0xEF, 0xCB, 0xB9, 0x15, 0xBE, 0xD3, 0xC5, 0x2A, 0x1D, 0xB0, 0x33, 0xD1, 0x3D, 0x58, 0x3E, 0x0D, 0xE5, 0xA2, 0xD3, 0x1D, 0x04, 0xF3, 0x1D, 0xDE, 0xF5, 0xEC, 0xDA, 0x18, 0x2E, 0x10, 0xCE, 0xE4, 0xC3, 0x0E, 0x81, 0xA8, 0x91, 0xEE, 0xC1, 0xC0, 0x43, 0x44, 0x96, 0x37, 0xE2, 0x09, 0xB5, 0xF0, 0x44, 0xEB, 0x47, 0xB5, 0xFD, 0x2F, 0xDC, 0x56, 0x2B, 0x2A, 0x99, 0xF1, 0xBC, 0xB6, 0x9F, 0x1C, 0xDC, 0xEF, 0x92, 0x1C, 0x14, 0x96, 0x9A, 0x02, 0xB9, 0xEA, 0x81, 0xDC, 0x41, 0xA3, 0x15, 0x1B, 0x92, 0xDC, 0x8D, 0xA0, 0x20, 0xF7, 0xC1, 0x1E, 0xFB, 0xC1, 0x50, 0x08, 0xB2, 0xF8, 0x44, 0xD1, 0x1D, 0xFC, 0x4A, 0x0F, 0x4C, 0x0C, 0x40, 0xD0, 0x54, 0x55, 0x0C, 0x46, 0x1E, 0xB8, 0x18, 0x9C, 0x16, 0x4C, 0xDC, 0xED, 0x3C, 0x0F, 0xD3, 0x0A, 0x42, 0xB0, 0x67, 0xB3, 0xDA, 0xA1, 0x00, 0x94, 0x07, 0xD6, 0xA8, 0xEA, 0x59, 0x08, 0x9D, 0xBA, 0x12, 0x3C, 0x41, 0x0A, 0x88, 0xA7, 0x20, 0x16, 0xD1, 0x8C, 0x2B, 0x1D, 0xB1, 0x02, 0xF7, 0x18, 0x2B, 0x41, 0x86, 0xFC, 0xA9, 0xE7, 0x18, 0x17, 0x4E, 0x3F, 0xF5, 0x37, 0x84, 0x81, 0xC9, 0xED, 0x34, 0x43, 0xCF, 0x41, 0x41, 0xD4, 0xF7, 0x05, 0xBE, 0x02, 0xC5, 0xB7, 0x28, 0x60, 0x6B, 0xEB, 0x38, 0x2B, 0xC6, 0xF5, 0xBA, 0x25, 0x1B, 0xA3, 0x5D, 0x50, 0x01, 0xA3, 0xDF, 0x29, 0xD1, 0xD3, 0x4E, 0x6D, 0x1E, 0xB4, 0xB6, 0x0C, 0x2E, 0xF5, 0x57, 0x58, 0x97, 0x8D, 0x71, 0xD1, 0x25, 0x53, 0x44, 0x1A, 0xE0, 0xFD, 0x69, 0xF0, 0x0D, 0xA8, 0x4A, 0x88, 0xAA, 0x1F, 0xF1, 0xBD, 0xD8, 0x02, 0x63, 0x3A, 0x3A, 0x89, 0xE3, 0xB8, 0x63, 0x96, 0x4B, 0xC1, 0x81, 0x46, 0x69, 0x4F, 0xD5, 0xBE, 0x5F, 0x1B, 0x0F, 0xF7, 0x23, 0x1E, 0x2A, 0x93, 0x58, 0x37, 0xAD, 0x5D, 0xFB, 0x8E, 0x00, 0x32, 0xBB, 0x91, 0x29, 0xAD, 0x12, 0x02, 0xC6, 0xB8, 0xDE, 0xC4, 0x15, 0xD1, 0x27, 0xA7, 0x4F, 0x66, 0x18, 0x65, 0xA2, 0xB5, 0xAA, 0x3A, 0xC6, 0xEB, 0xE3, 0x1B, 0xBD, 0x17, 0xC6, 0x8A, 0xA3, 0xFC, 0xE9, 0x43, 0x47, 0x4F, 0x54, 0x8E, 0x20, 0x00, 0xB9, 0x2C, 0xCC, 0x9C, 0x2B, 0x24, 0xC7, 0xAC, 0x01, 0x34, 0xCC, 0x86, 0xA9, 0x33, 0xDD, 0xCB, 0x35, 0xCB, 0xE2, 0xF4, 0xB2, 0x0D, 0x07, 0x15, 0x16, 0x11, 0x19, 0xF1, 0xFA, 0x9A, 0x8E, 0x07, 0xFC, 0xAC, 0xFF, 0x04, 0xC8, 0x3E, 0x3F, 0xBE, 0xF3, 0x93, 0xF7, 0xB5, 0xD5, 0x81, 0x28, 0x27, 0x44, 0xF5, 0x05, 0xF3, 0xE0, 0xC5, 0xE7, 0x06, 0x56, 0xA2, 0x48, 0xED, 0x39, 0x55, 0x00, 0x17, 0xD4, 0x95, 0xB8, 0x3F, 0xE9, 0x1C, 0xCB, 0x02, 0x3D, 0xCF, 0x60, 0xF3, 0xDF, 0x3B, 0xB6, 0xC9, 0xE8, 0x7F, 0x34, 0x0B, 0x1D, 0x4A, 0xCD, 0x18, 0x5D, 0x8D, 0xB7, 0xDF, 0x77, 0xB6, 0xFF, 0xC2, 0xB0, 0xD5, 0xB6, 0xD9, 0x9B, 0x32, 0x8B, 0xC2, 0xAB, 0x9C, 0x40, 0xBB, 0x27, 0x14, 0xFE, 0x56, 0x3C, 0x48, 0xD1, 0x35, 0xB1, 0x22, 0xB0, 0xCE, 0xCF, 0x1B, 0x4A, 0x50, 0xF0, 0x95, 0x08, 0xF6, 0xC5, 0x59, 0xC3, 0xCC, 0xDB, 0x01, 0xB1, 0x22, 0xFF, 0x07, 0x17, 0x52, 0x41, 0xFD, 0xB1, 0x01, 0x22, 0x05, 0xBF, 0x3D, 0x1A, 0x1C, 0x1E, 0xEB, 0x5F, 0xD7, 0xE7, 0xF3, 0x2F, 0x3D, 0xDC, 0xF6, 0x85, 0xE3, 0xB9, 0xF3, 0xEB, 0xE4, 0x24, 0x81, 0x97, 0x5F, 0xC7, 0xC0, 0xD0, 0x35, 0x14, 0xFF, 0x3D, 0x59, 0xA7, 0x38, 0xB4, 0x19, 0xBA, 0x85, 0xA1, 0xE0, 0x1A, 0xE5, 0x97, 0xE4, 0x9E, 0x91, 0xA6, 0x37, 0xBA, 0x81, 0x21, 0x33, 0xAE, 0x25, 0x14, 0x59, 0x48, 0xA6, 0x4F, 0xEE, 0xE0, 0x37, 0xF6, 0xF4, 0x9D, 0xE8, 0x57, 0xBA, 0xB8, 0x1E, 0x5F, 0x01, 0x1B, 0xE0, 0x0E, 0x0E, 0x9C, 0xB9, 0xAE, 0xDE, 0xF9, 0xC2, 0xAD, 0x4D, 0xDB, 0xC0, 0xEE, 0x35, 0x13, 0xC1, 0xC2, 0xE0, 0xCE, 0xB0, 0xA0, 0x1F, 0xD1, 0xE7, 0xCB, 0x35, 0xCD, 0xEA, 0x3F, 0xE8, 0x03, 0xBD, 0xC3, 0x4B, 0xF5, 0x2B, 0xE1, 0x54, 0x0A, 0x98, 0x5B, 0xA6, 0xF5, 0xB4, 0x07, 0x9F, 0x26, 0x9E, 0xEF, 0xBF, 0x29, 0xB1, 0xDD, 0xCE, 0x0E, 0x14, 0x43, 0x3A, 0xB5, 0x94, 0xE7, 0xD7, 0xCF, 0x52, 0xE3, 0x01, 0xB4, 0xE6, 0x29, 0x36, 0x0F, 0xBE, 0x0B, 0xBE, 0x07, 0xEC, 0xD8, 0x76, 0xAC, 0x48, 0x35, 0x07, 0x49, 0x92, 0xA2, 0x1A, 0xCE, 0x24, 0xCC, 0xBC, 0xC2, 0xDB, 0xBB, 0xDF, 0xC7, 0x21, 0x19, 0x13, 0x4E, 0xB1, 0xB2, 0xD8, 0x10, 0xC5, 0x8C, 0x06, 0x08, 0x36, 0x29, 0x9E, 0xF2, 0xD5, 0x5B, 0x81, 0xB9, 0xF5, 0xA6, 0x2D, 0xE4, 0x2C, 0xC0, 0x38, 0x9A, 0xDF, 0x1B, 0xFB, 0xDA, 0xD8, 0xF2, 0x23, 0x81, 0x2F, 0xAF, 0x26, 0x2A, 0x1D, 0xD5, 0xFA, 0xCA, 0x1D, 0xB4, 0xD0, 0x81, 0xF2, 0x2D, 0xF3, 0x20, 0xF7, 0x5E, 0xE3, 0x1C, 0xEB, 0xE0, 0xA5, 0x40, 0x1C, 0x2D, 0x08, 0xD3, 0x95, 0x5F, 0x03, 0x9B, 0xF4, 0x09, 0xF2, 0xBD, 0xE9, 0xE6, 0xAC, 0x24, 0x0A, 0xF9, 0x0B, 0xDC, 0x3C, 0xEA, 0xBF, 0xB4, 0x1C, 0x2A, 0x43, 0x23, 0x27, 0x36, 0xC5, 0xA3, 0xDE, 0x39, 0x28, 0xB4, 0x5A, 0xF2, 0xFF, 0xFF, 0x00, 0x00, 0x00, 0x09, 0x10, 0x00, 0x00, 0x00, 0x0C, 0x00, 0x00, 0x00, 0x1C, 0x00, 0x00, 0x00, 0x8C, 0x00, 0x00, 0x00, 0x04, 0x00, 0x00, 0x00, 0x10, 0x00, 0x00, 0x00, 0x03, 0x00, 0x00, 0x00, 0x03, 0x00, 0x00, 0x00, 0x08, 0x00, 0x00, 0x00, 0x6F, 0x00, 0x00, 0x00, 0x73, 0x65, 0x71, 0x75, 0x65, 0x6E, 0x74, 0x69, 0x61, 0x6C, 0x5F, 0x31, 0x2F, 0x71, 0x75, 0x61, 0x6E, 0x74, 0x5F, 0x63, 0x6F, 0x6E, 0x76, 0x32, 0x64, 0x5F, 0x36, 0x2F, 0x43, 0x6F, 0x6E, 0x76, 0x32, 0x44, 0x3B, 0x73, 0x65, 0x71, 0x75, 0x65, 0x6E, 0x74, 0x69, 0x61, 0x6C, 0x5F, 0x31, 0x2F, 0x71, 0x75, 0x61, 0x6E, 0x74, 0x5F, 0x63, 0x6F, 0x6E, 0x76, 0x32, 0x64, 0x5F, 0x36, 0x2F, 0x4C, 0x61, 0x73, 0x74, 0x56, 0x61, 0x6C, 0x75, 0x65, 0x51, 0x75, 0x61, 0x6E, 0x74, 0x2F, 0x46, 0x61, 0x6B, 0x65, 0x51, 0x75, 0x61, 0x6E, 0x74, 0x57, 0x69, 0x74, 0x68, 0x4D, 0x69, 0x6E, 0x4D, 0x61, 0x78, 0x56, 0x61, 0x72, 0x73, 0x50, 0x65, 0x72, 0x43, 0x68, 0x61, 0x6E, 0x6E, 0x65, 0x6C, 0x00, 0x48, 0xF3, 0xFF, 0xFF, 0x08, 0x00, 0x00, 0x00, 0x48, 0x00, 0x00, 0x00, 0x10, 0x00, 0x00, 0x00, 0x98, 0xC9, 0xCB, 0x3A, 0x62, 0x09, 0xBA, 0x3A, 0xD6, 0xF8, 0xB4, 0x3A, 0x15, 0xEB, 0xBD, 0x3A, 0x22, 0x1A, 0xD8, 0x3A, 0xD2, 0x4B, 0xB5, 0x3A, 0xC3, 0x29, 0xEB, 0x3A, 0xCD, 0xD1, 0xBB, 0x3A, 0x39, 0xCC, 0xB5, 0x3A, 0x2F, 0xD4, 0xAF, 0x3A, 0xA9, 0x99, 0xD4, 0x3A, 0x5A, 0xFA, 0xB5, 0x3A, 0x14, 0xDD, 0xC3, 0x3A, 0xD6, 0xB8, 0xD0, 0x3A, 0x0F, 0xA3, 0xCE, 0x3A, 0x38, 0xFF, 0xDF, 0x3A, 0x10, 0x00, 0x00, 0x00, 0x00, 0x00, 0x00, 0x00, 0x00, 0x00, 0x00, 0x00, 0x00, 0x00, 0x00, 0x00, 0x00, 0x00, 0x00, 0x00, 0x00, 0x00, 0x00, 0x00, 0x00, 0x00, 0x00, 0x00, 0x00, 0x00, 0x00, 0x00, 0x00, 0x00, 0x00, 0x00, 0x00, 0x00, 0x00, 0x00, 0x00, 0x00, 0x00, 0x00, 0x00, 0x00, 0x00, 0x00, 0x00, 0x00, 0x00, 0x00, 0x00, 0x00, 0x00, 0x00, 0x00, 0x00, 0x00, 0x00, 0x00, 0x00, 0x00, 0x00, 0x00, 0x00, 0x00, 0x00, 0x00, 0x00, 0x00, 0x00, 0x00, 0x00, 0x00, 0x00, 0x00, 0x00, 0x00, 0x00, 0x00, 0x00, 0x00, 0x00, 0x00, 0x00, 0x00, 0x00, 0x00, 0x00, 0x00, 0x00, 0x00, 0x00, 0x00, 0x00, 0x00, 0x00, 0x00, 0x00, 0x00, 0x00, 0x00, 0x00, 0x00, 0x00, 0x00, 0x00, 0x00, 0x00, 0x00, 0x00, 0x00, 0x00, 0x00, 0x00, 0x00, 0x00, 0x00, 0x00, 0x00, 0x00, 0x00, 0x00, 0x00, 0x00, 0x00, 0x00, 0x00, 0x00, 0x00, 0x00, 0x56, 0xF9, 0xFF, 0xFF, 0x00, 0x00, 0x00, 0x05, 0x02, 0x00, 0x00, 0x00, 0x28, 0x00, 0x00, 0x00, 0x1C, 0x00, 0x00, 0x00, 0x04, 0x00, 0x00, 0x00, 0x46, 0xFA, 0xFF, 0xFF, 0x02, 0x00, 0x00, 0x00, 0x02, 0x00, 0x00, 0x00, 0x02, 0x00, 0x00, 0x00, 0x02, 0x00, 0x00, 0x00, 0x01, 0x00, 0x00, 0x00, 0x0A, 0x00, 0x00, 0x00, 0x01, 0x00, 0x00, 0x00, 0x09, 0x00, 0x00, 0x00, 0xB8, 0xF5, 0xFF, 0xFF, 0x00, 0x00, 0x00, 0x09, 0x14, 0x00, 0x00, 0x00, 0x0B, 0x00, 0x00, 0x00, 0x34, 0x00, 0x00, 0x00, 0x60, 0x00, 0x00, 0x00, 0x18, 0x00, 0x00, 0x00, 0x04, 0x00, 0x00, 0x00, 0x01, 0x00, 0x00, 0x00, 0x09, 0x00, 0x00, 0x00, 0x41, 0x00, 0x00, 0x00, 0x08, 0x00, 0x00, 0x00, 0x04, 0x00, 0x00, 0x00, 0xFF, 0xFF, 0xFF, 0xFF, 0x09, 0x00, 0x00, 0x00, 0x41, 0x00, 0x00, 0x00, 0x08, 0x00, 0x00, 0x00, 0x2A, 0x00, 0x00, 0x00, 0x73, 0x65, 0x71, 0x75, 0x65, 0x6E, 0x74, 0x69, 0x61, 0x6C, 0x5F, 0x31, 0x2F, 0x71, 0x75, 0x61, 0x6E, 0x74, 0x5F, 0x6D, 0x61, 0x78, 0x5F, 0x70, 0x6F, 0x6F, 0x6C, 0x69, 0x6E, 0x67, 0x32, 0x64, 0x5F, 0x35, 0x2F, 0x4D, 0x61, 0x78, 0x50, 0x6F, 0x6F, 0x6C, 0x00, 0x00, 0xCC, 0xF4, 0xFF, 0xFF, 0x08, 0x00, 0x00, 0x00, 0x0C, 0x00, 0x00, 0x00, 0x01, 0x00, 0x00, 0x00, 0xC3, 0xBD, 0xE3, 0x42, 0x01, 0x00, 0x00, 0x00, 0x80, 0xFF, 0xFF, 0xFF, 0xFF, 0xFF, 0xFF, 0xFF, 0x00, 0x00, 0x00, 0x00, 0x2A, 0xFA, 0xFF, 0xFF, 0x00, 0x00, 0x00, 0x01, 0x01, 0x00, 0x00, 0x00, 0x24, 0x00, 0x00, 0x00, 0x18, 0x00, 0x00, 0x00, 0x04, 0x00, 0x00, 0x00, 0x1C, 0xFA, 0xFF, 0xFF, 0x01, 0x00, 0x00, 0x00, 0x01, 0x00, 0x00, 0x00, 0x00, 0x00, 0x00, 0x01, 0x01, 0x00, 0x00, 0x00, 0x09, 0x00, 0x00, 0x00, 0x03, 0x00, 0x00, 0x00, 0x06, 0x00, 0x00, 0x00, 0x07, 0x00, 0x00, 0x00, 0x08, 0x00, 0x00, 0x00, 0x90, 0xF6, 0xFF, 0xFF, 0x00, 0x00, 0x00, 0x09, 0x14, 0x00, 0x00, 0x00, 0x0A, 0x00, 0x00, 0x00, 0x34, 0x00, 0x00, 0x00, 0xD8, 0x00, 0x00, 0x00, 0x18, 0x00, 0x00, 0x00, 0x04, 0x00, 0x00, 0x00, 0x01, 0x00, 0x00, 0x00, 0x11, 0x00, 0x00, 0x00, 0x81, 0x00, 0x00, 0x00, 0x08, 0x00, 0x00, 0x00, 0x04, 0x00, 0x00, 0x00, 0xFF, 0xFF, 0xFF, 0xFF, 0x11, 0x00, 0x00, 0x00, 0x81, 0x00, 0x00, 0x00, 0x08, 0x00, 0x00, 0x00, 0xA3, 0x00, 0x00, 0x00, 0x73, 0x65, 0x71, 0x75, 0x65, 0x6E, 0x74, 0x69, 0x61, 0x6C, 0x5F, 0x31, 0x2F, 0x71, 0x75, 0x61, 0x6E, 0x74, 0x5F, 0x63, 0x6F, 0x6E, 0x76, 0x32, 0x64, 0x5F, 0x35, 0x2F, 0x52, 0x65, 0x6C, 0x75, 0x3B, 0x73, 0x65, 0x71, 0x75, 0x65, 0x6E, 0x74, 0x69, 0x61, 0x6C, 0x5F, 0x31, 0x2F, 0x71, 0x75, 0x61, 0x6E, 0x74, 0x5F, 0x63, 0x6F, 0x6E, 0x76, 0x32, 0x64, 0x5F, 0x35, 0x2F, 0x42, 0x69, 0x61, 0x73, 0x41, 0x64, 0x64, 0x3B, 0x73, 0x65, 0x71, 0x75, 0x65, 0x6E, 0x74, 0x69, 0x61, 0x6C, 0x5F, 0x31, 0x2F, 0x71, 0x75, 0x61, 0x6E, 0x74, 0x5F, 0x63, 0x6F, 0x6E, 0x76, 0x32, 0x64, 0x5F, 0x35, 0x2F, 0x43, 0x6F, 0x6E, 0x76, 0x32, 0x44, 0x3B, 0x73, 0x65, 0x71, 0x75, 0x65, 0x6E, 0x74, 0x69, 0x61, 0x6C, 0x5F, 0x31, 0x2F, 0x71, 0x75, 0x61, 0x6E, 0x74, 0x5F, 0x63, 0x6F, 0x6E, 0x76, 0x32, 0x64, 0x5F, 0x35, 0x2F, 0x42, 0x69, 0x61, 0x73, 0x41, 0x64, 0x64, 0x2F, 0x52, 0x65, 0x61, 0x64, 0x56, 0x61, 0x72, 0x69, 0x61, 0x62, 0x6C, 0x65, 0x4F, 0x70, 0x2F, 0x72, 0x65, 0x73, 0x6F, 0x75, 0x72, 0x63, 0x65, 0x00, 0x1C, 0xF6, 0xFF, 0xFF, 0x08, 0x00, 0x00, 0x00, 0x0C, 0x00, 0x00, 0x00, 0x01, 0x00, 0x00, 0x00, 0xC3, 0xBD, 0xE3, 0x42, 0x01, 0x00, 0x00, 0x00, 0x80, 0xFF, 0xFF, 0xFF, 0xFF, 0xFF, 0xFF, 0xFF, 0x0A, 0xF6, 0xFF, 0xFF, 0x04, 0x00, 0x00, 0x00, 0x20, 0x00, 0x00, 0x00, 0x00, 0x00, 0x00, 0x00, 0x00, 0x00, 0x00, 0x00, 0x00, 0x00, 0x00, 0x00, 0x00, 0x00, 0x00, 0x00, 0x00, 0x00, 0x00, 0x00, 0x00, 0x00, 0x00, 0x00, 0x00, 0x00, 0x00, 0x00, 0x00, 0x00, 0x00, 0x00, 0x1A, 0xF6, 0xFF, 0xFF, 0x00, 0x00, 0x00, 0x02, 0x10, 0x00, 0x00, 0x00, 0x09, 0x00, 0x00, 0x00, 0x10, 0x00, 0x00, 0x00, 0x94, 0x00, 0x00, 0x00, 0x01, 0x00, 0x00, 0x00, 0x08, 0x00, 0x00, 0x00, 0x82, 0x00, 0x00, 0x00, 0x73, 0x65, 0x71, 0x75, 0x65, 0x6E, 0x74, 0x69, 0x61, 0x6C, 0x5F, 0x31, 0x2F, 0x71, 0x75, 0x61, 0x6E, 0x74, 0x5F, 0x63, 0x6F, 0x6E, 0x76, 0x32, 0x64, 0x5F, 0x35, 0x2F, 0x42, 0x69, 0x61, 0x73, 0x41, 0x64, 0x64, 0x3B, 0x73, 0x65, 0x71, 0x75, 0x65, 0x6E, 0x74, 0x69, 0x61, 0x6C, 0x5F, 0x31, 0x2F, 0x71, 0x75, 0x61, 0x6E, 0x74, 0x5F, 0x63, 0x6F, 0x6E, 0x76, 0x32, 0x64, 0x5F, 0x35, 0x2F, 0x43, 0x6F, 0x6E, 0x76, 0x32, 0x44, 0x3B, 0x73, 0x65, 0x71, 0x75, 0x65, 0x6E, 0x74, 0x69, 0x61, 0x6C, 0x5F, 0x31, 0x2F, 0x71, 0x75, 0x61, 0x6E, 0x74, 0x5F, 0x63, 0x6F, 0x6E, 0x76, 0x32, 0x64, 0x5F, 0x35, 0x2F, 0x42, 0x69, 0x61, 0x73, 0x41, 0x64, 0x64, 0x2F, 0x52, 0x65, 0x61, 0x64, 0x56, 0x61, 0x72, 0x69, 0x61, 0x62, 0x6C, 0x65, 0x4F, 0x70, 0x2F, 0x72, 0x65, 0x73, 0x6F, 0x75, 0x72, 0x63, 0x65, 0x00, 0x00, 0x10, 0xF7, 0xFF, 0xFF, 0x08, 0x00, 0x00, 0x00, 0x28, 0x00, 0x00, 0x00, 0x08, 0x00, 0x00, 0x00, 0x69, 0xDD, 0x36, 0x3F, 0x5D, 0x38, 0x65, 0x3F, 0x04, 0x36, 0x69, 0x3F, 0x08, 0x3A, 0x5C, 0x3F, 0xF3, 0x5F, 0x70, 0x3F, 0xC3, 0x09, 0x58, 0x3F, 0x99, 0xDB, 0x50, 0x3F, 0x45, 0x79, 0x42, 0x3F, 0x08, 0x00, 0x00, 0x00, 0x00, 0x00, 0x00, 0x00, 0x00, 0x00, 0x00, 0x00, 0x00, 0x00, 0x00, 0x00, 0x00, 0x00, 0x00, 0x00, 0x00, 0x00, 0x00, 0x00, 0x00, 0x00, 0x00, 0x00, 0x00, 0x00, 0x00, 0x00, 0x00, 0x00, 0x00, 0x00, 0x00, 0x00, 0x00, 0x00, 0x00, 0x00, 0x00, 0x00, 0x00, 0x00, 0x00, 0x00, 0x00, 0x00, 0x00, 0x00, 0x00, 0x00, 0x00, 0x00, 0x00, 0x00, 0x00, 0x00, 0x00, 0x00, 0x00, 0x00, 0x00, 0x00, 0x00, 0x00, 0x52, 0xF7, 0xFF, 0xFF, 0x04, 0x00, 0x00, 0x00, 0x20, 0x01, 0x00, 0x00, 0xD0, 0xD6, 0x4C, 0x37, 0x16, 0x00, 0x4C, 0xE1, 0xA9, 0xFC, 0xA9, 0x18, 0x48, 0xBE, 0xDF, 0x24, 0xC1, 0x5F, 0xEB, 0xE9, 0xD2, 0x5E, 0x91, 0xF8, 0xD6, 0xC2, 0x8A, 0x47, 0x30, 0x06, 0x50, 0x39, 0x8C, 0x1E, 0x54, 0x81, 0xC5, 0xAD, 0x41, 0x93, 0x8A, 0x50, 0xA2, 0x94, 0x0A, 0xBD, 0x20, 0xC2, 0xA7, 0x4C, 0x0E, 0x11, 0x92, 0x81, 0x34, 0x4C, 0x1E, 0x08, 0xE5, 0x45, 0xBE, 0xCB, 0xE3, 0xFF, 0x1F, 0x2C, 0xFD, 0x0C, 0xAD, 0x59, 0xD2, 0xDE, 0xC7, 0xD6, 0x54, 0x22, 0x45, 0x1B, 0x4E, 0x09, 0x28, 0xCB, 0x46, 0xFD, 0x05, 0x39, 0xC9, 0xFE, 0xA0, 0xE1, 0xD3, 0xAD, 0x57, 0x30, 0xA4, 0x9A, 0x81, 0x3F, 0xF5, 0x22, 0xAC, 0x4F, 0x46, 0xB4, 0x41, 0x2D, 0x31, 0x2D, 0x17, 0x09, 0x81, 0x11, 0x00, 0xDD, 0x14, 0x14, 0x1D, 0x31, 0x51, 0xBD, 0xBD, 0xBD, 0x9E, 0xDA, 0xC0, 0x1E, 0xE7, 0x4B, 0xE4, 0x22, 0x20, 0xF2, 0xE9, 0x4C, 0xD4, 0xBC, 0xBC, 0xB1, 0xC0, 0x30, 0x1F, 0x9C, 0xA4, 0x1B, 0x81, 0xBE, 0xBF, 0x6B, 0x09, 0xE5, 0x2F, 0x37, 0xBA, 0xAA, 0xAD, 0xF4, 0x2B, 0xAC, 0x3A, 0xD4, 0xBF, 0xDD, 0xB9, 0x03, 0x33, 0x22, 0x9A, 0x41, 0xC8, 0x52, 0x0A, 0xC7, 0xD3, 0x39, 0xCE, 0x31, 0x5D, 0xDC, 0xD4, 0x24, 0x3E, 0x2E, 0xAE, 0xBC, 0x0F, 0xBB, 0x3E, 0xE2, 0x0B, 0xFE, 0xC7, 0xE5, 0xBF, 0x43, 0x3D, 0xEE, 0xA1, 0xAA, 0x14, 0xEC, 0x9C, 0x3A, 0x8F, 0x00, 0xA0, 0x2C, 0xDE, 0x28, 0x5A, 0x92, 0x3B, 0x81, 0x13, 0xEA, 0x46, 0x97, 0x17, 0x9B, 0x8D, 0xDA, 0xAF, 0xCC, 0x8B, 0x3B, 0x56, 0x86, 0x13, 0x69, 0x69, 0x05, 0xF9, 0x5B, 0xB9, 0x94, 0x03, 0xD1, 0x99, 0x5B, 0x27, 0xBA, 0x1F, 0x45, 0xEB, 0x81, 0x4F, 0xC8, 0x37, 0x38, 0x53, 0x8C, 0x95, 0x08, 0x5B, 0x2E, 0xC0, 0x00, 0x0D, 0x40, 0x4B, 0xFC, 0x64, 0xDB, 0xFD, 0x54, 0xC4, 0x36, 0x39, 0x27, 0x16, 0x1C, 0x59, 0x94, 0xF8, 0x57, 0x55, 0xC9, 0x1C, 0xEA, 0xD8, 0xF4, 0xF1, 0x89, 0x81, 0xB6, 0x37, 0x09, 0xFC, 0x40, 0x62, 0xF8, 0xFF, 0xFF, 0x00, 0x00, 0x00, 0x09, 0x10, 0x00, 0x00, 0x00, 0x08, 0x00, 0x00, 0x00, 0x1C, 0x00, 0x00, 0x00, 0x8C, 0x00, 0x00, 0x00, 0x04, 0x00, 0x00, 0x00, 0x08, 0x00, 0x00, 0x00, 0x03, 0x00, 0x00, 0x00, 0x03, 0x00, 0x00, 0x00, 0x04, 0x00, 0x00, 0x00, 0x6F, 0x00, 0x00, 0x00, 0x73, 0x65, 0x71, 0x75, 0x65, 0x6E, 0x74, 0x69, 0x61, 0x6C, 0x5F, 0x31, 0x2F, 0x71, 0x75, 0x61, 0x6E, 0x74, 0x5F, 0x63, 0x6F, 0x6E, 0x76, 0x32, 0x64, 0x5F, 0x35, 0x2F, 0x43, 0x6F, 0x6E, 0x76, 0x32, 0x44, 0x3B, 0x73, 0x65, 0x71, 0x75, 0x65, 0x6E, 0x74, 0x69, 0x61, 0x6C, 0x5F, 0x31, 0x2F, 0x71, 0x75, 0x61, 0x6E, 0x74, 0x5F, 0x63, 0x6F, 0x6E, 0x76, 0x32, 0x64, 0x5F, 0x35, 0x2F, 0x4C, 0x61, 0x73, 0x74, 0x56, 0x61, 0x6C, 0x75, 0x65, 0x51, 0x75, 0x61, 0x6E, 0x74, 0x2F, 0x46, 0x61, 0x6B, 0x65, 0x51, 0x75, 0x61, 0x6E, 0x74, 0x57, 0x69, 0x74, 0x68, 0x4D, 0x69, 0x6E, 0x4D, 0x61, 0x78, 0x56, 0x61, 0x72, 0x73, 0x50, 0x65, 0x72, 0x43, 0x68, 0x61, 0x6E, 0x6E, 0x65, 0x6C, 0x00, 0x50, 0xF9, 0xFF, 0xFF, 0x08, 0x00, 0x00, 0x00, 0x28, 0x00, 0x00, 0x00, 0x08, 0x00, 0x00, 0x00, 0xA4, 0xFC, 0xDE, 0x3A, 0xA6, 0xC1, 0x0B, 0x3B, 0x8E, 0x30, 0x0E, 0x3B, 0xE9, 0x45, 0x06, 0x3B, 0xB6, 0x8E, 0x12, 0x3B, 0x24, 0xB8, 0x03, 0x3B, 0xD0, 0xAE, 0xFE, 0x3A, 0x8D, 0x24, 0xED, 0x3A, 0x08, 0x00, 0x00, 0x00, 0x00, 0x00, 0x00, 0x00, 0x00, 0x00, 0x00, 0x00, 0x00, 0x00, 0x00, 0x00, 0x00, 0x00, 0x00, 0x00, 0x00, 0x00, 0x00, 0x00, 0x00, 0x00, 0x00, 0x00, 0x00, 0x00, 0x00, 0x00, 0x00, 0x00, 0x00, 0x00, 0x00, 0x00, 0x00, 0x00, 0x00, 0x00, 0x00, 0x00, 0x00, 0x00, 0x00, 0x00, 0x00, 0x00, 0x00, 0x00, 0x00, 0x00, 0x00, 0x00, 0x00, 0x00, 0x00, 0x00, 0x00, 0x00, 0x00, 0x00, 0x00, 0x00, 0x00, 0x00, 0x00, 0x00, 0x0E, 0x00, 0x1A, 0x00, 0x08, 0x00, 0x0C, 0x00, 0x10, 0x00, 0x07, 0x00, 0x14, 0x00, 0x0E, 0x00, 0x00, 0x00, 0x00, 0x00, 0x00, 0x05, 0x02, 0x00, 0x00, 0x00, 0x38, 0x00, 0x00, 0x00, 0x2C, 0x00, 0x00, 0x00, 0x14, 0x00, 0x00, 0x00, 0x00, 0x00, 0x0E, 0x00, 0x14, 0x00, 0x00, 0x00, 0x10, 0x00, 0x0C, 0x00, 0x08, 0x00, 0x04, 0x00, 0x0E, 0x00, 0x00, 0x00, 0x02, 0x00, 0x00, 0x00, 0x02, 0x00, 0x00, 0x00, 0x02, 0x00, 0x00, 0x00, 0x02, 0x00, 0x00, 0x00, 0x01, 0x00, 0x00, 0x00, 0x06, 0x00, 0x00, 0x00, 0x01, 0x00, 0x00, 0x00, 0x05, 0x00, 0x00, 0x00, 0x9C, 0xFB, 0xFF, 0xFF, 0x11, 0x00, 0x00, 0x00, 0x00, 0x00, 0x00, 0x11, 0x02, 0x00, 0x00, 0x00, 0x90, 0xFB, 0xFF, 0xFF, 0x00, 0x00, 0x00, 0x09, 0x14, 0x00, 0x00, 0x00, 0x07, 0x00, 0x00, 0x00, 0x34, 0x00, 0x00, 0x00, 0x60, 0x00, 0x00, 0x00, 0x18, 0x00, 0x00, 0x00, 0x04, 0x00, 0x00, 0x00, 0x01, 0x00, 0x00, 0x00, 0x11, 0x00, 0x00, 0x00, 0x81, 0x00, 0x00, 0x00, 0x04, 0x00, 0x00, 0x00, 0x04, 0x00, 0x00, 0x00, 0xFF, 0xFF, 0xFF, 0xFF, 0x11, 0x00, 0x00, 0x00, 0x81, 0x00, 0x00, 0x00, 0x04, 0x00, 0x00, 0x00, 0x2A, 0x00, 0x00, 0x00, 0x73, 0x65, 0x71, 0x75, 0x65, 0x6E, 0x74, 0x69, 0x61, 0x6C, 0x5F, 0x31, 0x2F, 0x71, 0x75, 0x61, 0x6E, 0x74, 0x5F, 0x6D, 0x61, 0x78, 0x5F, 0x70, 0x6F, 0x6F, 0x6C, 0x69, 0x6E, 0x67, 0x32, 0x64, 0x5F, 0x34, 0x2F, 0x4D, 0x61, 0x78, 0x50, 0x6F, 0x6F, 0x6C, 0x00, 0x00, 0xA4, 0xFA, 0xFF, 0xFF, 0x08, 0x00, 0x00, 0x00, 0x0C, 0x00, 0x00, 0x00, 0x01, 0x00, 0x00, 0x00, 0x1E, 0xF0, 0xD1, 0x43, 0x01, 0x00, 0x00, 0x00, 0x80, 0xFF, 0xFF, 0xFF, 0xFF, 0xFF, 0xFF, 0xFF, 0x00, 0x00, 0x0E, 0x00, 0x18, 0x00, 0x08, 0x00, 0x0C, 0x00, 0x10, 0x00, 0x07, 0x00, 0x14, 0x00, 0x0E, 0x00, 0x00, 0x00, 0x00, 0x00, 0x00, 0x01, 0x01, 0x00, 0x00, 0x00, 0x30, 0x00, 0x00, 0x00, 0x24, 0x00, 0x00, 0x00, 0x10, 0x00, 0x00, 0x00, 0x0C, 0x00, 0x10, 0x00, 0x00, 0x00, 0x04, 0x00, 0x08, 0x00, 0x0F, 0x00, 0x0C, 0x00, 0x00, 0x00, 0x01, 0x00, 0x00, 0x00, 0x01, 0x00, 0x00, 0x00, 0x00, 0x00, 0x00, 0x01, 0x01, 0x00, 0x00, 0x00, 0x05, 0x00, 0x00, 0x00, 0x03, 0x00, 0x00, 0x00, 0x02, 0x00, 0x00, 0x00, 0x03, 0x00, 0x00, 0x00, 0x04, 0x00, 0x00, 0x00, 0x9C, 0xFC, 0xFF, 0xFF, 0x03, 0x00, 0x00, 0x00, 0x00, 0x00, 0x00, 0x03, 0x03, 0x00, 0x00, 0x00, 0x90, 0xFC, 0xFF, 0xFF, 0x00, 0x00, 0x00, 0x09, 0x14, 0x00, 0x00, 0x00, 0x06, 0x00, 0x00, 0x00, 0x34, 0x00, 0x00, 0x00, 0xD8, 0x00, 0x00, 0x00, 0x18, 0x00, 0x00, 0x00, 0x04, 0x00, 0x00, 0x00, 0x01, 0x00, 0x00, 0x00, 0x21, 0x00, 0x00, 0x00, 0x01, 0x01, 0x00, 0x00, 0x04, 0x00, 0x00, 0x00, 0x04, 0x00, 0x00, 0x00, 0xFF, 0xFF, 0xFF, 0xFF, 0x21, 0x00, 0x00, 0x00, 0x01, 0x01, 0x00, 0x00, 0x04, 0x00, 0x00, 0x00, 0xA3, 0x00, 0x00, 0x00, 0x73, 0x65, 0x71, 0x75, 0x65, 0x6E, 0x74, 0x69, 0x61, 0x6C, 0x5F, 0x31, 0x2F, 0x71, 0x75, 0x61, 0x6E, 0x74, 0x5F, 0x63, 0x6F, 0x6E, 0x76, 0x32, 0x64, 0x5F, 0x34, 0x2F, 0x52, 0x65, 0x6C, 0x75, 0x3B, 0x73, 0x65, 0x71, 0x75, 0x65, 0x6E, 0x74, 0x69, 0x61, 0x6C, 0x5F, 0x31, 0x2F, 0x71, 0x75, 0x61, 0x6E, 0x74, 0x5F, 0x63, 0x6F, 0x6E, 0x76, 0x32, 0x64, 0x5F, 0x34, 0x2F, 0x42, 0x69, 0x61, 0x73, 0x41, 0x64, 0x64, 0x3B, 0x73, 0x65, 0x71, 0x75, 0x65, 0x6E, 0x74, 0x69, 0x61, 0x6C, 0x5F, 0x31, 0x2F, 0x71, 0x75, 0x61, 0x6E, 0x74, 0x5F, 0x63, 0x6F, 0x6E, 0x76, 0x32, 0x64, 0x5F, 0x34, 0x2F, 0x43, 0x6F, 0x6E, 0x76, 0x32, 0x44, 0x3B, 0x73, 0x65, 0x71, 0x75, 0x65, 0x6E, 0x74, 0x69, 0x61, 0x6C, 0x5F, 0x31, 0x2F, 0x71, 0x75, 0x61, 0x6E, 0x74, 0x5F, 0x63, 0x6F, 0x6E, 0x76, 0x32, 0x64, 0x5F, 0x34, 0x2F, 0x42, 0x69, 0x61, 0x73, 0x41, 0x64, 0x64, 0x2F, 0x52, 0x65, 0x61, 0x64, 0x56, 0x61, 0x72, 0x69, 0x61, 0x62, 0x6C, 0x65, 0x4F, 0x70, 0x2F, 0x72, 0x65, 0x73, 0x6F, 0x75, 0x72, 0x63, 0x65, 0x00, 0x1C, 0xFC, 0xFF, 0xFF, 0x08, 0x00, 0x00, 0x00, 0x0C, 0x00, 0x00, 0x00, 0x01, 0x00, 0x00, 0x00, 0x1E, 0xF0, 0xD1, 0x43, 0x01, 0x00, 0x00, 0x00, 0x80, 0xFF, 0xFF, 0xFF, 0xFF, 0xFF, 0xFF, 0xFF, 0x0A, 0xFC, 0xFF, 0xFF, 0x04, 0x00, 0x00, 0x00, 0x10, 0x00, 0x00, 0x00, 0x00, 0x00, 0x00, 0x00, 0x00, 0x00, 0x00, 0x00, 0x00, 0x00, 0x00, 0x00, 0x00, 0x00, 0x00, 0x00, 0x0A, 0xFC, 0xFF, 0xFF, 0x00, 0x00, 0x00, 0x02, 0x10, 0x00, 0x00, 0x00, 0x05, 0x00, 0x00, 0x00, 0x10, 0x00, 0x00, 0x00, 0x94, 0x00, 0x00, 0x00, 0x01, 0x00, 0x00, 0x00, 0x04, 0x00, 0x00, 0x00, 0x82, 0x00, 0x00, 0x00, 0x73, 0x65, 0x71, 0x75, 0x65, 0x6E, 0x74, 0x69, 0x61, 0x6C, 0x5F, 0x31, 0x2F, 0x71, 0x75, 0x61, 0x6E, 0x74, 0x5F, 0x63, 0x6F, 0x6E, 0x76, 0x32, 0x64, 0x5F, 0x34, 0x2F, 0x42, 0x69, 0x61, 0x73, 0x41, 0x64, 0x64, 0x3B, 0x73, 0x65, 0x71, 0x75, 0x65, 0x6E, 0x74, 0x69, 0x61, 0x6C, 0x5F, 0x31, 0x2F, 0x71, 0x75, 0x61, 0x6E, 0x74, 0x5F, 0x63, 0x6F, 0x6E, 0x76, 0x32, 0x64, 0x5F, 0x34, 0x2F, 0x43, 0x6F, 0x6E, 0x76, 0x32, 0x44, 0x3B, 0x73, 0x65, 0x71, 0x75, 0x65, 0x6E, 0x74, 0x69, 0x61, 0x6C, 0x5F, 0x31, 0x2F, 0x71, 0x75, 0x61, 0x6E, 0x74, 0x5F, 0x63, 0x6F, 0x6E, 0x76, 0x32, 0x64, 0x5F, 0x34, 0x2F, 0x42, 0x69, 0x61, 0x73, 0x41, 0x64, 0x64, 0x2F, 0x52, 0x65, 0x61, 0x64, 0x56, 0x61, 0x72, 0x69, 0x61, 0x62, 0x6C, 0x65, 0x4F, 0x70, 0x2F, 0x72, 0x65, 0x73, 0x6F, 0x75, 0x72, 0x63, 0x65, 0x00, 0x00, 0x00, 0xFD, 0xFF, 0xFF, 0x08, 0x00, 0x00, 0x00, 0x18, 0x00, 0x00, 0x00, 0x04, 0x00, 0x00, 0x00, 0x0F, 0x82, 0x1F, 0x41, 0xC9, 0x44, 0xE5, 0x40, 0x34, 0xB3, 0x16, 0x41, 0x02, 0xDF, 0x0C, 0x41, 0x04, 0x00, 0x00, 0x00, 0x00, 0x00, 0x00, 0x00, 0x00, 0x00, 0x00, 0x00, 0x00, 0x00, 0x00, 0x00, 0x00, 0x00, 0x00, 0x00, 0x00, 0x00, 0x00, 0x00, 0x00, 0x00, 0x00, 0x00, 0x00, 0x00, 0x00, 0x00, 0x00, 0x00, 0x00, 0x00, 0x00, 0x00, 0x00, 0x00, 0x16, 0xFD, 0xFF, 0xFF, 0x04, 0x00, 0x00, 0x00, 0x24, 0x00, 0x00, 0x00, 0xCD, 0x67, 0xE8, 0x81, 0xEC, 0x97, 0xEA, 0xC1, 0x4C, 0x9C, 0x5F, 0xC9, 0x4E, 0xD5, 0x81, 0x22, 0x47, 0x3F, 0xEC, 0x2E, 0xDF, 0xBD, 0x46, 0x37, 0x3E, 0x81, 0x4E, 0xF4, 0x0A, 0x55, 0x33, 0xB9, 0x81, 0x44, 0x1E, 0x3C, 0x2A, 0xFD, 0xFF, 0xFF, 0x00, 0x00, 0x00, 0x09, 0x10, 0x00, 0x00, 0x00, 0x04, 0x00, 0x00, 0x00, 0x1C, 0x00, 0x00, 0x00, 0x8C, 0x00, 0x00, 0x00, 0x04, 0x00, 0x00, 0x00, 0x04, 0x00, 0x00, 0x00, 0x03, 0x00, 0x00, 0x00, 0x03, 0x00, 0x00, 0x00, 0x01, 0x00, 0x00, 0x00, 0x6F, 0x00, 0x00, 0x00, 0x73, 0x65, 0x71, 0x75, 0x65, 0x6E, 0x74, 0x69, 0x61, 0x6C, 0x5F, 0x31, 0x2F, 0x71, 0x75, 0x61, 0x6E, 0x74, 0x5F, 0x63, 0x6F, 0x6E, 0x76, 0x32, 0x64, 0x5F, 0x34, 0x2F, 0x43, 0x6F, 0x6E, 0x76, 0x32, 0x44, 0x3B, 0x73, 0x65, 0x71, 0x75, 0x65, 0x6E, 0x74, 0x69, 0x61, 0x6C, 0x5F, 0x31, 0x2F, 0x71, 0x75, 0x61, 0x6E, 0x74, 0x5F, 0x63, 0x6F, 0x6E, 0x76, 0x32, 0x64, 0x5F, 0x34, 0x2F, 0x4C, 0x61, 0x73, 0x74, 0x56, 0x61, 0x6C, 0x75, 0x65, 0x51, 0x75, 0x61, 0x6E, 0x74, 0x2F, 0x46, 0x61, 0x6B, 0x65, 0x51, 0x75, 0x61, 0x6E, 0x74, 0x57, 0x69, 0x74, 0x68, 0x4D, 0x69, 0x6E, 0x4D, 0x61, 0x78, 0x56, 0x61, 0x72, 0x73, 0x50, 0x65, 0x72, 0x43, 0x68, 0x61, 0x6E, 0x6E, 0x65, 0x6C, 0x00, 0x18, 0xFE, 0xFF, 0xFF, 0x08, 0x00, 0x00, 0x00, 0x18, 0x00, 0x00, 0x00, 0x04, 0x00, 0x00, 0x00, 0x03, 0xE6, 0x2F, 0x3B, 0xD5, 0xD3, 0xFC, 0x3A, 0x75, 0x2F, 0x26, 0x3B, 0xB4, 0x58, 0x1B, 0x3B, 0x04, 0x00, 0x00, 0x00, 0x00, 0x00, 0x00, 0x00, 0x00, 0x00, 0x00, 0x00, 0x00, 0x00, 0x00, 0x00, 0x00, 0x00, 0x00, 0x00, 0x00, 0x00, 0x00, 0x00, 0x00, 0x00, 0x00, 0x00, 0x00, 0x00, 0x00, 0x00, 0x00, 0x00, 0x00, 0x00, 0x00, 0x00, 0x0A, 0x00, 0x0C, 0x00, 0x00, 0x00, 0x04, 0x00, 0x08, 0x00, 0x0A, 0x00, 0x00, 0x00, 0x10, 0x00, 0x00, 0x00, 0x04, 0x00, 0x00, 0x00, 0x01, 0x00, 0x00, 0x00, 0x02, 0x00, 0x00, 0x00, 0x01, 0x00, 0x00, 0x00, 0x00, 0x00, 0x00, 0x00, 0x0C, 0x00, 0x10, 0x00, 0x0B, 0x00, 0x00, 0x00, 0x0C, 0x00, 0x04, 0x00, 0x0C, 0x00, 0x00, 0x00, 0x72, 0x00, 0x00, 0x00, 0x00, 0x00, 0x00, 0x72, 0x01, 0x00, 0x00, 0x00, 0x14, 0x00, 0x1C, 0x00, 0x08, 0x00, 0x07, 0x00, 0x0C, 0x00, 0x10, 0x00, 0x14, 0x00, 0x00, 0x00, 0x00, 0x00, 0x18, 0x00, 0x14, 0x00, 0x00, 0x00, 0x00, 0x00, 0x00, 0x09, 0x14, 0x00, 0x00, 0x00, 0x03, 0x00, 0x00, 0x00, 0x34, 0x00, 0x00, 0x00, 0x44, 0x01, 0x00, 0x00, 0x18, 0x00, 0x00, 0x00, 0x04, 0x00, 0x00, 0x00, 0x01, 0x00, 0x00, 0x00, 0x21, 0x00, 0x00, 0x00, 0x01, 0x01, 0x00, 0x00, 0x01, 0x00, 0x00, 0x00, 0x04, 0x00, 0x00, 0x00, 0xFF, 0xFF, 0xFF, 0xFF, 0x21, 0x00, 0x00, 0x00, 0x01, 0x01, 0x00, 0x00, 0x01, 0x00, 0x00, 0x00, 0x03, 0x01, 0x00, 0x00, 0x73, 0x65, 0x71, 0x75, 0x65, 0x6E, 0x74, 0x69, 0x61, 0x6C, 0x5F, 0x31, 0x2F, 0x71, 0x75, 0x61, 0x6E, 0x74, 0x69, 0x7A, 0x65, 0x5F, 0x6C, 0x61, 0x79, 0x65, 0x72, 0x2F, 0x41, 0x6C, 0x6C, 0x56, 0x61, 0x6C, 0x75, 0x65, 0x73, 0x51, 0x75, 0x61, 0x6E, 0x74, 0x69, 0x7A, 0x65, 0x2F, 0x46, 0x61, 0x6B, 0x65, 0x51, 0x75, 0x61, 0x6E, 0x74, 0x57, 0x69, 0x74, 0x68, 0x4D, 0x69, 0x6E, 0x4D, 0x61, 0x78, 0x56, 0x61, 0x72, 0x73, 0x3B, 0x73, 0x65, 0x71, 0x75, 0x65, 0x6E, 0x74, 0x69, 0x61, 0x6C, 0x5F, 0x31, 0x2F, 0x71, 0x75, 0x61, 0x6E, 0x74, 0x69, 0x7A, 0x65, 0x5F, 0x6C, 0x61, 0x79, 0x65, 0x72, 0x2F, 0x41, 0x6C, 0x6C, 0x56, 0x61, 0x6C, 0x75, 0x65, 0x73, 0x51, 0x75, 0x61, 0x6E, 0x74, 0x69, 0x7A, 0x65, 0x2F, 0x46, 0x61, 0x6B, 0x65, 0x51, 0x75, 0x61, 0x6E, 0x74, 0x57, 0x69, 0x74, 0x68, 0x4D, 0x69, 0x6E, 0x4D, 0x61, 0x78, 0x56, 0x61, 0x72, 0x73, 0x2F, 0x52, 0x65, 0x61, 0x64, 0x56, 0x61, 0x72, 0x69, 0x61, 0x62, 0x6C, 0x65, 0x4F, 0x70, 0x2F, 0x72, 0x65, 0x73, 0x6F, 0x75, 0x72, 0x63, 0x65, 0x3B, 0x73, 0x65, 0x71, 0x75, 0x65, 0x6E, 0x74, 0x69, 0x61, 0x6C, 0x5F, 0x31, 0x2F, 0x71, 0x75, 0x61, 0x6E, 0x74, 0x69, 0x7A, 0x65, 0x5F, 0x6C, 0x61, 0x79, 0x65, 0x72, 0x2F, 0x41, 0x6C, 0x6C, 0x56, 0x61, 0x6C, 0x75, 0x65, 0x73, 0x51, 0x75, 0x61, 0x6E, 0x74, 0x69, 0x7A, 0x65, 0x2F, 0x46, 0x61, 0x6B, 0x65, 0x51, 0x75, 0x61, 0x6E, 0x74, 0x57, 0x69, 0x74, 0x68, 0x4D, 0x69, 0x6E, 0x4D, 0x61, 0x78, 0x56, 0x61, 0x72, 0x73, 0x2F, 0x52, 0x65, 0x61, 0x64, 0x56, 0x61, 0x72, 0x69, 0x61, 0x62, 0x6C, 0x65, 0x4F, 0x70, 0x5F, 0x31, 0x2F, 0x72, 0x65, 0x73, 0x6F, 0x75, 0x72, 0x63, 0x65, 0x00, 0x0C, 0x00, 0x0C, 0x00, 0x00, 0x00, 0x00, 0x00, 0x04, 0x00, 0x08, 0x00, 0x0C, 0x00, 0x00, 0x00, 0x08, 0x00, 0x00, 0x00, 0x0C, 0x00, 0x00, 0x00, 0x01, 0x00, 0x00, 0x00, 0x46, 0x25, 0x68, 0x45, 0x01, 0x00, 0x00, 0x00, 0x80, 0xFF, 0xFF, 0xFF, 0xFF, 0xFF, 0xFF, 0xFF, 0x00, 0x00, 0x00, 0x00, 0x00, 0x00, 0x06, 0x00, 0x08, 0x00, 0x04, 0x00, 0x06, 0x00, 0x00, 0x00, 0x04, 0x00, 0x00, 0x00, 0x08, 0x00, 0x00, 0x00, 0xFF, 0xFF, 0xFF, 0xFF, 0x30, 0x03, 0x00, 0x00, 0x00, 0x00, 0x0E, 0x00, 0x18, 0x00, 0x08, 0x00, 0x07, 0x00, 0x0C, 0x00, 0x10, 0x00, 0x14, 0x00, 0x0E, 0x00, 0x00, 0x00, 0x00, 0x00, 0x00, 0x02, 0x10, 0x00, 0x00, 0x00, 0x02, 0x00, 0x00, 0x00, 0x10, 0x00, 0x00, 0x00, 0x34, 0x00, 0x00, 0x00, 0x01, 0x00, 0x00, 0x00, 0x02, 0x00, 0x00, 0x00, 0x22, 0x00, 0x00, 0x00, 0x73, 0x65, 0x71, 0x75, 0x65, 0x6E, 0x74, 0x69, 0x61, 0x6C, 0x5F, 0x31, 0x2F, 0x71, 0x75, 0x61, 0x6E, 0x74, 0x5F, 0x66, 0x6C, 0x61, 0x74, 0x74, 0x65, 0x6E, 0x5F, 0x31, 0x2F, 0x43, 0x6F, 0x6E, 0x73, 0x74, 0x00, 0x00, 0x98, 0xFF, 0xFF, 0xFF, 0x14, 0x00, 0x18, 0x00, 0x04, 0x00, 0x00, 0x00, 0x08, 0x00, 0x0C, 0x00, 0x10, 0x00, 0x00, 0x00, 0x00, 0x00, 0x14, 0x00, 0x14, 0x00, 0x00, 0x00, 0x14, 0x00, 0x00, 0x00, 0x01, 0x00, 0x00, 0x00, 0x34, 0x00, 0x00, 0x00, 0x3C, 0x00, 0x00, 0x00, 0x18, 0x00, 0x00, 0x00, 0x04, 0x00, 0x00, 0x00, 0x01, 0x00, 0x00, 0x00, 0x21, 0x00, 0x00, 0x00, 0x01, 0x01, 0x00, 0x00, 0x01, 0x00, 0x00, 0x00, 0x04, 0x00, 0x00, 0x00, 0xFF, 0xFF, 0xFF, 0xFF, 0x21, 0x00, 0x00, 0x00, 0x01, 0x01, 0x00, 0x00, 0x01, 0x00, 0x00, 0x00, 0x07, 0x00, 0x00, 0x00, 0x69, 0x6E, 0x70, 0x75, 0x74, 0x5F, 0x32, 0x00, 0xFC, 0xFF, 0xFF, 0xFF, 0x04, 0x00, 0x04, 0x00, 0x04, 0x00, 0x00, 0x00
};
unsigned int model_tflite_len = 15096;